#version: 0.2
č Ċ
Ġ s
Ġ c
t o
Ġ d
e r
Ġ a
o n
Ġ p
r e
t a
e n
i n
Ġ l
Ġ m
t e
r a
Ġ e
Ġd i
a n
r i
Ġ n
h e
l l
s s
u n
i a
t i
Ġ i
Ġc he
Ġ v
q u
r o
Ġ f
o r
o s
o l
Ġ qu
Ġ un
Ġ in
a r
Ġd e
Ġ h
i o
c c
Ġ t
o m
a l
Ġp er
Ã ¨
v a
Ġl a
Ġ g
t to
d o
ll a
Ġi l
m o
Ġ Ã¨
e s
Ġs u
Ġc on
er e
l i
Ġs i
v e
o i
Ġn on
d i
Ġs e
Ġ ri
s i
Ġ b
Ġh a
n o
er a
a to
a re
Ġl e
m i
on o
c h
t ra
en te
Ġn e
b b
Ġd a
Ġ o
s o
c e
c i
Ġm i
l e
Ġc a
u i
d e
m a
z a
Ġm a
c o
ss o
m p
z i
Ġa n
Ġa l
Ġc om
Ã ł
Ġp i
an o
Ġp o
Ã ©
ia mo
ta n
d a
v o
c a
on e
s a
Ġun a
Ġh o
h i
ss i
g g
Ġt u
Ġc os
t ro
p p
c he
Ġm e
Ġs ono
v i
e l
Ġ M
Ġv i
Ġ L
ta to
Ġp ro
p i
ch Ã©
t t
Ã ¹
Ġd o
ll e
Ġ S
an do
Ġf a
u to
b i
m ente
Ã ¬
Ġ H
Ġqu es
ss e
t ta
Ġp a
er o
ss a
Ã ²
t ti
s c
ll o
m e
in a
g n
Ġp re
Ġde l
in g
Ġl o
t re
l a
Ġpi Ã¹
t te
g l
m b
Ġs o
Ġa v
p o
u o
Ġ D
er i
Ġ era
ol o
Ġcom e
s p
Ġc i
en ti
ra n
Ġ u
en to
Ġ C
Ġv ol
g li
en e
f f
Ġ A
Ġ re
Ġ "
s e
zi one
Ġ E
Ġ I
Ġde lla
Ġg i
p er
s to
t Ãł
Ġv oi
Ġl ui
l o
Ġt ra
Ġi o
Ġg li
t u
p a
Ġqu al
Ġ P
en za
Ġcos Ã¬
Ġ V
Ġ te
Ġs ta
in o
c on
Ġn oi
Ġper chÃ©
Ġqu e
Ġa ve
t ri
Ġp ar
Ġ to
in i
Ġ N
s ta
Ġn o
" .
d ere
Ġsu a
Ġs c
Q u
z z
Ġv e
an to
t er
Ġa lla
bb iamo
n e
u c
g i
Ġc hi
g no
Ġe ss
v ano
g o
p e
Ġsu o
Ġ ra
g u
f i
n a
cc h
Ġa cc
Ġs a
or ta
Ġm io
Ġques to
cc hi
Ġc er
on i
p re
Ġqu ando
Ġ -
t h
on a
en do
bb e
an i
ri o
Ġtu tto
ia to
ll i
Ġn os
u r
gg i
z za
Ġs tato
v ol
s ing
Ġm o
os a
tan to
Ġm ia
Ġt ro
bi le
Ġde tto
al e
uc y
ĠM a
Ġf o
mp o
el sing
Ġf in
gl io
Ġf or
Ġb a
Ġfa tto
Ġ ta
Ġp ri
u ra
v er
f e
gn i
Ġess ere
Ġp u
Ġ Qu
d er
on te
Ġc ui
ĠL ucy
g a
r u
ĠH elsing
an d
ĠV an
Ġs ol
es to
Ġc or
Ġdo ve
Ġf i
Ġa ll
mb ra
ĠN on
t en
s ci
Ġm en
ch i
. .
Ġd u
s te
ri a
Ġv en
Ġp en
Ġqu anto
Ġne l
Ġt er
. "
os i
Ġs iamo
Ġa pp
gl ia
u ta
s u
Ġa r
Ġs te
Ġf ar
Ġan che
Ġ J
ĠI l
h a
qu e
co ra
an no
Ġc o
Ġm ol
an ti
Ġ G
Ġne lla
Ġp oi
un a
ar d
Ġan d
gg io
Ġv os
mp re
al i
Ġpri ma
va to
s t
un to
c om
Ġl i
Ġa d
Ġtu tti
Ġpu Ã²
c ato
Ġques ta
Ġa bbiamo
n i
Ġl u
v en
sso re
ol a
Ġsu l
or d
Ġpro p
Ġs tra
fe ssore
b a
Ġqu el
Ġdi re
om ento
Ġs ia
Ġc h
Ġf are
s tan
in e
h o
Ġqu a
Ġse mbra
Ġlo ro
c ia
Ġs p
Ġg ran
Ġs olo
un o
ĠM ina
os to
Ġb ene
Ġg u
Ġle i
? "
Ġ tanto
cc a
Ġ ro
an te
Ġto r
m en
Ġd al
Ġqu i
Ġi mp
Ġcos a
Ġave va
Ġu om
Ġs tan
Ġa mi
or ri
qu i
Ġm ano
f a
tto r
ĠS e
Ġte mpo
Ġt en
Ġb i
Ġvol ta
th an
ona than
Ġb u
Ġgi or
s ti
Ã Ī
Ġn a
os o
c u
Ġa ff
en a
Ġpro fessore
ĠH o
Ġque lla
zi oni
Ġno tte
Ġa i
Ġma i
Ġfo sse
g ui
u l
Ġan cora
er ano
ra to
or to
Ġo cchi
cc ia
v ere
Ġ en
en z
Ġs enza
ar si
Ġda lla
Ġsi gno
e te
m ento
Ġ ti
cch io
! "
r on
Ġv ia
ĠL a
A R
c osa
p ro
d uto
Ġde i
Ġdo po
zz o
Ġmi e
Ġsta ta
Ġ T
Ġv er
Ġun o
Ġca sa
ĠC onte
Ġch ia
Ġn u
Ġde lle
Ġvi sto
ta re
Ġpo te
ĠM i
gn or
Ġs are
Ġm omento
Ġpi e
ĠA r
Ġe ssa
n on
Ġc re
c ol
u re
in u
Ġl un
sp e
Ġp orta
cc o
Ġc ol
Ġa lle
Ġo ra
llo ra
c or
Ġs on
an e
cc e
f or
Ġ R
Ġa bb
Ġo gni
Ġal tri
th ur
va mo
es ta
ĠJ onathan
Ġ B
Ġd or
Ġe d
Ġv a
om e
de sso
k er
Ġs pa
in di
uo re
Ġmen tre
Ġmol to
r mi
m enti
ar mi
Ġg ra
Ġb en
ĠD io
Ġami co
Ġ O
Ġde ll
Ġse mpre
Ġ erano
Ġvol to
Ġ ÃĪ
in c
os ta
Ġpo t
d ente
g ra
Ġpar te
Ġdu e
ar ker
al tro
tu ra
un que
Ġla sc
Ġsi gnor
Ġri sp
Ġc ar
Ġm an
Ġne ss
p ri
ol e
ssi mo
Ġav er
Ġmo do
un i
Ġv o
Ġt re
ia ta
Ġca ra
Ġav re
Ġqual e
cc i
l u
Ġs er
Ġm ani
Ġpo v
Ġcos e
ĠP er
a v
Ġc uore
N on
s tra
Ġvi ta
d u
i l
u sci
Ġsu oi
ĠI n
Ġpar l
p ra
Ġchi esto
g e
p ar
tt en
Ġs enti
an gu
Ġsu lla
pp o
Ġqual cosa
Ġste sso
Ġqua si
Ġstan za
Ġsigno ra
ol i
di to
Ġnos tra
stan te
Ġen tra
ĠAr thur
Ġf uo
Ġle tto
Ġcer to
om i
tt ere
ff i
Ġa llora
es tra
Ġtu tte
or re
Ġh anno
f er
Ġs al
pp ure
Ġprop rio
r Ã²
Ġri ma
bi to
Ġqual che
.. .
Ġs pe
Ġa desso
on do
Ġpo ss
Ġd om
Ġm or
os c
mp i
Ġdo ttor
ĠH arker
Ġnos tro
a ve
t inu
va re
li ce
Ġan da
ssi one
Ġtu tta
e ss
o d
Ġg io
Ġav uto
Ġsc ri
Ġuom ini
Ġ U
si one
bi li
Ġpre so
gu ar
z ia
Ġs co
Ġp unto
Ġf re
Ġal tro
da m
gn a
Ġgior no
angu e
m ato
en d
ar Ãł
Ġpa ro
Ġar ri
e lla
Ġp e
in ato
ĠP oi
o ra
r si
Ġs era
al tra
Ġca pi
tt er
Ġsare bbe
m on
s ia
Ġd on
Ġa per
Ġde ve
Ġsu e
Ġlun go
p era
ss ero
ĠS ono
Ġgi Ãł
Ġgu ard
g ia
r Ãł
u sa
Ġs pi
ri to
Ġin di
cc u
Ġque llo
Ġven i
g ere
Ġ F
Ġc al
on d
Ġgran de
Ġn Ã©
Ġper s
c os
e me
m ma
Ġdi a
os tra
Ġri s
ĠI o
Ġsa pe
Ġf e
Ġvos tra
M a
i mp
l mente
r lo
Ġ W
Ġ or
Ġs or
Ġp ron
es ti
Ġda v
Ġso pra
Ġmen o
Ġpen s
Ġtor n
ta mente
Ġdi sp
Ġcom pi
ĠH a
a pp
Ġri f
Ġri p
ssi bile
ssa i
Ġand ato
gui to
enz io
Ġ ero
Ġs ve
Ġn uo
Ġin t
mo re
Ġsi l
Ġri usci
ĠS i
Ġfin estra
Ġdor mi
Ġs angue
Ġp or
el o
sc io
ĠD I
tu d
Ġchi e
" ,
s ono
z o
bb ia
Ġca so
Ġacc a
Ġuom o
Ġver so
b re
Ġ tan
Ġi stante
Ġper Ã²
Ġsi ete
Ġpo sso
Ġvos tro
Ġson no
z e
Ġdi ce
Ġdo v
Ġfor se
c olo
m ing
Ġs Ã¬
in ce
Ġe vi
al ming
Ġme glio
el d
Ġter ri
od alming
c endo
Ġs arÃł
Ġe sa
Ġf er
Ġave vo
fi eld
Ġsa p
Ġlu ce
en field
Ġsu bito
ma i
Ġu sci
vol e
Ġsol i
ince y
a ria
re n
Ġe sso
an za
Ġtro ppo
Ġsil enzio
a ri
Ġvi c
Ġve dere
Ġter ra
Ġli b
Ġnu lla
t tra
Ġin ter
bb ene
de te
Ġpre n
ĠMa dam
Ġpie di
u om
w ard
Ġd ato
Ġa ssai
Ġp ia
de va
ĠL e
Ġchi u
Ġtro vato
Ġpov era
Ġfuo ri
I O
ta no
Ġde vo
es i
Ġpar ti
T T
e tro
o h
v ero
Ġ r
to r
Ġi m
qu a
al a
si d
Ġan i
Ġso tto
Ġave te
pre so
Ġa m
Ġde ci
ch ia
Ġca po
Ġfin chÃ©
com e
Ġmie i
E L
t tato
Ġpa ura
E R
f o
Ġne ll
Ġto no
orri s
e vo
g io
Ġs ca
an che
Ġt ran
Ġle gg
Ġgi u
Ġfin e
Ġand are
Ġsembra va
AR IO
d re
m an
r di
v ia
Ġf u
es t
Ġb o
zi e
Ġques ti
ĠG odalming
a tto
p li
r onte
u ti
z ato
Ġf ino
cc io
Ġapp ena
ĠR enfield
O R
c are
e tto
s tato
Ġs en
in to
Ġcon tro
Ġcon tinu
Ġo re
uo go
pre n
ĠSe ward
oh n
z io
Ġa spe
Ġb ra
de l
Ġpi cc
Ġsol e
Ġlasc ia
Ġrima sto
Ġmor te
I l
g hi
Ġb e
Ġpo tre
ĠE ra
Ġta le
Ġpot uto
c er
f u
v vi
ro re
ar lo
di re
mb re
ĠQu incey
Ġvo ce
u tto
ti vo
Ġal tre
gg ia
ĠD o
a c
Ġe si
Ġcon to
ĠM orris
eri to
ff er
Ġqual i
Ġta rdi
ĠJ ohn
Ġness uno
Ġdia rio
s ca
Ġa tten
Ġn i
bb ra
Ġda ll
tta mente
per chÃ©
ĠV oi
P er
c io
s ce
Ġl Ãł
ri e
Ġla vo
Ġg ri
me sso
Ġess er
Ġbi an
Ġe cco
Ġper i
Ġg e
Ġsi mi
ce va
Ġal c
cch ia
Ġste ssa
guar do
u scio
Ġp orto
Ġe sp
Ġin si
Ġca ro
ssi ma
Ġtor na
Ġposs iamo
c ura
Ġd ol
er Ã²
Ġp es
ra re
al mente
Ġca m
Ġpo co
Ġpre sto
ran te
Ġre pli
ven i
s pi
Ġa ss
Ġte sta
zz ato
a zione
m in
m are
Ġs os
Ġa ssi
Ġf ronte
es e
Ġse tte
Ġne ppure
Ġca va
zi ente
ĠL ord
Ġci r
ĠQu ando
Ġbi so
inc iato
dente mente
ttra ver
L a
a d
b o
Ġc en
an da
Ġse bbene
Ġan zi
Ġci Ã²
ĠP o
Ġra gi
vol to
Ġsol tanto
Ġpen si
su l
Ġabb ia
ĠU n
D I
a cc
d endo
d uta
g re
s er
s co
Ġm ente
Ġe ssi
Ġla bbra
Ġsu lle
Ġne lle
Ġma tt
ĠL ui
Ġdo bbiamo
Ġpa ss
Ġque ll
ggi un
Ġparl are
Ġterri bile
uom o
a ll
Ġc e
Ġp un
en o
Ġde sid
ve llo
de a
mp lice
Ġme sso
mb a
Ġre n
Ġre sta
Ġnos tri
men o
I N
d uc
Ġs Ã©
Ġa c
Ġl Ã¬
Ġl uogo
Ġv ero
es a
ch io
Ġu l
gli e
Ġdon na
I n
z zi
ta ta
an ce
ri ma
ro vvi
os tro
Ġqu indi
Ġma rito
Ġques te
tta re
sc ri
olo re
Ġve cchio
Ġfar lo
Ġrepli cato
! ".
d ato
m ano
p en
u Ã²
Ġs guardo
Ġm ale
un e
Ġcon osc
Ġb al
Ġca sse
vi c
ttor no
Ġveni re
Ġsette mbre
d or
m ane
r la
ti ca
Ġf ini
Ġri es
Ġque lle
cch Ã©
ĠO h
Ġrisp osto
ond ra
Ġor mai
Ġtran qui
Ġni ente
M i
g ato
s are
Ġ ru
Ġs con
Ġc u
in fer
Ġm orta
qu ando
Ġcon os
Ġne ce
Ġfor za
Ġdu bb
Ġven uto
Ġrisp osta
Ġdol ce
DI ARIO
b u
d ia
f on
o ccu
in t
Ġin ten
mi co
Ġca ssa
de tto
Ġpre s
Ġpre ci
Ġsta va
der mi
stan za
Ġna ve
Ġavre bbe
a bbiamo
Ġs t
Ġd unque
ta le
Ġm ar
te mi
ĠS E
Ġsta ti
Ġsc or
Ġnos tre
Ġstra da
Ġparo le
mon to
D o
d io
e tti
v ento
en i
Ġl una
Ġe s
ar da
ar la
tan te
ĠL ondra
ĠD i
Ġu dito
Ġvol te
Ġacc anto
Ġtro va
and osi
Ġdove te
ste llo
Ġlu pi
Ġbu on
ul ti
Ġparo la
Ġbiso gno
H o
O TT
b ra
d enza
g he
r ci
Ġs tud
Ġa gi
on tan
Ġe gli
Ġf ra
or do
ar ci
Ġcon v
Ġle tt
Ġcom p
Ġcom inciato
ĠA l
cch iata
gni fi
ĠG li
Ġcar ro
Ġinsi eme
OTT OR
W AR
i Ã¹
Ġ ord
Ġp are
Ġm are
Ġm ondo
Ġdi ffi
Ġdi cendo
Ġg ia
Ġse con
Ġse guito
Ġav ere
ĠD EL
ĠC on
ĠC ome
Ġgi un
Ġcer vello
orri so
Ġtorn ato
Ġdormi re
Ġbo cca
Ġcava lli
ĠSE WAR
ĠSEWAR D
' ,
R A
S ono
Ġa g
Ġp osto
qu al
Ġde gli
Ġt ri
Ġri ve
Ġne i
Ġne bbia
Ġca pp
tan do
Ġtu r
Ġba mb
Ġpri mo
Ġstra no
Ġgior ni
Ġsignor ina
Ġlavo ro
c ri
l are
Ġs b
Ġd arsi
en tro
Ġm u
ra ta
Ġri cor
de lla
Ġpa lli
Ġpa ziente
Ġso lle
ĠD OTTOR
ĠN oi
pre sa
and ato
Ġaff er
Ġlasc iato
ess ere
Ġaper to
cos Ã¬
Ġsimi le
O h
Ġa ttraver
ri re
ol to
Ġin f
cc ato
Ġg en
es o
Ġcon se
Ġse mplice
Ġo tto
Ġvi sta
st ru
Ġpov ero
Ġdav vero
Ġsve glia
Ġchiu so
? ".
l ui
n oi
u a
u m
an ta
va mente
Ġg enti
es te
ci tÃł
Ġvi si
ran no
Ġtra monto
Ġco ra
Ġami ci
Ġgio v
Ġdav anti
a i
i mpre
r ere
s tu
Ġ on
Ġs per
Ġs orta
Ġs for
Ġp ol
Ġe sse
cc ome
es pre
Ġpo ssa
Ġques t
tti mo
Ġpre pa
se guito
Ġtra tta
mpo ssibile
men tato
enz e
Ġsigno re
Ġpers ino
Ġsap ere
Ġlett era
V an
c re
i dea
m mo
in s
in cia
Ġv eri
qu anto
Ġde b
io ri
Ġg ro
tto re
bb a
Ġda lle
ma ta
mp a
Ġme zzo
sc or
mb o
Ġpar so
Ġsc om
vol ta
Ġli e
Ġgran di
Ġna sc
Ġabb a
Ġnuo vo
Ġsoli to
Ġnece ssa
Ġdubb io
J onathan
m or
s tri
s ter
t tro
Ġs ci
Ġs ento
er si
ta r
ta te
en tre
Ġm ostra
de vo
gl iato
Ġvol ete
Ġsta te
Ġser vi
Ġspi e
Ġpens are
espre ssione
K ER
c uno
u te
v oi
Ġd olore
Ġa bi
Ġa tte
Ġa pri
Ġa ttorno
ti co
Ġse gui
Ġb ru
bb ero
Ġpo ssibile
sa zione
Ġvol e
ĠA n
ggi unto
der si
Ġco per
Ġvia ggio
ave va
rovvi so
Ġotto bre
S e
b y
c ere
c lu
e llo
g are
o re
s on
Ġ os
Ġs orriso
on tÃł
re mo
Ġe sc
ol tre
Ġcon f
Ġri preso
Ġca stello
pp a
Ġpro va
pi to
Ġfa tta
ĠH AR
me ttere
ina ta
gn ato
ĠC i
Ġque lli
Ġfor te
Ġmol te
Ġmol ti
Ġpoi chÃ©
ven uto
Ġna tura
Ġarri va
Ġint ere
Ġdov uto
Ġevi dentemente
Ġdeci so
ĠHAR KER
e di
t by
Ġ z
Ġs tre
er Ãł
en tra
an de
Ġun i
hi tby
Ġvi ene
pi Ã¹
Ġgi Ã¹
Ġave sse
Ġra pi
fa tti
cu ro
Ġaff atto
Ġpote te
col tÃł
Ġfuo co
Ġposs ono
Ġdon ne
Ġacca duto
Ġpren dere
V oi
c iato
l en
t ui
Ġd are
re bbe
ta zione
Ġdi co
an g
an n
es ten
Ġda i
le gra
Ġca usa
Ġal zato
bi lmente
Ġpre occu
ĠC he
Ġre sto
Ġave vano
zz e
na ta
ola zione
Ġbu io
Ġness una
Ġavre i
Ġdisp era
A N
H elsing
d ono
f ini
i e
l to
m io
Ġs to
Ġs ing
ta ti
en so
en da
te mpo
Ġdi etro
Ġin con
Ġg ola
Ġo pera
zi on
Ġpo ter
ca ta
se mbra
Ġno ti
Ġno tato
gi or
Ġra cc
Ġdu rante
Ġste ssi
cu la
Ġchia ve
Ġsenti to
Ġsape te
Ġcam era
Ġul ti
infer mi
A r
L ucy
c ar
h anno
k ins
o pera
s mo
u lla
Ġs ali
Ġd entro
on tano
ti le
Ġi eri
cc he
ve ce
Ġme di
sc ia
tu tto
Qu ando
Ġcer te
Ġtro vare
ver ti
Ġpu re
ĠQu esto
Ġcor po
Ġten er
Ġspa lle
Ġentra re
Ġrif le
tud ine
Ġvic ino
duc ia
Ġsper anza
a spe
f in
m ani
t ero
Ġm os
Ġm al
ra cula
qu esto
Ġf ru
ol uta
Ġg esto
do sso
Ġsu ss
Ġsi gnifi
Ġo ggi
Ġpi an
vi mento
Ġpro ce
Ġso ff
Ġav vic
eri enza
ĠC ar
Ġto mba
ĠN e
Ġfor ma
Ġco llo
Ġli mi
Ġgu arda
guar da
Ġpens ato
Ġpicc olo
IN A
esten ra
l ato
p rio
in ter
Ġl an
Ġe ff
Ġdi menti
an cora
ri tto
Ġv ento
Ġg a
ve te
Ġb ella
Ġo ccu
Ġal meno
Ġcom pa
tt ura
Ġfa ceva
me d
Ġpre da
Ġ- ,
Ġtro v
Ġfo ssero
Ġcor ri
su a
Ġar re
col i
ĠR i
Ġman gia
sia si
imp rovviso
Ġpor tato
Ġdeb ole
N o
O N
d ini
g ono
m ia
m bi
o cchi
u me
v enti
Ġs ba
Ġc olo
Ġd enti
Ġp ran
in ti
Ġe cce
an z
ss Ãł
Ġf ia
Ġf eri
ar g
es p
Ġsi ccome
Ġri tor
mi tero
Ġne ve
ci le
ca ti
Ġcos ta
vi tÃł
Ġpro te
ĠS ta
Ġfa ccia
me tter
Ġpre ce
la va
mb e
ran d
ĠA ve
sta ta
Ġra ga
cchi e
Ġpen sa
mpi ro
Ġfre d
end osi
Ġfe lice
Ġtan ta
ren te
Ġpotre bbe
Ġperi colo
Ġcir ca
Ġmatt ino
ggiun gere
Ġfini to
Ġstud io
a m
a lla
d on
d iamo
e i
e ter
m ale
n do
o cchio
r vi
s ato
er mi
Ġa gli
Ġdi sc
ri tÃł
Ġi mpossibile
Ġv uo
Ġf un
os e
al ba
Ġsi ano
di zioni
Ġb ordo
era re
mi to
Ġmi glio
da mente
ca te
tt Ãł
Ġpa ri
Ġpa ssa
po te
Ġera vamo
Ġci elo
se gui
Ġqual cuno
Ġcer ta
Ġmo tivo
Ġcor so
Ġpen so
Ġimp a
Ġai uta
ĠO ra
Ġcar te
Ġanda ta
bili tÃł
Ġcompi to
man a
Ġragi one
med iata
C on
C he
S i
a ff
d enti
g ente
g endo
l un
m omento
p no
s iamo
s uo
s enti
Ġa ma
en ta
Ġm inu
Ġdi ver
an a
ri vi
ti vi
Ġi r
or tato
om enti
Ġsu pp
Ġo bbe
ci uto
Ġma ggio
Ġan ni
Ġpo chi
Ġme tter
me ssa
Ġre spi
Ġmo glie
osi to
Ġqua ttro
Ġfre tta
Ġaper ta
Ġpron to
Ġinter ro
Ġr in
ĠDo po
veni re
Ġpensi ero
Ġsecon do
infermi ere
d are
f are
i ll
o cchiata
s tre
Ġ oltre
Ġs ti
Ġc ri
Ġc ro
Ġi mpre
os Ã¬
Ġin g
Ġin te
Ġin vece
ar ti
Ġcon ce
Ġsi tu
ve glia
Ġse gre
Ġri sul
Ġca ri
Ġma dre
mp io
Ġan cor
Ġpi eno
ca va
Ġpro cura
Ġpa sso
Ġav ve
sp on
per to
Ġve der
gno ra
Ġsa pp
cchi ere
ani ma
ggi or
Ġfi gu
Ġfi ducia
fa tto
Ġen er
Ġpote va
Ġdor me
Ġspa vento
Ġness un
Ġanda ti
Ġscri tto
Ġpers ona
mma g
ĠW estenra
Ġani ma
Ġries co
Ġag osto
Ġgiov ane
Ġnecessa rio
Ar thur
I o
P iÃ¹
T H
a ss
a va
d ur
m oni
p orta
r ing
s tro
t ina
Ġ er
Ġs ce
Ġa tt
Ġp os
ia sc
ar ri
ar le
Ġper fe
Ġcon clu
di ta
Ġse l
Ġo pp
Ġcom incia
Ġvi so
Ġso ggiunto
Ġav anti
ĠD racula
Ġtra s
Ġtra tto
Ġqual siasi
Ġba ra
Ġsol a
ĠT u
Ġpote vo
Ġparl ato
Ġgio ia
Ġpe ggio
Ġguard ia
Ġguard ato
Ġsor presa
Ġtorn are
Ġbian ca
Ġcen no
Ġon de
Ġvole va
gior no
c ando
d om
g ro
i m
m er
p ia
s ol
t ere
Ġc ura
Ġc ena
Ġa gg
Ġa llo
in are
Ġl ontano
Ġm ala
un ti
ti tui
Ġf iori
ol are
Ġin fer
ar na
Ġg o
Ġcon t
Ġse duto
Ġb re
Ġb el
are n
ch ino
Ġo cc
Ġmi st
Ġal to
tan d
ĠM INA
Ġdo vere
ran do
ĠC a
Ġvol uto
ff a
ĠA bbiamo
ĠE ro
Ġgi unto
Ġte legra
tri o
Ġacc e
ona ta
ĠQu esta
ĠQu indi
ĠG i
men ta
pro fessore
Ġcol po
pri ma
par ti
end omi
Ġindi etro
Ġfe de
Ġim mo
Ġlegg ere
Ġcontinu ato
ac qua
Ġcarro zza
Ġattraver so
oluta mente
Ġpran zo
mediata mente
C onte
C ome
P oi
c ola
f re
m ina
o ro
r gli
s enza
Ġ orri
Ġc iasc
Ġdi stru
Ġf anno
Ġf ondo
Ġt ene
do ve
Ġsu ll
Ġri ca
si l
Ġne llo
de ll
Ġpi ena
da te
sa pe
vi sto
el a
Ġfa tti
Ġci mitero
Ġre c
ĠP uÃ²
Ġque i
zz are
Ġve cchia
gu ard
Ġcer cato
Ġba sta
osi zione
ali tÃł
Ġai uto
ĠU na
ĠW hitby
Ġcompi ere
Ġpes ante
Ġdesid era
Ġconos ce
ulti ma
Ġtri ste
Ġritor no
S T
m orta
r le
u ma
v olo
Ġs om
er lo
Ġp an
en ne
Ġm orto
Ġdi c
ss ato
Ġv u
ro ri
Ġin s
ar Ã²
es tre
Ġsu per
Ġsu cce
Ġcon ta
Ġri ce
si der
era mente
mi tÃł
tra n
Ġo v
Ġan n
Ġpi ano
gg ere
ĠL o
me tte
eri e
Ġvol ontÃł
Ġgi ro
Ġte me
Ġte mpi
con tinu
Ġve de
ter ra
and omi
Ġven uta
Ġlu po
Ġbu ona
Ġdom ande
Ġcapi re
Ġrif eri
Ġnuo va
Ġriusci to
Ġusci to
Ġpia ce
Ġbra ccia
Ġassi eme
Ġpass ato
Ġpreci pi
impre ssione
Ġracc on
Ġmos che
Ġsitu azione
Ġsel va
A n
E TT
a trio
e t
f ia
f ondo
m ere
p ero
p uÃ²
r ne
t una
v uto
w kins
Ġ 1
er vi
Ġa more
Ġp om
te llo
Ġdi s
Ġi pno
Ġin fatti
Ġsu i
Ġse gno
Ġle ttere
tra re
Ġne anche
Ġmi s
ma ti
Ġal za
tt uto
Ġfa cc
Ġfa ce
Ġpa ce
Ġre so
ĠV i
Ġte mo
Ġte mp
ĠN o
vol a
Ġta l
Ġcor rente
que lla
ord ina
Ġprop ria
Ġstra ni
Ġsembra vano
Ġro sso
Ġgior nata
ĠAr t
ffi ci
Ġdom ani
Ġpron un
Ġchie do
Ġesa ttamente
Ġalc uni
Ġtorna ti
Ġdiffi coltÃł
Ġbamb ino
Ġsuss ur
) .
H arker
a te
a tt
b ene
c ui
e mo
e vi
h io
m u
m inato
s ene
Ġc in
Ġc ance
Ġp oli
en sa
in ci
Ġe cc
Ġdi rmi
an co
Ġn ome
qu esta
va ta
Ġg ui
Ġg ino
ve dere
Ġri tro
Ġri chi
si gnora
era vi
ch ina
ui to
Ġan ch
Ġcom mentato
gg e
ĠM entre
Ġpro fon
Ġdo ttore
Ġfa ccio
Ġso ffer
ĠD evo
ĠC om
ĠC osÃ¬
lo ro
Ġave ssi
Ġsc orto
Ġve do
fi cio
Ġcer ti
Ġmo rire
Ġfor ze
Ġter rore
Ġapp ari
Ġvos tre
Ġvos tri
Ġprop osito
cia ta
fa x
Ġabb and
du e
Ġarri vare
Ġcapi tano
Ġsape vo
Ġr ing
cri me
Ġpol vere
Ġscom par
Ġmangia re
E ra
P o
Q ui
b eri
c ano
o ggi
o gni
p le
u so
Ġs fu
to n
Ġa tro
Ġp io
Ġp ene
Ġp ur
re i
ta va
Ġm omenti
Ġv elo
Ġf an
Ġqu anti
om pa
Ġper duto
Ġla crime
Ġg ente
Ġg ru
Ġcon te
li b
li tÃł
di zione
Ġse tti
Ġri uni
Ġri guarda
si oni
ch erÃ²
Ġo h
Ġmi ca
Ġca mb
Ġma ggior
Ġan g
Ġan si
Ġcom unque
ano tte
da ta
Ġpa dre
la mato
Ġci ttÃł
ĠC re
ĠP a
ĠV arna
Ġsta re
con osc
ne ll
vol i
Ġfo ssi
Ġdove va
Ġfi ume
Ġprop rie
Ġsembra to
sti to
Ġpot ere
Ġvo glio
Ġsenti vo
orre i
Ġanda te
Ġtutta via
Ġscri vere
ĠHa wkins
Ġrip os
ĠDI ARIO
uom ini
Ġpia cere
Ġmu ro
Ġaffer rato
Ġgenti le
Ġcora ggi
ĠCar fax
Ġminu ti
Ġsapp iamo
Ġfigu ra
a tura
a tten
a mico
b e
c ord
i cca
m one
m ini
m ine
o tto
p oi
Ġs chi
on go
Ġm eravi
ra ti
Ġe qui
ll y
ar gli
Ġde llo
Ġt Ã¨
do io
di ri
di tÃł
di lly
Ġse i
si gnor
so pra
ci e
le i
ca sa
hi m
Ġme mo
ĠS to
Ġfa cendo
Ġpa zzo
eri ggio
ĠC hi
Ġre gi
Ġtra sc
tu tti
Ġba sso
Ġba tte
Ġcor te
su lla
Ġand iamo
Ġad dosso
Ġro ssa
qui e
Ġten tato
Ġsare i
Ġcre do
Ġlun ga
Ġspa ven
Ġgra ve
ĠPer chÃ©
Ġrima sta
Ġgiu sto
pren dere
Ġaspe ttare
cer ca
Per chÃ©
Ġesp erienza
Ġresta re
Ġcapp ella
Ġsfor zo
Ġatte sa
Ġciasc uno
icca dilly
A h
D i
a bba
b al
g ran
g enza
i stante
m ol
m me
p ol
u di
Ġ Ġ
Ġc anto
Ġc ane
Ġc olazione
Ġa u
re sso
in ta
Ġl ing
Ġm uo
ra zie
Ġdi ste
Ġv ene
Ġv ali
or dito
Ġin i
Ġin for
al tÃł
Ġper cor
Ġcon dizioni
Ġsi curo
Ġri a
Ġb r
mi cia
Ġme zz
Ġme ttere
Ġpro seguito
Ġpa io
Ġlo c
Ġso gni
gli ere
lo va
Ġtra scor
tu tta
con os
tri ce
Ġto cca
Ġto lto
Ġno ve
Ġacc or
zza ta
Ġfin almente
Ġfor tuna
and are
Ġcor sa
Ġfar si
Ġfar mi
st ere
Ġsp len
Ġimp or
Ġten ere
cu ritÃł
Ġchia vi
Ġcre dete
ĠB i
Ġentra ti
gna ta
Ġdormi to
Ġani me
uti le
Ġaspe tta
Ġsos pe
Ġmatt ina
Ġord ine
Ġsb ar
Ġsolle vato
Ġgen ere
Ġnasc on
Ġnoti zie
Ġproce dere
Ġbre ve
ETT ER
Ġpom eriggio
M ina
a ssi
a bi
c ro
g oi
m endo
o ri
p ato
p osto
p arsi
r oni
s al
t r
t ene
u e
u s
u se
v io
v ono
Ġs tri
Ġc an
to re
Ġd ura
er ci
er la
Ġa tti
Ġa sc
Ġa ttimo
Ġp al
in te
Ġl ar
Ġm ostro
Ġe le
ia le
Ġv era
qu el
os curitÃł
Ġin ca
Ġde sider
Ġsu ono
Ġcon ver
Ġse duta
Ġri e
Ġri ti
Ġri fi
tra to
Ġo gg
ci fi
Ġca pe
de lle
de sse
zi oso
Ġan ti
Ġan sia
Ġcom une
tan ti
Ġme zza
Ġpro ba
tt ur
tt utto
Ġfa te
Ġpa sse
Ġpre go
tte mpo
Ġav verti
ĠD e
ĠA desso
Ġtra ccia
tu re
Ġsta zione
Ġsc en
ne lla
der Ã²
Ġcor re
Ġapp ro
Ġco cchiere
Ġlu glio
Ġaveva mo
Ġti rato
ĠT utto
Ġpote ssi
ĠB u
Ġgra do
Ġgra zie
Ġben i
uni ca
Ġtre no
Ġser ra
ge va
Ġentra to
orre n
Ġmor ti
Ġrip oso
Ġim mediatamente
Ġsen sazione
Ġpicc ola
Ġaltre t
Ġalc un
Ġtranqui lla
Ġtranqui llo
Ġricor do
Ġsemplice mente
Ġcora ggio
Ġveri fi
Ġabba stanza
Ġpreoccu pa
Ġcolo ro
ETTER A
C a
D io
G li
P ro
V i
l osc
n el
p unto
t ia
t iamo
v an
v era
Ġ &
Ġs ino
Ġs ten
Ġa li
Ġe se
Ġdi ritto
ss are
Ġv al
qu ale
or me
os te
ar ina
ar ne
om bra
Ġper dere
lla re
Ġcon tra
di s
Ġse coli
Ġri volto
Ġo ppure
zi ona
gg iato
Ġtu tt
Ġcos titui
pp e
Ġvi ol
tt ri
tta ta
ina zione
Ġpre f
mb u
Ġso v
uo ri
Ġu cci
ĠC er
ĠP ro
con to
con tro
Ġess endo
lli evo
ggi re
Ġta li
der lo
Ġsol enne
Ġdove sse
Ġapp ar
Ġste sse
Ġad dor
stan ti
cca sione
men tre
Ġimp e
Ġpie tra
Ġcre dere
ave vo
Ġsco sso
Ġsco po
Ġpron ti
Ġrif erito
Ġesa u
ala ti
Ġgiu di
Ġore cchie
Ġlascia re
utto sto
Ġbian co
Ġbian chi
Ġsimi li
Ġpensi eri
Ġpun ta
Ġdesid ero
Ġac qua
Ġconosc enza
eni te
Ġconv into
Ġspie ga
Ġapri re
Ġfred do
Ġmiglio re
Ġsegre to
Ġperfe ttamente
aren za
Ġtemp esta
him Ã©
3 0
A bbiamo
M entre
b oli
f ra
g h
g ri
g iato
m ando
m ene
n ato
n ostra
s ole
t ino
v al
x eter
Ġ (
Ġs g
Ġs ini
Ġs inc
Ġc ani
Ġa ria
on ato
en t
Ġm andato
Ġdi ven
Ġi ll
Ġv anno
or ti
os ti
Ġin tanto
Ġde fini
Ġla sci
do po
Ġsu pera
Ġsi cchÃ©
Ġb ar
ch er
ci so
Ġca pa
Ġca ccia
Ġca micia
ma mente
Ġal beri
da va
da lla
sa ta
sa mente
Ġvi va
tt u
ĠS u
Ġpa llo
Ġpa usa
Ġpa vimento
tti losc
tri mon
ĠN el
Ġno ta
Ġno tare
Qu esta
Ġve cchi
Ġve glia
gi e
Ġra gni
Ġacc ompa
Ġmo di
ver so
ten go
Ġpen a
Ġdire bbe
Ġti po
pro prio
Ġpote sse
Ġpie tÃł
col are
Ġspa lla
Ġrisp on
Ġrima sti
Ġpe zzo
Ġcapi to
Ġspi rito
Ġsape va
Ġint ento
Ġevi dente
Ġparti re
Ġbra ccio
Ġbe lle
Ġatten tamente
Ġass olutamente
IN G
Ġac que
Ġpres enza
Ġes tre
ulti mo
Ġcomp le
Ġdiffi cile
Ġconse gu
Ġgro sso
Ġarriva ti
Ġcorri doio
Ġdisc u
rivi do
Ġrespi ro
Ġtelegra mma
Ġpan china
Ġipno ti
Ġring ra
diri ttura
' s
A TH
E N
E ST
L ETTERA
O ra
U R
Z arina
a lle
b ato
c ante
d es
d ino
g ine
m ostra
o gra
p are
r ti
r ono
r one
s en
s olo
z ando
z iato
Ġ Qui
Ġs tu
Ġs lova
Ġa uto
re te
re zza
Ġm uta
Ġdi te
Ġdi sa
Ġdi av
un ta
ia re
ia te
ti va
or chÃ©
or go
ar vi
al an
al tri
do bbiamo
lla to
mo do
Ġcon fi
ere mo
di ci
Ġri vol
Ġri cerca
Ġb or
Ġle vato
ch iamo
Ġda ta
Ġda va
zi osa
Ġpi uttosto
Ġpo ssi
tan ze
ca m
sa rio
Ġtu a
Ġme ssa
vi ta
vi ene
ĠL U
pi ta
pi stre
tt ia
Ġdo cu
ĠS iamo
ĠS pero
Ġpa ra
Ġpa ese
gn are
Ġu dire
Ġre altÃł
ĠE xeter
Ġtra tten
pa ra
Ġsta r
Ġpar lava
Ġno bile
Ġno ttur
Ġsc al
ter ina
ne ss
na mbu
cch iato
Ġacc on
Ġacc en
Ġsa ranno
ggi to
Ġfo gli
Ġta volo
der ci
ga ri
ten ere
Ġar g
ĠG alati
st enza
Ġstra ne
Ġstra ordina
Ġgu ance
Ġnu ll
Ġnu vole
Ġpote vano
Ġlun ghi
Ġporta ta
Ġva mpiro
Ġentra mbi
ave te
Ġguard are
Ġpron ta
Ġsve gliato
Ġriusci ta
Ġchie dere
Ġtan te
Ġdice va
Ġfer mato
Ġlib ri
Ġlib ero
fo sse
Ġsen so
Ġcontinu a
ac k
Ġtorna ta
Ġcir cos
Ġragi on
Ġpass are
scri vere
Ġconosc ere
Ġries ce
Ġagi re
qual cosa
Ġvisi ta
Ġveri tÃł
Ġcoper chio
Ġesc lu
Ġesc lamato
Ġdispera zione
Ġeff etti
Ġferi ta
Ġinte lli
Ġener gia
cola ri
ĠSto p
ĠBi stri
Ġbeni ssimo
Ġdiav olo
B u
L o
S iamo
S Ã¬
U na
a gi
a pe
b le
g ol
l io
l terra
m os
t enza
u ro
v ina
v eri
Ġ K
Ġd Ãł
er v
Ġa mato
Ġa ggiungere
in con
Ġl ontan
Ġm ina
te vi
ra i
ri co
ti to
Ġi st
Ġi dea
Ġi mbo
Ġv enti
Ġf ran
Ġin du
ar li
om ani
do re
mo ri
li citÃł
ve va
ve cchio
di ca
di sc
di sp
Ġri va
Ġri cord
Ġb rivido
no tte
mi ei
Ġo ff
Ġca mp
de i
ma zioni
Ġcom pren
Ġpro fondo
ĠS ul
Ġso gno
ran sil
se mpre
ĠV e
con do
Ġpar la
Qu esto
Qu incey
ter no
gno re
cch ina
Ġcer care
osa mente
fe lice
and olo
Ġcor tile
Ġfi anco
.. ."
Ġdu ro
ste sso
ĠJ ON
com io
ord ine
Ġstra na
ul are
ron ti
pro p
Ġporta re
Ġpot eri
Ġpot rÃł
pri re
Ġmani f
Ġsal ma
Ġarri vato
Ġor rore
Ġsopra ttutto
Ġcompi uto
est ia
Ġperi col
duc ente
Ġbal zato
Ġru more
Ġpres ente
Ġst ring
Ġfra ttempo
Ġsb al
Ġpalli da
Ġprepa ra
Ġintere ss
Ġavvic in
ill ing
Ġmala ttia
Ġcont in
sape vole
ffici ente
Ġatro ce
Ġini zia
Ġasc ol
van ia
Ġpallo re
ATH AN
ransil vania
ĠJON ATHAN
P ri
R i
T u
U n
a tte
a cce
a ttraver
d al
d dis
f ino
g ola
l ando
l uogo
m arsi
m olto
n uo
s chi
Ġ 2
Ġ oso
Ġs erie
on ale
ta zioni
en tale
Ġm ini
ra no
ra zione
Ġdi stanza
ri sp
Ġv orre
or t
os tante
Ġin gl
Ġde st
cc are
cc iato
om a
om bre
va te
Ġla mpa
mo rato
Ġcon ten
ere bbe
Ġse gn
Ġri so
Ġri ba
si tÃł
Ġb ri
era to
ono gra
Ġda ttilosc
Ġo ttimo
ci ulla
le tto
ma zione
Ġma ssima
Ġma trimon
Ġma cchina
zi enza
Ġpo sse
vo re
vo ce
ca ra
ca pi
ca mente
sa p
ssi tÃł
tro vato
tro ppo
ĠM e
Ġvi gi
Ġvi vere
Ġpro me
Ġpro fe
ing ari
Ġav anz
po re
Ġu r
Ġvol evo
ĠA h
ĠA llora
Ġtra uma
pa ro
ĠP iccadilly
Ġque gli
ĠN ess
ter Ãł
ter Ã²
ter na
Ġchi ssÃł
Ġra bb
Ġra ggio
ani mo
Ġfo ssimo
Ġfor ni
Ġba tt
ga ta
Ġfi gli
Ġall ontan
Ġfar Ã²
que ll
Ġmol ta
Ġad dirittura
ven tu
ĠSe mbra
Ġbu oni
Ġaff re
Ġchia ma
ĠB e
ĠO r
Ġcar ta
cci glia
Ġmani era
Ġdom anda
Ġanda va
Ġsor preso
Ġsap uto
Ġusci re
Ġsoli ta
ĠLe i
scri tto
Ġtranqui lli
sare bbe
infer no
Ġconos co
Ġdolce zza
int ere
Ġmar ina
Ġscor sa
Do po
Ġconv inc
Ġgia ce
Ġsecon da
Ġbamb ini
Ġpalli do
Ġlie to
mor ti
Ġuni co
Ġmedi co
fin estra
Ġeff etto
Ġcosta tato
ĠAve vo
Ġpassa ta
Ġancor chÃ©
arri vo
Ġconclu sione
Ġinfer mi
Ġmist ero
Ġcin que
Ġcance llo
Ġgino cchio
Ġgru ppo
Ġsetti mana
Ġmemo ria
Ġregi stra
Ġcape lli
Ġaltret tanto
Ġpref erito
Ġcircos tanze
Pri mo
A M
A l
E cco
L A
a ver
a llora
a ttorno
e d
f io
f era
g er
g enti
m uto
o ccasione
s ino
s for
s angue
z are
Ġ zo
Ġs ter
Ġs arÃ²
Ġp onte
Ġp osizione
Ġm erito
te sta
ra gi
Ġdi vano
ri p
ri ve
ri usci
Ġn ero
Ġi gno
Ġi mmag
qu indi
Ġf anta
Ġf onogra
ar co
do tto
lla ta
Ġsu d
Ġcon si
Ġcon ducente
Ġsi ste
Ġri pe
Ġri spe
Ġb an
Ġb estia
Ġne gli
Ġo ri
ci to
Ġca vato
ui re
de vano
Ġpi pistre
Ġpo vere
ca trice
gg iata
pp i
ĠM ar
Ġpro messa
ĠS o
ĠS enza
ĠS ua
tti to
ing resso
Ġso pp
Ġso llievo
po ss
uo ta
eri oso
Ġci ma
Ġu di
ĠE cco
Ġsta vano
Ġto ccato
sta te
Ġsc usa
Ġra d
Ġacc er
Ġacc ura
Ġsa per
Ġtro vo
ha m
Ġco lle
Ġand ar
Ġsembra no
Ġsp osa
Ġsp alan
Ġgu ar
Ġro ssi
Ġimp edi
Ġstan no
ena ro
ul ato
ccia re
Ġchia ro
Ġchia mare
par te
Ġpe tto
Ġfe licitÃł
ĠW EST
Ġriusci re
Ġesa min
Ġfer ro
Ġvic ina
qua si
ghi lterra
cer to
ĠDo bbiamo
ac qui
ffer enza
Ġgri do
Ġesser si
Ġesser ci
Ġge ttato
Ġalc une
Ġporto ne
dor mi
Ġcu ri
Ġord inato
qual che
Ġcapp ello
Ġsveglia ta
stu r
Ġprepa rato
Ġlie ve
Ġsci vol
son no
Ġstre tta
Ġsing hio
sembra va
aspe tta
Ġsignifi ca
Ġoccu pa
Ġfia mma
ĠAve va
Ġraga zza
Ġvuo to
lun go
Ġir re
ĠCa terina
Ġvu ole
Ġrice vuto
Ġfacc enda
Ġscompar so
Ġnove mbre
ĠBistri ta
1 7
B ene
C i
G odalming
I G
L ui
M io
S ING
a ta
a cca
a more
a mpiro
c armi
d ano
e ll
e ci
e ssa
i mmag
m mi
m ali
n ale
o od
p orto
u b
u ri
u arda
v ente
v ani
z g
Ġ osa
Ġs enz
Ġd enaro
Ġa gu
on are
in almente
ra te
ra va
Ġe st
Ġe stra
Ġe venti
Ġe goi
Ġdi to
an zi
Ġn ervi
ll ia
Ġi stanti
ro so
Ġf io
os cia
Ġin vano
al c
al tre
Ġsu fficiente
Ġcon ti
Ġcon sid
Ġcon ser
Ġri co
Ġri dere
Ġri com
Ġri man
Ġri ghe
Ġri tar
Ġle v
bb li
Ġda te
ci pi
de vamo
Ġma gro
Ġal tra
Ġpi anto
Ġpo chino
tan za
da ll
pi e
pi te
pi ro
tt ino
tt endo
Ġfa c
bi l
ĠH EL
Ġpa d
Ġpre sa
Ġso ddis
Ġav rÃ²
ĠD a
ĠD omani
Ġu more
Ġre si
ĠE d
ĠE ssa
ĠI eri
tu r
pa ziente
Ġno te
Ġve devo
go re
Ġra ggi
Ġmo tivi
Ġta glia
Ġta sca
ĠQu anto
Ġfi si
Ġter re
Ġco ll
st inti
com ple
Ġsp os
Ġro cce
Ġimp lo
Ġstan co
Ġna so
Ġaff e
Ġaff i
ul to
Ġsare mo
Ġpie de
Ġcre sc
Ġcol pito
Ġson nambu
ĠR o
Ġaltri menti
Ġcar ne
Ġavre mo
av rebbe
du ti
Ġparl ando
Ġsal ute
Ġspe cie
Ġdom esti
ĠU no
gna ti
Ġcal ore
Ġpers one
imp a
Ġdisp ia
app ena
Ġsve glio
Ġnuo vamente
Ġterri bili
Ġusci ta
Ġlib er
Ġparti colare
Ġparti colari
Ġani mo
Ġam are
Ġdeci sione
Ġfino ra
Ġcontinu are
Ġaspe tto
ghi era
fu sione
ggia va
Ġatten zione
Ġge mito
Ġassi cura
Ġpreci so
Ġmare a
Ġgiun ti
Ġtur ba
mor te
Ġsci enza
Ġsegui re
Ġconf orto
edi ficio
Ġz ingari
Ġrapi ditÃł
Ġsing olare
Ġnoti zia
Ġulti mi
Ġecce zion
Ġfia mme
arg omento
esp erienza
Ġprece denza
Ġspavento so
Ġpos ato
Ġocc or
Ġsfu ggire
Ġvelo citÃł
Ġling ua
Ġdiste so
Ġmezz anotte
Ġconver sazione
Ġogg etti
ĠDe ve
Ġserra tura
Ġese mpio
Ġsini stra
ness uno
Ġinfermi eri
ĠHEL SING
B e
C Y
H a
O L
P rima
R enfield
W hitby
a bb
c al
d ona
d esta
e a
e le
f le
m al
r re
r in
s or
u dito
v ostra
Ġ ombre
Ġc ere
er va
er anno
Ġa tta
on da
en de
in si
Ġm on
Ġm ali
ra le
Ġdi p
Ġdi li
Ġdi rÃ²
an ze
ia ti
ti che
Ġf une
or mi
or se
Ġin da
Ġin fi
Ġin com
ar ca
Ġde f
Ġde bba
Ġper io
Ġper messo
va ti
Ġg atto
li e
li smo
Ġsi cu
ve gli
di di
di menti
Ġle g
mi ci
ono re
Ġne mico
Ġmi glia
Ġca se
de e
Ġma mma
Ġan no
Ġcom o
ca sse
Ġtu o
Ġpro vato
Ġpro ssima
pi da
ĠS Ã¬
Ġpa ssi
Ġpre se
la vo
Ġav ven
Ġav rÃł
uo ghi
Ġci e
Ġci catrice
Ġu scio
Ġu tile
ĠA m
Ġgi ura
Ġgi rato
Ġtra cce
pa zi
Ġqual ora
ĠP iÃ¹
ĠP enso
ĠV AN
Ġte so
Ġte muto
Ġsta vo
con f
Ġpar sa
ini zio
sta va
Qu al
zz ar
Ġve dete
Ġve dermi
gi co
gi ca
Ġchi usa
Ġcer chio
Ġfo llia
Ġfin estre
Ġfor ti
Ġba ssa
Ġba cia
ver Ãł
ver Ã²
der Ãł
Ġfi d
Ġfi l
Ġall orchÃ©
Ġven ga
Ġter mine
osi tÃł
Ġapp re
Ġapp arenza
su e
su oi
Ġar ro
Ġar mi
ĠJ ack
Ġdire zione
Ġch Ã©
Ġch inato
Ġsembra re
cia le
Ġsp ro
Ġro sse
Ġro bu
men tata
Ġstan te
qui si
Ġten uto
Ġbu one
Ġaff ron
pro va
Ġchia ra
Ġalle gra
Ġman giato
Ġvo glia
stra da
Ġsal a
Ġspe sso
Ġdom andato
Ġscri vo
Ġarri vo
tter almente
ccu ino
ĠF i
Ġcal ma
Ġris ol
Ma dam
Ġrif u
bbia mente
Ġacca de
Ġtan ti
Ġterri bilmente
ren do
Ġvic enda
Ġfu ggito
Ġsen si
Ġlascia te
Ġgri dato
Ġpes anti
Ġscon volto
int era
Ġst ia
Ġgia ceva
Ġag ente
Ġinf anti
Ġos ato
Ġcerte zza
aspe tto
Ġpian gere
Ġlan cia
Ġferi te
Ġprece dente
Ġraga zzo
Ġfred da
Ġinterro tto
Ġcari co
Ġavve duto
Ġener gie
dur re
Ġocc orre
tand osi
Ġconosce te
Ġann uito
Ġprecipi tato
Ġmis ura
att ina
Ġprofon damente
Ġfan ciulla
Ġmeravi gli
Ġrie mpi
EN RA
ĠLU CY
Ġdocu menti
Ġcontin uo
Ġmatrimon io
Ġposse sso
Ġrabb rivi
ĠWEST ENRA
A mico
D a
E G
N oi
V e
a t
a uto
a per
a glio
a st
a bbia
b ella
c uore
d unque
e ff
f eri
f ond
g en
g ini
h ia
i ra
k y
m w
m ero
n ostro
p io
p ini
r li
s os
t ente
t uto
u mi
u sc
u zione
Ġ osta
Ġc ale
er r
er mente
Ġa glio
re bbero
ta rlo
in ten
te zza
Ġdi stur
Ġdi eci
an y
an ni
an ub
ri tti
ri zzo
Ġn ord
ia mento
Ġi mb
Ġv ale
ol mw
Ġin do
Ġin na
Ġin utile
Ġde p
Ġde stra
om o
Ġper don
Ġla to
es c
li ff
Ġsi gi
ve vo
Ġse gu
Ġri chia
Ġri messo
Ġri entra
si mo
si vo
si gnifi
Ġb esti
Ġle tteralmente
bb ro
Ġda gli
Ġo ss
so tto
Ġmi lle
Ġca duto
de ve
mp ia
Ġcom mo
Ġcom uni
tan a
sa c
ssi vo
gg eri
Ġcos to
Ġme ssi
Ġme tte
vi dentemente
Ġvi e
Ġvi te
Ġpro ble
pi cc
tt r
Ġdo ver
ĠS tre
ando ci
Ġfa tica
bi an
tta via
Ġpa sto
Ġpa ure
ssa va
sc on
sc ono
Ġlo tta
ĠD anub
eri tÃł
Ġu cce
ĠA L
ĠA ll
ĠA lla
se bbene
se mplice
Ġgli el
tu tte
ĠV o
ĠV ampiro
Ġte ma
Ġte sti
Ġsta mane
Ġto mbe
sta ti
Ġsc ia
Ġsc io
Ġsc ala
Ġsc eso
zz ur
zz onte
Ġve le
Ġve deva
ter ri
gi oni
Ġchi esa
Ġra pp
Ġra sse
Ġacc eso
orta re
pre occu
Ġmo ssa
ale tto
der la
Ġcor rere
ten uto
Ġmen tale
chi esto
Ġven go
Ġapp unti
su bito
Ġfar Ãł
ĠG razie
com pi
Ġad d
Ġlu ci
Ġsp or
Ġgu er
Ġro sa
Ġstan ze
Ġten sione
Ġnotte tempo
ul so
Ġti more
Ġti mone
ĠT ransilvania
Ġnu mero
Ġlun ghe
Ġcol to
Ġcol tello
Ġgra vi
Ġpot rÃ²
Ġaver lo
Ġmani comio
av vi
av uto
av vic
par lare
Ġsenti ta
ave sse
Ġgio co
Ġfre sca
Ġaper te
Ġaper ti
Ġindi vi
Ġdia boli
Ġsopra cciglia
app ro
Ġchie der
Ġevi tare
Ġfer m
Ġvic ini
Ġlib era
Ġam mettere
Ġsca tto
Ġtran ce
Ġlegg e
Ġsen o
Ġcontinu ava
Ġaspe ttato
Ġpicc oli
Ġpotre i
Ġgri gio
Ġesser mi
Ġsos piro
ad roni
ĠPo sso
Ġce duto
Ġpun ti
Ġac qui
rima sto
pen si
Ġmorta le
Ġnece ssitÃł
Ġdubb i
Do ttor
Ġgiun ta
Ġtur no
Ġgen er
Ġgiov ani
ai uto
impre sa
ster Ãł
ster dam
Ġatte so
ĠAn che
Ġstre tto
ang olo
ang oscia
Ġsto ria
Ġulti ma
kins ky
Ġavvic inato
inter no
Ġdimenti cato
esp u
rand omi
Ġpensa te
Ġvuo ta
senti to
Ġobbe di
Ġconce sso
Ġer rore
Ġtras for
Ġagg ra
Ġimmo bile
Ġsuper sti
tran qui
mette te
Ġecc omi
Ġsoffer to
Ġpio mb
ĠPa sso
Ġproprie tÃł
Ġcoraggi oso
signor ina
abi tudine
Ġdesider io
Ġsten ogra
Ġlasci ando
Ġveglia re
Ġrispon dere
Ġbelle zza
Ġslova cchi
Ġintelli gente
ort uno
Ġlampa da
Ġdili genza
Ġinfanti le
olmw ood
ĠDanub io
A v
A ll
G razie
M A
O D
T EL
T utto
a ti
a ssai
a ffer
b lio
c in
c ker
c ance
d esi
d dio
f ero
g endosi
k s
m uo
m uta
m ondo
m elo
n u
n ali
n ulla
o cc
o pp
p oli
s era
s Ã¬
s veglia
t un
u tato
u ale
v ostro
Ġ za
Ġ zi
Ġs into
Ġd armi
er go
ta rio
en dere
in io
Ġl uoghi
Ġe ppure
Ġdi ta
Ġdi rlo
Ġdi venuto
an t
ll ente
ss Ã¹
Ġi mpo
qu ar
qu est
qu este
Ġf al
or lo
or th
or rore
os ci
Ġin vi
Ġin quie
ar mente
Ġde li
Ġde di
Ġde vono
Ġper metter
Ġg re
mo ra
Ġcon for
ve zza
Ġnon ostante
di ce
Ġse dere
Ġse colo
Ġri tra
Ġri app
Ġle va
Ġle zione
tra te
bb al
Ġda cchÃ©
Ġo dio
Ġo cchiata
ce ssa
Ġca ss
de ssi
de gli
de ciso
Ġma ssa
Ġma gari
da v
ssi mi
pp ato
Ġme ta
Ġme tto
pi so
tt uta
ĠS zg
Ġfa vore
tta colo
ssa ss
me glio
ina va
la scia
Ġso bbal
Ġav endo
Ġu mi
ĠA v
Ġre cato
Ġre sti
ĠE n
ĠE gli
Ġtra tti
pa ggio
ĠP ur
ĠV er
ĠV enite
con ta
Ġave ssimo
tri a
Ġto cc
Ġno tti
Ġsc ato
Qu indi
gi Ã¹
Ġess eri
Ġra tti
Ġra zza
na tura
Ġacc orto
Ġcer ca
Ġcer cando
Ġpri gioni
ĠQu al
Ġdove vo
Ġfi glio
chi e
ste ssa
ria mo
Ġter rori
Ġapp o
Ġfar ne
que llo
ola ta
Ġfare mo
Ġsp ero
Ġsp erare
orri bile
fa ccia
Ġten endo
Ġten tare
Ġna vi
enz u
ron to
ĠT e
ĠT ra
Ġver rÃł
Ġsare mmo
Ġpie tre
Ġcre sce
Ġporta te
for za
Ġlasc iata
Ġaver ne
Ġavre mmo
av verti
du ce
du rante
ge tta
Ġsenti re
Ġentra ta
Ġsal vo
Ġspe zzato
Ġsco per
Ġsco perto
Ġsco prire
cos e
app rima
Ġrip orta
ĠSi cchÃ©
Ġacca dere
Ġtan tino
Ġesa minato
Ġfer ma
Ġusci ti
Ġgiu gno
Ġbe llo
Ġpotre mo
Ġatten dere
Ġge tta
Ġdol ci
Ġpes o
veni va
min ale
Ġcir con
ad dor
Ġdesid eri
Ġren dere
rovvi sa
Ġcasse tta
Ġfini ta
Ġscor gere
Do bbiamo
Ġes ordito
Ġpare va
Ġgiun gere
RA M
Ġtri sti
Ġsveglia re
Ġtratta va
Ġmezzo giorno
ersi cker
Ġmostra to
Ġservi zio
Ġdispera ta
Ġrifle ttere
Ġsignifi cato
Ġlimi ti
Ġcorri spon
Ġdebole zza
Ġprote gg
Ġfun ziona
pote si
Ġaiuta re
aff atto
Ġmetter si
Ġcro ce
Ġrisul tato
Ġcomincia re
ĠTu ttavia
Ġacce ttare
Ġimmo bili
Ġdistru ggere
Ġtene va
Ġrec ente
Ġdic ono
Ġteme vo
Ġpronun cia
evi dentemente
Ġpoli zia
ĠCre do
Ġripos are
poi chÃ©
ĠChi ssÃł
abba zia
mol ti
Ġtrascor so
Ġsospe tto
Ġlar go
cifi sso
Ġappro fi
Ġalcun chÃ©
Ġaddor mentato
Ġgiudi zio
cam era
Ġnottur na
ape vo
Ġfonogra fo
uarda te
Ġagu zzi
Ġritar do
stinti vamente
Ġsonnambu lismo
Ġliber tÃł
Ġbesti e
2 4
2 5
B en
D unque
D evo
M orris
P enso
S u
S ta
V enite
a tti
a desso
b ri
c en
c an
c ente
d ro
d ol
e lli
f an
f ronte
g ano
l an
l ina
m inu
m arg
p es
p eri
s che
s ando
s ali
s oli
s orriso
u ttu
v esti
x am
Ġ '
Ġs angu
Ġs chia
Ġs cher
Ġc io
Ġc olore
Ġc uori
er to
er ne
Ġa mo
Ġa sse
Ġa sp
Ġa cu
Ġp r
Ġp ru
Ġp aletto
re sto
re mmo
ta li
ta rsi
in ante
Ġl enzu
Ġm er
Ġm olo
te te
te ca
ra cc
ra ga
ra rmi
Ġe ser
Ġdi tta
Ġdi rsi
Ġdi scor
ri zza
ll anti
ss ia
ss uto
Ġv or
Ġf ing
os curo
Ġqu and
Ġin va
Ġde scri
io re
om b
Ġg ole
Ġsu b
Ġcon tare
Ġcon sul
Ġcon sapevole
Ġcon sac
ere te
li ci
Ġsi mpa
di c
di le
di ano
di cendo
Ġse ggi
Ġse pol
Ġri pren
Ġri guard
Ġri conos
si e
si ca
mi e
Ġo ssa
Ġo cchio
Ġo tten
ci r
ci da
le gg
Ġca p
Ġca tti
Ġca dere
de tta
ma rito
Ġma ssimo
Ġal z
Ġal ta
Ġcom preso
da ti
ssi va
gg ine
Ġcos tre
pp ia
vi le
ĠM io
ĠM UR
Ġpro ve
pi de
ĠS kinsky
Ġfa coltÃł
Ġfa cile
Ġpa zzi
sc om
Ġpre ten
Ġso re
po tre
sp len
gli era
ĠA pp
Ġre mo
Ġre cu
se gu
per Ã²
sto no
lo gio
lo xam
tu ro
ĠP ar
ĠP eter
Ġsc ru
ne ppure
gi un
gi one
Ġchi unque
Ġra gg
Ġra lle
Ġra ggiungere
fi co
Ġacc osta
Ġsa pre
Ġsa cca
Ġsa cro
pre sto
pre cipi
ggi Ã¹
Ġmo vimento
Ġfo lla
Ġba ciato
Ġta lmente
Ġta vola
ga glio
Ġdove ssi
Ġfi ssa
Ġfi glia
Ġall ar
ten a
chi esta
Ġdu bi
Ġven gono
Ġfar gli
que lle
que lli
ven uta
Ġgu ai
Ġro te
Ġimp ie
Ġimp adroni
Ġbu ono
Ġbu sta
Ġaff etto
ena ta
Ġchia mato
Ġcre de
Ġcre duto
Ġcre atura
spe tti
for te
Ġabb i
ĠB a
indi rizzo
Ġgra vitÃł
Ġben chÃ©
Ġman c
Ġman ca
Ġvo ci
Ġtre mare
cci d
Ġser io
av anti
usci ta
ge vano
Ġsenti ero
Ġsal otto
... ".
mpi ri
Ġsco gliera
Ġfre qu
end olo
Ġpe lli
Ġindi cato
Ġveni va
ĠF ino
Ġcal do
ond ante
Ġsor te
Ġsor gere
Ġdormi va
Ġpor te
Ġsap rÃł
ren dete
ari va
tor nato
Ġani male
Ġfu ga
Ġore cchio
ĠEra no
Ġgri da
Ġesp re
Ġinsi stito
Ġcam eri
Ġbiso gna
ĠPo vero
Ġabbia te
acc ordo
ggiun gendo
Ġpun tato
Ġresta va
In ghilterra
Ġst ento
bra le
Ġstud iato
Ġcomp orta
RA Y
Ġrive la
Ġconse gnato
Ġgro ssa
Ġlie ta
Ġnasc osto
Ġabi tudine
ĠAn cora
ppa ta
Ġrapi da
ie tta
Ġincon tro
cche ssia
Ġmal va
ĠCar pazi
Ġguarda va
ĠRi tengo
Ġcosta tare
Ġfun er
segui re
Con tinu
Ġdiver sa
Ġobbe dendo
Ġcri si
Ġcri minale
Ġing ino
Ġing ann
spon sa
Ġveder la
Ġtras fusione
ĠTu tti
sol ato
Poi chÃ©
mina ti
Ġorri bile
Ġvu ol
estre mitÃł
Ġsucce sso
Ġriferi re
Ġselva ggio
Ġalza ta
Ġsussur ro
Ġappari va
lib rio
Ġang olo
Ġpiacere bbe
atten zione
Ġinfor mazioni
Ġbr uc
ori zzonte
Ġappar sa
Ġconsegu enza
Ġmuta mento
mos fera
Ġimbo ccato
Ġmanif esta
Ġpericol oso
illing ham
Ġascol tare
atte sa
attraver so
Ġingl ese
Ġriba ttuto
Ġdattilosc ritto
ventu alitÃł
ĠOr mai
Ġpipistre llo
Ġpad rone
ea mente
insi eme
Ġincom b
ĠAm sterdam
EG RAM
pini one
Ġcale sse
ĠStre et
TEL EGRAM
blio teca
Ġprigioni ero
Ġcio Ã¨
ĠMUR RAY
TELEGRAM MA
" "
2 9
A L
A llora
A vete
B a
C om
D RA
E M
G i
M e
N ess
N OR
O r
T O
T emo
V ol
a da
a ccia
a stro
b ergo
c k
c ani
c olazione
d ando
d osi
d rÃł
e ssi
e cce
f ine
g iamo
g ando
s ten
s arÃł
s chia
t era
t endo
t rere
v iamo
v iato
Ġ osc
Ġ onore
Ġs ano
Ġs ale
Ġs orri
Ġs fio
Ġs quar
Ġc ru
Ġd argli
Ġa tto
Ġa da
Ġa mpio
Ġp ra
Ġp osa
re ste
ta vano
ta rmi
en si
in co
in uto
Ġm eri
Ġm and
Ġm uni
Ġm inuto
te mo
Ġe mo
Ġe messo
Ġdi ss
Ġdi ff
Ġdi stra
Ġdi rvi
Ġdi rgli
ri ti
ri ci
ri zzato
Ġn or
ia l
ti ve
Ġi mba
Ġi stru
Ġi dee
Ġv esti
qu anta
Ġf ess
os tri
ol te
Ġin tra
Ġin cu
ar re
Ġde bb
al bergo
Ġper mettere
Ġper sua
Ġg esti
mo lle
es terno
Ġcon s
li mi
ve duto
di chÃ©
di bile
Ġse te
Ġri al
Ġri ver
si ste
Ġb ran
Ġb rand
Ġle vare
Ġle cito
bb i
Ġda ti
Ġo tti
so lle
so ff
ci po
Ġca si
Ġca duta
de llo
za ti
Ġma tto
co vina
zi onata
Ġal quanto
Ġcom ba
Ġcom inci
Ġpi ene
Ġpi ani
Ġpo che
ca pp
ca mb
ssi oni
Ġcos t
vi si
pi ti
pi di
pi edi
tt eri
ĠS tra
ĠS uo
ĠS cri
ando gli
Ġfa bbro
bi e
ĠH olmwood
Ġpa zi
tti ta
sc endo
sc iato
ina ti
Ġlo go
la ta
tte va
gl iamo
Ġso cc
Ġso tt
Ġso tti
Ġav ver
ĠD A
Ġci gol
Ġu mani
Ġu mana
ĠC osa
Ġvol gendo
gli ono
Ġre sa
Ġre la
lo qui
Ġtra sp
pa ri
ĠP rima
ĠV orrei
ĠN ella
sta re
zz arla
ne cessa
na ti
Ġacc ing
Ġsa bbia
Ġsa vio
pre ce
vol te
Ġfo ri
Ġfo glio
Ġfor me
Ġba lle
Ġta ccuino
Ġpri vile
Ġpu zzo
ĠQu ella
ĠQu est
ĠQu este
ru zione
ste lli
Ġapp are
Ġapp ello
su ss
Ġar mati
Ġfar ci
Ġco pia
anti ca
ĠG a
ĠG re
Ġand rÃ²
com inciato
Ġad dio
cia li
Ġsp ar
Ġsp era
Ġsp oso
Ġro se
Ġstan do
fa cc
ĠSe condo
Ġbi zzar
sti co
Ġai uti
ul ulato
vere te
pro pri
ĠT h
ĠT emo
Ġver de
Ġver go
Ġchia mano
for se
ĠB er
ĠB ene
Ġva do
Ġgra ti
Ġgra zia
Ġgra dini
ĠO gni
inc io
Ġaver mi
Ġaver la
Ġtre mito
Ġavre te
cci tazione
lu omo
Ġser eno
stra to
du bbiamente
ĠIn fatti
par so
par sa
ffi cio
orre ndo
Ġsal vezza
Ġscri cchi
Ġsco pi
Ġfre sco
ĠPoi chÃ©
Ġguard ando
ĠF a
ĠF orse
cos titui
Ġris al
Ġris chi
Ġris chio
Ġris veglia
Ġsape vamo
Ġfe bb
Ġsor pren
Ġsor vegli
Ġdisp osto
Ġrip osa
Ġnuo ve
Ġchie de
Ġdov rebbe
Ġevi denza
Ġfer mo
Ġusci va
Ġlib eramente
Ġinter loqui
dete mi
Ġpren de
Ġchiu dere
Ġr uota
Ġam iamo
Ġdeci sa
Ġsca ri
Ġsca mb
Ġgiu ro
Ġbe lli
ggia re
ggia mento
spi e
min are
Ġanzi chÃ©
Ġragi oni
acc anto
Ġren de
pen so
Ġbal en
Ġbal enata
Ġconos ciuto
dia rio
Ġinten zioni
Ġpres enti
Ġtrova va
Ġrive l
Ġpalli di
Ġpalli de
Ġconse gna
Ġtratta rsi
Ġgro sse
bba sso
Ġabi ti
Ġsegui rlo
Se ward
ore cchio
Ġintere sse
Ġincon trato
Ġsali re
Ġlan terna
Ġcompa gni
Ġarre trare
ĠSta mane
don na
Ġpassa ti
Ġveder lo
Ġspavento sa
Ġopp ortuno
Ġpeggio re
im mediatamente
sol tanto
Ġgo ccia
Ġmist eri
tand omi
Ġdic endomi
Ġov est
Ġann un
Ġraccon to
An che
Ġface sse
Ġstrani ero
Ġgino cchia
Ġrichi esta
Ġabband onata
Po sso
Ġsetti mane
Ġriuni ti
Ġcamb iamento
Ġequi librio
Ġcorte sia
gran de
Ġling ue
Ġmuo ver
Ġdiste sa
Ġvali getta
Ġpercor rere
tr ui
Ġanti chi
Ġanti cipo
Ġproba bilmente
Ġscen dere
Ca ro
Pro prio
ĠPro prio
Ġill u
Ġill um
Ġsupera re
Ġbar ba
Ġconsegu enze
Ġdisa gio
Ġpossi bilitÃł
Ġricord are
Ġsbal ordito
Ġinteress ante
Ġvorre te
Ġprome tto
ĠNess uno
Ġbatt ente
Ġtranquilli tÃł
Ġaccura tamente
dormi re
IG NOR
Ġdispia ce
Ġcere brale
Ġmon ti
Ġaffron tare
eff etto
Ġproble ma
semplice mente
espu gli
piso dio
Ġlenzu olo
Ġconsac rata
Continu azione
Ġincomb enze
molle t
Ġbrand y
necessa rio
Ġinterloqui to
' "
1 8
E ro
E ast
F inalmente
I L
L e
M W
N ell
O OD
P iccadilly
R I
R TH
T ra
a sse
a tta
b en
b ui
b ord
c ene
c orri
c ane
c osta
d ri
d ero
d uo
d armi
d olore
e gli
e zza
e venti
e tito
e ventualitÃł
g on
g ria
g armi
i ente
i mb
i rre
l ta
l in
l ti
l ing
l and
l ine
l ontano
m ino
m anti
p or
p ene
p ul
p eso
p ortato
s om
s orta
s guardo
t Ã¹
t eri
u cch
v ale
v ali
v ane
v into
v vedere
Ġ w
Ġ ron
Ġs anto
Ġs chio
Ġc el
to no
Ġd ar
Ġd Ã²
er ia
er vato
Ġa stu
Ġa mata
Ġa himÃ©
Ġa zzur
Ġa ssass
on na
on anotte
Ġp ano
re sc
ta lmente
ta rdi
ta tivo
en er
en tato
en orme
in f
in n
in ca
in che
in chiesta
Ġl uc
Ġm ento
Ġm ura
te legra
ra ma
ra rlo
Ġe di
Ġdi r
Ġdi st
Ġdi fferenza
an sia
ri tu
ri preso
Ġn era
Ġn erv
ss or
Ġi potesi
Ġv ela
Ġv orrei
ro tto
Ġf iato
Ġf ur
Ġf lu
Ġf erito
os ciuto
ol ti
Ġqu ante
Ġin c
Ġin dur
Ġin chino
Ġin felice
ar ta
ar ma
Ġde vi
Ġde tta
Ġde posto
om ini
al o
Ġper quisi
Ġla ma
Ġla ggiÃ¹
Ġg hi
Ġg el
Ġg lo
do v
lla va
Ġsu sci
Ġcon fer
Ġsi cura
ve lo
di da
Ġse gni
Ġri sc
Ġri mane
Ġri messa
Ġri parti
Ġri conosc
Ġri sata
Ġri paro
Ġri desta
era ta
Ġle gato
mi ca
mi glia
ch ere
ch inato
tra tta
bb io
Ġda pp
Ġo ccid
ce sso
ci enza
Ġmi gli
Ġmi ser
Ġca da
Ġca ttura
Ġca tene
Ġca tena
Ġma ter
Ġma zzo
co llo
mp ere
Ġan tica
Ġal zando
Ġal trui
tan ta
vo cato
ssi me
Ġcos ti
pp iÃ¹
Ġme to
Ġvi eni
Ġvi vente
Ġdo g
ĠS olo
ĠS arÃł
ĠS apevo
ĠS IGNOR
ĠS mollet
Ã¬ to
tta te
tta glia
Ġpa zienza
ssa te
sc ino
me tto
me di
ina te
gn e
gn ia
la te
la bbra
la mazione
tte zza
Ġav vi
po sso
po ca
po vera
ĠD apprima
eri va
Ġera vate
sp er
sp ing
sp ensa
Ġci bo
ran ta
Ġu ti
Ġu so
Ġu gu
ĠC ro
ĠC liff
gli etto
ff are
ĠA mico
ĠA RTH
Ġre li
Ġre tro
Ġre gge
Ġre sponsa
se gna
ĠE cc
ĠE ppure
ĠI N
per s
per cor
ĠP ure
ĠP ensa
Ġte mere
con clu
Ġsc ena
Ġsc orre
Ġsc inti
Qu ella
zz ina
zz ale
zz armi
Ġve tro
gi ve
gi unto
gi udi
pe tto
pe bre
Ġra ttri
fi cato
Ġacc i
Ġacc olto
ani tÃł
vol ti
Ġmo sso
Ġtro verete
ĠMa i
Ġba se
Ġba sto
Ġba ttere
Ġba ttito
Ġba gaglio
Ġta gli
fe de
Ġpu bbli
ĠQu a
ĠQu esti
ga va
and ola
Ġcor dia
Ġdove vano
ste l
ria mente
Ġpen oso
Ġter rÃ²
osi ti
glia ti
glia rsi
su cce
Ġar dente
ard ini
Ġand ando
com unque
com incia
ba mb
Ġch in
Ġfare i
Ġfare te
Ġqua ttr
Ġbene dica
cca ta
cca sioni
Ġro tta
Ġimp rovviso
Ġimp erioso
Ġimp ulso
Ġstan ca
fa tta
Ġbu ssare
Ġgior nali
Ġen orme
Ġti to
Ġti ra
Ġti pi
Ġti rare
pro ce
ĠT i
ĠT ur
Ġcol te
Ġcol pa
ĠB en
ĠB il
ĠB orgo
ĠB ersicker
ĠB loxam
Ġdor mendo
Ġgra no
ĠO ggi
pri mo
uni co
Ġvo gliono
Ġavre bbero
cci denti
lu ce
Ġser pe
ĠIn oltre
ge sse
Ġentra ndo
Ġspe cchio
Ġspe ttra
Ġspe cifi
ess endo
guar di
Ġpe lle
Ġindi ri
Ġveni r
Ġveni sse
Ġveni vano
ĠF in
Ġcal are
Ġcal da
Ġpers on
Ġris ali
Ġsape ssi
Ġor rori
Ġdisp osizione
Ġdisp osti
Ġrip ortato
Ġint ero
Ġriusci vo
ĠSi ete
ĠSi gnore
Ġacca da
ze tte
ari re
Ġlib ro
Ġpren der
Ġsotto stante
Ġtran si
Ġlegg ermente
dre mo
Ġfu ria
Ġfu turo
Ġbra vo
Ġpicc ole
Ġbe ll
ĠDo v
Ġesi ste
Ġesi tazione
Ġesi stenza
ffer to
ffer ente
Ġlavo rare
Ġecco ci
Ġge ttata
Ġesp eri
Ġass unto
Ġcava llo
anda te
ĠPo co
ser vi
all ontan
Ġce dere
Ġul ulare
pen sa
pen sare
Ġmale detto
Ġconosc iamo
Ġconosc enze
Ġries ca
Ġscon osciuto
Ġmar tello
Ġluna tico
Ġagi tato
ĠAl tro
Ġpare cchi
Ġpare cchio
Ġgia cca
qual volta
Ġmu sica
Ġsolle v
Ġgenti li
Ġgenti luomo
Ġvisi bile
Ġsfor zi
Ġscom parsi
Ġabba ttuta
Ġservi to
Ġbru tto
ĠAn ch
Ġcoper to
Ġconf ronti
Ġintere ssa
Ġz ona
Ġz inco
entra ta
Ġrapi damente
ann uito
Ġdispera to
zion ato
zion ale
Ġsali to
Ġmedi ci
Ġtener lo
Ġlimi tato
Ġguarda te
inter vento
Ġoccu pato
Ġcompa ssione
Ġtrov iamo
anz ale
Si cchÃ©
aff ari
Ġir ri
Ġcro cifisso
Ġimpre ssione
Ġsegre ti
Ġrisul ta
Ġprocura to
Ġprocura rsi
Ġfigu re
Ġsce lto
aren te
ĠCa stel
ĠGi Ãł
oro logio
Ġdistru zione
Ġrica duta
sil enzio
Ġsom messo
Ġconta tto
Ġconta dini
Ġov vio
continu ato
Ġfacc iamo
Ġreso conto
Ġpronun ciato
Ġsussur rato
Ġritro vato
Ġprofon da
Ġscompar sa
Ġpene tra
Ġcoraggi osi
atura lmente
Ġbatte lli
Ġcorte se
gran di
Ġpal pebre
Ġrifi uta
Ġogg etto
Ġproba bile
Ġavverti to
ĠDe v
Ġcorre va
ĠBu onanotte
Ġverifi cato
Ġpreoccupa ta
Ġviol enza
Ġsov ra
Ġucci dere
ĠCer to
Ġesau sta
Ġsupera to
Ġcapa ce
Ġcapa citÃł
Ġdiscu tere
Ġringra ziato
Ġbor sa
Ġpara li
Ġarg omento
Ġstraordina rio
ĠK ing
Ġlontan a
Ġcamp ane
ĠVe dete
Ġparla te
illing ton
Tu tti
Ġmini mo
oma s
Ġavanz are
Ġfigli olo
intere ss
ragi on
Ġsiste ma
Ġrispe tto
poss iamo
Ġsaper ne
Ġspalan cato
Ġscivol ato
Ġestra ne
Ġriman ere
Ġnote vole
comple tamente
Ġassicura to
OL MW
fle et
Ġdip inta
Ġsicu rezza
Ġleg ale
Ġspro fond
ĠFi gli
Ġrifu gio
Ġrabbrivi dire
at mosfera
gen ere
Ġinna morato
Ġcommo sso
Ġucce lli
ĠVo glio
terri bile
preoccu pa
pensi ero
Ġsupersti zione
Ġcass oni
ĠSzg any
Ġscato la
Ġcorrispon dente
Ġacu minati
Ġpr inci
Ġpru a
Ġeser ci
Ġseggi ola
Ġimpadroni to
spetti va
Ġpelli cce
Ġespre ssione
ial tri
Ġpazi enti
ĠGa zette
Ġpano rama
inche ster
Ġdapp rima
Ġmigli or
ĠARTH UR
ĠBil der
OLMW OOD
! ,
. :
1 2
1 9
2 0
2 6
A desso
A vevo
C ari
C osÃ¬
D racula
I A
L ord
N el
R E
S cri
S pero
U no
a ma
a sc
a vano
c anto
d ola
d omi
e b
e sse
e qui
e pisodio
f ato
f ru
f ante
f armi
g ani
g anti
g olare
i co
i ca
i mpi
i mpossibile
i mmo
i pno
l ino
l anda
m andato
m inata
n ta
n ti
n Ã©
n osi
n um
o fa
p an
p un
p os
p nosi
r ino
r pe
r ona
s inc
t tando
u gn
u rante
v ene
v orrei
w al
w orth
Ġ ere
Ġ omi
Ġs an
Ġs tro
Ġs vi
Ġc are
Ġc ess
Ġc ella
Ġc ande
Ġd olo
er te
er giÃ¹
Ġa t
Ġa zione
Ġa ttra
Ġa gio
Ġa mpia
on enti
Ġp si
re a
re c
re sti
ta rci
in for
Ġl esi
Ġm uore
ra ggio
ra bil
Ġe la
Ġe segui
Ġdi ri
Ġdi venire
Ġdi rti
Ġn ere
Ġn eri
ll era
ss ere
Ġi scritto
Ġv ar
Ġv ino
Ġf os
Ġf ond
or so
or mente
os ce
os tato
Ġqu arti
Ġqu ant
Ġin ta
Ġin so
Ġin de
Ġin gre
Ġin son
Ġin dosso
Ġin ton
Ġde ser
Ġh an
al to
al ta
al meno
al worth
Ġper si
Ġper ple
va vo
Ġla ti
Ġla mpo
Ġg rato
Ġg omi
Ġg hia
do ttor
do vete
lla te
es tro
Ġsu on
Ġsu bi
Ġcon su
Ġcon tor
ere t
li ero
Ġsi to
Ġsi mb
ve glio
di te
di oso
di ffi
di etro
Ġri su
Ġri prova
si va
si sti
si ete
si ccome
Ġb ere
Ġb lo
era i
era zioni
Ġle gno
Ġle tar
tra cciare
Ġda llo
Ġo pinione
Ġo bie
Ġo ccasioni
ci mento
ci mitero
ci ttÃł
Ġca mpo
ma ggio
za va
Ġma tti
Ġan gu
Ġcom b
Ġcom pra
vo glio
ca po
ca zione
ca pe
ca bile
one te
ssi ve
ssi bilitÃł
gg etti
Ġtu e
pp ongo
Ġme ttendo
Ġvi vo
Ġvi vi
Ġvi tti
Ġvi gore
ĠL ON
Ġpro c
Ġpro vo
Ġpro vare
Ġpro gre
Ġpro ietta
pi eno
tt ina
Ġdo tato
ĠS am
ĠS eret
Ġfa ro
Ġfa tte
Ġfa tale
Ġfa tiche
ĠH ill
ĠH illingham
ĠH OLMWOOD
tti co
tti glia
me zzo
Ġpre si
Ġpre sso
Ġpre sta
Ġpre gato
Ġpre zioso
Ġdel u
Ġlo ttare
tre no
la ti
la sciato
Ġso cchi
Ġso glia
Ġso ggiungendo
Ġav anza
po chi
eri li
sp av
Ġci lin
enti vo
Ġu sato
ĠC o
Ġvol a
Ġvol ti
ff atto
ĠA cc
Ġre gg
Ġre dini
Ġre sterÃł
ĠE videntemente
ĠI ddio
Ġgi rare
sto de
Ġtra ttato
pa d
pa zzo
pa ssato
Ġte tra
Ġpar si
Ġpar tiamo
Ġpar tenza
Ġto gli
Ġto ni
Ġsc ar
zz ante
Ġve liero
ter re
ne lle
ne llo
gi Ãł
gno ria
Ġra tto
Ġra mo
Ġra ggiun
fi ducia
na te
na ve
Ġacc o
cchi eri
Ġcer cava
pre se
zza ti
Ġmo rale
Ġba cio
Ġba ciata
Ġba ttaglia
Ġta zza
Ġta gliato
ĠQu el
and ole
sci u
ste ad
Ġven uti
Ġter za
osi zioni
Ġapp i
Ġapp unto
Ġapp ren
Ġapp etito
glia ta
Ġfar la
Ġco lla
ĠG ran
Ġand rÃł
com pa
com uni
Ġli vello
ni tÃł
Ġlu cci
ven gono
Ġprop ri
Ġstra de
Ġstra ppato
Ġch io
Ġfare bbe
stan do
Ġsp un
Ġbene dizione
Ġro tto
Ġro ccia
Ġtor mento
Ġami ca
fa ceva
Ġten tativo
Ġbi blioteca
sti che
sti fi
Ġaff ann
Ġai u
vere tto
Ġsigno ri
Ġti mori
pro fon
pro seguito
ĠT o
ĠT er
ĠT ate
Ġver di
Ġchia cchi
Ġnu do
Ġnu tri
Ġsare te
Ġcre ato
col armente
Ġporta rmi
Ġalle gro
Ġson ni
ĠR e
ĠB illington
Ġva ri
Ġva go
Ġva mpiri
indi etro
Ġben venuto
Ġben sÃ¬
gra zie
Ġcar re
Ġman care
Ġman tenere
Ġaver vi
Ġtre men
Ġcara tteri
av rei
stra ordina
ge li
ge vo
Ġsenti rmi
Ġentra mbe
Ġsal vare
Ġspe dito
Ġspe ttacolo
Ġposs ano
ave vano
Ġscri tte
Ġsco pp
Ġaltro ve
end one
end ola
end ole
Ġpe zzi
Ġcapi vo
gia ri
Ġindi spensa
Ġveni te
ĠF inalmente
Ġpers onale
imp rovvisa
ĠW alworth
Ġdav anzale
Ġtorn ando
ĠHa mp
Ġsil en
Ġpor tando
bre ve
Ġtan t
Ġdov rÃł
Ġdov remo
Ġdov rei
Ġsap endo
ren ti
Ġvic ine
Ġchiu si
Ġim men
qua ttro
Ġani mali
Ġam moni
Ġdeci dere
chia ve
Ġfu ri
Ġbo ttiglia
Ġquesti one
Ġcontro llo
del tÃł
Ġlascia rlo
Ġpotre bbero
Ġesi bi
Ġesi stono
Ġatten u
Ġatten ta
Ġperi coli
Ġesp ri
veni enza
spi ra
Ġassi stito
Ġcen tro
ĠPo tete
acc on
Ġren der
Ġren dermi
Ġresta r
esa ttamente
tica mente
Ġscon fi
Ġscon vol
Ġcu po
Ġcu pa
int ero
int ento
Ġinten zione
Ġinten deva
Ġinten sitÃł
Ġst iamo
Ġes ortato
Ġtrova ta
Ġtrova ti
Ġtrova vo
Ġagi tata
Ġlett ura
Ġrive lato
Ġcapp a
Ġtur b
Ġbamb ina
Ġricor di
Ġricor so
Ġinf ini
Ġgen give
Ġconse gn
Ġsfor z
Ġpol so
Ġnecessa rie
Ġspie gare
Ġbru ghiera
Ġcoper ta
Se mbra
Ġos tia
Ġnatura lmente
entra re
fini to
fini ta
sembra vano
Ġulti mo
Ġulti me
car vi
Ġrifle sso
fin chÃ©
mani era
Ġmal occhio
Ġfru gare
Ġsuss ulto
ĠNe ppure
Ġlan ciato
Ġdimenti care
Ġga s
Ġcompa gnia
Ġarre stato
Ġarre stata
Ġcolo ri
Ġprote ggere
ĠSta va
ĠSta vo
rand osi
Ġmiglio ri
Ġimpa rato
Ġdiver so
Ġdiver se
Ġobbe dito
Ġmaggio re
ill um
Ġsti pite
Ġimpre sa
Ġing hio
arti to
Ġprocura tore
Ġavve duta
Ġsapp ia
porta re
Ġatt uale
Ġperfe tto
ĠTu tte
dom esti
pia ce
Ġagg re
Ġacce sso
Ġfede le
guard ato
Ġdesidera va
ST ER
mette temi
continu are
Ġ1 8
Ġdis gu
ĠVi eni
Ġpronun ciata
emo zione
Ġecc olo
Ġgui d
Ġgui da
Ġritro v
Ġrichi uso
ĠCom unque
Ġappari re
Ġatro ci
Ġpene trare
Ġquanti tÃł
Ġconte mp
Ġriuni one
Ġcamb io
Ġansi osa
Ġansi oso
Ġbatte va
bal zato
Ġvali do
Ġloc anda
tutta via
Ġsplen deva
Ġimpor tanti
Ġaspetta va
Ġsospe tti
Ġnascon di
tr ona
us armi
Ġriti ene
Ġrifi uto
Ġpasse ggiata
Ġpasse ggeri
ĠBu covina
orren ti
orren da
Ġpreoccupa zioni
Ġcostitui sce
Ġviol ento
ĠCer cherÃ²
Ġaddor mentata
Ġsinc eritÃł
ĠSu oi
Ġaccompa gnato
Ġringra zia
sen sazione
Ġaccon disc
agi on
Ġmina cci
Ġist into
prop osito
Ġstring e
Ġsbal or
Ġinizia tiva
nuo vo
Ġingl esi
Ġdest inata
sap ere
ĠMe glio
Ġvigi l
Ġprofe ssor
Ġavanz ando
ĠSembra va
Ġaffre ttato
Ġmarina i
rive derci
Ġandar sene
Ġguar do
Ġesamin are
Ġcuri ositÃł
aspetta vo
immag inazione
Ġegoi sta
Ġconti ene
Ġrico p
Ġlev ando
Ġterre no
Ġcresc ente
Ġdomesti ci
Ġdomesti che
Ġturba ta
sor presa
Ġatta cco
Ġfune bre
Ġinfi lato
arca zione
Ġperio do
Ġperio di
Ġmiglia ia
Ġanno tazioni
Ġcomo da
conf orta
Ġrobu sto
Ġosta colo
Ġadd olo
Ġdiaboli ca
Ġstenogra fia
cance llo
desi der
Ġzi tto
dav anti
ĠPur fleet
Ġfunziona ri
pes ante
soli to
uttu osa
racc on
Ġgole tta
Ġsub Ã¬to
Ġsimpa tia
Ġriconos ciuto
Ġralle gra
Ġmanc anza
Ġfrequ enti
Ġfuner ale
Ġingino cchiato
Vol ete
accia io
Ġistru zioni
Ġfess ure
Ġpersua so
capp ella
Ġcigol io
Ġprivile gio
suss ur
Ġspera vo
facc enda
propri e
ĠTh omas
ucch ero
telegra mma
Ġedi ficio
Ġmeto do
Cari ssima
wal es
rabil ia
llera bile
ĠLON DRA
Ġindispensa bile
1 1
1 5
2 2
2 7
2 8
A veva
B orgo
C C
C re
C hi
D om
E d
E n
E bbene
E videntemente
F ino
G uardate
H err
I C
J ohn
M EM
N aturalmente
R O
S O
T ER
T ransilvania
W estenra
a u
a tro
a ggiun
a perto
a mici
a mpia
b ro
b ru
b ora
c ra
c one
c ino
d s
d rÃ²
d est
d endosi
e o
e or
e de
e sso
e tt
e goi
e poca
f uori
g ante
g andosi
g ermi
k a
k u
k ri
l ar
l Ãł
l ene
m ono
m eri
m orto
n ostri
o ss
o ti
o zzato
p est
p ronto
r dini
s k
s Ã¹
s ale
s ura
s ola
s chio
s ela
s cher
t che
t ru
u si
u sto
u zioni
u dire
v unque
Ġ 3
Ġ ol
Ġs po
Ġs fo
Ġs vani
Ġc li
Ġc uo
Ġc ento
Ġc uc
Ġa do
Ġa ggi
Ġa bito
Ġa tter
on iamo
Ġp on
Ġp la
Ġp ani
Ġp osta
re si
re so
ta l
ta tamente
en n
en tare
in zione
in fa
in tor
in felice
Ġm es
Ġm esti
Ġm ese
Ġm erci
te l
te sto
te vole
ra ce
ra gli
ra rle
Ġe h
Ġe tÃł
Ġe terno
Ġdi ca
Ġdi se
Ġdi sto
Ġdi sta
Ġdi chia
Ġdi stri
Ġdi mostra
Ġdi mora
an ciale
ri ce
ri le
ri da
ri spe
ri cor
ri fu
ri guarda
ri fle
he im
ll er
ll ini
un du
ia li
Ġi pnosi
Ġv an
qu and
qu ali
qu esti
Ġf ronti
Ġf olata
Ġf olte
or sa
os pe
ol mente
ol tanto
Ġqu er
Ġin ci
Ġin uti
Ġin fu
Ġin seguito
ar mato
ar mia
Ġde s
Ġde bi
Ġde moni
Ġde cesso
cc ando
Ġt ento
om en
Ġper no
Ġper tanto
Ġper duta
Ġper dono
Ġper dita
va va
Ġla con
Ġla ssÃ¹
Ġg ai
tto la
tto ne
do cu
lla ccio
Ġsu da
Ġsu gg
Ġsu llo
Ġsu olo
Ġsu onata
Ġsu ggeri
Ġcon di
Ġcon tri
ve gliato
di mento
di rmi
Ġse deva
Ġse duti
Ġse gnati
Ġri mp
Ġri sa
Ġri mb
Ġri ten
Ġri ord
Ġri tengo
Ġri acqui
Ġri usc
si len
si gnore
Ġb ontÃł
Ġha i
era ti
era zione
era vamo
mi te
ch iato
tra ti
tra ccia
tra monto
tra sfor
Ġne mici
Ġda bbasso
Ġo do
Ġo gn
Ġo dia
Ġo ccasione
Ġo fferto
so gno
so ggiunto
ce vo
ce la
ce vano
ci li
ci ando
ci Ã²
Ġmi li
Ġca de
Ġca ute
de ci
de gu
ma va
ma ttina
za ta
Ġma ri
Ġma esto
Ġma cchia
mp e
Ġan ne
Ġan geli
Ġal te
Ġcom pro
Ġcom messo
Ġcom prendere
Ġpi glio
Ġpo p
Ġpo lli
Ġpo zza
Ġpo ppa
da lle
da pest
ca ro
ssi vamente
gg in
Ġtu oi
Ġtu ono
Ġcos tu
Ġcos cienza
pp ar
che zza
Ġme tÃł
vi so
vi sta
Ġvi ve
Ġpro v
Ġpro ten
Ġpro fan
Ġpro seguire
Ġpro spettiva
pi ente
Ġdo zzina
ĠS a
Ġfa me
Ġfa cch
Ġfa sti
Ã¬ o
ĠH il
sse tte
tta no
ssa ta
ssa ti
me tri
Ġpre gare
Ġpre ghiera
ing u
Ġlo gica
la ssi
tte vano
mb ali
Ġso ave
po co
uo te
ĠD al
ĠD ard
sp ro
Ġci ve
enti tÃł
enti metri
ran a
ran to
Ġu s
Ġu sa
Ġu mano
Ġu mane
Ġu sata
Ġu scendo
ento so
ĠC e
ĠC h
ĠC and
Ġvol gere
ff e
ĠA lle
ĠA himÃ©
Ġre s
Ġre ale
Ġre quie
Ġre gola
se mi
ĠI mpossibile
ĠI stintivamente
per fe
Ġtra mon
pa sso
pa ura
pa rato
pa rare
Ġqual c
ĠP re
ĠP rendete
Ġte tro
Ġsta vamo
con vinto
Ġave ssero
tri ste
Ġpar co
Ġto n
Ġto cco
Ġto gliere
ini e
ĠN Ã©
ĠN ero
ĠN ostro
sta no
sta zione
Ġno vitÃł
". "
Ġsc u
Ġsc ro
Ġsc esa
Ġsc uro
Ġsc uri
Ġve tri
Ġve cchie
ter ne
ter iori
ne ve
ne anche
gi osa
Ġra ssi
Ġra ggiunto
gu ra
fi sso
na sc
Ġacc esi
Ġsa i
orta bile
Ġcer tamente
Ġcer chia
Ġcer cherÃ²
ona va
ani le
ur ra
Ġmo d
Ġmo to
Ġtro vi
ĠMa giari
Ġfor m
Ġba ssi
Ġba tter
Ġba stato
Ġba stata
Ġta r
Ġta glio
Ġta ppa
ura to
Ġpu l
ĠQu ello
ga ro
ga sse
ga zione
ru denza
and one
and oli
Ġsol uzione
Ġcor si
Ġcor da
Ġcor pi
Ġcor na
Ġdove vamo
Ġfi ss
Ġfi tta
Ġfi ero
Ġfi lo
Ġfi lava
Ġfi dare
chi ssÃł
chi uso
Ġdu ri
ste ssi
su pp
su lle
Ġfar le
Ġfar vi
que i
Ġco lli
ĠG ia
ĠG uardate
st iamo
st ring
com p
ni po
Ġlu gu
ven tura
Ġprop or
Ġdire i
Ġdire tto
Ġdire tta
Ġdire ttamente
Ġch inata
ine tto
Ġqua ttor
Ġsembra ta
cia ssette
Ġsp ing
Ġsp osta
Ġsp into
Ġsp ontan
Ġro v
Ġro ca
Ġro sario
Ġro vina
Ġimp orta
Ġimp rovvi
orri do
fa zione
fa cendo
Ġten da
Ġbi mbo
Ġbi onda
Ġbi glietto
Ġbi cchieri
Ġvolta rsi
Ġgior nale
Ġna use
Ġna rici
Ġaff ari
ul ulare
Ġen ormi
!" ,
Ġvia le
pro te
Ġdopo dichÃ©
ĠT ene
Ġver rÃ²
Ġchia m
Ġchia mata
Ġnu vola
Ġsare bbero
Ġpie to
Ġpie ga
Ġcre p
Ġcre denza
Ġporta le
Ġcol ui
Ġcol pita
Ġcol onna
Ġalle gria
ane lli
for ni
ĠR a
esta te
esta glia
Ġva da
Ġva ga
Ġva rie
Ġva pore
Ġspa zzato
Ġspa vente
Ġsempre chÃ©
gra do
gra ve
Ġparte ci
Ġcar ri
Ġcar ina
Ġman ia
Ġman ten
Ġman cava
ole tto
Ġvo gliamo
Ġtre mendo
Ġtre nta
Ġcara ffa
Ġavre ste
cci ono
lu me
lu enza
Ġser ven
Ġser bo
Ġser eni
ĠPer sino
stra no
du bbio
usci to
usci re
ĠIn ghilterra
Ġparl ano
ge dia
Ġsenti menti
Ġspe ciale
Ġposs ente
Ġdom attina
Ġmor bi
Ġscri ver
ĠU omini
Ġsera ta
Ġcapi ta
Ġcapi tato
mon ia
mon da
pera re
Ġspi ritu
Ġindi cando
Ġveni ssero
Ġcal mo
Ġcal ava
ond in
Ġdia ri
Ġdia voli
Ġris ervato
Ġsape sse
imp e
ĠW inchester
Ġpron tamente
Ġsopra vvi
Ġpens arci
app i
app arenza
Ġrip en
Ġrip osto
Ġsve gli
Ġint eri
Ġint enti
Ġint uire
Ġriusci va
ĠSi gnoria
Ġchie dendo
Ġchie derÃ²
Ġtan e
ze k
Ġesa tto
Ġsap rÃ²
Ġlib eri
Ġpren desse
Ġchiu de
esi mo
esi dero
Ġparti to
Ġparti ta
Ġparti colarmente
Ġr uote
Ġim mer
ala ta
Ġam mi
fo ssero
gio vane
Ġgiu stifi
via le
Ġfu mare
Ġlascia ti
Ġbe vuto
Ġpotre te
Ġesi tare
Ġquali tÃł
Ġni tri
Ġlavo rato
Ġgri gia
Ġgri dava
Ġesser vi
Ġesser ne
Ġtorna te
Ġcam mino
veni te
spi razione
Ġass um
Ġsos ti
Ġsos tenuto
ese mpio
ad dosso
bo cc
bo cca
Ġcen ato
anda va
acc or
acc iato
Ġce le
Ġren devo
Ġul ulato
In dubbiamente
pen s
pen sato
Ġfini re
sare i
Ġscon volta
Ġcu stode
bu on
bu zione
bu ssato
Ġinten ta
Ġmar gini
Do v
Do vete
ĠDi te
ĠDi temi
Ġfra pp
Ġfra sta
Ġconv inti
Ġord ini
Ġpare te
Ġpare nti
ĠDEL LA
Ġgiun ge
Ġtri on
Ġmu cchio
Ġsolle vata
Ġattraver sa
Ġattraver sato
Ġinf ine
Ġsveglia rla
cre dere
Ġdeb oli
Ġnecessa ri
Ġspie gato
Ġabi tu
Ġapri r
Ġsegui ta
Ġbru tta
Ġvole vano
ĠAn diamo
Ġcoper te
ore cchie
Ġprova vo
Ġuni ca
Ġrapi do
Ġpreoccu pato
Ġsto rie
Ġracc olto
infermi era
car ro
car ne
opera zione
cche zze
scia te
Ġpure zza
mani comio
Ġmal ato
Ġfru ste
Ġsoff o
Ġsoff ia
Ġsoff rire
Ġlimi tata
Ġga ran
Ġga bbia
Ġtrov arlo
ĠRi cor
Ġecce llente
Ġfia mmi
Ġritor na
metter si
Ġraga zze
don ne
pote va
pote vo
Ġcarte llo
lun ga
enta li
Ġminu sc
Ġsupp ongo
Ġmaggio ri
Ġmetter li
Ġrespi rando
Ġinterro tta
Ġrin ca
Ġrin tracciare
cava lli
ggior no
ass olutamente
tina ia
Ġsce lta
Ġatt ento
Ġconclu sioni
tere i
Ġcont ento
Ġcont ene
Ġmist erioso
ĠGi udi
menta rio
menta rmi
Ġciasc una
Ġtene bre
Ġtene bra
guard are
Ġdesidera te
Ġdesidera vo
Ġtriste zza
Ġins oli
Ġsuper fi
tran no
Ġov unque
Ġvede vano
Ġraccon tato
Ġselva ggia
An cora
Ġalza ti
Ġface vano
Ġcin quanta
Ġpoli gl
Ġpoli zio
Ġgui sa
ĠCom incio
Ġappari vano
Ġabband ono
Ġabband onato
Ġvelo ci
Ġfan ali
Ġgru ppi
Ġgentile zza
Ġcoraggi osa
mini strato
Ġregi one
Ġspaven ta
Ġspaven tato
pol vere
Ġpercor so
Ġpercor sa
Ġria perto
Ġloc ale
Ġloc ali
Ġtocca ta
Ġsplen didi
Ġimpor tante
Ġchiavi stelli
Ġsbar re
Ġnascon dere
abi sso
Ġstri sce
Ġele menti
Ġele ttri
Ġinca rico
Ġdesider iamo
Ġcape zzale
Ġproba bilitÃł
Ġscen deva
orren te
Ġspiega te
Ġspiega zione
Ġsg omento
Ġbar lume
Ġviva ce
Ġestre mitÃł
Ġestre mamente
Ġcomple ta
Ġcomple tamente
Ġdiscu sso
des co
des heim
Ġslova cco
altri menti
Ġpossi bili
Ġpara g
Ġtratten uto
Ġstar sene
Ġaccen nato
Ġfogli etto
Bu ono
veri tÃł
ĠK ett
Ġmina ccia
Ġist eri
Ġcompren sione
prop ria
Ġprepara tivi
Ġinizia tive
Ġserie tÃł
Ġconten ente
Ġsegn arsi
Ġdattilosc ritti
Ġforni re
Ġmarina io
Ġconvinc ermi
Ġregistra to
ger gli
genti le
ragi one
Ġfanta sie
Ġconsi glio
Ġrispe tti
Ġpipistre lli
ĠMar y
poss ono
acqui sto
Ġsinghio zzi
Ġoccupa ti
acca duto
tur ba
Ġcoll era
Ġaffe zionata
Ġaffi dato
Ġcresc ere
Ġfune bri
Ġleg ali
Ġcomo do
Ġavven tura
Ġcie co
Ġgiura to
Qual cosa
Ġspro fon
Ġmeravigli osa
Ġmeravigli oso
Ġdep osta
Ġoss erva
Ġvie ppiÃ¹
bian ca
ĠAL LA
Ġtesti moni
Ġguer ra
avvi so
Ġindivi duo
appro fi
Ġferm armi
ks hi
muo vere
Ġsinto mi
Ġresti tui
ĠEn d
ĠVer esti
tria mo
atti vitÃł
Ġvor rÃł
Ġsepol ta
Ġriguard ano
Ġotten ere
Ġcostre tti
Ġsore lla
Ġragg el
Ġdubi tare
Ġabbi ano
Ġcameri ere
Ġmalva gio
Gi Ãł
Ness una
Or mai
trere mo
Ġdiss ol
Ġintra l
Ġdebb ano
Ġrial zato
Ġcominci ano
Ġcost ring
ĠStra no
ĠScri vo
Ġsocc orso
Ġfori ero
Ġbizzar ro
Ġvergo gna
Ġgrati tudine
Ġscricchi ol
Ġfebb re
Ġmuover mi
atta cco
Ġoccid entale
Ġcada vere
Ġdog ana
ĠSIGNOR A
sper anza
ĠCro ss
Ġresponsa bilitÃł
Ġacci denti
Ġcordia le
Ġspettra le
Ġspecifi co
Ġindiri zzata
Ġesperi enze
ofa go
sinc ero
Ġomi cida
Ġcess ato
Ġcande la
Ġpsi chi
Ġquarti eri
Ġingre sso
Ġinton tito
Ġperple sso
Ġacco gli
Ġcarre ggiata
ĠHamp stead
Ġsilen zioso
Dom attina
ku kri
lene ss
tche ll
Ġgai ezza
Ġpolli ce
Ġfacch ini
ĠHil desheim
ĠDard anelli
ĠCand y
Ġquattor dici
Ġnause a
ĠKett leness
) ,
1 3
C ON
D U
D e
E Y
E h
E DI
J ack
L ondra
M ia
N e
N ulla
P a
P ure
P uÃ²
Q U
S o
S ul
S arÃł
T or
V o
Y or
a gg
a gu
a zioni
a pri
a ffi
a gente
a mpio
a ture
a himÃ©
b ere
b one
b ran
b ur
b ul
b ordo
b ontÃł
c ru
c anti
c arsi
c arlo
c liff
c espugli
d d
d do
d ui
d ina
d ale
d rato
d estra
d entro
d enze
d dove
e co
e lle
e ccitazione
f un
g ina
g arlo
g ersi
g endomi
h an
i colo
i mbo
i dee
k ele
m ar
m ante
m erito
m arli
n erv
o tt
o ks
p u
p ron
p armi
p rono
p unta
r erÃł
r dino
r landa
s h
s ch
s ento
s anti
s ba
s enz
s bal
s lova
t z
t in
t ini
t ine
t tandosi
u el
u ole
u gna
u more
u mano
u mitÃł
u dano
u fficio
v endo
v arlo
y ar
z oni
Ġ ombra
Ġ kukri
Ġs f
Ġs ente
Ġs che
Ġs pre
Ġs anno
Ġs gra
Ġs bu
Ġs ana
Ġs venire
Ġs vola
Ġs venuta
Ġs guardi
Ġc eri
Ġc ran
Ġc ur
Ġc espugli
Ġc ardini
Ġc entimetri
to llerabile
Ġd ro
Ġd oni
Ġd anno
Ġd arle
Ġd ensa
Ġd inie
er li
er ba
Ġa le
Ġa st
Ġa zioni
Ġa degu
Ġa prono
Ġp ura
Ġp ronte
Ġp rati
re to
re tta
re zione
re gi
re zzo
re zzi
ta ccuino
en tamente
in fi
in na
in vol
in arsi
in col
in tamente
in vece
Ġl ondin
Ġl entamente
Ġm uto
Ġm ane
Ġm esi
Ġm andare
te mp
ra vano
ra ven
Ġe co
Ġe lo
Ġe sca
Ġe seguito
Ġe mer
Ġe ccitazione
Ġe venienza
Ġdi le
Ġdi ur
Ġdi sono
Ġdi sco
Ġdi ritti
an di
an ch
an ca
an chi
an zato
ri tro
ri su
ri sul
ri spon
ri litÃł
Ġn ar
ll ano
ll ando
ll ante
ss t
ti ci
ti more
ti zie
Ġi ra
Ġi gnora
Ġv el
Ġv ane
Ġv into
Ġv orti
ro si
ro tta
Ġf en
Ġf ato
Ġf ero
Ġf ul
or mai
os tre
os tando
os tia
os pita
ol ta
ol ato
Ġin v
Ġin fa
Ġin via
Ġin cre
Ġin cante
Ġin chinato
ar m
ar ro
ar sela
Ġde v
Ġde sse
Ġde tte
Ġde gno
Ġde scrivere
Ġde solato
cc olo
cc orre
Ġt era
al beri
Ġper so
Ġper mettete
va llo
Ġla c
Ġla tte
Ġla ddove
Ġg on
Ġg ar
do pp
mo ria
mo glie
mo vimento
mo tivi
es ia
es co
es pi
es erci
Ġsu ssi
Ġsu gli
Ġsu onato
Ġcon i
Ġcon qui
Ġcon ge
Ġcon fu
Ġcon fon
Ġcon venuto
Ġcon sider
Ġcon voglio
li ssimo
Ġsi bi
Ġsi ffatto
Ġsi garo
ve cchia
Ġnon chÃ©
di f
di do
di sa
di stra
di sco
di stru
di fferenza
Ġse mi
Ġse mp
Ġse mb
Ġse ga
Ġse vero
Ġse dermi
Ġse dersi
Ġse gnato
Ġse cche
Ġse mbi
Ġse ppe
Ġse para
Ġse dile
Ġri di
Ġri ani
Ġri prendere
Ġri tene
Ġri para
Ġri pida
si to
si li
si mi
si cu
no tato
are te
Ġle zioni
Ġle mbo
Ġle gata
mi glio
ch eremo
ch erebbe
tra cce
bb ie
Ġo ro
Ġo pa
Ġo dore
Ġo bbli
so v
so gg
so gna
ce lle
ce con
ci ente
ci gno
ci lmente
Ġmi ra
Ġmi su
Ġmi ssive
le tt
le vato
Ġca deva
Ġca val
Ġca cciato
de li
de le
de gno
ma co
Ġma ce
Ġma sse
Ġan e
Ġan tico
Ġal ba
Ġal ture
Ġcom ando
Ġcom inc
Ġcom presa
Ġpi sto
Ġpi cco
Ġpi anta
Ġpi ttore
Ġpo ver
da vano
ca so
ca ssa
ca stello
sa zioni
tro va
pp unto
Ġme sse
Ġme mbra
Ġme zzi
vi te
el y
ĠM ia
ĠM olto
ĠM urra
Ġvi lla
Ġvi sti
Ġvi colo
Ġvi ssuto
Ġvi cecon
ĠL i
ĠL Ã¬
Ġpro sp
Ġpro ge
Ġpro vvi
Ġpro veni
Ġpro lun
Ġpro dotto
pi an
tt iamo
tt ene
Ġdo sso
Ġdo pp
ĠS U
ĠS an
ĠS ia
ĠS wales
ĠS oltanto
ĠS zek
Ġfa ti
bi sogno
tta rmi
Ġpa sta
Ġpa zza
Ġpa gine
tti e
tti mi
sc u
sc orto
sc ent
me zza
gn ante
Ġpre di
Ġpre zi
Ġpre vi
Ġpre scri
Ġpre visto
Ġpre giudi
ing ann
la sci
la mpa
Ġso do
Ġso ffi
Ġso gnare
Ġso ggiorno
po che
po ter
po ssibile
po vero
po tuto
po ssibilitÃł
uo ter
ĠD E
ĠD unque
ĠD ue
ĠD urante
olo gi
sp osa
sp into
sp alle
Ġci me
Ġci fre
enti eri
Ġu lu
Ġu ffi
Ġu rlo
ĠC hia
Ġvol u
Ġvol uttuosa
gli ano
ĠA i
ĠA ga
Ġre ci
Ġre ver
Ġre pri
Ġre sid
Ġre stato
Ġre azione
Ġre ster
Ġre cati
Ġre spinto
se tti
se gnato
ĠE ssi
ĠE CC
Ġgi ra
Ġgi rando
per ti
per dere
per son
per don
per sino
lo c
lo ra
Ġtra scri
Ġtra scrivere
Ġtra mite
Ġtra gedia
pa ta
pa lli
pa cci
pa vimento
ĠP orta
ĠV ol
ĠV ostra
ĠV ostro
con tra
con sid
tri one
Ġpar li
Ġto ccare
ĠN um
ĠN atura
ĠN iente
sta vano
sta mane
Ġno to
Ġsc uo
Ġsc ura
Ġsc and
Ġsc esi
Ġsc usarmi
Qu a
Qu anto
zz ando
zz ino
zz arsi
zz oletto
Ġve da
Ġve dendo
Ġve dersi
Ġve dono
Ġve diamo
ter rÃ²
ter iore
ne t
ne bbia
uc are
Ġchi cchessia
Ġra di
Ġra ff
Ġra cca
gu ance
fi l
fi tto
fi anco
fi trione
Ġacc are
Ġacc orta
Ġacc esa
Ġacc um
Ġacc ostato
Ġsa ss
Ġsa ggia
Ġsa rai
Ġsa cra
Ġcer co
Ġcer cate
Ġcer chiamo
pre ci
pre ciso
th a
endo ci
bbe di
ur t
ggi anti
zza va
vol ato
vol mente
Ġmo ri
Ġtro ppa
ĠMa mma
Ġba ia
Ġba gno
Ġba ffi
Ġba dare
Ġta vol
Ġpri va
ura re
gni tÃł
der gli
ga tiva
ru f
and rÃł
Ġcor ru
Ġdove ssero
Ġfi r
Ġfi la
Ġfi umi
Ġfi schia
ten tato
chi usa
ria perto
Ġven endo
Ġven iate
Ġter remo
Ġapp arti
glia te
glia va
su ll
su olo
Ġar ti
ha h
cora ggio
Ġco ri
Ġco da
Ġco gli
Ġco zzo
Ġco pri
Ġand remo
