{"!":0,"\"":1,"#":2,"$":3,"%":4,"&":5,"'":6,"(":7,")":8,"*":9,"+":10,",":11,"-":12,".":13,"/":14,"0":15,"1":16,"2":17,"3":18,"4":19,"5":20,"6":21,"7":22,"8":23,"9":24,":":25,";":26,"<":27,"=":28,">":29,"?":30,"@":31,"A":32,"B":33,"C":34,"D":35,"E":36,"F":37,"G":38,"H":39,"I":40,"J":41,"K":42,"L":43,"M":44,"N":45,"O":46,"P":47,"Q":48,"R":49,"S":50,"T":51,"U":52,"V":53,"W":54,"X":55,"Y":56,"Z":57,"[":58,"\\":59,"]":60,"^":61,"_":62,"`":63,"a":64,"b":65,"c":66,"d":67,"e":68,"f":69,"g":70,"h":71,"i":72,"j":73,"k":74,"l":75,"m":76,"n":77,"o":78,"p":79,"q":80,"r":81,"s":82,"t":83,"u":84,"v":85,"w":86,"x":87,"y":88,"z":89,"{":90,"|":91,"}":92,"~":93,"¡":94,"¢":95,"£":96,"¤":97,"¥":98,"¦":99,"§":100,"¨":101,"©":102,"ª":103,"«":104,"¬":105,"®":106,"¯":107,"°":108,"±":109,"²":110,"³":111,"´":112,"µ":113,"¶":114,"·":115,"¸":116,"¹":117,"º":118,"»":119,"¼":120,"½":121,"¾":122,"¿":123,"À":124,"Á":125,"Â":126,"Ã":127,"Ä":128,"Å":129,"Æ":130,"Ç":131,"È":132,"É":133,"Ê":134,"Ë":135,"Ì":136,"Í":137,"Î":138,"Ï":139,"Ð":140,"Ñ":141,"Ò":142,"Ó":143,"Ô":144,"Õ":145,"Ö":146,"×":147,"Ø":148,"Ù":149,"Ú":150,"Û":151,"Ü":152,"Ý":153,"Þ":154,"ß":155,"à":156,"á":157,"â":158,"ã":159,"ä":160,"å":161,"æ":162,"ç":163,"è":164,"é":165,"ê":166,"ë":167,"ì":168,"í":169,"î":170,"ï":171,"ð":172,"ñ":173,"ò":174,"ó":175,"ô":176,"õ":177,"ö":178,"÷":179,"ø":180,"ù":181,"ú":182,"û":183,"ü":184,"ý":185,"þ":186,"ÿ":187,"Ā":188,"ā":189,"Ă":190,"ă":191,"Ą":192,"ą":193,"Ć":194,"ć":195,"Ĉ":196,"ĉ":197,"Ċ":198,"ċ":199,"Č":200,"č":201,"Ď":202,"ď":203,"Đ":204,"đ":205,"Ē":206,"ē":207,"Ĕ":208,"ĕ":209,"Ė":210,"ė":211,"Ę":212,"ę":213,"Ě":214,"ě":215,"Ĝ":216,"ĝ":217,"Ğ":218,"ğ":219,"Ġ":220,"ġ":221,"Ģ":222,"ģ":223,"Ĥ":224,"ĥ":225,"Ħ":226,"ħ":227,"Ĩ":228,"ĩ":229,"Ī":230,"ī":231,"Ĭ":232,"ĭ":233,"Į":234,"į":235,"İ":236,"ı":237,"Ĳ":238,"ĳ":239,"Ĵ":240,"ĵ":241,"Ķ":242,"ķ":243,"ĸ":244,"Ĺ":245,"ĺ":246,"Ļ":247,"ļ":248,"Ľ":249,"ľ":250,"Ŀ":251,"ŀ":252,"Ł":253,"ł":254,"Ń":255,"čĊ":256,"Ġs":257,"Ġc":258,"to":259,"Ġd":260,"er":261,"Ġa":262,"on":263,"Ġp":264,"re":265,"ta":266,"en":267,"in":268,"Ġl":269,"Ġm":270,"te":271,"ra":272,"Ġe":273,"Ġdi":274,"an":275,"ri":276,"Ġn":277,"he":278,"ll":279,"ss":280,"un":281,"ia":282,"ti":283,"Ġi":284,"Ġche":285,"Ġv":286,"qu":287,"ro":288,"Ġf":289,"or":290,"os":291,"ol":292,"Ġqu":293,"Ġun":294,"Ġin":295,"ar":296,"Ġde":297,"Ġh":298,"io":299,"cc":300,"Ġt":301,"om":302,"al":303,"Ġper":304,"Ã¨":305,"va":306,"Ġla":307,"Ġg":308,"tto":309,"do":310,"lla":311,"Ġil":312,"mo":313,"ĠÃ¨":314,"es":315,"Ġsu":316,"Ġcon":317,"ere":318,"li":319,"Ġsi":320,"ve":321,"oi":322,"Ġnon":323,"di":324,"Ġse":325,"Ġri":326,"si":327,"Ġb":328,"Ġha":329,"no":330,"era":331,"ato":332,"are":333,"Ġle":334,"mi":335,"ono":336,"ch":337,"tra":338,"ente":339,"Ġne":340,"bb":341,"Ġda":342,"Ġo":343,"so":344,"ce":345,"ci":346,"Ġmi":347,"le":348,"Ġca":349,"ui":350,"de":351,"ma":352,"za":353,"Ġma":354,"co":355,"sso":356,"mp":357,"zi":358,"Ġan":359,"Ġal":360,"Ġcom":361,"Ãł":362,"Ġpi":363,"ano":364,"Ġpo":365,"Ã©":366,"iamo":367,"tan":368,"da":369,"vo":370,"ca":371,"one":372,"sa":373,"Ġuna":374,"Ġho":375,"hi":376,"ssi":377,"gg":378,"Ġtu":379,"Ġcos":380,"tro":381,"pp":382,"che":383,"Ġme":384,"Ġsono":385,"vi":386,"el":387,"ĠM":388,"Ġvi":389,"ĠL":390,"tato":391,"Ġpro":392,"pi":393,"chÃ©":394,"tt":395,"Ã¹":396,"Ġdo":397,"lle":398,"ĠS":399,"ando":400,"Ġfa":401,"uto":402,"bi":403,"mente":404,"Ã¬":405,"ĠH":406,"Ġques":407,"sse":408,"tta":409,"Ġpa":410,"ero":411,"ssa":412,"Ã²":413,"tti":414,"sc":415,"llo":416,"me":417,"ina":418,"gn":419,"Ġpre":420,"Ġdel":421,"ing":422,"Ġlo":423,"tre":424,"la":425,"ĠpiÃ¹":426,"tte":427,"gl":428,"mb":429,"Ġso":430,"Ġav":431,"po":432,"uo":433,"ĠD":434,"eri":435,"Ġera":436,"olo":437,"Ġcome":438,"sp":439,"Ġci":440,"enti":441,"ran":442,"Ġu":443,"ento":444,"ĠC":445,"Ġvol":446,"gli":447,"ene":448,"ff":449,"ĠA":450,"Ġre":451,"Ġ\"":452,"se":453,"zione":454,"ĠE":455,"ĠI":456,"Ġdella":457,"Ġgi":458,"per":459,"sto":460,"tÃł":461,"Ġvoi":462,"Ġlui":463,"lo":464,"Ġtra":465,"Ġio":466,"Ġgli":467,"tu":468,"pa":469,"Ġqual":470,"ĠP":471,"enza":472,"ĠcosÃ¬":473,"ĠV":474,"Ġte":475,"Ġsta":476,"ino":477,"con":478,"Ġnoi":479,"ĠperchÃ©":480,"Ġque":481,"Ġave":482,"tri":483,"Ġpar":484,"Ġto":485,"ini":486,"ĠN":487,"sta":488,"Ġno":489,"\".":490,"dere":491,"Ġsua":492,"Ġsc":493,"Qu":494,"zz":495,"Ġve":496,"anto":497,"ter":498,"Ġalla":499,"bbiamo":500,"ne":501,"uc":502,"gi":503,"Ġchi":504,"gno":505,"Ġess":506,"vano":507,"go":508,"pe":509,"Ġsuo":510,"Ġra":511,"gu":512,"fi":513,"na":514,"cch":515,"Ġacc":516,"Ġsa":517,"orta":518,"Ġmio":519,"Ġquesto":520,"cchi":521,"Ġcer":522,"oni":523,"pre":524,"Ġquando":525,"Ġ-":526,"th":527,"ona":528,"endo":529,"bbe":530,"ani":531,"rio":532,"Ġtutto":533,"iato":534,"lli":535,"Ġnos":536,"ur":537,"ggi":538,"zza":539,"Ġstato":540,"vol":541,"sing":542,"Ġmo":543,"osa":544,"tanto":545,"Ġmia":546,"Ġtro":547,"bile":548,"Ġdetto":549,"ale":550,"ucy":551,"ĠMa":552,"Ġfo":553,"mpo":554,"elsing":555,"Ġfin":556,"glio":557,"Ġfor":558,"Ġba":559,"Ġfatto":560,"Ġta":561,"Ġpri":562,"ura":563,"ver":564,"fe":565,"gni":566,"Ġessere":567,"Ġpu":568,"ĠQu":569,"der":570,"onte":571,"Ġcui":572,"ĠLucy":573,"ga":574,"ru":575,"ĠHelsing":576,"and":577,"ĠVan":578,"Ġsol":579,"esto":580,"Ġcor":581,"Ġdove":582,"Ġfi":583,"Ġall":584,"mbra":585,"ĠNon":586,"ten":587,"sci":588,"Ġmen":589,"chi":590,"..":591,"Ġdu":592,"ste":593,"ria":594,"Ġven":595,"Ġpen":596,"Ġquanto":597,"Ġnel":598,"Ġter":599,".\"":600,"osi":601,"Ġsiamo":602,"Ġapp":603,"glia":604,"uta":605,"su":606,"Ġar":607,"Ġste":608,"Ġfar":609,"Ġanche":610,"ĠJ":611,"ĠIl":612,"ha":613,"que":614,"cora":615,"anno":616,"Ġco":617,"Ġmol":618,"anti":619,"ĠG":620,"Ġnella":621,"Ġpoi":622,"una":623,"ard":624,"Ġand":625,"ggio":626,"Ġvos":627,"mpre":628,"ali":629,"Ġprima":630,"vato":631,"st":632,"unto":633,"com":634,"Ġli":635,"Ġad":636,"Ġtutti":637,"ĠpuÃ²":638,"cato":639,"Ġquesta":640,"Ġabbiamo":641,"ni":642,"Ġlu":643,"ven":644,"ssore":645,"ola":646,"Ġsul":647,"ord":648,"Ġprop":649,"Ġstra":650,"fessore":651,"ba":652,"Ġquel":653,"Ġdire":654,"omento":655,"Ġsia":656,"Ġch":657,"Ġfare":658,"stan":659,"ine":660,"ho":661,"Ġqua":662,"Ġsembra":663,"Ġloro":664,"cia":665,"Ġsp":666,"Ġgran":667,"Ġsolo":668,"uno":669,"ĠMina":670,"osto":671,"Ġbene":672,"Ġgu":673,"Ġlei":674,"?\"":675,"Ġtanto":676,"cca":677,"Ġro":678,"ante":679,"Ġtor":680,"men":681,"Ġdal":682,"Ġqui":683,"Ġimp":684,"Ġcosa":685,"Ġaveva":686,"Ġuom":687,"Ġstan":688,"Ġami":689,"orri":690,"qui":691,"Ġmano":692,"fa":693,"ttor":694,"ĠSe":695,"Ġtempo":696,"Ġten":697,"Ġbi":698,"Ġvolta":699,"than":700,"onathan":701,"Ġbu":702,"Ġgior":703,"sti":704,"ÃĪ":705,"Ġna":706,"oso":707,"cu":708,"Ġaff":709,"ena":710,"Ġprofessore":711,"ĠHo":712,"Ġquella":713,"zioni":714,"Ġnotte":715,"Ġai":716,"Ġmai":717,"Ġfosse":718,"gui":719,"ul":720,"Ġancora":721,"erano":722,"rato":723,"orto":724,"Ġocchi":725,"ccia":726,"vere":727,"Ġen":728,"enz":729,"Ġsenza":730,"arsi":731,"Ġdalla":732,"Ġsigno":733,"ete":734,"mento":735,"Ġti":736,"cchio":737,"!\"":738,"ron":739,"Ġvia":740,"ĠLa":741,"AR":742,"cosa":743,"pro":744,"duto":745,"Ġdei":746,"Ġdopo":747,"zzo":748,"Ġmie":749,"Ġstata":750,"ĠT":751,"Ġver":752,"Ġuno":753,"Ġcasa":754,"ĠConte":755,"Ġchia":756,"Ġnu":757,"Ġdelle":758,"Ġvisto":759,"tare":760,"Ġpote":761,"ĠMi":762,"gnor":763,"Ġsare":764,"Ġmomento":765,"Ġpie":766,"ĠAr":767,"Ġessa":768,"non":769,"Ġcre":770,"col":771,"ure":772,"inu":773,"Ġlun":774,"spe":775,"Ġporta":776,"cco":777,"Ġcol":778,"Ġalle":779,"Ġora":780,"llora":781,"cor":782,"Ġson":783,"ane":784,"cce":785,"for":786,"ĠR":787,"Ġabb":788,"Ġogni":789,"Ġaltri":790,"thur":791,"vamo":792,"esta":793,"ĠJonathan":794,"ĠB":795,"Ġdor":796,"Ġed":797,"Ġva":798,"ome":799,"desso":800,"ker":801,"Ġspa":802,"indi":803,"uore":804,"Ġmentre":805,"Ġmolto":806,"rmi":807,"menti":808,"armi":809,"Ġgra":810,"Ġben":811,"ĠDio":812,"Ġamico":813,"ĠO":814,"Ġdell":815,"Ġsempre":816,"Ġerano":817,"Ġvolto":818,"ĠÃĪ":819,"inc":820,"osta":821,"Ġpot":822,"dente":823,"gra":824,"Ġparte":825,"Ġdue":826,"arker":827,"altro":828,"tura":829,"unque":830,"Ġlasc":831,"Ġsignor":832,"Ġrisp":833,"Ġcar":834,"Ġman":835,"Ġness":836,"pri":837,"ole":838,"ssimo":839,"Ġaver":840,"Ġmodo":841,"uni":842,"Ġvo":843,"Ġtre":844,"iata":845,"Ġcara":846,"Ġavre":847,"Ġquale":848,"cci":849,"lu":850,"Ġser":851,"Ġmani":852,"Ġpov":853,"Ġcose":854,"ĠPer":855,"av":856,"Ġcuore":857,"Non":858,"stra":859,"Ġvita":860,"du":861,"il":862,"usci":863,"Ġsuoi":864,"ĠIn":865,"Ġparl":866,"pra":867,"Ġchiesto":868,"ge":869,"par":870,"tten":871,"Ġsenti":872,"angu":873,"Ġsulla":874,"ppo":875,"Ġqualcosa":876,"Ġstesso":877,"Ġquasi":878,"Ġstanza":879,"Ġsignora":880,"oli":881,"dito":882,"Ġnostra":883,"stante":884,"Ġentra":885,"ĠArthur":886,"Ġfuo":887,"Ġletto":888,"Ġcerto":889,"omi":890,"ttere":891,"ffi":892,"Ġallora":893,"estra":894,"Ġtutte":895,"orre":896,"Ġhanno":897,"fer":898,"Ġsal":899,"ppure":900,"Ġproprio":901,"rÃ²":902,"Ġrima":903,"bito":904,"Ġqualche":905,"...":906,"Ġspe":907,"Ġadesso":908,"ondo":909,"Ġposs":910,"Ġdom":911,"Ġmor":912,"osc":913,"mpi":914,"Ġdottor":915,"ĠHarker":916,"Ġnostro":917,"ave":918,"tinu":919,"vare":920,"lice":921,"Ġanda":922,"ssione":923,"Ġtutta":924,"ess":925,"od":926,"Ġgio":927,"Ġavuto":928,"Ġscri":929,"Ġuomini":930,"ĠU":931,"sione":932,"bili":933,"Ġpreso":934,"guar":935,"zia":936,"Ġsco":937,"Ġpunto":938,"Ġfre":939,"Ġaltro":940,"dam":941,"gna":942,"Ġgiorno":943,"angue":944,"mato":945,"end":946,"arÃł":947,"Ġparo":948,"Ġarri":949,"ella":950,"Ġpe":951,"inato":952,"ĠPoi":953,"ora":954,"rsi":955,"Ġsera":956,"altra":957,"Ġcapi":958,"tter":959,"Ġsarebbe":960,"mon":961,"sia":962,"Ġdon":963,"Ġaper":964,"Ġdeve":965,"Ġsue":966,"Ġlungo":967,"pera":968,"ssero":969,"ĠSono":970,"ĠgiÃł":971,"Ġguard":972,"gia":973,"rÃł":974,"usa":975,"Ġspi":976,"rito":977,"Ġindi":978,"ccu":979,"Ġquello":980,"Ġveni":981,"gere":982,"ĠF":983,"Ġcal":984,"ond":985,"Ġgrande":986,"ĠnÃ©":987,"Ġpers":988,"cos":989,"eme":990,"mma":991,"Ġdia":992,"ostra":993,"Ġris":994,"ĠIo":995,"Ġsape":996,"Ġfe":997,"Ġvostra":998,"Ma":999,"imp":1000,"lmente":1001,"rlo":1002,"ĠW":1003,"Ġor":1004,"Ġsor":1005,"Ġpron":1006,"esti":1007,"Ġdav":1008,"Ġsopra":1009,"Ġmeno":1010,"Ġpens":1011,"Ġtorn":1012,"tamente":1013,"Ġdisp":1014,"Ġcompi":1015,"ĠHa":1016,"app":1017,"Ġrif":1018,"Ġrip":1019,"ssibile":1020,"ssai":1021,"Ġandato":1022,"guito":1023,"enzio":1024,"Ġero":1025,"Ġsve":1026,"Ġnuo":1027,"Ġint":1028,"more":1029,"Ġsil":1030,"Ġriusci":1031,"ĠSi":1032,"Ġfinestra":1033,"Ġdormi":1034,"Ġsangue":1035,"Ġpor":1036,"elo":1037,"scio":1038,"ĠDI":1039,"tud":1040,"Ġchie":1041,"\",":1042,"sono":1043,"zo":1044,"bbia":1045,"Ġcaso":1046,"Ġacca":1047,"Ġuomo":1048,"Ġverso":1049,"bre":1050,"Ġtan":1051,"Ġistante":1052,"ĠperÃ²":1053,"Ġsiete":1054,"Ġposso":1055,"Ġvostro":1056,"Ġsonno":1057,"ze":1058,"Ġdice":1059,"Ġdov":1060,"Ġforse":1061,"colo":1062,"ming":1063,"ĠsÃ¬":1064,"ince":1065,"Ġevi":1066,"alming":1067,"Ġmeglio":1068,"eld":1069,"Ġterri":1070,"odalming":1071,"cendo":1072,"ĠsarÃł":1073,"Ġesa":1074,"Ġfer":1075,"Ġavevo":1076,"field":1077,"Ġsap":1078,"Ġluce":1079,"enfield":1080,"Ġsubito":1081,"mai":1082,"Ġusci":1083,"vole":1084,"Ġsoli":1085,"incey":1086,"aria":1087,"ren":1088,"Ġesso":1089,"anza":1090,"Ġtroppo":1091,"Ġsilenzio":1092,"ari":1093,"Ġvic":1094,"Ġvedere":1095,"Ġterra":1096,"Ġlib":1097,"Ġnulla":1098,"ttra":1099,"Ġinter":1100,"bbene":1101,"dete":1102,"Ġpren":1103,"ĠMadam":1104,"Ġpiedi":1105,"uom":1106,"ward":1107,"Ġdato":1108,"Ġassai":1109,"Ġpia":1110,"deva":1111,"ĠLe":1112,"Ġchiu":1113,"Ġtrovato":1114,"Ġpovera":1115,"Ġfuori":1116,"IO":1117,"tano":1118,"Ġdevo":1119,"esi":1120,"Ġparti":1121,"TT":1122,"etro":1123,"oh":1124,"vero":1125,"Ġr":1126,"tor":1127,"Ġim":1128,"qua":1129,"ala":1130,"sid":1131,"Ġani":1132,"Ġsotto":1133,"Ġavete":1134,"preso":1135,"Ġam":1136,"Ġdeci":1137,"chia":1138,"Ġcapo":1139,"ĠfinchÃ©":1140,"come":1141,"Ġmiei":1142,"EL":1143,"ttato":1144,"Ġpaura":1145,"ER":1146,"fo":1147,"Ġnell":1148,"Ġtono":1149,"orris":1150,"evo":1151,"gio":1152,"Ġsca":1153,"anche":1154,"Ġtran":1155,"Ġlegg":1156,"Ġgiu":1157,"Ġfine":1158,"Ġandare":1159,"Ġsembrava":1160,"ARIO":1161,"dre":1162,"man":1163,"rdi":1164,"via":1165,"Ġfu":1166,"est":1167,"Ġbo":1168,"zie":1169,"Ġquesti":1170,"ĠGodalming":1171,"atto":1172,"pli":1173,"ronte":1174,"uti":1175,"zato":1176,"Ġfino":1177,"ccio":1178,"Ġappena":1179,"ĠRenfield":1180,"OR":1181,"care":1182,"etto":1183,"stato":1184,"Ġsen":1185,"into":1186,"Ġcontro":1187,"Ġcontinu":1188,"Ġore":1189,"uogo":1190,"pren":1191,"ĠSeward":1192,"ohn":1193,"zio":1194,"Ġaspe":1195,"Ġbra":1196,"del":1197,"Ġpicc":1198,"Ġsole":1199,"Ġlascia":1200,"Ġrimasto":1201,"Ġmorte":1202,"Il":1203,"ghi":1204,"Ġbe":1205,"Ġpotre":1206,"ĠEra":1207,"Ġtale":1208,"Ġpotuto":1209,"cer":1210,"fu":1211,"vvi":1212,"rore":1213,"arlo":1214,"dire":1215,"mbre":1216,"ĠQuincey":1217,"Ġvoce":1218,"utto":1219,"tivo":1220,"Ġaltre":1221,"ggia":1222,"ĠDo":1223,"ac":1224,"Ġesi":1225,"Ġconto":1226,"ĠMorris":1227,"erito":1228,"ffer":1229,"Ġquali":1230,"Ġtardi":1231,"ĠJohn":1232,"Ġnessuno":1233,"Ġdiario":1234,"sca":1235,"Ġatten":1236,"Ġni":1237,"bbra":1238,"Ġdall":1239,"ttamente":1240,"perchÃ©":1241,"ĠVoi":1242,"Per":1243,"cio":1244,"sce":1245,"ĠlÃł":1246,"rie":1247,"Ġlavo":1248,"Ġgri":1249,"messo":1250,"Ġesser":1251,"Ġbian":1252,"Ġecco":1253,"Ġperi":1254,"Ġge":1255,"Ġsimi":1256,"ceva":1257,"Ġalc":1258,"cchia":1259,"Ġstessa":1260,"guardo":1261,"uscio":1262,"Ġporto":1263,"Ġesp":1264,"Ġinsi":1265,"Ġcaro":1266,"ssima":1267,"Ġtorna":1268,"Ġpossiamo":1269,"cura":1270,"Ġdol":1271,"erÃ²":1272,"Ġpes":1273,"rare":1274,"almente":1275,"Ġcam":1276,"Ġpoco":1277,"Ġpresto":1278,"rante":1279,"Ġrepli":1280,"veni":1281,"spi":1282,"Ġass":1283,"Ġtesta":1284,"zzato":1285,"azione":1286,"min":1287,"mare":1288,"Ġsos":1289,"Ġassi":1290,"Ġfronte":1291,"ese":1292,"Ġsette":1293,"Ġneppure":1294,"Ġcava":1295,"ziente":1296,"ĠLord":1297,"Ġcir":1298,"ĠQuando":1299,"Ġbiso":1300,"inciato":1301,"dentemente":1302,"ttraver":1303,"La":1304,"ad":1305,"bo":1306,"Ġcen":1307,"anda":1308,"Ġsebbene":1309,"Ġanzi":1310,"ĠciÃ²":1311,"ĠPo":1312,"Ġragi":1313,"volto":1314,"Ġsoltanto":1315,"Ġpensi":1316,"sul":1317,"Ġabbia":1318,"ĠUn":1319,"DI":1320,"acc":1321,"dendo":1322,"duta":1323,"gre":1324,"ser":1325,"sco":1326,"Ġmente":1327,"Ġessi":1328,"Ġlabbra":1329,"Ġsulle":1330,"Ġnelle":1331,"Ġmatt":1332,"ĠLui":1333,"Ġdobbiamo":1334,"Ġpass":1335,"Ġquell":1336,"ggiun":1337,"Ġparlare":1338,"Ġterribile":1339,"uomo":1340,"all":1341,"Ġce":1342,"Ġpun":1343,"eno":1344,"Ġdesid":1345,"vello":1346,"dea":1347,"mplice":1348,"Ġmesso":1349,"mba":1350,"Ġren":1351,"Ġresta":1352,"Ġnostri":1353,"meno":1354,"IN":1355,"duc":1356,"ĠsÃ©":1357,"Ġac":1358,"ĠlÃ¬":1359,"Ġluogo":1360,"Ġvero":1361,"esa":1362,"chio":1363,"Ġul":1364,"glie":1365,"Ġdonna":1366,"In":1367,"zzi":1368,"tata":1369,"ance":1370,"rima":1371,"rovvi":1372,"ostro":1373,"Ġquindi":1374,"Ġmarito":1375,"Ġqueste":1376,"ttare":1377,"scri":1378,"olore":1379,"Ġvecchio":1380,"Ġfarlo":1381,"Ġreplicato":1382,"!\".":1383,"dato":1384,"mano":1385,"pen":1386,"uÃ²":1387,"Ġsguardo":1388,"Ġmale":1389,"une":1390,"Ġconosc":1391,"Ġbal":1392,"Ġcasse":1393,"vic":1394,"ttorno":1395,"Ġvenire":1396,"Ġsettembre":1397,"dor":1398,"mane":1399,"rla":1400,"tica":1401,"Ġfini":1402,"Ġries":1403,"Ġquelle":1404,"cchÃ©":1405,"ĠOh":1406,"Ġrisposto":1407,"ondra":1408,"Ġormai":1409,"Ġtranqui":1410,"Ġniente":1411,"Mi":1412,"gato":1413,"sare":1414,"Ġru":1415,"Ġscon":1416,"Ġcu":1417,"infer":1418,"Ġmorta":1419,"quando":1420,"Ġconos":1421,"Ġnece":1422,"Ġforza":1423,"Ġdubb":1424,"Ġvenuto":1425,"Ġrisposta":1426,"Ġdolce":1427,"DIARIO":1428,"bu":1429,"dia":1430,"fon":1431,"occu":1432,"int":1433,"Ġinten":1434,"mico":1435,"Ġcassa":1436,"detto":1437,"Ġpres":1438,"Ġpreci":1439,"Ġstava":1440,"dermi":1441,"stanza":1442,"Ġnave":1443,"Ġavrebbe":1444,"abbiamo":1445,"Ġst":1446,"Ġdunque":1447,"tale":1448,"Ġmar":1449,"temi":1450,"ĠSE":1451,"Ġstati":1452,"Ġscor":1453,"Ġnostre":1454,"Ġstrada":1455,"Ġparole":1456,"monto":1457,"Do":1458,"dio":1459,"etti":1460,"vento":1461,"eni":1462,"Ġluna":1463,"Ġes":1464,"arda":1465,"arla":1466,"tante":1467,"ĠLondra":1468,"ĠDi":1469,"Ġudito":1470,"Ġvolte":1471,"Ġaccanto":1472,"Ġtrova":1473,"andosi":1474,"Ġdovete":1475,"stello":1476,"Ġlupi":1477,"Ġbuon":1478,"ulti":1479,"Ġparola":1480,"Ġbisogno":1481,"Ho":1482,"OTT":1483,"bra":1484,"denza":1485,"ghe":1486,"rci":1487,"Ġstud":1488,"Ġagi":1489,"ontan":1490,"Ġegli":1491,"Ġfra":1492,"ordo":1493,"arci":1494,"Ġconv":1495,"Ġlett":1496,"Ġcomp":1497,"Ġcominciato":1498,"ĠAl":1499,"cchiata":1500,"gnifi":1501,"ĠGli":1502,"Ġcarro":1503,"Ġinsieme":1504,"OTTOR":1505,"WAR":1506,"iÃ¹":1507,"Ġord":1508,"Ġpare":1509,"Ġmare":1510,"Ġmondo":1511,"Ġdiffi":1512,"Ġdicendo":1513,"Ġgia":1514,"Ġsecon":1515,"Ġseguito":1516,"Ġavere":1517,"ĠDEL":1518,"ĠCon":1519,"ĠCome":1520,"Ġgiun":1521,"Ġcervello":1522,"orriso":1523,"Ġtornato":1524,"Ġdormire":1525,"Ġbocca":1526,"Ġcavalli":1527,"ĠSEWAR":1528,"ĠSEWARD":1529,"',":1530,"RA":1531,"Sono":1532,"Ġag":1533,"Ġposto":1534,"qual":1535,"Ġdegli":1536,"Ġtri":1537,"Ġrive":1538,"Ġnei":1539,"Ġnebbia":1540,"Ġcapp":1541,"tando":1542,"Ġtur":1543,"Ġbamb":1544,"Ġprimo":1545,"Ġstrano":1546,"Ġgiorni":1547,"Ġsignorina":1548,"Ġlavoro":1549,"cri":1550,"lare":1551,"Ġsb":1552,"Ġdarsi":1553,"entro":1554,"Ġmu":1555,"rata":1556,"Ġricor":1557,"della":1558,"Ġpalli":1559,"Ġpaziente":1560,"Ġsolle":1561,"ĠDOTTOR":1562,"ĠNoi":1563,"presa":1564,"andato":1565,"Ġaffer":1566,"Ġlasciato":1567,"essere":1568,"Ġaperto":1569,"cosÃ¬":1570,"Ġsimile":1571,"Oh":1572,"Ġattraver":1573,"rire":1574,"olto":1575,"Ġinf":1576,"ccato":1577,"Ġgen":1578,"eso":1579,"Ġconse":1580,"Ġsemplice":1581,"Ġotto":1582,"Ġvista":1583,"stru":1584,"Ġpovero":1585,"Ġdavvero":1586,"Ġsveglia":1587,"Ġchiuso":1588,"?\".":1589,"lui":1590,"noi":1591,"ua":1592,"um":1593,"anta":1594,"vamente":1595,"Ġgenti":1596,"este":1597,"citÃł":1598,"Ġvisi":1599,"ranno":1600,"Ġtramonto":1601,"Ġcora":1602,"Ġamici":1603,"Ġgiov":1604,"Ġdavanti":1605,"ai":1606,"impre":1607,"rere":1608,"stu":1609,"Ġon":1610,"Ġsper":1611,"Ġsorta":1612,"Ġsfor":1613,"Ġpol":1614,"Ġesse":1615,"ccome":1616,"espre":1617,"Ġpossa":1618,"Ġquest":1619,"ttimo":1620,"Ġprepa":1621,"seguito":1622,"Ġtratta":1623,"mpossibile":1624,"mentato":1625,"enze":1626,"Ġsignore":1627,"Ġpersino":1628,"Ġsapere":1629,"Ġlettera":1630,"Van":1631,"cre":1632,"idea":1633,"mmo":1634,"ins":1635,"incia":1636,"Ġveri":1637,"quanto":1638,"Ġdeb":1639,"iori":1640,"Ġgro":1641,"ttore":1642,"bba":1643,"Ġdalle":1644,"mata":1645,"mpa":1646,"Ġmezzo":1647,"scor":1648,"mbo":1649,"Ġparso":1650,"Ġscom":1651,"volta":1652,"Ġlie":1653,"Ġgrandi":1654,"Ġnasc":1655,"Ġabba":1656,"Ġnuovo":1657,"Ġsolito":1658,"Ġnecessa":1659,"Ġdubbio":1660,"Jonathan":1661,"mor":1662,"stri":1663,"ster":1664,"ttro":1665,"Ġsci":1666,"Ġsento":1667,"ersi":1668,"tar":1669,"tate":1670,"entre":1671,"Ġmostra":1672,"devo":1673,"gliato":1674,"Ġvolete":1675,"Ġstate":1676,"Ġservi":1677,"Ġspie":1678,"Ġpensare":1679,"espressione":1680,"KER":1681,"cuno":1682,"ute":1683,"voi":1684,"Ġdolore":1685,"Ġabi":1686,"Ġatte":1687,"Ġapri":1688,"Ġattorno":1689,"tico":1690,"Ġsegui":1691,"Ġbru":1692,"bbero":1693,"Ġpossibile":1694,"sazione":1695,"Ġvole":1696,"ĠAn":1697,"ggiunto":1698,"dersi":1699,"Ġcoper":1700,"Ġviaggio":1701,"aveva":1702,"rovviso":1703,"Ġottobre":1704,"Se":1705,"by":1706,"cere":1707,"clu":1708,"ello":1709,"gare":1710,"ore":1711,"son":1712,"Ġos":1713,"Ġsorriso":1714,"ontÃł":1715,"remo":1716,"Ġesc":1717,"oltre":1718,"Ġconf":1719,"Ġripreso":1720,"Ġcastello":1721,"ppa":1722,"Ġprova":1723,"pito":1724,"Ġfatta":1725,"ĠHAR":1726,"mettere":1727,"inata":1728,"gnato":1729,"ĠCi":1730,"Ġquelli":1731,"Ġforte":1732,"Ġmolte":1733,"Ġmolti":1734,"ĠpoichÃ©":1735,"venuto":1736,"Ġnatura":1737,"Ġarriva":1738,"Ġintere":1739,"Ġdovuto":1740,"Ġevidentemente":1741,"Ġdeciso":1742,"ĠHARKER":1743,"edi":1744,"tby":1745,"Ġz":1746,"Ġstre":1747,"erÃł":1748,"entra":1749,"ande":1750,"Ġuni":1751,"hitby":1752,"Ġviene":1753,"piÃ¹":1754,"ĠgiÃ¹":1755,"Ġavesse":1756,"Ġrapi":1757,"fatti":1758,"curo":1759,"Ġaffatto":1760,"Ġpotete":1761,"coltÃł":1762,"Ġfuoco":1763,"Ġpossono":1764,"Ġdonne":1765,"Ġaccaduto":1766,"Ġprendere":1767,"Voi":1768,"ciato":1769,"len":1770,"tui":1771,"Ġdare":1772,"rebbe":1773,"tazione":1774,"Ġdico":1775,"ang":1776,"ann":1777,"esten":1778,"Ġdai":1779,"legra":1780,"Ġcausa":1781,"Ġalzato":1782,"bilmente":1783,"Ġpreoccu":1784,"ĠChe":1785,"Ġresto":1786,"Ġavevano":1787,"zze":1788,"nata":1789,"olazione":1790,"Ġbuio":1791,"Ġnessuna":1792,"Ġavrei":1793,"Ġdispera":1794,"AN":1795,"Helsing":1796,"dono":1797,"fini":1798,"ie":1799,"lto":1800,"mio":1801,"Ġsto":1802,"Ġsing":1803,"tati":1804,"enso":1805,"enda":1806,"tempo":1807,"Ġdietro":1808,"Ġincon":1809,"Ġgola":1810,"Ġopera":1811,"zion":1812,"Ġpoter":1813,"cata":1814,"sembra":1815,"Ġnoti":1816,"Ġnotato":1817,"gior":1818,"Ġracc":1819,"Ġdurante":1820,"Ġstessi":1821,"cula":1822,"Ġchiave":1823,"Ġsentito":1824,"Ġsapete":1825,"Ġcamera":1826,"Ġulti":1827,"infermi":1828,"Ar":1829,"Lucy":1830,"car":1831,"hanno":1832,"kins":1833,"opera":1834,"smo":1835,"ulla":1836,"Ġsali":1837,"Ġdentro":1838,"ontano":1839,"tile":1840,"Ġieri":1841,"cche":1842,"vece":1843,"Ġmedi":1844,"scia":1845,"tutto":1846,"Quando":1847,"Ġcerte":1848,"Ġtrovare":1849,"verti":1850,"Ġpure":1851,"ĠQuesto":1852,"Ġcorpo":1853,"Ġtener":1854,"Ġspalle":1855,"Ġentrare":1856,"Ġrifle":1857,"tudine":1858,"Ġvicino":1859,"ducia":1860,"Ġsperanza":1861,"aspe":1862,"fin":1863,"mani":1864,"tero":1865,"Ġmos":1866,"Ġmal":1867,"racula":1868,"questo":1869,"Ġfru":1870,"oluta":1871,"Ġgesto":1872,"dosso":1873,"Ġsuss":1874,"Ġsignifi":1875,"Ġoggi":1876,"Ġpian":1877,"vimento":1878,"Ġproce":1879,"Ġsoff":1880,"Ġavvic":1881,"erienza":1882,"ĠCar":1883,"Ġtomba":1884,"ĠNe":1885,"Ġforma":1886,"Ġcollo":1887,"Ġlimi":1888,"Ġguarda":1889,"guarda":1890,"Ġpensato":1891,"Ġpiccolo":1892,"INA":1893,"estenra":1894,"lato":1895,"prio":1896,"inter":1897,"Ġlan":1898,"Ġeff":1899,"Ġdimenti":1900,"ancora":1901,"ritto":1902,"Ġvento":1903,"Ġga":1904,"vete":1905,"Ġbella":1906,"Ġoccu":1907,"Ġalmeno":1908,"Ġcompa":1909,"ttura":1910,"Ġfaceva":1911,"med":1912,"Ġpreda":1913,"Ġ-,":1914,"Ġtrov":1915,"Ġfossero":1916,"Ġcorri":1917,"sua":1918,"Ġarre":1919,"coli":1920,"ĠRi":1921,"Ġmangia":1922,"siasi":1923,"improvviso":1924,"Ġportato":1925,"Ġdebole":1926,"No":1927,"ON":1928,"dini":1929,"gono":1930,"mia":1931,"mbi":1932,"occhi":1933,"ume":1934,"venti":1935,"Ġsba":1936,"Ġcolo":1937,"Ġdenti":1938,"Ġpran":1939,"inti":1940,"Ġecce":1941,"anz":1942,"ssÃł":1943,"Ġfia":1944,"Ġferi":1945,"arg":1946,"esp":1947,"Ġsiccome":1948,"Ġritor":1949,"mitero":1950,"Ġneve":1951,"cile":1952,"cati":1953,"Ġcosta":1954,"vitÃł":1955,"Ġprote":1956,"ĠSta":1957,"Ġfaccia":1958,"metter":1959,"Ġprece":1960,"lava":1961,"mbe":1962,"rand":1963,"ĠAve":1964,"stata":1965,"Ġraga":1966,"cchie":1967,"Ġpensa":1968,"mpiro":1969,"Ġfred":1970,"endosi":1971,"Ġfelice":1972,"Ġtanta":1973,"rente":1974,"Ġpotrebbe":1975,"Ġpericolo":1976,"Ġcirca":1977,"Ġmattino":1978,"ggiungere":1979,"Ġfinito":1980,"Ġstudio":1981,"am":1982,"alla":1983,"don":1984,"diamo":1985,"ei":1986,"eter":1987,"male":1988,"ndo":1989,"occhio":1990,"rvi":1991,"sato":1992,"ermi":1993,"Ġagli":1994,"Ġdisc":1995,"ritÃł":1996,"Ġimpossibile":1997,"Ġvuo":1998,"Ġfun":1999,"ose":2000,"alba":2001,"Ġsiano":2002,"dizioni":2003,"Ġbordo":2004,"erare":2005,"mito":2006,"Ġmiglio":2007,"damente":2008,"cate":2009,"ttÃł":2010,"Ġpari":2011,"Ġpassa":2012,"pote":2013,"Ġeravamo":2014,"Ġcielo":2015,"segui":2016,"Ġqualcuno":2017,"Ġcerta":2018,"Ġmotivo":2019,"Ġcorso":2020,"Ġpenso":2021,"Ġimpa":2022,"Ġaiuta":2023,"ĠOra":2024,"Ġcarte":2025,"Ġandata":2026,"bilitÃł":2027,"Ġcompito":2028,"mana":2029,"Ġragione":2030,"mediata":2031,"Con":2032,"Che":2033,"Si":2034,"aff":2035,"denti":2036,"gente":2037,"gendo":2038,"lun":2039,"momento":2040,"pno":2041,"siamo":2042,"suo":2043,"senti":2044,"Ġama":2045,"enta":2046,"Ġminu":2047,"Ġdiver":2048,"ana":2049,"rivi":2050,"tivi":2051,"Ġir":2052,"ortato":2053,"omenti":2054,"Ġsupp":2055,"Ġobbe":2056,"ciuto":2057,"Ġmaggio":2058,"Ġanni":2059,"Ġpochi":2060,"Ġmetter":2061,"messa":2062,"Ġrespi":2063,"Ġmoglie":2064,"osito":2065,"Ġquattro":2066,"Ġfretta":2067,"Ġaperta":2068,"Ġpronto":2069,"Ġinterro":2070,"Ġrin":2071,"ĠDopo":2072,"venire":2073,"Ġpensiero":2074,"Ġsecondo":2075,"infermiere":2076,"dare":2077,"fare":2078,"ill":2079,"occhiata":2080,"stre":2081,"Ġoltre":2082,"Ġsti":2083,"Ġcri":2084,"Ġcro":2085,"Ġimpre":2086,"osÃ¬":2087,"Ġing":2088,"Ġinte":2089,"Ġinvece":2090,"arti":2091,"Ġconce":2092,"Ġsitu":2093,"veglia":2094,"Ġsegre":2095,"Ġrisul":2096,"Ġcari":2097,"Ġmadre":2098,"mpio":2099,"Ġancor":2100,"Ġpieno":2101,"cava":2102,"Ġprocura":2103,"Ġpasso":2104,"Ġavve":2105,"spon":2106,"perto":2107,"Ġveder":2108,"gnora":2109,"Ġsapp":2110,"cchiere":2111,"anima":2112,"ggior":2113,"Ġfigu":2114,"Ġfiducia":2115,"fatto":2116,"Ġener":2117,"Ġpoteva":2118,"Ġdorme":2119,"Ġspavento":2120,"Ġnessun":2121,"Ġandati":2122,"Ġscritto":2123,"Ġpersona":2124,"mmag":2125,"ĠWestenra":2126,"Ġanima":2127,"Ġriesco":2128,"Ġagosto":2129,"Ġgiovane":2130,"Ġnecessario":2131,"Arthur":2132,"Io":2133,"PiÃ¹":2134,"TH":2135,"ass":2136,"ava":2137,"dur":2138,"moni":2139,"porta":2140,"ring":2141,"stro":2142,"tina":2143,"Ġer":2144,"Ġsce":2145,"Ġatt":2146,"Ġpos":2147,"iasc":2148,"arri":2149,"arle":2150,"Ġperfe":2151,"Ġconclu":2152,"dita":2153,"Ġsel":2154,"Ġopp":2155,"Ġcomincia":2156,"Ġviso":2157,"Ġsoggiunto":2158,"Ġavanti":2159,"ĠDracula":2160,"Ġtras":2161,"Ġtratto":2162,"Ġqualsiasi":2163,"Ġbara":2164,"Ġsola":2165,"ĠTu":2166,"Ġpotevo":2167,"Ġparlato":2168,"Ġgioia":2169,"Ġpeggio":2170,"Ġguardia":2171,"Ġguardato":2172,"Ġsorpresa":2173,"Ġtornare":2174,"Ġbianca":2175,"Ġcenno":2176,"Ġonde":2177,"Ġvoleva":2178,"giorno":2179,"cando":2180,"dom":2181,"gro":2182,"im":2183,"mer":2184,"pia":2185,"sol":2186,"tere":2187,"Ġcura":2188,"Ġcena":2189,"Ġagg":2190,"Ġallo":2191,"inare":2192,"Ġlontano":2193,"Ġmala":2194,"unti":2195,"titui":2196,"Ġfiori":2197,"olare":2198,"Ġinfer":2199,"arna":2200,"Ġgo":2201,"Ġcont":2202,"Ġseduto":2203,"Ġbre":2204,"Ġbel":2205,"aren":2206,"chino":2207,"Ġocc":2208,"Ġmist":2209,"Ġalto":2210,"tand":2211,"ĠMINA":2212,"Ġdovere":2213,"rando":2214,"ĠCa":2215,"Ġvoluto":2216,"ffa":2217,"ĠAbbiamo":2218,"ĠEro":2219,"Ġgiunto":2220,"Ġtelegra":2221,"trio":2222,"Ġacce":2223,"onata":2224,"ĠQuesta":2225,"ĠQuindi":2226,"ĠGi":2227,"menta":2228,"professore":2229,"Ġcolpo":2230,"prima":2231,"parti":2232,"endomi":2233,"Ġindietro":2234,"Ġfede":2235,"Ġimmo":2236,"Ġleggere":2237,"Ġcontinuato":2238,"acqua":2239,"Ġcarrozza":2240,"Ġattraverso":2241,"olutamente":2242,"Ġpranzo":2243,"mediatamente":2244,"Conte":2245,"Come":2246,"Poi":2247,"cola":2248,"fre":2249,"mina":2250,"oro":2251,"rgli":2252,"senza":2253,"Ġorri":2254,"Ġciasc":2255,"Ġdistru":2256,"Ġfanno":2257,"Ġfondo":2258,"Ġtene":2259,"dove":2260,"Ġsull":2261,"Ġrica":2262,"sil":2263,"Ġnello":2264,"dell":2265,"Ġpiena":2266,"date":2267,"sape":2268,"visto":2269,"ela":2270,"Ġfatti":2271,"Ġcimitero":2272,"Ġrec":2273,"ĠPuÃ²":2274,"Ġquei":2275,"zzare":2276,"Ġvecchia":2277,"guard":2278,"Ġcercato":2279,"Ġbasta":2280,"osizione":2281,"alitÃł":2282,"Ġaiuto":2283,"ĠUna":2284,"ĠWhitby":2285,"Ġcompiere":2286,"Ġpesante":2287,"Ġdesidera":2288,"Ġconosce":2289,"ultima":2290,"Ġtriste":2291,"Ġritorno":2292,"ST":2293,"morta":2294,"rle":2295,"uma":2296,"volo":2297,"Ġsom":2298,"erlo":2299,"Ġpan":2300,"enne":2301,"Ġmorto":2302,"Ġdic":2303,"ssato":2304,"Ġvu":2305,"rori":2306,"Ġins":2307,"arÃ²":2308,"estre":2309,"Ġsuper":2310,"Ġsucce":2311,"Ġconta":2312,"Ġrice":2313,"sider":2314,"eramente":2315,"mitÃł":2316,"tran":2317,"Ġov":2318,"Ġann":2319,"Ġpiano":2320,"ggere":2321,"ĠLo":2322,"mette":2323,"erie":2324,"ĠvolontÃł":2325,"Ġgiro":2326,"Ġteme":2327,"Ġtempi":2328,"continu":2329,"Ġvede":2330,"terra":2331,"andomi":2332,"Ġvenuta":2333,"Ġlupo":2334,"Ġbuona":2335,"Ġdomande":2336,"Ġcapire":2337,"Ġriferi":2338,"Ġnuova":2339,"Ġriuscito":2340,"Ġuscito":2341,"Ġpiace":2342,"Ġbraccia":2343,"Ġassieme":2344,"Ġpassato":2345,"Ġprecipi":2346,"impressione":2347,"Ġraccon":2348,"Ġmosche":2349,"Ġsituazione":2350,"Ġselva":2351,"An":2352,"ETT":2353,"atrio":2354,"et":2355,"fia":2356,"fondo":2357,"mere":2358,"pero":2359,"puÃ²":2360,"rne":2361,"tuna":2362,"vuto":2363,"wkins":2364,"Ġ1":2365,"ervi":2366,"Ġamore":2367,"Ġpom":2368,"tello":2369,"Ġdis":2370,"Ġipno":2371,"Ġinfatti":2372,"Ġsui":2373,"Ġsegno":2374,"Ġlettere":2375,"trare":2376,"Ġneanche":2377,"Ġmis":2378,"mati":2379,"Ġalza":2380,"ttuto":2381,"Ġfacc":2382,"Ġface":2383,"Ġpace":2384,"Ġreso":2385,"ĠVi":2386,"Ġtemo":2387,"Ġtemp":2388,"ĠNo":2389,"vola":2390,"Ġtal":2391,"Ġcorrente":2392,"quella":2393,"ordina":2394,"Ġpropria":2395,"Ġstrani":2396,"Ġsembravano":2397,"Ġrosso":2398,"Ġgiornata":2399,"ĠArt":2400,"ffici":2401,"Ġdomani":2402,"Ġpronun":2403,"Ġchiedo":2404,"Ġesattamente":2405,"Ġalcuni":2406,"Ġtornati":2407,"ĠdifficoltÃł":2408,"Ġbambino":2409,"Ġsussur":2410,").":2411,"Harker":2412,"ate":2413,"att":2414,"bene":2415,"cui":2416,"emo":2417,"evi":2418,"hio":2419,"mu":2420,"minato":2421,"sene":2422,"Ġcin":2423,"Ġcance":2424,"Ġpoli":2425,"ensa":2426,"inci":2427,"Ġecc":2428,"Ġdirmi":2429,"anco":2430,"Ġnome":2431,"questa":2432,"vata":2433,"Ġgui":2434,"Ġgino":2435,"vedere":2436,"Ġritro":2437,"Ġrichi":2438,"signora":2439,"eravi":2440,"china":2441,"uito":2442,"Ġanch":2443,"Ġcommentato":2444,"gge":2445,"ĠMentre":2446,"Ġprofon":2447,"Ġdottore":2448,"Ġfaccio":2449,"Ġsoffer":2450,"ĠDevo":2451,"ĠCom":2452,"ĠCosÃ¬":2453,"loro":2454,"Ġavessi":2455,"Ġscorto":2456,"Ġvedo":2457,"ficio":2458,"Ġcerti":2459,"Ġmorire":2460,"Ġforze":2461,"Ġterrore":2462,"Ġappari":2463,"Ġvostre":2464,"Ġvostri":2465,"Ġproposito":2466,"ciata":2467,"fax":2468,"Ġabband":2469,"due":2470,"Ġarrivare":2471,"Ġcapitano":2472,"Ġsapevo":2473,"Ġring":2474,"crime":2475,"Ġpolvere":2476,"Ġscompar":2477,"Ġmangiare":2478,"Era":2479,"Po":2480,"Qui":2481,"beri":2482,"cano":2483,"oggi":2484,"ogni":2485,"ple":2486,"uso":2487,"Ġsfu":2488,"ton":2489,"Ġatro":2490,"Ġpio":2491,"Ġpene":2492,"Ġpur":2493,"rei":2494,"tava":2495,"Ġmomenti":2496,"Ġvelo":2497,"Ġfan":2498,"Ġquanti":2499,"ompa":2500,"Ġperduto":2501,"Ġlacrime":2502,"Ġgente":2503,"Ġgru":2504,"Ġconte":2505,"lib":2506,"litÃł":2507,"dizione":2508,"Ġsetti":2509,"Ġriuni":2510,"Ġriguarda":2511,"sioni":2512,"cherÃ²":2513,"Ġoh":2514,"Ġmica":2515,"Ġcamb":2516,"Ġmaggior":2517,"Ġang":2518,"Ġansi":2519,"Ġcomunque":2520,"anotte":2521,"data":2522,"Ġpadre":2523,"lamato":2524,"ĠcittÃł":2525,"ĠCre":2526,"ĠPa":2527,"ĠVarna":2528,"Ġstare":2529,"conosc":2530,"nell":2531,"voli":2532,"Ġfossi":2533,"Ġdoveva":2534,"Ġfiume":2535,"Ġproprie":2536,"Ġsembrato":2537,"stito":2538,"Ġpotere":2539,"Ġvoglio":2540,"Ġsentivo":2541,"orrei":2542,"Ġandate":2543,"Ġtuttavia":2544,"Ġscrivere":2545,"ĠHawkins":2546,"Ġripos":2547,"ĠDIARIO":2548,"uomini":2549,"Ġpiacere":2550,"Ġmuro":2551,"Ġafferrato":2552,"Ġgentile":2553,"Ġcoraggi":2554,"ĠCarfax":2555,"Ġminuti":2556,"Ġsappiamo":2557,"Ġfigura":2558,"atura":2559,"atten":2560,"amico":2561,"be":2562,"cord":2563,"icca":2564,"mone":2565,"mini":2566,"mine":2567,"otto":2568,"poi":2569,"Ġschi":2570,"ongo":2571,"Ġmeravi":2572,"rati":2573,"Ġequi":2574,"lly":2575,"argli":2576,"Ġdello":2577,"ĠtÃ¨":2578,"doio":2579,"diri":2580,"ditÃł":2581,"dilly":2582,"Ġsei":2583,"signor":2584,"sopra":2585,"cie":2586,"lei":2587,"casa":2588,"him":2589,"Ġmemo":2590,"ĠSto":2591,"Ġfacendo":2592,"Ġpazzo":2593,"eriggio":2594,"ĠChi":2595,"Ġregi":2596,"Ġtrasc":2597,"tutti":2598,"Ġbasso":2599,"Ġbatte":2600,"Ġcorte":2601,"sulla":2602,"Ġandiamo":2603,"Ġaddosso":2604,"Ġrossa":2605,"quie":2606,"Ġtentato":2607,"Ġsarei":2608,"Ġcredo":2609,"Ġlunga":2610,"Ġspaven":2611,"Ġgrave":2612,"ĠPerchÃ©":2613,"Ġrimasta":2614,"Ġgiusto":2615,"prendere":2616,"Ġaspettare":2617,"cerca":2618,"PerchÃ©":2619,"Ġesperienza":2620,"Ġrestare":2621,"Ġcappella":2622,"Ġsforzo":2623,"Ġattesa":2624,"Ġciascuno":2625,"iccadilly":2626,"Ah":2627,"Di":2628,"abba":2629,"bal":2630,"gran":2631,"genza":2632,"istante":2633,"mol":2634,"mme":2635,"pol":2636,"udi":2637,"ĠĠ":2638,"Ġcanto":2639,"Ġcane":2640,"Ġcolazione":2641,"Ġau":2642,"resso":2643,"inta":2644,"Ġling":2645,"Ġmuo":2646,"razie":2647,"Ġdiste":2648,"Ġvene":2649,"Ġvali":2650,"ordito":2651,"Ġini":2652,"Ġinfor":2653,"altÃł":2654,"Ġpercor":2655,"Ġcondizioni":2656,"Ġsicuro":2657,"Ġria":2658,"Ġbr":2659,"micia":2660,"Ġmezz":2661,"Ġmettere":2662,"Ġproseguito":2663,"Ġpaio":2664,"Ġloc":2665,"Ġsogni":2666,"gliere":2667,"lova":2668,"Ġtrascor":2669,"tutta":2670,"conos":2671,"trice":2672,"Ġtocca":2673,"Ġtolto":2674,"Ġnove":2675,"Ġaccor":2676,"zzata":2677,"Ġfinalmente":2678,"Ġfortuna":2679,"andare":2680,"Ġcorsa":2681,"Ġfarsi":2682,"Ġfarmi":2683,"stere":2684,"Ġsplen":2685,"Ġimpor":2686,"Ġtenere":2687,"curitÃł":2688,"Ġchiavi":2689,"Ġcredete":2690,"ĠBi":2691,"Ġentrati":2692,"gnata":2693,"Ġdormito":2694,"Ġanime":2695,"utile":2696,"Ġaspetta":2697,"Ġsospe":2698,"Ġmattina":2699,"Ġordine":2700,"Ġsbar":2701,"Ġsollevato":2702,"Ġgenere":2703,"Ġnascon":2704,"Ġnotizie":2705,"Ġprocedere":2706,"Ġbreve":2707,"ETTER":2708,"Ġpomeriggio":2709,"Mina":2710,"assi":2711,"abi":2712,"cro":2713,"goi":2714,"mendo":2715,"ori":2716,"pato":2717,"posto":2718,"parsi":2719,"roni":2720,"sal":2721,"tr":2722,"tene":2723,"ue":2724,"us":2725,"use":2726,"vio":2727,"vono":2728,"Ġstri":2729,"Ġcan":2730,"tore":2731,"Ġdura":2732,"erci":2733,"erla":2734,"Ġatti":2735,"Ġasc":2736,"Ġattimo":2737,"Ġpal":2738,"inte":2739,"Ġlar":2740,"Ġmostro":2741,"Ġele":2742,"iale":2743,"Ġvera":2744,"quel":2745,"oscuritÃł":2746,"Ġinca":2747,"Ġdesider":2748,"Ġsuono":2749,"Ġconver":2750,"Ġseduta":2751,"Ġrie":2752,"Ġriti":2753,"Ġrifi":2754,"trato":2755,"Ġogg":2756,"cifi":2757,"Ġcape":2758,"delle":2759,"desse":2760,"zioso":2761,"Ġanti":2762,"Ġansia":2763,"Ġcomune":2764,"tanti":2765,"Ġmezza":2766,"Ġproba":2767,"ttur":2768,"ttutto":2769,"Ġfate":2770,"Ġpasse":2771,"Ġprego":2772,"ttempo":2773,"Ġavverti":2774,"ĠDe":2775,"ĠAdesso":2776,"Ġtraccia":2777,"ture":2778,"Ġstazione":2779,"Ġscen":2780,"nella":2781,"derÃ²":2782,"Ġcorre":2783,"Ġappro":2784,"Ġcocchiere":2785,"Ġluglio":2786,"Ġavevamo":2787,"Ġtirato":2788,"ĠTutto":2789,"Ġpotessi":2790,"ĠBu":2791,"Ġgrado":2792,"Ġgrazie":2793,"Ġbeni":2794,"unica":2795,"Ġtreno":2796,"Ġserra":2797,"geva":2798,"Ġentrato":2799,"orren":2800,"Ġmorti":2801,"Ġriposo":2802,"Ġimmediatamente":2803,"Ġsensazione":2804,"Ġpiccola":2805,"Ġaltret":2806,"Ġalcun":2807,"Ġtranquilla":2808,"Ġtranquillo":2809,"Ġricordo":2810,"Ġsemplicemente":2811,"Ġcoraggio":2812,"Ġverifi":2813,"Ġabbastanza":2814,"Ġpreoccupa":2815,"Ġcoloro":2816,"ETTERA":2817,"Ca":2818,"Dio":2819,"Gli":2820,"Pro":2821,"Vi":2822,"losc":2823,"nel":2824,"punto":2825,"tia":2826,"tiamo":2827,"van":2828,"vera":2829,"Ġ&":2830,"Ġsino":2831,"Ġsten":2832,"Ġali":2833,"Ġese":2834,"Ġdiritto":2835,"ssare":2836,"Ġval":2837,"quale":2838,"orme":2839,"oste":2840,"arina":2841,"arne":2842,"ombra":2843,"Ġperdere":2844,"llare":2845,"Ġcontra":2846,"dis":2847,"Ġsecoli":2848,"Ġrivolto":2849,"Ġoppure":2850,"ziona":2851,"ggiato":2852,"Ġtutt":2853,"Ġcostitui":2854,"ppe":2855,"Ġviol":2856,"ttri":2857,"ttata":2858,"inazione":2859,"Ġpref":2860,"mbu":2861,"Ġsov":2862,"uori":2863,"Ġucci":2864,"ĠCer":2865,"ĠPro":2866,"conto":2867,"contro":2868,"Ġessendo":2869,"llievo":2870,"ggire":2871,"Ġtali":2872,"derlo":2873,"Ġsolenne":2874,"Ġdovesse":2875,"Ġappar":2876,"Ġstesse":2877,"Ġaddor":2878,"stanti":2879,"ccasione":2880,"mentre":2881,"Ġimpe":2882,"Ġpietra":2883,"Ġcredere":2884,"avevo":2885,"Ġscosso":2886,"Ġscopo":2887,"Ġpronti":2888,"Ġriferito":2889,"Ġesau":2890,"alati":2891,"Ġgiudi":2892,"Ġorecchie":2893,"Ġlasciare":2894,"uttosto":2895,"Ġbianco":2896,"Ġbianchi":2897,"Ġsimili":2898,"Ġpensieri":2899,"Ġpunta":2900,"Ġdesidero":2901,"Ġacqua":2902,"Ġconoscenza":2903,"enite":2904,"Ġconvinto":2905,"Ġspiega":2906,"Ġaprire":2907,"Ġfreddo":2908,"Ġmigliore":2909,"Ġsegreto":2910,"Ġperfettamente":2911,"arenza":2912,"Ġtempesta":2913,"himÃ©":2914,"30":2915,"Abbiamo":2916,"Mentre":2917,"boli":2918,"fra":2919,"gh":2920,"gri":2921,"giato":2922,"mando":2923,"mene":2924,"nato":2925,"nostra":2926,"sole":2927,"tino":2928,"val":2929,"xeter":2930,"Ġ(":2931,"Ġsg":2932,"Ġsini":2933,"Ġsinc":2934,"Ġcani":2935,"Ġaria":2936,"onato":2937,"ent":2938,"Ġmandato":2939,"Ġdiven":2940,"Ġill":2941,"Ġvanno":2942,"orti":2943,"osti":2944,"Ġintanto":2945,"Ġdefini":2946,"Ġlasci":2947,"dopo":2948,"Ġsupera":2949,"ĠsicchÃ©":2950,"Ġbar":2951,"cher":2952,"ciso":2953,"Ġcapa":2954,"Ġcaccia":2955,"Ġcamicia":2956,"mamente":2957,"Ġalberi":2958,"dava":2959,"dalla":2960,"sata":2961,"samente":2962,"Ġviva":2963,"ttu":2964,"ĠSu":2965,"Ġpallo":2966,"Ġpausa":2967,"Ġpavimento":2968,"ttilosc":2969,"trimon":2970,"ĠNel":2971,"Ġnota":2972,"Ġnotare":2973,"Questa":2974,"Ġvecchi":2975,"Ġveglia":2976,"gie":2977,"Ġragni":2978,"Ġaccompa":2979,"Ġmodi":2980,"verso":2981,"tengo":2982,"Ġpena":2983,"Ġdirebbe":2984,"Ġtipo":2985,"proprio":2986,"Ġpotesse":2987,"ĠpietÃł":2988,"colare":2989,"Ġspalla":2990,"Ġrispon":2991,"Ġrimasti":2992,"Ġpezzo":2993,"Ġcapito":2994,"Ġspirito":2995,"Ġsapeva":2996,"Ġintento":2997,"Ġevidente":2998,"Ġpartire":2999,"Ġbraccio":3000,"Ġbelle":3001,"Ġattentamente":3002,"Ġassolutamente":3003,"ING":3004,"Ġacque":3005,"Ġpresenza":3006,"Ġestre":3007,"ultimo":3008,"Ġcomple":3009,"Ġdifficile":3010,"Ġconsegu":3011,"Ġgrosso":3012,"Ġarrivati":3013,"Ġcorridoio":3014,"Ġdiscu":3015,"rivido":3016,"Ġrespiro":3017,"Ġtelegramma":3018,"Ġpanchina":3019,"Ġipnoti":3020,"Ġringra":3021,"dirittura":3022,"'s":3023,"ATH":3024,"EN":3025,"EST":3026,"LETTERA":3027,"Ora":3028,"UR":3029,"Zarina":3030,"alle":3031,"bato":3032,"cante":3033,"des":3034,"dino":3035,"gine":3036,"mostra":3037,"ogra":3038,"pare":3039,"rti":3040,"rono":3041,"rone":3042,"sen":3043,"solo":3044,"zando":3045,"ziato":3046,"ĠQui":3047,"Ġstu":3048,"Ġslova":3049,"Ġauto":3050,"rete":3051,"rezza":3052,"Ġmuta":3053,"Ġdite":3054,"Ġdisa":3055,"Ġdiav":3056,"unta":3057,"iare":3058,"iate":3059,"tiva":3060,"orchÃ©":3061,"orgo":3062,"arvi":3063,"alan":3064,"altri":3065,"dobbiamo":3066,"llato":3067,"modo":3068,"Ġconfi":3069,"eremo":3070,"dici":3071,"Ġrivol":3072,"Ġricerca":3073,"Ġbor":3074,"Ġlevato":3075,"chiamo":3076,"Ġdata":3077,"Ġdava":3078,"ziosa":3079,"Ġpiuttosto":3080,"Ġpossi":3081,"tanze":3082,"cam":3083,"sario":3084,"Ġtua":3085,"Ġmessa":3086,"vita":3087,"viene":3088,"ĠLU":3089,"pita":3090,"pistre":3091,"ttia":3092,"Ġdocu":3093,"ĠSiamo":3094,"ĠSpero":3095,"Ġpara":3096,"Ġpaese":3097,"gnare":3098,"Ġudire":3099,"ĠrealtÃł":3100,"ĠExeter":3101,"Ġtratten":3102,"para":3103,"Ġstar":3104,"Ġparlava":3105,"Ġnobile":3106,"Ġnottur":3107,"Ġscal":3108,"terina":3109,"ness":3110,"nambu":3111,"cchiato":3112,"Ġaccon":3113,"Ġaccen":3114,"Ġsaranno":3115,"ggito":3116,"Ġfogli":3117,"Ġtavolo":3118,"derci":3119,"gari":3120,"tenere":3121,"Ġarg":3122,"ĠGalati":3123,"stenza":3124,"Ġstrane":3125,"Ġstraordina":3126,"Ġguance":3127,"Ġnull":3128,"Ġnuvole":3129,"Ġpotevano":3130,"Ġlunghi":3131,"Ġportata":3132,"Ġvampiro":3133,"Ġentrambi":3134,"avete":3135,"Ġguardare":3136,"Ġpronta":3137,"Ġsvegliato":3138,"Ġriuscita":3139,"Ġchiedere":3140,"Ġtante":3141,"Ġdiceva":3142,"Ġfermato":3143,"Ġlibri":3144,"Ġlibero":3145,"fosse":3146,"Ġsenso":3147,"Ġcontinua":3148,"ack":3149,"Ġtornata":3150,"Ġcircos":3151,"Ġragion":3152,"Ġpassare":3153,"scrivere":3154,"Ġconoscere":3155,"Ġriesce":3156,"Ġagire":3157,"qualcosa":3158,"Ġvisita":3159,"ĠveritÃł":3160,"Ġcoperchio":3161,"Ġesclu":3162,"Ġesclamato":3163,"Ġdisperazione":3164,"Ġeffetti":3165,"Ġferita":3166,"Ġintelli":3167,"Ġenergia":3168,"colari":3169,"ĠStop":3170,"ĠBistri":3171,"Ġbenissimo":3172,"Ġdiavolo":3173,"Bu":3174,"Lo":3175,"Siamo":3176,"SÃ¬":3177,"Una":3178,"agi":3179,"ape":3180,"ble":3181,"gol":3182,"lio":3183,"lterra":3184,"mos":3185,"tenza":3186,"uro":3187,"vina":3188,"veri":3189,"ĠK":3190,"ĠdÃł":3191,"erv":3192,"Ġamato":3193,"Ġaggiungere":3194,"incon":3195,"Ġlontan":3196,"Ġmina":3197,"tevi":3198,"rai":3199,"rico":3200,"tito":3201,"Ġist":3202,"Ġidea":3203,"Ġimbo":3204,"Ġventi":3205,"Ġfran":3206,"Ġindu":3207,"arli":3208,"omani":3209,"dore":3210,"mori":3211,"licitÃł":3212,"veva":3213,"vecchio":3214,"dica":3215,"disc":3216,"disp":3217,"Ġriva":3218,"Ġricord":3219,"Ġbrivido":3220,"notte":3221,"miei":3222,"Ġoff":3223,"Ġcamp":3224,"dei":3225,"mazioni":3226,"Ġcompren":3227,"Ġprofondo":3228,"ĠSul":3229,"Ġsogno":3230,"ransil":3231,"sempre":3232,"ĠVe":3233,"condo":3234,"Ġparla":3235,"Questo":3236,"Quincey":3237,"terno":3238,"gnore":3239,"cchina":3240,"Ġcercare":3241,"osamente":3242,"felice":3243,"andolo":3244,"Ġcortile":3245,"Ġfianco":3246,"...\"":3247,"Ġduro":3248,"stesso":3249,"ĠJON":3250,"comio":3251,"ordine":3252,"Ġstrana":3253,"ulare":3254,"ronti":3255,"prop":3256,"Ġportare":3257,"Ġpoteri":3258,"ĠpotrÃł":3259,"prire":3260,"Ġmanif":3261,"Ġsalma":3262,"Ġarrivato":3263,"Ġorrore":3264,"Ġsoprattutto":3265,"Ġcompiuto":3266,"estia":3267,"Ġpericol":3268,"ducente":3269,"Ġbalzato":3270,"Ġrumore":3271,"Ġpresente":3272,"Ġstring":3273,"Ġfrattempo":3274,"Ġsbal":3275,"Ġpallida":3276,"Ġprepara":3277,"Ġinteress":3278,"Ġavvicin":3279,"illing":3280,"Ġmalattia":3281,"Ġcontin":3282,"sapevole":3283,"fficiente":3284,"Ġatroce":3285,"Ġinizia":3286,"Ġascol":3287,"vania":3288,"Ġpallore":3289,"ATHAN":3290,"ransilvania":3291,"ĠJONATHAN":3292,"Pri":3293,"Ri":3294,"Tu":3295,"Un":3296,"atte":3297,"acce":3298,"attraver":3299,"dal":3300,"ddis":3301,"fino":3302,"gola":3303,"lando":3304,"luogo":3305,"marsi":3306,"molto":3307,"nuo":3308,"schi":3309,"Ġ2":3310,"Ġoso":3311,"Ġserie":3312,"onale":3313,"tazioni":3314,"entale":3315,"Ġmini":3316,"rano":3317,"razione":3318,"Ġdistanza":3319,"risp":3320,"Ġvorre":3321,"ort":3322,"ostante":3323,"Ġingl":3324,"Ġdest":3325,"ccare":3326,"cciato":3327,"oma":3328,"ombre":3329,"vate":3330,"Ġlampa":3331,"morato":3332,"Ġconten":3333,"erebbe":3334,"Ġsegn":3335,"Ġriso":3336,"Ġriba":3337,"sitÃł":3338,"Ġbri":3339,"erato":3340,"onogra":3341,"Ġdattilosc":3342,"Ġottimo":3343,"ciulla":3344,"letto":3345,"mazione":3346,"Ġmassima":3347,"Ġmatrimon":3348,"Ġmacchina":3349,"zienza":3350,"Ġposse":3351,"vore":3352,"voce":3353,"cara":3354,"capi":3355,"camente":3356,"sap":3357,"ssitÃł":3358,"trovato":3359,"troppo":3360,"ĠMe":3361,"Ġvigi":3362,"Ġvivere":3363,"Ġprome":3364,"Ġprofe":3365,"ingari":3366,"Ġavanz":3367,"pore":3368,"Ġur":3369,"Ġvolevo":3370,"ĠAh":3371,"ĠAllora":3372,"Ġtrauma":3373,"paro":3374,"ĠPiccadilly":3375,"Ġquegli":3376,"ĠNess":3377,"terÃł":3378,"terÃ²":3379,"terna":3380,"ĠchissÃł":3381,"Ġrabb":3382,"Ġraggio":3383,"animo":3384,"Ġfossimo":3385,"Ġforni":3386,"Ġbatt":3387,"gata":3388,"Ġfigli":3389,"Ġallontan":3390,"ĠfarÃ²":3391,"quell":3392,"Ġmolta":3393,"Ġaddirittura":3394,"ventu":3395,"ĠSembra":3396,"Ġbuoni":3397,"Ġaffre":3398,"Ġchiama":3399,"ĠBe":3400,"ĠOr":3401,"Ġcarta":3402,"cciglia":3403,"Ġmaniera":3404,"Ġdomanda":3405,"Ġandava":3406,"Ġsorpreso":3407,"Ġsaputo":3408,"Ġuscire":3409,"Ġsolita":3410,"ĠLei":3411,"scritto":3412,"Ġtranquilli":3413,"sarebbe":3414,"inferno":3415,"Ġconosco":3416,"Ġdolcezza":3417,"intere":3418,"Ġmarina":3419,"Ġscorsa":3420,"Dopo":3421,"Ġconvinc":3422,"Ġgiace":3423,"Ġseconda":3424,"Ġbambini":3425,"Ġpallido":3426,"Ġlieto":3427,"morti":3428,"Ġunico":3429,"Ġmedico":3430,"finestra":3431,"Ġeffetto":3432,"Ġcostatato":3433,"ĠAvevo":3434,"Ġpassata":3435,"ĠancorchÃ©":3436,"arrivo":3437,"Ġconclusione":3438,"Ġinfermi":3439,"Ġmistero":3440,"Ġcinque":3441,"Ġcancello":3442,"Ġginocchio":3443,"Ġgruppo":3444,"Ġsettimana":3445,"Ġmemoria":3446,"Ġregistra":3447,"Ġcapelli":3448,"Ġaltrettanto":3449,"Ġpreferito":3450,"Ġcircostanze":3451,"Primo":3452,"AM":3453,"Al":3454,"Ecco":3455,"LA":3456,"aver":3457,"allora":3458,"attorno":3459,"ed":3460,"fio":3461,"fera":3462,"ger":3463,"genti":3464,"muto":3465,"occasione":3466,"sino":3467,"sfor":3468,"sangue":3469,"zare":3470,"Ġzo":3471,"Ġster":3472,"ĠsarÃ²":3473,"Ġponte":3474,"Ġposizione":3475,"Ġmerito":3476,"testa":3477,"ragi":3478,"Ġdivano":3479,"rip":3480,"rive":3481,"riusci":3482,"Ġnero":3483,"Ġigno":3484,"Ġimmag":3485,"quindi":3486,"Ġfanta":3487,"Ġfonogra":3488,"arco":3489,"dotto":3490,"llata":3491,"Ġsud":3492,"Ġconsi":3493,"Ġconducente":3494,"Ġsiste":3495,"Ġripe":3496,"Ġrispe":3497,"Ġban":3498,"Ġbestia":3499,"Ġnegli":3500,"Ġori":3501,"cito":3502,"Ġcavato":3503,"uire":3504,"devano":3505,"Ġpipistre":3506,"Ġpovere":3507,"catrice":3508,"ggiata":3509,"ppi":3510,"ĠMar":3511,"Ġpromessa":3512,"ĠSo":3513,"ĠSenza":3514,"ĠSua":3515,"ttito":3516,"ingresso":3517,"Ġsopp":3518,"Ġsollievo":3519,"poss":3520,"uota":3521,"erioso":3522,"Ġcima":3523,"Ġudi":3524,"ĠEcco":3525,"Ġstavano":3526,"Ġtoccato":3527,"state":3528,"Ġscusa":3529,"Ġrad":3530,"Ġaccer":3531,"Ġaccura":3532,"Ġsaper":3533,"Ġtrovo":3534,"ham":3535,"Ġcolle":3536,"Ġandar":3537,"Ġsembrano":3538,"Ġsposa":3539,"Ġspalan":3540,"Ġguar":3541,"Ġrossi":3542,"Ġimpedi":3543,"Ġstanno":3544,"enaro":3545,"ulato":3546,"cciare":3547,"Ġchiaro":3548,"Ġchiamare":3549,"parte":3550,"Ġpetto":3551,"ĠfelicitÃł":3552,"ĠWEST":3553,"Ġriuscire":3554,"Ġesamin":3555,"Ġferro":3556,"Ġvicina":3557,"quasi":3558,"ghilterra":3559,"certo":3560,"ĠDobbiamo":3561,"acqui":3562,"fferenza":3563,"Ġgrido":3564,"Ġessersi":3565,"Ġesserci":3566,"Ġgettato":3567,"Ġalcune":3568,"Ġportone":3569,"dormi":3570,"Ġcuri":3571,"Ġordinato":3572,"qualche":3573,"Ġcappello":3574,"Ġsvegliata":3575,"stur":3576,"Ġpreparato":3577,"Ġlieve":3578,"Ġscivol":3579,"sonno":3580,"Ġstretta":3581,"Ġsinghio":3582,"sembrava":3583,"aspetta":3584,"Ġsignifica":3585,"Ġoccupa":3586,"Ġfiamma":3587,"ĠAveva":3588,"Ġragazza":3589,"Ġvuoto":3590,"lungo":3591,"Ġirre":3592,"ĠCaterina":3593,"Ġvuole":3594,"Ġricevuto":3595,"Ġfaccenda":3596,"Ġscomparso":3597,"Ġnovembre":3598,"ĠBistrita":3599,"17":3600,"Bene":3601,"Ci":3602,"Godalming":3603,"IG":3604,"Lui":3605,"Mio":3606,"SING":3607,"ata":3608,"acca":3609,"amore":3610,"ampiro":3611,"carmi":3612,"dano":3613,"ell":3614,"eci":3615,"essa":3616,"immag":3617,"mmi":3618,"mali":3619,"nale":3620,"ood":3621,"porto":3622,"ub":3623,"uri":3624,"uarda":3625,"vente":3626,"vani":3627,"zg":3628,"Ġosa":3629,"Ġsenz":3630,"Ġdenaro":3631,"Ġagu":3632,"onare":3633,"inalmente":3634,"rate":3635,"rava":3636,"Ġest":3637,"Ġestra":3638,"Ġeventi":3639,"Ġegoi":3640,"Ġdito":3641,"anzi":3642,"Ġnervi":3643,"llia":3644,"Ġistanti":3645,"roso":3646,"Ġfio":3647,"oscia":3648,"Ġinvano":3649,"alc":3650,"altre":3651,"Ġsufficiente":3652,"Ġconti":3653,"Ġconsid":3654,"Ġconser":3655,"Ġrico":3656,"Ġridere":3657,"Ġricom":3658,"Ġriman":3659,"Ġrighe":3660,"Ġritar":3661,"Ġlev":3662,"bbli":3663,"Ġdate":3664,"cipi":3665,"devamo":3666,"Ġmagro":3667,"Ġaltra":3668,"Ġpianto":3669,"Ġpochino":3670,"tanza":3671,"dall":3672,"pie":3673,"pite":3674,"piro":3675,"ttino":3676,"ttendo":3677,"Ġfac":3678,"bil":3679,"ĠHEL":3680,"Ġpad":3681,"Ġpresa":3682,"Ġsoddis":3683,"ĠavrÃ²":3684,"ĠDa":3685,"ĠDomani":3686,"Ġumore":3687,"Ġresi":3688,"ĠEd":3689,"ĠEssa":3690,"ĠIeri":3691,"tur":3692,"paziente":3693,"Ġnote":3694,"Ġvedevo":3695,"gore":3696,"Ġraggi":3697,"Ġmotivi":3698,"Ġtaglia":3699,"Ġtasca":3700,"ĠQuanto":3701,"Ġfisi":3702,"Ġterre":3703,"Ġcoll":3704,"stinti":3705,"comple":3706,"Ġspos":3707,"Ġrocce":3708,"Ġimplo":3709,"Ġstanco":3710,"Ġnaso":3711,"Ġaffe":3712,"Ġaffi":3713,"ulto":3714,"Ġsaremo":3715,"Ġpiede":3716,"Ġcresc":3717,"Ġcolpito":3718,"Ġsonnambu":3719,"ĠRo":3720,"Ġaltrimenti":3721,"Ġcarne":3722,"Ġavremo":3723,"avrebbe":3724,"duti":3725,"Ġparlando":3726,"Ġsalute":3727,"Ġspecie":3728,"Ġdomesti":3729,"ĠUno":3730,"gnati":3731,"Ġcalore":3732,"Ġpersone":3733,"impa":3734,"Ġdispia":3735,"appena":3736,"Ġsveglio":3737,"Ġnuovamente":3738,"Ġterribili":3739,"Ġuscita":3740,"Ġliber":3741,"Ġparticolare":3742,"Ġparticolari":3743,"Ġanimo":3744,"Ġamare":3745,"Ġdecisione":3746,"Ġfinora":3747,"Ġcontinuare":3748,"Ġaspetto":3749,"ghiera":3750,"fusione":3751,"ggiava":3752,"Ġattenzione":3753,"Ġgemito":3754,"Ġassicura":3755,"Ġpreciso":3756,"Ġmarea":3757,"Ġgiunti":3758,"Ġturba":3759,"morte":3760,"Ġscienza":3761,"Ġseguire":3762,"Ġconforto":3763,"edificio":3764,"Ġzingari":3765,"ĠrapiditÃł":3766,"Ġsingolare":3767,"Ġnotizia":3768,"Ġultimi":3769,"Ġeccezion":3770,"Ġfiamme":3771,"argomento":3772,"esperienza":3773,"Ġprecedenza":3774,"Ġspaventoso":3775,"Ġposato":3776,"Ġoccor":3777,"Ġsfuggire":3778,"ĠvelocitÃł":3779,"Ġlingua":3780,"Ġdisteso":3781,"Ġmezzanotte":3782,"Ġconversazione":3783,"Ġoggetti":3784,"ĠDeve":3785,"Ġserratura":3786,"Ġesempio":3787,"Ġsinistra":3788,"nessuno":3789,"Ġinfermieri":3790,"ĠHELSING":3791,"Be":3792,"CY":3793,"Ha":3794,"OL":3795,"Prima":3796,"Renfield":3797,"Whitby":3798,"abb":3799,"cal":3800,"dona":3801,"desta":3802,"ea":3803,"ele":3804,"fle":3805,"mal":3806,"rre":3807,"rin":3808,"sor":3809,"udito":3810,"vostra":3811,"Ġombre":3812,"Ġcere":3813,"erva":3814,"eranno":3815,"Ġatta":3816,"onda":3817,"ende":3818,"insi":3819,"Ġmon":3820,"Ġmali":3821,"rale":3822,"Ġdip":3823,"Ġdili":3824,"ĠdirÃ²":3825,"anze":3826,"iati":3827,"tiche":3828,"Ġfune":3829,"ormi":3830,"orse":3831,"Ġinda":3832,"Ġinfi":3833,"Ġincom":3834,"arca":3835,"Ġdef":3836,"Ġdebba":3837,"Ġperio":3838,"Ġpermesso":3839,"vati":3840,"Ġgatto":3841,"lie":3842,"lismo":3843,"Ġsicu":3844,"vegli":3845,"didi":3846,"dimenti":3847,"Ġleg":3848,"mici":3849,"onore":3850,"Ġnemico":3851,"Ġmiglia":3852,"Ġcase":3853,"dee":3854,"Ġmamma":3855,"Ġanno":3856,"Ġcomo":3857,"casse":3858,"Ġtuo":3859,"Ġprovato":3860,"Ġprossima":3861,"pida":3862,"ĠSÃ¬":3863,"Ġpassi":3864,"Ġprese":3865,"lavo":3866,"Ġavven":3867,"ĠavrÃł":3868,"uoghi":3869,"Ġcie":3870,"Ġcicatrice":3871,"Ġuscio":3872,"Ġutile":3873,"ĠAm":3874,"Ġgiura":3875,"Ġgirato":3876,"Ġtracce":3877,"pazi":3878,"Ġqualora":3879,"ĠPiÃ¹":3880,"ĠPenso":3881,"ĠVAN":3882,"Ġteso":3883,"Ġtemuto":3884,"Ġstavo":3885,"conf":3886,"Ġparsa":3887,"inizio":3888,"stava":3889,"Qual":3890,"zzar":3891,"Ġvedete":3892,"Ġvedermi":3893,"gico":3894,"gica":3895,"Ġchiusa":3896,"Ġcerchio":3897,"Ġfollia":3898,"Ġfinestre":3899,"Ġforti":3900,"Ġbassa":3901,"Ġbacia":3902,"verÃł":3903,"verÃ²":3904,"derÃł":3905,"Ġfid":3906,"Ġfil":3907,"ĠallorchÃ©":3908,"Ġvenga":3909,"Ġtermine":3910,"ositÃł":3911,"Ġappre":3912,"Ġapparenza":3913,"sue":3914,"suoi":3915,"Ġarro":3916,"Ġarmi":3917,"ĠJack":3918,"Ġdirezione":3919,"ĠchÃ©":3920,"Ġchinato":3921,"Ġsembrare":3922,"ciale":3923,"Ġspro":3924,"Ġrosse":3925,"Ġrobu":3926,"mentata":3927,"Ġstante":3928,"quisi":3929,"Ġtenuto":3930,"Ġbuone":3931,"Ġaffron":3932,"prova":3933,"Ġchiara":3934,"Ġallegra":3935,"Ġmangiato":3936,"Ġvoglia":3937,"strada":3938,"Ġsala":3939,"Ġspesso":3940,"Ġdomandato":3941,"Ġscrivo":3942,"Ġarrivo":3943,"tteralmente":3944,"ccuino":3945,"ĠFi":3946,"Ġcalma":3947,"Ġrisol":3948,"Madam":3949,"Ġrifu":3950,"bbiamente":3951,"Ġaccade":3952,"Ġtanti":3953,"Ġterribilmente":3954,"rendo":3955,"Ġvicenda":3956,"Ġfuggito":3957,"Ġsensi":3958,"Ġlasciate":3959,"Ġgridato":3960,"Ġpesanti":3961,"Ġsconvolto":3962,"intera":3963,"Ġstia":3964,"Ġgiaceva":3965,"Ġagente":3966,"Ġinfanti":3967,"Ġosato":3968,"Ġcertezza":3969,"aspetto":3970,"Ġpiangere":3971,"Ġlancia":3972,"Ġferite":3973,"Ġprecedente":3974,"Ġragazzo":3975,"Ġfredda":3976,"Ġinterrotto":3977,"Ġcarico":3978,"Ġavveduto":3979,"Ġenergie":3980,"durre":3981,"Ġoccorre":3982,"tandosi":3983,"Ġconoscete":3984,"Ġannuito":3985,"Ġprecipitato":3986,"Ġmisura":3987,"attina":3988,"Ġprofondamente":3989,"Ġfanciulla":3990,"Ġmeravigli":3991,"Ġriempi":3992,"ENRA":3993,"ĠLUCY":3994,"Ġdocumenti":3995,"Ġcontinuo":3996,"Ġmatrimonio":3997,"Ġpossesso":3998,"Ġrabbrivi":3999,"ĠWESTENRA":4000,"Amico":4001,"Da":4002,"EG":4003,"Noi":4004,"Ve":4005,"at":4006,"auto":4007,"aper":4008,"aglio":4009,"ast":4010,"abbia":4011,"bella":4012,"cuore":4013,"dunque":4014,"eff":4015,"feri":4016,"fond":4017,"gen":4018,"gini":4019,"hia":4020,"ira":4021,"ky":4022,"mw":4023,"mero":4024,"nostro":4025,"pio":4026,"pini":4027,"rli":4028,"sos":4029,"tente":4030,"tuto":4031,"umi":4032,"usc":4033,"uzione":4034,"Ġosta":4035,"Ġcale":4036,"err":4037,"ermente":4038,"Ġaglio":4039,"rebbero":4040,"tarlo":4041,"inten":4042,"tezza":4043,"Ġdistur":4044,"Ġdieci":4045,"any":4046,"anni":4047,"anub":4048,"ritti":4049,"rizzo":4050,"Ġnord":4051,"iamento":4052,"Ġimb":4053,"Ġvale":4054,"olmw":4055,"Ġindo":4056,"Ġinna":4057,"Ġinutile":4058,"Ġdep":4059,"Ġdestra":4060,"omo":4061,"Ġperdon":4062,"Ġlato":4063,"esc":4064,"liff":4065,"Ġsigi":4066,"vevo":4067,"Ġsegu":4068,"Ġrichia":4069,"Ġrimesso":4070,"Ġrientra":4071,"simo":4072,"sivo":4073,"signifi":4074,"Ġbesti":4075,"Ġletteralmente":4076,"bbro":4077,"Ġdagli":4078,"Ġoss":4079,"sotto":4080,"Ġmille":4081,"Ġcaduto":4082,"deve":4083,"mpia":4084,"Ġcommo":4085,"Ġcomuni":4086,"tana":4087,"sac":4088,"ssivo":4089,"ggeri":4090,"Ġcosto":4091,"Ġmessi":4092,"Ġmette":4093,"videntemente":4094,"Ġvie":4095,"Ġvite":4096,"Ġproble":4097,"picc":4098,"ttr":4099,"Ġdover":4100,"ĠStre":4101,"andoci":4102,"Ġfatica":4103,"bian":4104,"ttavia":4105,"Ġpasto":4106,"Ġpaure":4107,"ssava":4108,"scon":4109,"scono":4110,"Ġlotta":4111,"ĠDanub":4112,"eritÃł":4113,"Ġucce":4114,"ĠAL":4115,"ĠAll":4116,"ĠAlla":4117,"sebbene":4118,"semplice":4119,"Ġgliel":4120,"tutte":4121,"ĠVo":4122,"ĠVampiro":4123,"Ġtema":4124,"Ġtesti":4125,"Ġstamane":4126,"Ġtombe":4127,"stati":4128,"Ġscia":4129,"Ġscio":4130,"Ġscala":4131,"Ġsceso":4132,"zzur":4133,"zzonte":4134,"Ġvele":4135,"Ġvedeva":4136,"terri":4137,"gioni":4138,"Ġchiesa":4139,"Ġrapp":4140,"Ġrasse":4141,"Ġacceso":4142,"ortare":4143,"preoccu":4144,"Ġmossa":4145,"aletto":4146,"derla":4147,"Ġcorrere":4148,"tenuto":4149,"Ġmentale":4150,"chiesto":4151,"Ġvengo":4152,"Ġappunti":4153,"subito":4154,"ĠfarÃł":4155,"ĠGrazie":4156,"compi":4157,"Ġadd":4158,"Ġluci":4159,"Ġspor":4160,"Ġguer":4161,"Ġrosa":4162,"Ġstanze":4163,"Ġtensione":4164,"Ġnottetempo":4165,"ulso":4166,"Ġtimore":4167,"Ġtimone":4168,"ĠTransilvania":4169,"Ġnumero":4170,"Ġlunghe":4171,"Ġcolto":4172,"Ġcoltello":4173,"Ġgravi":4174,"ĠpotrÃ²":4175,"Ġaverlo":4176,"Ġmanicomio":4177,"avvi":4178,"avuto":4179,"avvic":4180,"parlare":4181,"Ġsentita":4182,"avesse":4183,"Ġgioco":4184,"Ġfresca":4185,"Ġaperte":4186,"Ġaperti":4187,"Ġindivi":4188,"Ġdiaboli":4189,"Ġsopracciglia":4190,"appro":4191,"Ġchieder":4192,"Ġevitare":4193,"Ġferm":4194,"Ġvicini":4195,"Ġlibera":4196,"Ġammettere":4197,"Ġscatto":4198,"Ġtrance":4199,"Ġlegge":4200,"Ġseno":4201,"Ġcontinuava":4202,"Ġaspettato":4203,"Ġpiccoli":4204,"Ġpotrei":4205,"Ġgrigio":4206,"Ġessermi":4207,"Ġsospiro":4208,"adroni":4209,"ĠPosso":4210,"Ġceduto":4211,"Ġpunti":4212,"Ġacqui":4213,"rimasto":4214,"pensi":4215,"Ġmortale":4216,"ĠnecessitÃł":4217,"Ġdubbi":4218,"Dottor":4219,"Ġgiunta":4220,"Ġturno":4221,"Ġgener":4222,"Ġgiovani":4223,"aiuto":4224,"impresa":4225,"sterÃł":4226,"sterdam":4227,"Ġatteso":4228,"ĠAnche":4229,"Ġstretto":4230,"angolo":4231,"angoscia":4232,"Ġstoria":4233,"Ġultima":4234,"kinsky":4235,"Ġavvicinato":4236,"interno":4237,"Ġdimenticato":4238,"espu":4239,"randomi":4240,"Ġpensate":4241,"Ġvuota":4242,"sentito":4243,"Ġobbedi":4244,"Ġconcesso":4245,"Ġerrore":4246,"Ġtrasfor":4247,"Ġaggra":4248,"Ġimmobile":4249,"Ġsupersti":4250,"tranqui":4251,"mettete":4252,"Ġeccomi":4253,"Ġsofferto":4254,"Ġpiomb":4255,"ĠPasso":4256,"ĠproprietÃł":4257,"Ġcoraggioso":4258,"signorina":4259,"abitudine":4260,"Ġdesiderio":4261,"Ġstenogra":4262,"Ġlasciando":4263,"Ġvegliare":4264,"Ġrispondere":4265,"Ġbellezza":4266,"Ġslovacchi":4267,"Ġintelligente":4268,"ortuno":4269,"Ġlampada":4270,"Ġdiligenza":4271,"Ġinfantile":4272,"olmwood":4273,"ĠDanubio":4274,"Av":4275,"All":4276,"Grazie":4277,"MA":4278,"OD":4279,"TEL":4280,"Tutto":4281,"ati":4282,"assai":4283,"affer":4284,"blio":4285,"cin":4286,"cker":4287,"cance":4288,"desi":4289,"ddio":4290,"fero":4291,"gendosi":4292,"ks":4293,"muo":4294,"muta":4295,"mondo":4296,"melo":4297,"nu":4298,"nali":4299,"nulla":4300,"occ":4301,"opp":4302,"poli":4303,"sera":4304,"sÃ¬":4305,"sveglia":4306,"tun":4307,"utato":4308,"uale":4309,"vostro":4310,"Ġza":4311,"Ġzi":4312,"Ġsinto":4313,"Ġdarmi":4314,"ergo":4315,"tario":4316,"endere":4317,"inio":4318,"Ġluoghi":4319,"Ġeppure":4320,"Ġdita":4321,"Ġdirlo":4322,"Ġdivenuto":4323,"ant":4324,"llente":4325,"ssÃ¹":4326,"Ġimpo":4327,"quar":4328,"quest":4329,"queste":4330,"Ġfal":4331,"orlo":4332,"orth":4333,"orrore":4334,"osci":4335,"Ġinvi":4336,"Ġinquie":4337,"armente":4338,"Ġdeli":4339,"Ġdedi":4340,"Ġdevono":4341,"Ġpermetter":4342,"Ġgre":4343,"mora":4344,"Ġconfor":4345,"vezza":4346,"Ġnonostante":4347,"dice":4348,"Ġsedere":4349,"Ġsecolo":4350,"Ġritra":4351,"Ġriapp":4352,"Ġleva":4353,"Ġlezione":4354,"trate":4355,"bbal":4356,"ĠdacchÃ©":4357,"Ġodio":4358,"Ġocchiata":4359,"cessa":4360,"Ġcass":4361,"dessi":4362,"degli":4363,"deciso":4364,"Ġmassa":4365,"Ġmagari":4366,"dav":4367,"ssimi":4368,"ppato":4369,"Ġmeta":4370,"Ġmetto":4371,"piso":4372,"ttuta":4373,"ĠSzg":4374,"Ġfavore":4375,"ttacolo":4376,"ssass":4377,"meglio":4378,"inava":4379,"lascia":4380,"Ġsobbal":4381,"Ġavendo":4382,"Ġumi":4383,"ĠAv":4384,"Ġrecato":4385,"Ġresti":4386,"ĠEn":4387,"ĠEgli":4388,"Ġtratti":4389,"paggio":4390,"ĠPur":4391,"ĠVer":4392,"ĠVenite":4393,"conta":4394,"Ġavessimo":4395,"tria":4396,"Ġtocc":4397,"Ġnotti":4398,"Ġscato":4399,"Quindi":4400,"giÃ¹":4401,"Ġesseri":4402,"Ġratti":4403,"Ġrazza":4404,"natura":4405,"Ġaccorto":4406,"Ġcerca":4407,"Ġcercando":4408,"Ġprigioni":4409,"ĠQual":4410,"Ġdovevo":4411,"Ġfiglio":4412,"chie":4413,"stessa":4414,"riamo":4415,"Ġterrori":4416,"Ġappo":4417,"Ġfarne":4418,"quello":4419,"olata":4420,"Ġfaremo":4421,"Ġspero":4422,"Ġsperare":4423,"orribile":4424,"faccia":4425,"Ġtenendo":4426,"Ġtentare":4427,"Ġnavi":4428,"enzu":4429,"ronto":4430,"ĠTe":4431,"ĠTra":4432,"ĠverrÃł":4433,"Ġsaremmo":4434,"Ġpietre":4435,"Ġcresce":4436,"Ġportate":4437,"forza":4438,"Ġlasciata":4439,"Ġaverne":4440,"Ġavremmo":4441,"avverti":4442,"duce":4443,"durante":4444,"getta":4445,"Ġsentire":4446,"Ġentrata":4447,"Ġsalvo":4448,"Ġspezzato":4449,"Ġscoper":4450,"Ġscoperto":4451,"Ġscoprire":4452,"cose":4453,"apprima":4454,"Ġriporta":4455,"ĠSicchÃ©":4456,"Ġaccadere":4457,"Ġtantino":4458,"Ġesaminato":4459,"Ġferma":4460,"Ġusciti":4461,"Ġgiugno":4462,"Ġbello":4463,"Ġpotremo":4464,"Ġattendere":4465,"Ġgetta":4466,"Ġdolci":4467,"Ġpeso":4468,"veniva":4469,"minale":4470,"Ġcircon":4471,"addor":4472,"Ġdesideri":4473,"Ġrendere":4474,"rovvisa":4475,"Ġcassetta":4476,"Ġfinita":4477,"Ġscorgere":4478,"Dobbiamo":4479,"Ġesordito":4480,"Ġpareva":4481,"Ġgiungere":4482,"RAM":4483,"Ġtristi":4484,"Ġsvegliare":4485,"Ġtrattava":4486,"Ġmezzogiorno":4487,"ersicker":4488,"Ġmostrato":4489,"Ġservizio":4490,"Ġdisperata":4491,"Ġriflettere":4492,"Ġsignificato":4493,"Ġlimiti":4494,"Ġcorrispon":4495,"Ġdebolezza":4496,"Ġprotegg":4497,"Ġfunziona":4498,"potesi":4499,"Ġaiutare":4500,"affatto":4501,"Ġmettersi":4502,"Ġcroce":4503,"Ġrisultato":4504,"Ġcominciare":4505,"ĠTuttavia":4506,"Ġaccettare":4507,"Ġimmobili":4508,"Ġdistruggere":4509,"Ġteneva":4510,"Ġrecente":4511,"Ġdicono":4512,"Ġtemevo":4513,"Ġpronuncia":4514,"evidentemente":4515,"Ġpolizia":4516,"ĠCredo":4517,"Ġriposare":4518,"poichÃ©":4519,"ĠChissÃł":4520,"abbazia":4521,"molti":4522,"Ġtrascorso":4523,"Ġsospetto":4524,"Ġlargo":4525,"cifisso":4526,"Ġapprofi":4527,"ĠalcunchÃ©":4528,"Ġaddormentato":4529,"Ġgiudizio":4530,"camera":4531,"Ġnotturna":4532,"apevo":4533,"Ġfonografo":4534,"uardate":4535,"Ġaguzzi":4536,"Ġritardo":4537,"stintivamente":4538,"Ġsonnambulismo":4539,"ĠlibertÃł":4540,"Ġbestie":4541,"24":4542,"25":4543,"Ben":4544,"Dunque":4545,"Devo":4546,"Morris":4547,"Penso":4548,"Su":4549,"Sta":4550,"Venite":4551,"atti":4552,"adesso":4553,"bri":4554,"cen":4555,"can":4556,"cente":4557,"dro":4558,"dol":4559,"elli":4560,"fan":4561,"fronte":4562,"gano":4563,"lan":4564,"lina":4565,"minu":4566,"marg":4567,"pes":4568,"peri":4569,"sche":4570,"sando":4571,"sali":4572,"soli":4573,"sorriso":4574,"uttu":4575,"vesti":4576,"xam":4577,"Ġ'":4578,"Ġsangu":4579,"Ġschia":4580,"Ġscher":4581,"Ġcio":4582,"Ġcolore":4583,"Ġcuori":4584,"erto":4585,"erne":4586,"Ġamo":4587,"Ġasse":4588,"Ġasp":4589,"Ġacu":4590,"Ġpr":4591,"Ġpru":4592,"Ġpaletto":4593,"resto":4594,"remmo":4595,"tali":4596,"tarsi":4597,"inante":4598,"Ġlenzu":4599,"Ġmer":4600,"Ġmolo":4601,"tete":4602,"teca":4603,"racc":4604,"raga":4605,"rarmi":4606,"Ġeser":4607,"Ġditta":4608,"Ġdirsi":4609,"Ġdiscor":4610,"rizza":4611,"llanti":4612,"ssia":4613,"ssuto":4614,"Ġvor":4615,"Ġfing":4616,"oscuro":4617,"Ġquand":4618,"Ġinva":4619,"Ġdescri":4620,"iore":4621,"omb":4622,"Ġgole":4623,"Ġsub":4624,"Ġcontare":4625,"Ġconsul":4626,"Ġconsapevole":4627,"Ġconsac":4628,"erete":4629,"lici":4630,"Ġsimpa":4631,"dic":4632,"dile":4633,"diano":4634,"dicendo":4635,"Ġseggi":4636,"Ġsepol":4637,"Ġripren":4638,"Ġriguard":4639,"Ġriconos":4640,"sie":4641,"sica":4642,"mie":4643,"Ġossa":4644,"Ġocchio":4645,"Ġotten":4646,"cir":4647,"cida":4648,"legg":4649,"Ġcap":4650,"Ġcatti":4651,"Ġcadere":4652,"detta":4653,"marito":4654,"Ġmassimo":4655,"Ġalz":4656,"Ġalta":4657,"Ġcompreso":4658,"dati":4659,"ssiva":4660,"ggine":4661,"Ġcostre":4662,"ppia":4663,"vile":4664,"ĠMio":4665,"ĠMUR":4666,"Ġprove":4667,"pide":4668,"ĠSkinsky":4669,"ĠfacoltÃł":4670,"Ġfacile":4671,"Ġpazzi":4672,"scom":4673,"Ġpreten":4674,"Ġsore":4675,"potre":4676,"splen":4677,"gliera":4678,"ĠApp":4679,"Ġremo":4680,"Ġrecu":4681,"segu":4682,"perÃ²":4683,"stono":4684,"logio":4685,"loxam":4686,"turo":4687,"ĠPar":4688,"ĠPeter":4689,"Ġscru":4690,"neppure":4691,"giun":4692,"gione":4693,"Ġchiunque":4694,"Ġragg":4695,"Ġralle":4696,"Ġraggiungere":4697,"fico":4698,"Ġaccosta":4699,"Ġsapre":4700,"Ġsacca":4701,"Ġsacro":4702,"presto":4703,"precipi":4704,"ggiÃ¹":4705,"Ġmovimento":4706,"Ġfolla":4707,"Ġbaciato":4708,"Ġtalmente":4709,"Ġtavola":4710,"gaglio":4711,"Ġdovessi":4712,"Ġfissa":4713,"Ġfiglia":4714,"Ġallar":4715,"tena":4716,"chiesta":4717,"Ġdubi":4718,"Ġvengono":4719,"Ġfargli":4720,"quelle":4721,"quelli":4722,"venuta":4723,"Ġguai":4724,"Ġrote":4725,"Ġimpie":4726,"Ġimpadroni":4727,"Ġbuono":4728,"Ġbusta":4729,"Ġaffetto":4730,"enata":4731,"Ġchiamato":4732,"Ġcrede":4733,"Ġcreduto":4734,"Ġcreatura":4735,"spetti":4736,"forte":4737,"Ġabbi":4738,"ĠBa":4739,"indirizzo":4740,"ĠgravitÃł":4741,"ĠbenchÃ©":4742,"Ġmanc":4743,"Ġmanca":4744,"Ġvoci":4745,"Ġtremare":4746,"ccid":4747,"Ġserio":4748,"avanti":4749,"uscita":4750,"gevano":4751,"Ġsentiero":4752,"Ġsalotto":4753,"...\".":4754,"mpiri":4755,"Ġscogliera":4756,"Ġfrequ":4757,"endolo":4758,"Ġpelli":4759,"Ġindicato":4760,"Ġveniva":4761,"ĠFino":4762,"Ġcaldo":4763,"ondante":4764,"Ġsorte":4765,"Ġsorgere":4766,"Ġdormiva":4767,"Ġporte":4768,"ĠsaprÃł":4769,"rendete":4770,"ariva":4771,"tornato":4772,"Ġanimale":4773,"Ġfuga":4774,"Ġorecchio":4775,"ĠErano":4776,"Ġgrida":4777,"Ġespre":4778,"Ġinsistito":4779,"Ġcameri":4780,"Ġbisogna":4781,"ĠPovero":4782,"Ġabbiate":4783,"accordo":4784,"ggiungendo":4785,"Ġpuntato":4786,"Ġrestava":4787,"Inghilterra":4788,"Ġstento":4789,"brale":4790,"Ġstudiato":4791,"Ġcomporta":4792,"RAY":4793,"Ġrivela":4794,"Ġconsegnato":4795,"Ġgrossa":4796,"Ġlieta":4797,"Ġnascosto":4798,"Ġabitudine":4799,"ĠAncora":4800,"ppata":4801,"Ġrapida":4802,"ietta":4803,"Ġincontro":4804,"cchessia":4805,"Ġmalva":4806,"ĠCarpazi":4807,"Ġguardava":4808,"ĠRitengo":4809,"Ġcostatare":4810,"Ġfuner":4811,"seguire":4812,"Continu":4813,"Ġdiversa":4814,"Ġobbedendo":4815,"Ġcrisi":4816,"Ġcriminale":4817,"Ġingino":4818,"Ġingann":4819,"sponsa":4820,"Ġvederla":4821,"Ġtrasfusione":4822,"ĠTutti":4823,"solato":4824,"PoichÃ©":4825,"minati":4826,"Ġorribile":4827,"Ġvuol":4828,"estremitÃł":4829,"Ġsuccesso":4830,"Ġriferire":4831,"Ġselvaggio":4832,"Ġalzata":4833,"Ġsussurro":4834,"Ġappariva":4835,"librio":4836,"Ġangolo":4837,"Ġpiacerebbe":4838,"attenzione":4839,"Ġinformazioni":4840,"Ġbruc":4841,"orizzonte":4842,"Ġapparsa":4843,"Ġconseguenza":4844,"Ġmutamento":4845,"mosfera":4846,"Ġimboccato":4847,"Ġmanifesta":4848,"Ġpericoloso":4849,"illingham":4850,"Ġascoltare":4851,"attesa":4852,"attraverso":4853,"Ġinglese":4854,"Ġribattuto":4855,"Ġdattiloscritto":4856,"ventualitÃł":4857,"ĠOrmai":4858,"Ġpipistrello":4859,"Ġpadrone":4860,"eamente":4861,"insieme":4862,"Ġincomb":4863,"ĠAmsterdam":4864,"EGRAM":4865,"pinione":4866,"Ġcalesse":4867,"ĠStreet":4868,"TELEGRAM":4869,"blioteca":4870,"Ġprigioniero":4871,"ĠcioÃ¨":4872,"ĠMURRAY":4873,"TELEGRAMMA":4874,"\"\"":4875,"29":4876,"AL":4877,"Allora":4878,"Avete":4879,"Ba":4880,"Com":4881,"DRA":4882,"EM":4883,"Gi":4884,"Me":4885,"Ness":4886,"NOR":4887,"Or":4888,"TO":4889,"Temo":4890,"Vol":4891,"ada":4892,"accia":4893,"astro":4894,"bergo":4895,"ck":4896,"cani":4897,"colazione":4898,"dando":4899,"dosi":4900,"drÃł":4901,"essi":4902,"ecce":4903,"fine":4904,"giamo":4905,"gando":4906,"sten":4907,"sarÃł":4908,"schia":4909,"tera":4910,"tendo":4911,"trere":4912,"viamo":4913,"viato":4914,"Ġosc":4915,"Ġonore":4916,"Ġsano":4917,"Ġsale":4918,"Ġsorri":4919,"Ġsfio":4920,"Ġsquar":4921,"Ġcru":4922,"Ġdargli":4923,"Ġatto":4924,"Ġada":4925,"Ġampio":4926,"Ġpra":4927,"Ġposa":4928,"reste":4929,"tavano":4930,"tarmi":4931,"ensi":4932,"inco":4933,"inuto":4934,"Ġmeri":4935,"Ġmand":4936,"Ġmuni":4937,"Ġminuto":4938,"temo":4939,"Ġemo":4940,"Ġemesso":4941,"Ġdiss":4942,"Ġdiff":4943,"Ġdistra":4944,"Ġdirvi":4945,"Ġdirgli":4946,"riti":4947,"rici":4948,"rizzato":4949,"Ġnor":4950,"ial":4951,"tive":4952,"Ġimba":4953,"Ġistru":4954,"Ġidee":4955,"Ġvesti":4956,"quanta":4957,"Ġfess":4958,"ostri":4959,"olte":4960,"Ġintra":4961,"Ġincu":4962,"arre":4963,"Ġdebb":4964,"albergo":4965,"Ġpermettere":4966,"Ġpersua":4967,"Ġgesti":4968,"molle":4969,"esterno":4970,"Ġcons":4971,"limi":4972,"veduto":4973,"dichÃ©":4974,"dibile":4975,"Ġsete":4976,"Ġrial":4977,"Ġriver":4978,"siste":4979,"Ġbran":4980,"Ġbrand":4981,"Ġlevare":4982,"Ġlecito":4983,"bbi":4984,"Ġdati":4985,"Ġotti":4986,"solle":4987,"soff":4988,"cipo":4989,"Ġcasi":4990,"Ġcaduta":4991,"dello":4992,"zati":4993,"Ġmatto":4994,"covina":4995,"zionata":4996,"Ġalquanto":4997,"Ġcomba":4998,"Ġcominci":4999}