{
  "\\u0000": 0,
  "\\u0001": 1,
  "\\u0002": 2,
  "\\u0003": 3,
  "\\u0004": 4,
  "\\u0005": 5,
  "\\u0006": 6,
  "\\u0007": 7,
  "\\u0008": 8,
  "\\u0009": 9,
  "\\u000a": 10,
  "\\u000b": 11,
  "\\u000c": 12,
  "\\u000d": 13,
  "\\u000e": 14,
  "\\u000f": 15,
  "\\u0010": 16,
  "\\u0011": 17,
  "\\u0012": 18,
  "\\u0013": 19,
  "\\u0014": 20,
  "\\u0015": 21,
  "\\u0016": 22,
  "\\u0017": 23,
  "\\u0018": 24,
  "\\u0019": 25,
  "\\u001a": 26,
  "\\u001b": 27,
  "\\u001c": 28,
  "\\u001d": 29,
  "\\u001e": 30,
  "\\u001f": 31,
  " ": 32,
  "!": 33,
  "\"": 34,
  "#": 35,
  "$": 36,
  "%": 37,
  "&": 38,
  "'": 39,
  "(": 40,
  ")": 41,
  "*": 42,
  "+": 43,
  ",": 44,
  "-": 45,
  ".": 46,
  "/": 47,
  "0": 48,
  "1": 49,
  "2": 50,
  "3": 51,
  "4": 52,
  "5": 53,
  "6": 54,
  "7": 55,
  "8": 56,
  "9": 57,
  ":": 58,
  ";": 59,
  "<": 60,
  "=": 61,
  ">": 62,
  "?": 63,
  "@": 64,
  "A": 65,
  "B": 66,
  "C": 67,
  "D": 68,
  "E": 69,
  "F": 70,
  "G": 71,
  "H": 72,
  "I": 73,
  "J": 74,
  "K": 75,
  "L": 76,
  "M": 77,
  "N": 78,
  "O": 79,
  "P": 80,
  "Q": 81,
  "R": 82,
  "S": 83,
  "T": 84,
  "U": 85,
  "V": 86,
  "W": 87,
  "X": 88,
  "Y": 89,
  "Z": 90,
  "[": 91,
  "\\": 92,
  "]": 93,
  "^": 94,
  "_": 95,
  "`": 96,
  "a": 97,
  "b": 98,
  "c": 99,
  "d": 100,
  "e": 101,
  "f": 102,
  "g": 103,
  "h": 104,
  "i": 105,
  "j": 106,
  "k": 107,
  "l": 108,
  "m": 109,
  "n": 110,
  "o": 111,
  "p": 112,
  "q": 113,
  "r": 114,
  "s": 115,
  "t": 116,
  "u": 117,
  "v": 118,
  "w": 119,
  "x": 120,
  "y": 121,
  "z": 122,
  "{": 123,
  "|": 124,
  "}": 125,
  "~": 126,
  "\\u007f": 127,
  "\\x80": 128,
  "\\x81": 129,
  "\\x82": 130,
  "\\x83": 131,
  "\\x84": 132,
  "\\x85": 133,
  "\\x86": 134,
  "\\x87": 135,
  "\\x88": 136,
  "\\x89": 137,
  "\\x8a": 138,
  "\\x8b": 139,
  "\\x8c": 140,
  "\\x8d": 141,
  "\\x8e": 142,
  "\\x8f": 143,
  "\\x90": 144,
  "\\x91": 145,
  "\\x92": 146,
  "\\x93": 147,
  "\\x94": 148,
  "\\x95": 149,
  "\\x96": 150,
  "\\x97": 151,
  "\\x98": 152,
  "\\x99": 153,
  "\\x9a": 154,
  "\\x9b": 155,
  "\\x9c": 156,
  "\\x9d": 157,
  "\\x9e": 158,
  "\\x9f": 159,
  " ": 160,
  "¡": 161,
  "¢": 162,
  "£": 163,
  "¤": 164,
  "¥": 165,
  "¦": 166,
  "§": 167,
  "¨": 168,
  "©": 169,
  "ª": 170,
  "«": 171,
  "¬": 172,
  "\\xad": 173,
  "®": 174,
  "¯": 175,
  "°": 176,
  "±": 177,
  "²": 178,
  "³": 179,
  "´": 180,
  "µ": 181,
  "¶": 182,
  "·": 183,
  "¸": 184,
  "¹": 185,
  "º": 186,
  "»": 187,
  "¼": 188,
  "½": 189,
  "¾": 190,
  "¿": 191,
  "À": 192,
  "Á": 193,
  "Â": 194,
  "Ã": 195,
  "Ä": 196,
  "Å": 197,
  "Æ": 198,
  "Ç": 199,
  "È": 200,
  "É": 201,
  "Ê": 202,
  "Ë": 203,
  "Ì": 204,
  "Í": 205,
  "Î": 206,
  "Ï": 207,
  "Ð": 208,
  "Ñ": 209,
  "Ò": 210,
  "Ó": 211,
  "Ô": 212,
  "Õ": 213,
  "Ö": 214,
  "×": 215,
  "Ø": 216,
  "Ù": 217,
  "Ú": 218,
  "Û": 219,
  "Ü": 220,
  "Ý": 221,
  "Þ": 222,
  "ß": 223,
  "à": 224,
  "á": 225,
  "â": 226,
  "ã": 227,
  "ä": 228,
  "å": 229,
  "æ": 230,
  "ç": 231,
  "è": 8594,
  "é": 4172,
  "ê": 234,
  "ë": 235,
  "ì": 236,
  "í": 237,
  "î": 238,
  "ï": 239,
  "ð": 240,
  "ñ": 241,
  "ò": 242,
  "ó": 243,
  "ô": 244,
  "õ": 245,
  "ö": 246,
  "÷": 247,
  "ø": 248,
  "ù": 249,
  "ú": 250,
  "û": 251,
  "ü": 252,
  "ý": 253,
  "þ": 254,
  "ÿ": 255,
  "e ": 256,
  "th": 257,
  "d ": 258,
  "t ": 259,
  "s ": 260,
  "in": 261,
  "er": 262,
  "an": 263,
  ", ": 264,
  "the ": 265,
  "ou": 266,
  "en": 267,
  "on": 268,
  "o ": 269,
  "y ": 270,
  "  ": 271,
  "ed ": 272,
  "or": 273,
  "ing": 274,
  ". ": 275,
  "ar": 276,
  "and ": 277,
  "f ": 278,
  "to ": 279,
  "er ": 280,
  "re": 281,
  "�": 282,
  "ing ": 283,
  "st": 284,
  "ll": 285,
  "of ": 286,
  "ha": 287,
  "hi": 288,
  "a ": 289,
  "wa": 290,
  "he ": 291,
  "om": 292,
  "I ": 293,
  "    ": 294,
  "in ": 295,
  "at ": 296,
  "se": 297,
  "at": 298,
  "ow": 299,
  ".\\u000a": 300,
  "es": 301,
  "it": 302,
  "ac": 303,
  "le": 304,
  "en ": 305,
  "wi": 306,
  "gh": 307,
  "or ": 308,
  "al": 309,
  "ll ": 310,
  "ed": 311,
  "on ": 312,
  "as": 313,
  "ch": 314,
  "li": 315,
  "was ": 316,
  "ti": 317,
  "be": 318,
  ", and ": 319,
  "si": 320,
  "ri": 321,
  "th ": 322,
  "’": 323,
  "that ": 324,
  "an ": 325,
  "sh": 326,
  "the": 327,
  "her ": 328,
  "ro": 329,
  "k ": 330,
  "is ": 331,
  "ur": 332,
  "ly ": 333,
  "un": 334,
  "ve ": 335,
  "        ": 336,
  "you": 337,
  "oo": 338,
  "di": 339,
  "us": 340,
  "ld ": 341,
  "ere ": 342,
  "he": 343,
  "his ": 344,
  "\\u000a\\u000a": 345,
  "it ": 346,
  "m ": 347,
  "sa": 348,
  "as ": 349,
  "with ": 350,
  "me": 351,
  "no": 352,
  "le ": 353,
  "ut ": 354,
  "de": 355,
  "ir": 356,
  ",\\u000a": 357,
  "ca": 358,
  "me ": 359,
  "and": 360,
  "ad": 361,
  "wh": 362,
  "for ": 363,
  "es ": 364,
  "ra": 365,
  "p ": 366,
  "had ": 367,
  "ic": 368,
  "she ": 369,
  "ver": 370,
  "el": 371,
  "ter": 372,
  "ta": 373,
  "em": 374,
  ". T": 375,
  "ow ": 376,
  "ould ": 377,
  "lo": 378,
  "oun": 379,
  "ch ": 380,
  "sp": 381,
  "ent": 382,
  "for": 383,
  "su": 384,
  "ag": 385,
  "fr": 386,
  "n ": 387,
  "of the ": 388,
  "om ": 389,
  "s, ": 390,
  "whi": 391,
  "ab": 392,
  "pp": 393,
  "ne": 394,
  "our": 395,
  "my ": 396,
  "you ": 397,
  "fe": 398,
  "s\\u000a": 399,
  ".\\u000a\\u000a": 400,
  "; ": 401,
  "ght ": 402,
  "se ": 403,
  "ent ": 404,
  "to": 405,
  "—": 406,
  "out ": 407,
  "ma": 408,
  "but ": 409,
  "not ": 410,
  "com": 411,
  "be ": 412,
  "this ": 413,
  "il": 414,
  "e\\u000a": 415,
  "ke ": 416,
  "con": 417,
  "we ": 418,
  "id": 419,
  "\" ": 420,
  "e, ": 421,
  "have ": 422,
  "from ": 423,
  "by ": 424,
  "to the ": 425,
  "la": 426,
  "al ": 427,
  "qu": 428,
  "ex": 429,
  "all ": 430,
  "som": 431,
  "we": 432,
  "                ": 433,
  "st ": 434,
  "po": 435,
  "ght": 436,
  "in the ": 437,
  "so ": 438,
  "‘": 439,
  "of": 440,
  ". H": 441,
  "her": 442,
  "'s ": 443,
  "“": 444,
  "ati": 445,
  "y, ": 446,
  "w ": 447,
  "fi": 448,
  "mo": 449,
  "do": 450,
  "ul": 451,
  "op": 452,
  "one ": 453,
  "ce ": 454,
  "ver ": 455,
  "were ": 456,
  "ce": 457,
  "ru": 458,
  "\"\\u000a\\u000a": 459,
  ". I ": 460,
  "ong": 461,
  ". S": 462,
  "bo": 463,
  "ed to ": 464,
  "ar ": 465,
  "”": 466,
  "ust ": 467,
  "wor": 468,
  "ut": 469,
  "all": 470,
  "ld": 471,
  "ter ": 472,
  "co": 473,
  "is": 474,
  "hat ": 475,
  "ge": 476,
  "id ": 477,
  "ough": 478,
  "im": 479,
  "mor": 480,
  "our ": 481,
  ". I": 482,
  "s of ": 483,
  "te": 484,
  "ct": 485,
  "are ": 486,
  "ck": 487,
  "the\\u000a": 488,
  "kn": 489,
  "ther ": 490,
  "’ ": 491,
  "pl": 492,
  "sel": 493,
  "its ": 494,
  "y\\u000a": 495,
  "am": 496,
  "der": 497,
  "vi": 498,
  "loo": 499,
  "’s ": 500,
  "ang": 501,
  "ir ": 502,
  "which ": 503,
  "per": 504,
  ",\" ": 505,
  "ther": 506,
  "res": 507,
  "us ": 508,
  "dow": 509,
  "could ": 510,
  "him": 511,
  "ed, ": 512,
  "up ": 513,
  "et": 514,
  "\"\\u000a\\u000a\"": 515,
  "bac": 516,
  "if ": 517,
  "ough ": 518,
  "would ": 519,
  "ard": 520,
  "go": 521,
  ". The ": 522,
  "him ": 523,
  "ain": 524,
  "pro": 525,
  "on the ": 526,
  "so": 527,
  ". A": 528,
  "fac": 529,
  "ked ": 530,
  "man": 531,
  "'t ": 532,
  "ep": 533,
  "ound ": 534,
  "thing ": 535,
  "ap": 536,
  "\\u000athe ": 537,
  "some ": 538,
  "tr": 539,
  "ev": 540,
  "da": 541,
  "ess": 542,
  "pe": 543,
  "The ": 544,
  "ey": 545,
  "til": 546,
  "no ": 547,
  "ed the ": 548,
  "au": 549,
  "said ": 550,
  "um": 551,
  "they ": 552,
  ". W": 553,
  "ed\\u000a": 554,
  "ard ": 555,
  "when ": 556,
  "mi": 557,
  "! ": 558,
  "bl": 559,
  "ad ": 560,
  "king ": 561,
  "gre": 562,
  "assi": 563,
  "tain ": 564,
  "sti": 565,
  "sc": 566,
  "ble ": 567,
  "there ": 568,
  "long": 569,
  "But ": 570,
  "been ": 571,
  "ear": 572,
  "what ": 573,
  "like ": 574,
  "af": 575,
  "out": 576,
  "’t ": 577,
  "s and ": 578,
  "es, ": 579,
  "et ": 580,
  "” ": 581,
  "ese ": 582,
  "Th": 583,
  "sha": 584,
  "then ": 585,
  "fin": 586,
  "ni": 587,
  "very ": 588,
  "tur": 589,
  "\\u000a“": 590,
  "ly": 591,
  ", but ": 592,
  "de ": 593,
  "ting ": 594,
  "str": 595,
  "clo": 596,
  "ted ": 597,
  ". He ": 598,
  "up": 599,
  "into ": 600,
  "and\\u000a": 601,
  ". She ": 602,
  "spe": 603,
  "sur": 604,
  "their ": 605,
  "end": 606,
  "thr": 607,
  "your": 608,
  "with": 609,
  "ould": 610,
  "Cassi": 611,
  "ation": 612,
  "ach": 613,
  "ing\\u000a": 614,
  "ast ": 615,
  "ess ": 616,
  "gr": 617,
  "back ": 618,
  "ge ": 619,
  ", the ": 620,
  ". Th": 621,
  "min": 622,
  "par": 623,
  "again": 624,
  "over ": 625,
  "these ": 626,
  "sh ": 627,
  "more ": 628,
  "ous ": 629,
  "tw": 630,
  "too": 631,
  "way ": 632,
  "                                ": 633,
  "said": 634,
  "autil": 635,
  "ant ": 636,
  "Nautil": 637,
  "gi": 638,
  "came ": 639,
  "ound": 640,
  "ose ": 641,
  "at the ": 642,
  ", I ": 643,
  "ood ": 644,
  "You": 645,
  "will ": 646,
  "only ": 647,
  "hand": 648,
  "can ": 649,
  "must ": 650,
  "than ": 651,
  "ci": 652,
  "went ": 653,
  "ke": 654,
  "ful": 655,
  "fu": 656,
  "t\\u000a": 657,
  "befor": 658,
  "do ": 659,
  "sed ": 660,
  "some": 661,
  "mu": 662,
  "itt": 663,
  "cl": 664,
  "seem": 665,
  "them ": 666,
  "? ": 667,
  "thing": 668,
  "see ": 669,
  "vo": 670,
  "pres": 671,
  "nd ": 672,
  ". \"": 673,
  "about ": 674,
  "rea": 675,
  "any ": 676,
  "read": 677,
  "mad": 678,
  "in a ": 679,
  "tion": 680,
  "other ": 681,
  ".\"\\u000a\\u000a\"": 682,
  "n't ": 683,
  "ate ": 684,
  "fl": 685,
  "your ": 686,
  "Cap": 687,
  "der ": 688,
  "from the ": 689,
  "’\\u000a": 690,
  ".\\u000a\\u000a\"": 691,
  "br": 692,
  "Mr": 693,
  "ck ": 694,
  "ve": 695,
  "est ": 696,
  "that": 697,
  "a\\u000a": 698,
  "way": 699,
  "star": 700,
  "thin": 701,
  "il ": 702,
  "d\\u000a": 703,
  ".\\u000a‘": 704,
  "ast": 705,
  "Cassie ": 706,
  "ho": 707,
  "ep ": 708,
  "rep": 709,
  ". It ": 710,
  "Con": 711,
  "time": 712,
  "who ": 713,
  "down ": 714,
  "don": 715,
  "ing the ": 716,
  "ing to ": 717,
  "man ": 718,
  "own ": 719,
  "00": 720,
  "just ": 721,
  "ber": 722,
  "time ": 723,
  ",\\u000aand ": 724,
  "app": 725,
  "ff": 726,
  "Captain ": 727,
  "g ": 728,
  "a s": 729,
  "ant": 730,
  "turn": 731,
  "\\u000a\\u000a\\u000c": 732,
  "ble": 733,
  "made ": 734,
  "know ": 735,
  "self ": 736,
  "to\\u000a": 737,
  "thou": 738,
  "has ": 739,
  "am ": 740,
  "car": 741,
  "through ": 742,
  "before ": 743,
  "Conse": 744,
  "able ": 745,
  "Pro": 746,
  "iti": 747,
  "pa": 748,
  "\"\\u000a": 749,
  "Nem": 750,
  "them": 751,
  "ite ": 752,
  "did ": 753,
  "comp": 754,
  "fir": 755,
  "He ": 756,
  "use ": 757,
  "re ": 758,
  "ed her ": 759,
  "ster": 760,
  "win": 761,
  "under": 762,
  "gl": 763,
  "cap": 764,
  "Captain Nem": 765,
  "You ": 766,
  "av": 767,
  "ed by ": 768,
  "litt": 769,
  "fri": 770,
  "shi": 771,
  "ct ": 772,
  "sing ": 773,
  "ever": 774,
  "att": 775,
  "n’t ": 776,
  "ation ": 777,
  "hor": 778,
  "even ": 779,
  "cor": 780,
  "where ": 781,
  "face ": 782,
  "plac": 783,
  "cont": 784,
  "—\\u000a“": 785,
  "may ": 786,
  "ful ": 787,
  "ob": 788,
  "ed with ": 789,
  "ga": 790,
  "s.\\u000a": 791,
  "ing, ": 792,
  "tain": 793,
  "now ": 794,
  "can": 795,
  "come ": 796,
  "ark": 797,
  "arm": 798,
  "how ": 799,
  "water": 800,
  "tic": 801,
  "open": 802,
  "fo": 803,
  "dd": 804,
  "s, and ": 805,
  "cre": 806,
  "pre": 807,
  "ed and ": 808,
  "uc": 809,
  "bet": 810,
  "go ": 811,
  "took ": 812,
  "beg": 813,
  "na": 814,
  "two ": 815,
  "’\\u000a‘": 816,
  "t of ": 817,
  "saw ": 818,
  "ste": 819,
  ":—\\u000a“": 820,
  "ser": 821,
  "such ": 822,
  "vel": 823,
  "ure": 824,
  ". ‘": 825,
  "it was ": 826,
  "into the ": 827,
  "tion ": 828,
  "des": 829,
  "ally ": 830,
  "get ": 831,
  "shall ": 832,
  "side ": 833,
  "ence ": 834,
  ". But ": 835,
  "of\\u000a": 836,
  "tri": 837,
  "I'": 838,
  "fre": 839,
  ".\\u000a\"": 840,
  "je": 841,
  "still ": 842,
  "emp": 843,
  "ol": 844,
  "ic ": 845,
  "sle": 846,
  "brea": 847,
  "one": 848,
  "fel": 849,
  "tra": 850,
  "ed in ": 851,
  "long ": 852,
  "sl": 853,
  "fess": 854,
  "know": 855,
  "pu": 856,
  "most ": 857,
  "with the ": 858,
  "ity ": 859,
  "sta": 860,
  "self": 861,
  "dy ": 862,
  "did": 863,
  "eyes ": 864,
  "day": 865,
  "e of ": 866,
  "ts ": 867,
  "And ": 868,
  "tt": 869,
  "tre": 870,
  "anc": 871,
  "No": 872,
  "s,\\u000a": 873,
  "little ": 874,
  "t, ": 875,
  "pri": 876,
  "pos": 877,
  "after ": 878,
  "with a ": 879,
  "ell": 880,
  "l ": 881,
  "for the ": 882,
  "enc": 883,
  "; and ": 884,
  "s to ": 885,
  "ft ": 886,
  "off ": 887,
  "light": 888,
  "visi": 889,
  "off": 890,
  "gu": 891,
  "est": 892,
  "ved ": 893,
  "end ": 894,
  "d, ": 895,
  "wer": 896,
  "pas": 897,
  "over": 898,
  "ans": 899,
  "cha": 900,
  ". M": 901,
  "head ": 902,
  "!\" ": 903,
  "bu": 904,
  "thre": 905,
  "It ": 906,
  "think ": 907,
  "make ": 908,
  "he\\u000a": 909,
  "ance ": 910,
  "en, ": 911,
  "felt ": 912,
  ".’ ": 913,
  "Conseil ": 914,
  "I\\u000a": 915,
  "ach ": 916,
  "now": 917,
  "ves ": 918,
  "Ned ": 919,
  "repli": 920,
  "ving ": 921,
  "new ": 922,
  "ph": 923,
  "ack": 924,
  "the s": 925,
  "opp": 926,
  ".”": 927,
  "head": 928,
  "could": 929,
  "ong ": 930,
  "door ": 931,
  "She ": 932,
  "ous": 933,
  "my": 934,
  "ill": 935,
  "mer": 936,
  "mom": 937,
  "int": 938,
  "ef": 939,
  "ank ": 940,
  "hel": 941,
  "her\\u000a": 942,
  "Hel": 943,
  "ate": 944,
  "\\u000a\\u000c": 945,
  "Captain Nemo ": 946,
  "I was ": 947,
  "other": 948,
  "Nautilus ": 949,
  "gra": 950,
  "dist": 951,
  "cur": 952,
  "mp": 953,
  "won": 954,
  "hear": 955,
  "ank": 956,
  "Ar": 957,
  "                                                ": 958,
  "wha": 959,
  "was\\u000a": 960,
  "that the ": 961,
  "to be ": 962,
  "sil": 963,
  "te ": 964,
  "cer": 965,
  "by the ": 966,
  "under ": 967,
  "looked ": 968,
  "on, ": 969,
  "without ": 970,
  "gg": 971,
  "cause ": 972,
  "form": 973,
  "spo": 974,
  "got ": 975,
  "back": 976,
  "ers ": 977,
  "Nautilus": 978,
  "me, ": 979,
  "Go": 980,
  "much ": 981,
  "any": 982,
  "stru": 983,
  "lly ": 984,
  "ary ": 985,
  "wr": 986,
  "hen ": 987,
  "\\u000aand ": 988,
  "fa": 989,
  "anim": 990,
  ": ": 991,
  "ros": 992,
  "ated ": 993,
  "ly, ": 994,
  "ward": 995,
  "ure ": 996,
  "ele": 997,
  "chi": 998,
  "day ": 999,
  "door": 1000,
  "les ": 1001,
  "ice ": 1002,
  "night": 1003,
  "while ": 1004,
  "tow": 1005,
  "room": 1006,
  "let ": 1007,
  ", and the ": 1008,
  "though ": 1009,
  "cr": 1010,
  "feel": 1011,
  "?\"\\u000a\\u000a\"": 1012,
  "flo": 1013,
  "Luc": 1014,
  "Thom": 1015,
  "put ": 1016,
  "heard ": 1017,
  "found ": 1018,
  "was a ": 1019,
  "en\\u000a": 1020,
  ".\\u000aThe ": 1021,
  "mar": 1022,
  "of a ": 1023,
  "ning ": 1024,
  "those ": 1025,
  "happ": 1026,
  "llow": 1027,
  "less ": 1028,
  "might ": 1029,
  "I had ": 1030,
  "eng": 1031,
  "\"\\u000a\"": 1032,
  "I could ": 1033,
  "ort": 1034,
  "sk": 1035,
  "ps ": 1036,
  "inter": 1037,
  "cle": 1038,
  "tell ": 1039,
  "side": 1040,
  "led ": 1041,
  "Profess": 1042,
  "t's ": 1043,
  "here ": 1044,
  "left ": 1045,
  "ment": 1046,
  ". O": 1047,
  "down": 1048,
  "work": 1049,
  "sho": 1050,
  "away ": 1051,
  "; but ": 1052,
  "hey ": 1053,
  "qui": 1054,
  "take ": 1055,
  "first ": 1056,
  "..": 1057,
  "the b": 1058,
  "light ": 1059,
  "pi": 1060,
  "mon": 1061,
  "body ": 1062,
  "Van ": 1063,
  "Van Hel": 1064,
  "s that ": 1065,
  "strang": 1066,
  "tch": 1067,
  "thought ": 1068,
  "\\u000a\\u000a\\u000a\\u000a": 1069,
  "lled ": 1070,
  ". We ": 1071,
  "es\\u000a": 1072,
  "lat": 1073,
  "ying ": 1074,
  "sin": 1075,
  "pr": 1076,
  "something ": 1077,
  "who": 1078,
  "hou": 1079,
  "see": 1080,
  "should ": 1081,
  "a b": 1082,
  "adi": 1083,
  "ine ": 1084,
  "dar": 1085,
  "told ": 1086,
  "against ": 1087,
  ",’ ": 1088,
  "fish": 1089,
  "ani": 1090,
  "water ": 1091,
  "hin": 1092,
  "of his ": 1093,
  "never ": 1094,
  "coll": 1095,
  "right ": 1096,
  "Ned L": 1097,
  "Can": 1098,
  ",\" said ": 1099,
  "good ": 1100,
  "for a ": 1101,
  "here": 1102,
  "andl": 1103,
  "hand ": 1104,
  "s were ": 1105,
  "s the ": 1106,
  "ty ": 1107,
  "men ": 1108,
  "she was ": 1109,
  "hu": 1110,
  ".’\\u000a‘": 1111,
  "ever ": 1112,
  "around ": 1113,
  "great ": 1114,
  "dra": 1115,
  "sudd": 1116,
  "ood": 1117,
  "that he ": 1118,
  ". B": 1119,
  "ea": 1120,
  "--": 1121,
  "his\\u000a": 1122,
  "ick": 1123,
  "word": 1124,
  "had been ": 1125,
  "betwe": 1126,
  "of her ": 1127,
  "s of the ": 1128,
  "said, ": 1129,
  "shed ": 1130,
  "gn": 1131,
  "last ": 1132,
  "few ": 1133,
  "as he ": 1134,
  "itu": 1135,
  "Handl": 1136,
  ", and I ": 1137,
  "In": 1138,
  "ready ": 1139,
  "du": 1140,
  ". F": 1141,
  "stood ": 1142,
  "as she ": 1143,
  "What ": 1144,
  "is\\u000a": 1145,
  "sub": 1146,
  "run": 1147,
  "and the ": 1148,
  "because ": 1149,
  "cla": 1150,
  "every ": 1151,
  "ner": 1152,
  "dre": 1153,
  "x ": 1154,
  "Dr": 1155,
  "old ": 1156,
  "whose ": 1157,
  "ed a ": 1158,
  "ves": 1159,
  "This ": 1160,
  "right": 1161,
  "0 ": 1162,
  "began ": 1163,
  "between ": 1164,
  "meter": 1165,
  "ple": 1166,
  "cau": 1167,
  "hal": 1168,
  "supp": 1169,
  "ating ": 1170,
  "?\" ": 1171,
  "Canadi": 1172,
  "that I ": 1173,
  "aw": 1174,
  "it, ": 1175,
  "sion ": 1176,
  "We ": 1177,
  "gen": 1178,
  "ack ": 1179,
  "nat": 1180,
  ".\\u000a“": 1181,
  "mis": 1182,
  "too ": 1183,
  "tru": 1184,
  ". There ": 1185,
  "cu": 1186,
  ".” ": 1187,
  "ven ": 1188,
  "dis": 1189,
  "ling ": 1190,
  "stor": 1191,
  "se, ": 1192,
  "she": 1193,
  "pow": 1194,
  "sea ": 1195,
  ".\"\\u000a\\u000a": 1196,
  "coun": 1197,
  "ently ": 1198,
  ".\\u000aA": 1199,
  "keep ": 1200,
  "ask": 1201,
  "lic": 1202,
  "in\\u000a": 1203,
  "work ": 1204,
  "an\\u000a": 1205,
  "ed, and ": 1206,
  "quite ": 1207,
  "ist": 1208,
  "tal": 1209,
  "how": 1210,
  "fur": 1211,
  "let": 1212,
  "room ": 1213,
  "lif": 1214,
  "shor": 1215,
  "swe": 1216,
  "sion": 1217,
  "mat": 1218,
  "cep": 1219,
  "men": 1220,
  "being ": 1221,
  "in his ": 1222,
  "?’ ": 1223,
  "Min": 1224,
  "bar": 1225,
  "to re": 1226,
  "'re ": 1227,
  "it\\u000a": 1228,
  "set ": 1229,
  "ity": 1230,
  "Thomas ": 1231,
  "all the ": 1232,
  "dou": 1233,
  "have been ": 1234,
  "ight ": 1235,
  "want ": 1236,
  "behin": 1237,
  ",” ": 1238,
  "foo": 1239,
  "ona": 1240,
  "sleep": 1241,
  "bra": 1242,
  "sou": 1243,
  ",\" I ": 1244,
  "ud": 1245,
  "er, ": 1246,
  "che": 1247,
  "red ": 1248,
  "diff": 1249,
  "ari": 1250,
  "es of ": 1251,
  "In ": 1252,
  "mov": 1253,
  "Professor ": 1254,
  "st\\u000a": 1255,
  "Coun": 1256,
  "cover": 1257,
  "did not ": 1258,
  "kin": 1259,
  "lin": 1260,
  "cri": 1261,
  "ing her ": 1262,
  "sea": 1263,
  "well ": 1264,
  "abo": 1265,
  "ken ": 1266,
  "seemed to ": 1267,
  ". Then ": 1268,
  "eas": 1269,
  "stra": 1270,
  "hop": 1271,
  "until": 1272,
  "bloo": 1273,
  "night ": 1274,
  "har": 1275,
  "she had ": 1276,
  "find ": 1277,
  "ash": 1278,
  "hun": 1279,
  "was": 1280,
  ". And ": 1281,
  "ject ": 1282,
  "que": 1283,
  "sed": 1284,
  "add": 1285,
  "\\u000a\\u000a\\u000a\\u000a                                                ": 1286,
  "le, ": 1287,
  "look ": 1288,
  "as the ": 1289,
  "open ": 1290,
  "Jona": 1291,
  "that\\u000a": 1292,
  "as if ": 1293,
  "bi": 1294,
  "ses ": 1295,
  "own": 1296,
  "beli": 1297,
  "seemed ": 1298,
  "!\\u000a": 1299,
  "lay ": 1300,
  "sun": 1301,
  "Ned Land ": 1302,
  ". You ": 1303,
  "but": 1304,
  "med": 1305,
  "ely ": 1306,
  "hour": 1307,
  "give ": 1308,
  "mou": 1309,
  "e and ": 1310,
  "ain ": 1311,
  ".—": 1312,
  "asked ": 1313,
  "he was ": 1314,
  "sir": 1315,
  "ide": 1316,
  "many ": 1317,
  "ement": 1318,
  "ve\\u000a": 1319,
  "pped ": 1320,
  "ur ": 1321,
  "sor": 1322,
  "wom": 1323,
  "comm": 1324,
  "stand": 1325,
  "would": 1326,
  "mid": 1327,
  ". This ": 1328,
  ", for ": 1329,
  "ak": 1330,
  "until ": 1331,
  "feet ": 1332,
  "dep": 1333,
  "ome": 1334,
  "friend": 1335,
  "same ": 1336,
  "another ": 1337,
  "she\\u000a": 1338,
  "ER": 1339,
  "ty": 1340,
  "kep": 1341,
  "dri": 1342,
  ".\\u000aI ": 1343,
  "peri": 1344,
  "window": 1345,
  "each ": 1346,
  "jo": 1347,
  "h, ": 1348,
  "sudden": 1349,
  "toge": 1350,
  "fear": 1351,
  "answer": 1352,
  "I’": 1353,
  "contin": 1354,
  "\\u000aof ": 1355,
  "ew": 1356,
  "real": 1357,
  "ook": 1358,
  "once ": 1359,
  "land": 1360,
  ", and she ": 1361,
  "three ": 1362,
  "it is ": 1363,
  "enti": 1364,
  "fish ": 1365,
  "through the ": 1366,
  "cal": 1367,
  "full ": 1368,
  "white ": 1369,
  "lim": 1370,
  "s.\\u000a\\u000a": 1371,
  "possi": 1372,
  "whole ": 1373,
  "appear": 1374,
  "uten": 1375,
  "follow": 1376,
  "wonder": 1377,
  "coming ": 1378,
  "bro": 1379,
  "gri": 1380,
  "ber ": 1381,
  "say ": 1382,
  ". N": 1383,
  "behind ": 1384,
  "poor ": 1385,
  "elect": 1386,
  "yet ": 1387,
  "tu": 1388,
  "gave ": 1389,
  "nothing ": 1390,
  "ed his ": 1391,
  "ly\\u000a": 1392,
  "stopp": 1393,
  "ry ": 1394,
  "if": 1395,
  "toward": 1396,
  "s. H": 1397,
  ";\\u000a": 1398,
  "since ": 1399,
  "utenber": 1400,
  "pic": 1401,
  "col": 1402,
  "every": 1403,
  "s in ": 1404,
  "pur": 1405,
  "enough ": 1406,
  ". L": 1407,
  "seen ": 1408,
  "visible ": 1409,
  "age ": 1410,
  "ence": 1411,
  "had\\u000a": 1412,
  "kept ": 1413,
  "air ": 1414,
  "stre": 1415,
  "don’t ": 1416,
  "cent": 1417,
  "oce": 1418,
  "wait": 1419,
  "high": 1420,
  "God": 1421,
  "animal": 1422,
  "ay": 1423,
  "enter": 1424,
  "say": 1425,
  "didn't ": 1426,
  "wal": 1427,
  ", which ": 1428,
  "times ": 1429,
  "knew ": 1430,
  "I am ": 1431,
  "glas": 1432,
  ". A ": 1433,
  "chang": 1434,
  "son": 1435,
  "over the ": 1436,
  "led": 1437,
  "peop": 1438,
  "thro": 1439,
  "ition": 1440,
  "din": 1441,
  ",00": 1442,
  ". It was ": 1443,
  "air": 1444,
  "Van Helsing ": 1445,
  ". They ": 1446,
  ". In ": 1447,
  "low": 1448,
  "should": 1449,
  "le\\u000a": 1450,
  "'ll ": 1451,
  "HA": 1452,
  "cour": 1453,
  "there": 1454,
  "ice": 1455,
  "ei": 1456,
  "oc": 1457,
  "held ": 1458,
  "sure ": 1459,
  "moment": 1460,
  "like a ": 1461,
  "sure": 1462,
  "ric": 1463,
  "not": 1464,
  "dro": 1465,
  "again ": 1466,
  "sen": 1467,
  "!” ": 1468,
  "Canadian ": 1469,
  "Gutenber": 1470,
  "ook ": 1471,
  "ously ": 1472,
  "ll, ": 1473,
  "to-": 1474,
  "to me": 1475,
  "inst": 1476,
  "replied": 1477,
  "shar": 1478,
  "Com": 1479,
  "Handler ": 1480,
  "Un": 1481,
  "bur": 1482,
  "iz": 1483,
  "ought ": 1484,
  ".\\u000a\\u000a\\u000c": 1485,
  "sci": 1486,
  "ment ": 1487,
  "Kemp": 1488,
  "nex": 1489,
  "far ": 1490,
  ", he ": 1491,
  "happen": 1492,
  ".”\\u000a": 1493,
  "heav": 1494,
  "se\\u000a": 1495,
  "nor": 1496,
  "of this ": 1497,
  "would be ": 1498,
  "began to ": 1499,
  "lu": 1500,
  "ster ": 1501,
  "in her ": 1502,
  "as\\u000a": 1503,
  "wind": 1504,
  "degre": 1505,
  "ctor ": 1506,
  ". When ": 1507,
  "at\\u000a": 1508,
  "ship": 1509,
  "secon": 1510,
  "stri": 1511,
  "lea": 1512,
  "ll\\u000a": 1513,
  "as I ": 1514,
  "poin": 1515,
  "row": 1516,
  "tic ": 1517,
  "ance": 1518,
  "tting ": 1519,
  "hur": 1520,
  "fam": 1521,
  "doub": 1522,
  "fing": 1523,
  "exp": 1524,
  "watch": 1525,
  "Then ": 1526,
  ". D": 1527,
  "ide ": 1528,
  "quick": 1529,
  "b ": 1530,
  "I'm ": 1531,
  "able to ": 1532,
  "ten ": 1533,
  "mm": 1534,
  "sm": 1535,
  "herself ": 1536,
  "tly ": 1537,
  "mean": 1538,
  ". If ": 1539,
  "consi": 1540,
  ",\" he ": 1541,
  "ase ": 1542,
  "looking ": 1543,
  "both ": 1544,
  "ace": 1545,
  "it's ": 1546,
  "from": 1547,
  ", a ": 1548,
  "questi": 1549,
  "round ": 1550,
  "y, and ": 1551,
  "minut": 1552,
  "I have ": 1553,
  "hands ": 1554,
  "ed at ": 1555,
  "return": 1556,
  "cat": 1557,
  "already ": 1558,
  "sing": 1559,
  "going ": 1560,
  "There ": 1561,
  "lau": 1562,
  "to her ": 1563,
  "Captain Nemo": 1564,
  "with\\u000a": 1565,
  "is a ": 1566,
  ", so ": 1567,
  "stu": 1568,
  "place ": 1569,
  "cru": 1570,
  "moment ": 1571,
  "fter ": 1572,
  "almost ": 1573,
  "awa": 1574,
  "feel ": 1575,
  "les": 1576,
  "acros": 1577,
  ".”\\u000a“": 1578,
  "So ": 1579,
  "En": 1580,
  "el ": 1581,
  "?\\u000a": 1582,
  "fron": 1583,
  "there was ": 1584,
  "When ": 1585,
  "turn ": 1586,
  "thought": 1587,
  "t’s ": 1588,
  "lock": 1589,
  "had": 1590,
  ".\"\\u000a\"": 1591,
  "next ": 1592,
  "rema": 1593,
  "captain": 1594,
  "hear ": 1595,
  "ction": 1596,
  "lling ": 1597,
  "suddenly ": 1598,
  ". “": 1599,
  "with his ": 1600,
  "we were ": 1601,
  "t the ": 1602,
  "he had ": 1603,
  "on\\u000a": 1604,
  "cir": 1605,
  "stro": 1606,
  "bb": 1607,
  "don't ": 1608,
  "me\\u000a": 1609,
  "and, ": 1610,
  "ised ": 1611,
  "ped ": 1612,
  "voice ": 1613,
  "A ": 1614,
  "TER": 1615,
  "things ": 1616,
  "up the ": 1617,
  "fully ": 1618,
  "plat": 1619,
  "Lucy ": 1620,
  "try": 1621,
  "terri": 1622,
  "eve ": 1623,
  "es and ": 1624,
  "ish": 1625,
  "help ": 1626,
  "need": 1627,
  "war": 1628,
  "dy": 1629,
  "er\\u000a": 1630,
  ".\\u000aH": 1631,
  "ek": 1632,
  "in my ": 1633,
  "My ": 1634,
  "start": 1635,
  "compani": 1636,
  "dear ": 1637,
  "gli": 1638,
  "E ": 1639,
  "arri": 1640,
  "simp": 1641,
  "char": 1642,
  "surpri": 1643,
  "?’\\u000a‘": 1644,
  "continu": 1645,
  "Fr": 1646,
  "soon ": 1647,
  "ways ": 1648,
  "or, ": 1649,
  "didn’t ": 1650,
  "’d ": 1651,
  ". Her ": 1652,
  "ed on ": 1653,
  "himself ": 1654,
  "prom": 1655,
  "al\\u000a": 1656,
  "ning": 1657,
  "th, ": 1658,
  "try ": 1659,
  "ner ": 1660,
  "one of ": 1661,
  "leg": 1662,
  "mem": 1663,
  "00 ": 1664,
  "Project ": 1665,
  "Project Gutenber": 1666,
  "imp": 1667,
  "ven": 1668,
  "tried to ": 1669,
  "ith ": 1670,
  "serv": 1671,
  "will be ": 1672,
  "out of ": 1673,
  "face": 1674,
  "' ": 1675,
  "Conseil": 1676,
  "!\"\\u000a\\u000a\"": 1677,
  "or\\u000a": 1678,
  "clear": 1679,
  "new": 1680,
  "mind ": 1681,
  "look": 1682,
  "ding ": 1683,
  "tor": 1684,
  "laugh": 1685,
  "along ": 1686,
  "me to ": 1687,
  "want": 1688,
  "till ": 1689,
  "tee": 1690,
  "a few ": 1691,
  "ed.\\u000a": 1692,
  "feet": 1693,
  "ily ": 1694,
  "indi": 1695,
  "surface ": 1696,
  "under the ": 1697,
  "TER ": 1698,
  "done ": 1699,
  "ses": 1700,
  "usu": 1701,
  "close ": 1702,
  "ction ": 1703,
  "fell ": 1704,
  "s are ": 1705,
  "fle": 1706,
  "tem": 1707,
  "Mrs. H": 1708,
  "ed, \"": 1709,
  "CHA": 1710,
  "mind": 1711,
  "ined ": 1712,
  "ness ": 1713,
  "myself ": 1714,
  "going to ": 1715,
  "ed by the ": 1716,
  "y of ": 1717,
  "st, ": 1718,
  "near": 1719,
  "disa": 1720,
  "after": 1721,
  "rang": 1722,
  "sto": 1723,
  "ement ": 1724,
  "low ": 1725,
  "son ": 1726,
  "num": 1727,
  "dea": 1728,
  "vol": 1729,
  "!\"\\u000a\\u000a": 1730,
  "CHAP": 1731,
  "CHAPTER ": 1732,
  "step": 1733,
  "you, ": 1734,
  "this\\u000a": 1735,
  "Arth": 1736,
  "speci": 1737,
  "call": 1738,
  "ask ": 1739,
  "an, ": 1740,
  "think": 1741,
  ". As ": 1742,
  "hold": 1743,
  "friend ": 1744,
  "-t": 1745,
  "a, ": 1746,
  "cros": 1747,
  "ered ": 1748,
  "in this ": 1749,
  "bri": 1750,
  "dire": 1751,
  "llow ": 1752,
  "ed that ": 1753,
  "ben": 1754,
  "alm": 1755,
  "   ": 1756,
  "read ": 1757,
  "?” ": 1758,
  "as a ": 1759,
  "ick ": 1760,
  "ons ": 1761,
  "ise ": 1762,
  ". E": 1763,
  "inside ": 1764,
  "arvel": 1765,
  "well": 1766,
  "ran ": 1767,
  "trou": 1768,
  "natur": 1769,
  "Just ": 1770,
  "s, the ": 1771,
  "strange ": 1772,
  "ight": 1773,
  "ed to the ": 1774,
  "half ": 1775,
  "Qu": 1776,
  "hum": 1777,
  "Nautilus's ": 1778,
  "pect": 1779,
  "anything ": 1780,
  "such a ": 1781,
  "nar": 1782,
  "to see ": 1783,
  "certain ": 1784,
  "away": 1785,
  "trac": 1786,
  "captain ": 1787,
  "Hank ": 1788,
  "ju": 1789,
  "ition ": 1790,
  "utter": 1791,
  "whe": 1792,
  "mas": 1793,
  "cho": 1794,
  "on his ": 1795,
  "life": 1796,
  "zz": 1797,
  ".\\u000a\\u000aThe ": 1798,
  ". . ": 1799,
  "near ": 1800,
  "my\\u000a": 1801,
  "then": 1802,
  "fer": 1803,
  "do not ": 1804,
  "ject": 1805,
  "would have ": 1806,
  "sted ": 1807,
  "was the ": 1808,
  "dang": 1809,
  "pan": 1810,
  ".\\u000a\\u000aA": 1811,
  ",\" Conseil ": 1812,
  "ray": 1813,
  "s; ": 1814,
  "comfor": 1815,
  "sound": 1816,
  "carri": 1817,
  "differ": 1818,
  "sof": 1819,
  "as it ": 1820,
  ",\\u000athe ": 1821,
  "y.\\u000a": 1822,
  "when the ": 1823,
  "slow": 1824,
  "sever": 1825,
  "swi": 1826,
  "cid": 1827,
  ". His ": 1828,
  "reas": 1829,
  "glo": 1830,
  "upon ": 1831,
  "iter": 1832,
  "ef ": 1833,
  "comple": 1834,
  "adv": 1835,
  "be\\u000a": 1836,
  "heart ": 1837,
  "”\\u000a“": 1838,
  "her, ": 1839,
  "loun": 1840,
  ",\" the ": 1841,
  "18": 1842,
  "Count ": 1843,
  "eyes": 1844,
  "pain": 1845,
  "val": 1846,
  "appro": 1847,
  "owing ": 1848,
  "dev": 1849,
  "we had ": 1850,
  "four ": 1851,
  "ome ": 1852,
  "year": 1853,
  "ak ": 1854,
  "hy": 1855,
  "sma": 1856,
  "land ": 1857,
  "ing and ": 1858,
  "then, ": 1859,
  "above ": 1860,
  ".\\u000aShe ": 1861,
  "\\u000a\\u000a\\u000a": 1862,
  "I'll ": 1863,
  "Jonathan ": 1864,
  "stat": 1865,
  "ched ": 1866,
  "passed ": 1867,
  "him, ": 1868,
  "better ": 1869,
  "have\\u000a": 1870,
  "lar": 1871,
  "wher": 1872,
  "suff": 1873,
  "Well": 1874,
  "ship ": 1875,
  "TH": 1876,
  "reg": 1877,
  "fast": 1878,
  "fect": 1879,
  "clock ": 1880,
  "reach": 1881,
  "ged ": 1882,
  "cra": 1883,
  "ft": 1884,
  "bed": 1885,
  "stair": 1886,
  "sat ": 1887,
  "If ": 1888,
  "animal ": 1889,
  "round": 1890,
  ".\\u000aIt ": 1891,
  ",000 ": 1892,
  "against the ": 1893,
  "stand ": 1894,
  "ine": 1895,
  "myself": 1896,
  "shout": 1897,
  "ward ": 1898,
  "They ": 1899,
  "g-t": 1900,
  "couldn't ": 1901,
  "cei": 1902,
  "exc": 1903,
  "this": 1904,
  "plan": 1905,
  "longer ": 1906,
  "care": 1907,
  "claim": 1908,
  "ing a ": 1909,
  "itude ": 1910,
  "cage ": 1911,
  "electric": 1912,
  "cul": 1913,
  "disapp": 1914,
  "sli": 1915,
  "ge, ": 1916,
  "bott": 1917,
  "used ": 1918,
  "to his ": 1919,
  "eath ": 1920,
  "gone ": 1921,
  "s for ": 1922,
  "Lucy": 1923,
  "and I ": 1924,
  "Cassie": 1925,
  "It's ": 1926,
  "not\\u000a": 1927,
  "ical ": 1928,
  "ch\\u000a": 1929,
  "table": 1930,
  "fall": 1931,
  "hard ": 1932,
  "contro": 1933,
  "power": 1934,
  "blin": 1935,
  "\\u000a\\u000a\"": 1936,
  "visible M": 1937,
  "gener": 1938,
  "when I ": 1939,
  "black ": 1940,
  ", she ": 1941,
  "people ": 1942,
  "us, ": 1943,
  "we\\u000a": 1944,
  "igh": 1945,
  "house ": 1946,
  "perha": 1947,
  "degrees ": 1948,
  "Yes, ": 1949,
  "believe ": 1950,
  "into a ": 1951,
  "escap": 1952,
  "’re ": 1953,
  "fig": 1954,
  "to my ": 1955,
  "wol": 1956,
  "d of ": 1957,
  "himself": 1958,
  "sol": 1959,
  "dear": 1960,
  "twent": 1961,
  "Invisible M": 1962,
  "hard": 1963,
  "s\\u000aof ": 1964,
  "vari": 1965,
  "inten": 1966,
  "also ": 1967,
  "phy": 1968,
  "red": 1969,
  "to get ": 1970,
  "Not ": 1971,
  "rest ": 1972,
  "ear ": 1973,
  "agre": 1974,
  "brought ": 1975,
  "ili": 1976,
  "vid": 1977,
  "may be ": 1978,
  "table ": 1979,
  "pt ": 1980,
  "always ": 1981,
  "became ": 1982,
  "squ": 1983,
  "fic": 1984,
  "sul": 1985,
  "ten": 1986,
  "making ": 1987,
  "e, and ": 1988,
  "vely ": 1989,
  "is, ": 1990,
  "good": 1991,
  "clu": 1992,
  "ke\\u000a": 1993,
  "tim": 1994,
  "streng": 1995,
  "I can ": 1996,
  "you\\u000a": 1997,
  "remem": 1998,
  "Mr. M": 1999,
  "profess": 2000,
  "cop": 2001,
  "imag": 2002,
  "act ": 2003,
  "sleep ": 2004,
  "about": 2005,
  "dark ": 2006,
  "evid": 2007,
  "taken ": 2008,
  "list": 2009,
  "towards ": 2010,
  "house": 2011,
  "fla": 2012,
  "world": 2013,
  "lay": 2014,
  "tch ": 2015,
  "said:—\\u000a“": 2016,
  "must be ": 2017,
  "there is ": 2018,
  "getting ": 2019,
  "Dr. S": 2020,
  "ish ": 2021,
  "s with ": 2022,
  "more than ": 2023,
  "ately ": 2024,
  "on her ": 2025,
  "dog": 2026,
  ", and\\u000a": 2027,
  "caught ": 2028,
  "less": 2029,
  "leave ": 2030,
  "le of ": 2031,
  "form ": 2032,
  "into her ": 2033,
  "…": 2034,
  "Isl": 2035,
  "inde": 2036,
  "for\\u000a": 2037,
  "box": 2038,
  "great": 2039,
  "den": 2040,
  "fli": 2041,
  "together": 2042,
  "window ": 2043,
  "ener": 2044,
  "book": 2045,
  "ew ": 2046,
  "oh": 2047,
  "that we ": 2048,
  "mouth ": 2049,
  "Mad": 2050,
  ".’\\u000a": 2051,
  "o'": 2052,
  "ed.\\u000a\\u000a\"": 2053,
  "leav": 2054,
  "exist": 2055,
  "certain": 2056,
  "nes": 2057,
  "ground": 2058,
  "and a ": 2059,
  "wall": 2060,
  "through": 2061,
  ". P": 2062,
  "ill ": 2063,
  ". So ": 2064,
  "second ": 2065,
  "effor": 2066,
  "they": 2067,
  "the Nautilus ": 2068,
  "s—": 2069,
  "Mina ": 2070,
  ", or ": 2071,
  "ali": 2072,
  "For ": 2073,
  "os": 2074,
  "if you ": 2075,
  "ing his ": 2076,
  "to a ": 2077,
  "fear ": 2078,
  ", and then ": 2079,
  "ace ": 2080,
  "harpo": 2081,
  "known ": 2082,
  "pen": 2083,
  "cess": 2084,
  "why ": 2085,
  "Wh": 2086,
  "one\\u000a": 2087,
  "lli": 2088,
  "floor": 2089,
  "life ": 2090,
  "I’m ": 2091,
  "said, \"": 2092,
  "in the\\u000a": 2093,
  "bed ": 2094,
  "however": 2095,
  "out of the ": 2096,
  "seas": 2097,
  "grew ": 2098,
  "experi": 2099,
  "ence, ": 2100,
  ".\\u000aBut ": 2101,
  "draw": 2102,
  "of\\u000athe ": 2103,
  "expect": 2104,
  "bow": 2105,
  "Do": 2106,
  "consider": 2107,
  "tou": 2108,
  "es,\\u000a": 2109,
  "ds ": 2110,
  "given ": 2111,
  ". I\\u000a": 2112,
  ". My ": 2113,
  ":\\u000a": 2114,
  "How ": 2115,
  "sper": 2116,
  "Wha": 2117,
  "she could ": 2118,
  "Jack": 2119,
  ".\\u000a\\u000aI ": 2120,
  "fore": 2121,
  "moun": 2122,
  "smi": 2123,
  "ious ": 2124,
  "lst ": 2125,
  "bear": 2126,
  "sum": 2127,
  "That ": 2128,
  "lip": 2129,
  "beneath ": 2130,
  "secre": 2131,
  "curr": 2132,
  "bey": 2133,
  "far": 2134,
  "lan": 2135,
  "vig": 2136,
  "shell": 2137,
  "meters ": 2138,
  "er’s ": 2139,
  "thir": 2140,
  "por": 2141,
  "heavy ": 2142,
  "kne": 2143,
  "taking ": 2144,
  "so\\u000a": 2145,
  "er and ": 2146,
  "down the ": 2147,
  "really ": 2148,
  "deep ": 2149,
  "ed,\\u000a": 2150,
  "bes": 2151,
  "terrible ": 2152,
  "gest": 2153,
  "ed it ": 2154,
  "ortun": 2155,
  "kill": 2156,
  "Lor": 2157,
  "band": 2158,
  "ocean": 2159,
  "collar ": 2160,
  "memor": 2161,
  "dr": 2162,
  "row ": 2163,
  "youn": 2164,
  "p of ": 2165,
  "icul": 2166,
  "rock": 2167,
  "several ": 2168,
  "scre": 2169,
  "will": 2170,
  "”\\u000a": 2171,
  "circ": 2172,
  "t to ": 2173,
  "need ": 2174,
  "one, ": 2175,
  "resp": 2176,
  "depth": 2177,
  "tom": 2178,
  "board": 2179,
  "'s\\u000a": 2180,
  "'ve ": 2181,
  "order": 2182,
  "dream": 2183,
  "simply ": 2184,
  "bus": 2185,
  "quiet": 2186,
  "ond ": 2187,
  "hold ": 2188,
  "from\\u000a": 2189,
  "bru": 2190,
  "ching ": 2191,
  "e to ": 2192,
  "child": 2193,
  "closed ": 2194,
  "rest": 2195,
  "ror": 2196,
  "eward": 2197,
  "sear": 2198,
  "five ": 2199,
  "begin": 2200,
  "y-": 2201,
  "ent\\u000a": 2202,
  "able": 2203,
  "um ": 2204,
  "conf": 2205,
  "cut ": 2206,
  "tin": 2207,
  "surface of the ": 2208,
  "onna": 2209,
  "\\u000a\\u000a\\u000a\\u000a                                                    ": 2210,
  ",\" said the ": 2211,
  "Hark": 2212,
  ", and he ": 2213,
  "least ": 2214,
  "they were ": 2215,
  "mark": 2216,
  "ch, ": 2217,
  "lear": 2218,
  "Whi": 2219,
  "tun": 2220,
  "dread": 2221,
  "sight": 2222,
  "expres": 2223,
  "of my ": 2224,
  "bly ": 2225,
  "ez": 2226,
  "fun": 2227,
  "ane": 2228,
  "Project Gutenberg-t": 2229,
  "exclaim": 2230,
  "underwater ": 2231,
  "I saw ": 2232,
  "cept ": 2233,
  "cas": 2234,
  "rose ": 2235,
  "together ": 2236,
  "exam": 2237,
  "view": 2238,
  "I shall ": 2239,
  "want to ": 2240,
  "wasn’t ": 2241,
  "Godalm": 2242,
  "medi": 2243,
  "Oh, ": 2244,
  "horiz": 2245,
  "od": 2246,
  "either ": 2247,
  ", and we ": 2248,
  "by\\u000a": 2249,
  "on a ": 2250,
  "dark": 2251,
  "to make ": 2252,
  "rup": 2253,
  "An": 2254,
  "more": 2255,
  "yell": 2256,
  "ign": 2257,
  "her Handler ": 2258,
  "ander ": 2259,
  ". Cassie ": 2260,
  "tran": 2261,
  "morning": 2262,
  "as we ": 2263,
  "tail": 2264,
  "ened ": 2265,
  "bit": 2266,
  "even": 2267,
  "approach": 2268,
  "darkn": 2269,
  "seem ": 2270,
  "ne ": 2271,
  "to keep ": 2272,
  "sail": 2273,
  "pping ": 2274,
  "sic": 2275,
  "cannot ": 2276,
  "?”\\u000a“": 2277,
  "ably ": 2278,
  "does ": 2279,
  "t of the ": 2280,
  "wo": 2281,
  "Dr. ": 2282,
  "Aronna": 2283,
  " S": 2284,
  "s. I ": 2285,
  "one of the ": 2286,
  "call ": 2287,
  "big ": 2288,
  "is the ": 2289,
  "face, ": 2290,
  "blu": 2291,
  ", my ": 2292,
  "dur": 2293,
  "full": 2294,
  "ed him ": 2295,
  "floor ": 2296,
  "Jonath": 2297,
  "keep": 2298,
  "agu": 2299,
  "throat": 2300,
  "human ": 2301,
  ". She was ": 2302,
  "viol": 2303,
  "hus": 2304,
  "ince": 2305,
  "her eyes ": 2306,
  "1.": 2307,
  "I've ": 2308,
  "Amer": 2309,
  "; the ": 2310,
  "called ": 2311,
  "difficul": 2312,
  "lying ": 2313,
  "drew ": 2314,
  "at a ": 2315,
  "trem": 2316,
  "move ": 2317,
  "offic": 2318,
  "trying to ": 2319,
  "part": 2320,
  "Tha": 2321,
  "chain ": 2322,
  "famili": 2323,
  ".\"\\u000a": 2324,
  "Aronnax": 2325,
  ":\\u000a\\u000a\"": 2326,
  "all\\u000a": 2327,
  "cell": 2328,
  "cally ": 2329,
  "excit": 2330,
  "that she ": 2331,
  "pleas": 2332,
  "notic": 2333,
  "stom": 2334,
  "but\\u000a": 2335,
  ". For ": 2336,
  "about the ": 2337,
  "ron": 2338,
  "blood": 2339,
  "back to ": 2340,
  "that was ": 2341,
  "Quince": 2342,
  "IN": 2343,
  "to do ": 2344,
  "kind": 2345,
  ". At ": 2346,
  ".\\u000aS": 2347,
  "name ": 2348,
  "ve, ": 2349,
  "ink": 2350,
  "es, and ": 2351,
  "movement": 2352,
  "put": 2353,
  "were\\u000a": 2354,
  "God ": 2355,
  "in the mid": 2356,
  "mil": 2357,
  "resi": 2358,
  "at her ": 2359,
  ".’ He ": 2360,
  "Madam ": 2361,
  " O": 2362,
  "kes ": 2363,
  "ed out ": 2364,
  "Oh": 2365,
  "ung ": 2366,
  "rag": 2367,
  "a little ": 2368,
  "up and ": 2369,
  "lun": 2370,
  "dead": 2371,
  "coast": 2372,
  " degrees ": 2373,
  "dres": 2374,
  "that you ": 2375,
  "sigh": 2376,
  "ba": 2377,
  "er than ": 2378,
  "ings ": 2379,
  "fix": 2380,
  "Mr. H": 2381,
  ", you ": 2382,
  "ingly ": 2383,
  "idea ": 2384,
  "unt": 2385,
  "orri": 2386,
  "We": 2387,
  "with her ": 2388,
  "gy": 2389,
  "Professor Aronnax": 2390,
  "!\\u000a\\u000a": 2391,
  "Gre": 2392,
  "ig": 2393,
  "morning ": 2394,
  "break": 2395,
  "running ": 2396,
  "high ": 2397,
  "fas": 2398,
  "woman ": 2399,
  "cou": 2400,
  "eyes, ": 2401,
  "lips ": 2402,
  "vel ": 2403,
  "lou": 2404,
  ",\\u000abut ": 2405,
  "must have ": 2406,
  "moved ": 2407,
  "spir": 2408,
  "blood ": 2409,
  "vic": 2410,
  "everything ": 2411,
  "day, ": 2412,
  "couldn’t ": 2413,
  "ctor Jack": 2414,
  "Engli": 2415,
  "that, ": 2416,
  "world ": 2417,
  "agg": 2418,
  "itting ": 2419,
  "th of ": 2420,
  "neck": 2421,
  "pear": 2422,
  "order ": 2423,
  "straight ": 2424,
  ".\\u000aHe ": 2425,
  "!’ ": 2426,
  "matter ": 2427,
  "foot": 2428,
  "o'clock ": 2429,
  "uni": 2430,
  "Lon": 2431,
  "cking ": 2432,
  "sal": 2433,
  "twi": 2434,
  ". She\\u000a": 2435,
  "whilst ": 2436,
  "the sun": 2437,
  "of the\\u000a": 2438,
  "speak": 2439,
  "them, ": 2440,
  "help": 2441,
  "horri": 2442,
  "y and ": 2443,
  "opportun": 2444,
  "ed for ": 2445,
  "eat": 2446,
  "atter": 2447,
  "miles ": 2448,
  ". C": 2449,
  "Joh": 2450,
  "waves ": 2451,
  "enough to ": 2452,
  "hadn't ": 2453,
  "replied, \"": 2454,
  "THE ": 2455,
  "ely": 2456,
  "a sor": 2457,
  ". What ": 2458,
  "show": 2459,
  "ff ": 2460,
  "lad": 2461,
  "ering ": 2462,
  ", we ": 2463,
  "sed\\u000a": 2464,
  "ordin": 2465,
  "s. The ": 2466,
  "ers, ": 2467,
  "vers": 2468,
  "master ": 2469,
  "manag": 2470,
  "turned ": 2471,
  "when he ": 2472,
  "sign": 2473,
  "companion": 2474,
  "master": 2475,
  ". He was ": 2476,
  "dam": 2477,
  "Kem": 2478,
  "Kemp ": 2479,
  "S ": 2480,
  "hour ": 2481,
  "as they ": 2482,
  "enough": 2483,
  "at once ": 2484,
  "from her ": 2485,
  "heart": 2486,
  "sight ": 2487,
  "different ": 2488,
  "run ": 2489,
  "as though ": 2490,
  "chance ": 2491,
  "consci": 2492,
  "to me ": 2493,
  "Be": 2494,
  "no longer ": 2495,
  "nothing": 2496,
  "Arthur ": 2497,
  "wri": 2498,
  "ed at the ": 2499,
  "\\u000a\\u000a\\u000a                                                ": 2500,
  "Mina": 2501,
  "acti": 2502,
  "lost ": 2503,
  "eye": 2504,
  "could\\u000a": 2505,
  ", then ": 2506,
  "disappear": 2507,
  "noti": 2508,
  "suc": 2509,
  "pati": 2510,
  "here, ": 2511,
  "paper": 2512,
  "stay": 2513,
  "17": 2514,
  "ann": 2515,
  "He": 2516,
  "has been ": 2517,
  "fresh ": 2518,
  "cast": 2519,
  "wide ": 2520,
  "strong": 2521,
  "wan": 2522,
  "point": 2523,
  "cut": 2524,
  "a man ": 2525,
  "dom": 2526,
  "chur": 2527,
  "pie": 2528,
  "half": 2529,
  "now, ": 2530,
  "power ": 2531,
  "does": 2532,
  "platform": 2533,
  "Hall ": 2534,
  "by": 2535,
  "struck ": 2536,
  ". I was ": 2537,
  "s in the ": 2538,
  "sometimes ": 2539,
  "recei": 2540,
  "sent ": 2541,
  "if he ": 2542,
  "at on": 2543,
  "understand": 2544,
  "ing, and ": 2545,
  "words ": 2546,
  "ed in the ": 2547,
  "that it ": 2548,
  "ance, ": 2549,
  "had to ": 2550,
  "se of ": 2551,
  "yet": 2552,
  "y to ": 2553,
  "possible ": 2554,
  "ton": 2555,
  "emo": 2556,
  "to\\u000athe ": 2557,
  "boat": 2558,
  "\\u000ato ": 2559,
  "cond": 2560,
  "usual ": 2561,
  "ature": 2562,
  "Island": 2563,
  "!\" said ": 2564,
  "age": 2565,
  "duc": 2566,
  "15": 2567,
  "ary": 2568,
  ",\\u000awhich ": 2569,
  "feeling ": 2570,
  "repe": 2571,
  "clou": 2572,
  "away, ": 2573,
  "word ": 2574,
  "across ": 2575,
  "perhaps ": 2576,
  ". That ": 2577,
  "alone ": 2578,
  "deep": 2579,
  "he said": 2580,
  "’s\\u000a": 2581,
  "atis": 2582,
  "vill": 2583,
  "pulled ": 2584,
  "of these ": 2585,
  "ness": 2586,
  "we have ": 2587,
  "De": 2588,
  "huge ": 2589,
  "ed.\\u000a‘": 2590,
  "professor": 2591,
  "Mr. Marvel": 2592,
  "some\\u000a": 2593,
  "interest": 2594,
  "like the ": 2595,
  "wanted to ": 2596,
  "could not ": 2597,
  "all, ": 2598,
  "I know ": 2599,
  "ke, ": 2600,
  "sy": 2601,
  "ggl": 2602,
  "opened ": 2603,
  "bir": 2604,
  "he said ": 2605,
  "beside ": 2606,
  "arm ": 2607,
  "motion": 2608,
  "six ": 2609,
  ": “": 2610,
  "buil": 2611,
  "pla": 2612,
  "fight": 2613,
  "pal": 2614,
  "respon": 2615,
  "electric ": 2616,
  "harpoon": 2617,
  "cord": 2618,
  "s,\\u000aand ": 2619,
  "fright": 2620,
  "question": 2621,
  "ed, but ": 2622,
  "still": 2623,
  "ok": 2624,
  "...": 2625,
  "ity, ": 2626,
  "death": 2627,
  "s, but ": 2628,
  "small ": 2629,
  "ies ": 2630,
  "ent, ": 2631,
  "circum": 2632,
  "are": 2633,
  "stretch": 2634,
  "spot": 2635,
  "ing for ": 2636,
  "board ": 2637,
  "ze ": 2638,
  "ed. ‘": 2639,
  "waves": 2640,
  "St": 2641,
  "Dr. Seward": 2642,
  "place": 2643,
  ".\\u000aIn ": 2644,
  "fire": 2645,
  "vent": 2646,
  "up to ": 2647,
  ". G": 2648,
  "by a ": 2649,
  "pin": 2650,
  ". The\\u000a": 2651,
  "prepar": 2652,
  "t and ": 2653,
  "curi": 2654,
  "watch ": 2655,
  "teeth ": 2656,
  "passa": 2657,
  "glass ": 2658,
  "ending ": 2659,
  "itch": 2660,
  "from his ": 2661,
  "back to the ": 2662,
  "strong ": 2663,
  "beyond ": 2664,
  "earth": 2665,
  "doctor ": 2666,
  "would\\u000a": 2667,
  "Thomas": 2668,
  "ocean ": 2669,
  "angu": 2670,
  "vis": 2671,
  "distri": 2672,
  ". I am ": 2673,
  "outside ": 2674,
  "shook ": 2675,
  "do you ": 2676,
  "are\\u000a": 2677,
  "me, and ": 2678,
  "so I ": 2679,
  "way, ": 2680,
  "ping ": 2681,
  "—and ": 2682,
  "reli": 2683,
  "w\\u000a": 2684,
  "again, ": 2685,
  "iron ": 2686,
  "sharp ": 2687,
  "days ": 2688,
  "disp": 2689,
  "action": 2690,
  "shock ": 2691,
  "standing ": 2692,
  "tear": 2693,
  "in’ ": 2694,
  "sn": 2695,
  "gro": 2696,
  "encoun": 2697,
  "knowled": 2698,
  "old": 2699,
  "ative ": 2700,
  "kno": 2701,
  "cked ": 2702,
  "per ": 2703,
  "two": 2704,
  "fore ": 2705,
  "doubt ": 2706,
  "him\\u000a": 2707,
  "ground ": 2708,
  "road": 2709,
  "pressed ": 2710,
  "It was ": 2711,
  "shoulder": 2712,
  "jum": 2713,
  "fect ": 2714,
  "no\\u000a": 2715,
  "silence ": 2716,
  "actu": 2717,
  "! I ": 2718,
  "if I ": 2719,
  "if it ": 2720,
  "log": 2721,
  "clos": 2722,
  "room, ": 2723,
  "obser": 2724,
  "number ": 2725,
  "mag": 2726,
  "n, ": 2727,
  "Well, ": 2728,
  "person": 2729,
  "quar": 2730,
  "ren": 2731,
  "ay ": 2732,
  "reco": 2733,
  "ly and ": 2734,
  "past ": 2735,
  "inc": 2736,
  "of its ": 2737,
  "pell": 2738,
  "equ": 2739,
  "Hank": 2740,
  "?\"\\u000a\"": 2741,
  "ation, ": 2742,
  "rather ": 2743,
  "vani": 2744,
  "fair": 2745,
  "ken": 2746,
  "top ": 2747,
  "th\\u000a": 2748,
  "used to ": 2749,
  "I could see ": 2750,
  "As ": 2751,
  "dead ": 2752,
  "bor": 2753,
  "ly, and ": 2754,
  "been\\u000a": 2755,
  "; for ": 2756,
  "s had ": 2757,
  "come": 2758,
  "off the ": 2759,
  "By ": 2760,
  "ing-": 2761,
  "ations ": 2762,
  "disc": 2763,
  "remain": 2764,
  "hope ": 2765,
  "gir": 2766,
  "No ": 2767,
  "ing it ": 2768,
  "an in": 2769,
  "cab": 2770,
  "ned ": 2771,
  "ham ": 2772,
  "we'll ": 2773,
  "org": 2774,
  "pe ": 2775,
  "a sort of ": 2776,
  "lead": 2777,
  "Yes": 2778,
  "time to ": 2779,
  "listen": 2780,
  "in\\u000athe ": 2781,
  "threw ": 2782,
  "man, ": 2783,
  "ceed": 2784,
  "strength ": 2785,
  "afra": 2786,
  "doubt": 2787,
  "cold ": 2788,
  "tever ": 2789,
  "before": 2790,
  "satis": 2791,
  "termin": 2792,
  "acc": 2793,
  "gent": 2794,
  "cket": 2795,
  "bil": 2796,
  "up, ": 2797,
  "our\\u000a": 2798,
  "eptem": 2799,
  "fight ": 2800,
  "obvi": 2801,
  "ber.—": 2802,
  "island": 2803,
  ".’ She ": 2804,
  ",’ she ": 2805,
  "'t\\u000a": 2806,
  ") ": 2807,
  "nearly ": 2808,
  "had a ": 2809,
  "On ": 2810,
  "writ": 2811,
  "or the ": 2812,
  ". With ": 2813,
  "sive ": 2814,
  "of our ": 2815,
  "turned to ": 2816,
  "across the ": 2817,
  "fles": 2818,
  "sw": 2819,
  "on my ": 2820,
  "instru": 2821,
  "change ": 2822,
  "s. ": 2823,
  "position ": 2824,
  "rushed ": 2825,
  "gall": 2826,
  "you have ": 2827,
  "avo": 2828,
  "eld": 2829,
  "speed ": 2830,
  "barely ": 2831,
  "staring ": 2832,
  "navig": 2833,
  "Project Gutenberg-tm ": 2834,
  "cage": 2835,
  "Jes": 2836,
  "Doctor Jack": 2837,
  "Cassie’s ": 2838,
  "\\u000a\\u000a\\u000a\\u000a                                                   ": 2839,
  "Au": 2840,
  "At": 2841,
  "gather": 2842,
  "stay ": 2843,
  "the door ": 2844,
  "letter": 2845,
  "speak ": 2846,
  "young ": 2847,
  "full of ": 2848,
  "understand ": 2849,
  "selves ": 2850,
  "lower ": 2851,
  "case ": 2852,
  "incre": 2853,
  "sound ": 2854,
  "sudden ": 2855,
  "fain": 2856,
  "where": 2857,
  "Se": 2858,
  "clock": 2859,
  "s, I ": 2860,
  "slight": 2861,
  "mista": 2862,
  "prison": 2863,
  "tho": 2864,
  "deser": 2865,
  "Quincey ": 2866,
  "in, ": 2867,
  "Lord ": 2868,
  "clas": 2869,
  "rat": 2870,
  "oper": 2871,
  "made her ": 2872,
  "toward ": 2873,
  "pper ": 2874,
  "ed. \"": 2875,
  "wonderful ": 2876,
  "me that ": 2877,
  "grou": 2878,
  "pet": 2879,
  "found": 2880,
  "immedi": 2881,
  "anx": 2882,
  "iness ": 2883,
  "mean ": 2884,
  "fingers ": 2885,
  "stop ": 2886,
  "my friend": 2887,
  ". It is ": 2888,
  "below ": 2889,
  "not be ": 2890,
  "clear ": 2891,
  "Now ": 2892,
  "cli": 2893,
  "gas": 2894,
  "minutes ": 2895,
  "fif": 2896,
  "exha": 2897,
  "show ": 2898,
  "His ": 2899,
  "rise ": 2900,
  "atten": 2901,
  "tight": 2902,
  "liqu": 2903,
  "… ": 2904,
  "AR": 2905,
  "ourn": 2906,
  "matter": 2907,
  "there were ": 2908,
  "ble\\u000a": 2909,
  "asle": 2910,
  "large ": 2911,
  "save ": 2912,
  "a sing": 2913,
  "whom ": 2914,
  "discover": 2915,
  "its\\u000a": 2916,
  "descri": 2917,
  "al, ": 2918,
  "stanc": 2919,
  "weap": 2920,
  "chest": 2921,
  "hes": 2922,
  "Americ": 2923,
  "ular ": 2924,
  "mus": 2925,
  "Lucy’s ": 2926,
  "arrang": 2927,
  "vessel": 2928,
  "breath": 2929,
  "tal ": 2930,
  "pressure ": 2931,
  "pain ": 2932,
  "Mrs. Hark": 2933,
  "__": 2934,
  "thor": 2935,
  "ited ": 2936,
  "12": 2937,
  "ot": 2938,
  "talk ": 2939,
  "they\\u000a": 2940,
  "sett": 2941,
  "rid": 2942,
  "course ": 2943,
  "ion": 2944,
  "answered ": 2945,
  "went on": 2946,
  ". There was ": 2947,
  "wish": 2948,
  "to take ": 2949,
  "black": 2950,
  "ith": 2951,
  "distur": 2952,
  "ream ": 2953,
  "clim": 2954,
  "to him": 2955,
  "wish ": 2956,
  "prob": 2957,
  "soli": 2958,
  "observ": 2959,
  "purpo": 2960,
  "emer": 2961,
  "scar": 2962,
  "ed. The ": 2963,
  "shot ": 2964,
  "can’t ": 2965,
  "’ve ": 2966,
  "seas ": 2967,
  "concer": 2968,
  "her body ": 2969,
  "leng": 2970,
  "Ver": 2971,
  "on its ": 2972,
  ",000": 2973,
  "--\\u000a": 2974,
  "frig": 2975,
  "replied. \"": 2976,
  "can't ": 2977,
  "ily": 2978,
  "tty ": 2979,
  "I don’t ": 2980,
  "at least ": 2981,
  "act": 2982,
  "No, ": 2983,
  "to go ": 2984,
  "made a ": 2985,
  "sus": 2986,
  "bol": 2987,
  "moving ": 2988,
  "ror ": 2989,
  "instant": 2990,
  "laid ": 2991,
  "With ": 2992,
  "mir": 2993,
  "love ": 2994,
  "king": 2995,
  "ed by a ": 2996,
  ". Then he ": 2997,
  "walked ": 2998,
  "forc": 2999,
  "loc": 3000,
  "might be ": 3001,
  "wound": 3002,
  "monster": 3003,
  "an’ ": 3004,
  "equi": 3005,
  ". Thom": 3006,
  "ero": 3007,
  "and she ": 3008,
  "electron": 3009,
  "Atlan": 3010,
  "\\u000a\\u000c\"": 3011,
  "T ": 3012,
  "Di": 3013,
  "horse": 3014,
  "further ": 3015,
  "e, but ": 3016,
  "myster": 3017,
  "you are ": 3018,
  "neck ": 3019,
  "often ": 3020,
  "; he ": 3021,
  "colle": 3022,
  "growing ": 3023,
  "boat ": 3024,
  "eld ": 3025,
  "like": 3026,
  "cheek": 3027,
  "seeing ": 3028,
  "towards the ": 3029,
  "To ": 3030,
  "ial ": 3031,
  "out\\u000a": 3032,
  "gar": 3033,
  "tell": 3034,
  "determin": 3035,
  "complete": 3036,
  "voic": 3037,
  "ffl": 3038,
  "become ": 3039,
  "present": 3040,
  "flu": 3041,
  "arms ": 3042,
  "realised ": 3043,
  "Abra": 3044,
  "from a ": 3045,
  "finally ": 3046,
  "s.\"\\u000a\\u000a\"": 3047,
  "All ": 3048,
  "path": 3049,
  "Eu": 3050,
  "pun": 3051,
  "boo": 3052,
  "to-night": 3053,
  "sting ": 3054,
  "along": 3055,
  "fru": 3056,
  ", but the ": 3057,
  "shadow": 3058,
  "ordinary ": 3059,
  "spr": 3060,
  "lean": 3061,
  "could see ": 3062,
  "is not ": 3063,
  "ash ": 3064,
  "finger": 3065,
  "prote": 3066,
  "grow": 3067,
  "top": 3068,
  "lad ": 3069,
  "Jonathan": 3070,
  "contain": 3071,
  "various ": 3072,
  "danger": 3073,
  "in our ": 3074,
  "Vo": 3075,
  "having ": 3076,
  "accep": 3077,
  "spect": 3078,
  ".\\u000aL": 3079,
  "corner ": 3080,
  "ed\\u000athe ": 3081,
  "es that ": 3082,
  "remember": 3083,
  "action ": 3084,
  "bled ": 3085,
  "und": 3086,
  "condition": 3087,
  "Professor": 3088,
  "ench": 3089,
  "chest ": 3090,
  "Hall": 3091,
  ".’ Cassie ": 3092,
  "Ned": 3093,
  ",\" the Canadian ": 3094,
  "the Canadian ": 3095,
  "genus ": 3096,
  "term": 3097,
  "16": 3098,
  "along the ": 3099,
  "sort of ": 3100,
  "ves, ": 3101,
  "follow ": 3102,
  "know what ": 3103,
  ", that ": 3104,
  "to do": 3105,
  "down, ": 3106,
  "gn ": 3107,
  ". R": 3108,
  "afterno": 3109,
  "cold": 3110,
  "aking ": 3111,
  "forward": 3112,
  "much": 3113,
  ". I have ": 3114,
  "steps ": 3115,
  "in its ": 3116,
  "care ": 3117,
  "remained ": 3118,
  "ye": 3119,
  "quickly ": 3120,
  "thous": 3121,
  "fav": 3122,
  "Lin": 3123,
  "attend": 3124,
  "fied ": 3125,
  ". The": 3126,
  "easily ": 3127,
  "choo": 3128,
  "throat ": 3129,
  "’ll ": 3130,
  "bal": 3131,
  "rais": 3132,
  "jaw": 3133,
  "bre": 3134,
  "spar": 3135,
  "Lord Godalm": 3136,
  "Abraham ": 3137,
  "voice": 3138,
  "iling ": 3139,
  "won't ": 3140,
  "submer": 3141,
  "attemp": 3142,
  "CHAPTER X": 3143,
  "to have ": 3144,
  "Euro": 3145,
  "ge of ": 3146,
  "started ": 3147,
  "happy ": 3148,
  "meas": 3149,
  "whether ": 3150,
  "repeat": 3151,
  "an un": 3152,
  "s, which ": 3153,
  "sna": 3154,
  "sole": 3155,
  "anci": 3156,
  "he would ": 3157,
  "others ": 3158,
  "; I ": 3159,
  "suppose ": 3160,
  "spoke ": 3161,
  "where the ": 3162,
  ". All ": 3163,
  "a single ": 3164,
  ", in ": 3165,
  "mouth": 3166,
  "immen": 3167,
  "tell me ": 3168,
  "it of ": 3169,
  "on the\\u000a": 3170,
  "Lincol": 3171,
  "I ask": 3172,
  ", it ": 3173,
  "safe": 3174,
  "stud": 3175,
  "iss ": 3176,
  "whisper": 3177,
  "box ": 3178,
  "hesit": 3179,
  "fine ": 3180,
  "chan": 3181,
  "you to ": 3182,
  "AN": 3183,
  "drag": 3184,
  "incl": 3185,
  "13": 3186,
  "Van Hels": 3187,
  "natural ": 3188,
  "evidently ": 3189,
  "t, and ": 3190,
  "her head ": 3191,
  "write ": 3192,
  ".\\u000aWhen ": 3193,
  "sitting ": 3194,
  "fellow": 3195,
  "ry": 3196,
  "spec": 3197,
  ". On": 3198,
  "nor ": 3199,
  "pat": 3200,
  "shock": 3201,
  "s. He ": 3202,
  "force ": 3203,
  "shing ": 3204,
  "lit ": 3205,
  "So": 3206,
  "so much ": 3207,
  "hang": 3208,
  "common ": 3209,
  "!”\\u000a": 3210,
  "part of ": 3211,
  "kill ": 3212,
  "maz": 3213,
  "ed up ": 3214,
  "sla": 3215,
  "sed, ": 3216,
  "sts ": 3217,
  "resol": 3218,
  ".\\u000aAnd ": 3219,
  "temper": 3220,
  "rel": 3221,
  "bling ": 3222,
  "just as ": 3223,
  "Po": 3224,
  "leagu": 3225,
  "legs ": 3226,
  "shark": 3227,
  "Comm": 3228,
  "That's ": 3229,
  "pap": 3230,
  "regard": 3231,
  "mountain": 3232,
  "back, ": 3233,
  "him to ": 3234,
  "starting ": 3235,
  "state ": 3236,
  "comes ": 3237,
  "let me ": 3238,
  "the same ": 3239,
  "blo": 3240,
  "gras": 3241,
  "\\u000athat ": 3242,
  "gle": 3243,
  "sank ": 3244,
  "there was a ": 3245,
  "return ": 3246,
  "as to ": 3247,
  "dreadful ": 3248,
  "wea": 3249,
  "examin": 3250,
  "flesh": 3251,
  "anti": 3252,
  "a sma": 3253,
  "smo": 3254,
  "aston": 3255,
  "I went ": 3256,
  "writt": 3257,
  "valu": 3258,
  "ctor": 3259,
  "regi": 3260,
  "flow": 3261,
  "case": 3262,
  ". After ": 3263,
  "refle": 3264,
  "view ": 3265,
  "later ": 3266,
  "devil": 3267,
  "body": 3268,
  "freed": 3269,
  "tell you ": 3270,
  "more\\u000a": 3271,
  "inside": 3272,
  "empty ": 3273,
  "in an ": 3274,
  "Arthur": 3275,
  "free ": 3276,
  "stead": 3277,
  "anta": 3278,
  "usk": 3279,
  "horizon": 3280,
  "ging ": 3281,
  "Indi": 3282,
  "she’d ": 3283,
  "cet": 3284,
  "cetace": 3285,
  "Abraham Lincol": 3286,
  "Commander ": 3287,
  "5 ": 3288,
  "possible": 3289,
  "th and ": 3290,
  "pretty ": 3291,
  "use": 3292,
  "there are ": 3293,
  "home ": 3294,
  "short ": 3295,
  "figure": 3296,
  "when we ": 3297,
  "ed with a ": 3298,
  "Your ": 3299,
  "looked at ": 3300,
  "s\\u000aand ": 3301,
  "however, ": 3302,
  "bag": 3303,
  "wer ": 3304,
  "bs ": 3305,
  "ply": 3306,
  "was not ": 3307,
  "udd": 3308,
  "this, ": 3309,
  "uri": 3310,
  "ature ": 3311,
  "wall ": 3312,
  "with an ": 3313,
  "situ": 3314,
  "post": 3315,
  "preci": 3316,
  "of that ": 3317,
  ".\\u000aThis ": 3318,
  "trans": 3319,
  "thing\\u000a": 3320,
  ", and a ": 3321,
  "emotion": 3322,
  "around the ": 3323,
  "These ": 3324,
  "event": 3325,
  "fisher": 3326,
  "chief ": 3327,
  "herself": 3328,
  "for her ": 3329,
  " Septem": 3330,
  "rubb": 3331,
  "Don": 3332,
  "Her ": 3333,
  "propell": 3334,
  "!\" I ": 3335,
  ". . . ": 3336,
  ", the Nautilus ": 3337,
  ". Some": 3338,
  "s or ": 3339,
  "ston": 3340,
  "crow": 3341,
  "except ": 3342,
  "hair ": 3343,
  "ting": 3344,
  "langu": 3345,
  "Do ": 3346,
  "ed me ": 3347,
  "wait ": 3348,
  "Med": 3349,
  "answer ": 3350,
  ", but I ": 3351,
  "ither ": 3352,
  "cent ": 3353,
  "wind ": 3354,
  "true ": 3355,
  "come to ": 3356,
  ". He\\u000a": 3357,
  "energ": 3358,
  "forward ": 3359,
  "told me ": 3360,
  "hea": 3361,
  "bla": 3362,
  "done": 3363,
  "circumstanc": 3364,
  "real ": 3365,
  "quick ": 3366,
  "nerv": 3367,
  "it, and ": 3368,
  "ator": 3369,
  "mur": 3370,
  ". No ": 3371,
  "steam": 3372,
  "crew": 3373,
  "Van Helsing": 3374,
  "addres": 3375,
  "moll": 3376,
  "....": 3377,
  "familiar ": 3378,
  "aflo": 3379,
  "statero": 3380,
  "EN": 3381,
  "ved": 3382,
  "hon": 3383,
  ", who ": 3384,
  "super": 3385,
  "ual ": 3386,
  "of them ": 3387,
  "in all ": 3388,
  "enor": 3389,
  "not to ": 3390,
  "dut": 3391,
  "stly ": 3392,
  "with its ": 3393,
  "forest": 3394,
  "tro": 3395,
  "tive ": 3396,
  "best ": 3397,
  "heard the ": 3398,
  "me. I ": 3399,
  "confid": 3400,
  "amp": 3401,
  "necess": 3402,
  "could be ": 3403,
  "eye ": 3404,
  "too, ": 3405,
  "in the midst ": 3406,
  "have to ": 3407,
  "something": 3408,
  "bright": 3409,
  "ult": 3410,
  "strugg": 3411,
  "bod": 3412,
  "helm": 3413,
  "we can ": 3414,
  "month": 3415,
  "decid": 3416,
  "lic ": 3417,
  ". Thomas ": 3418,
  "ounc": 3419,
  "cage, ": 3420,
  "shru": 3421,
  "hit ": 3422,
  "ly. ‘": 3423,
  "tank": 3424,
  "en't ": 3425,
  "lounge": 3426,
  "Marvel": 3427,
  "among ": 3428,
  "ation of ": 3429,
  "im ": 3430,
  "fast ": 3431,
  "wide": 3432,
  "c ": 3433,
  "trust ": 3434,
  "beau": 3435,
  "beauti": 3436,
  "at his ": 3437,
  "stranger ": 3438,
  "putting ": 3439,
  "ire ": 3440,
  "y, but ": 3441,
  "was, ": 3442,
  "Come ": 3443,
  "marked ": 3444,
  "convers": 3445,
  "nific": 3446,
  "ity of ": 3447,
  "cy": 3448,
  "beneath the ": 3449,
  "cup": 3450,
  "as well ": 3451,
  ".\\u000aO": 3452,
  "escape ": 3453,
  "south": 3454,
  "calm": 3455,
  "wra": 3456,
  "fill": 3457,
  "exhau": 3458,
  "we are ": 3459,
  "broke ": 3460,
  "ts of ": 3461,
  "Mar": 3462,
  "summ": 3463,
  "sug": 3464,
  "deci": 3465,
  "fra": 3466,
  "strat": 3467,
  "uck": 3468,
  "gged ": 3469,
  "cto": 3470,
  "powerful ": 3471,
  "electronic ": 3472,
  "Ned Land": 3473,
  "that's ": 3474,
  "coral ": 3475,
  "stopped ": 3476,
  "imagin": 3477,
  "dog ": 3478,
  "I must ": 3479,
  "excell": 3480,
  "daw": 3481,
  "band ": 3482,
  "certainly ": 3483,
  "direct": 3484,
  "saying ": 3485,
  "very": 3486,
  ". By ": 3487,
  "between the ": 3488,
  "saw the ": 3489,
  "I thought ": 3490,
  "extra": 3491,
  "moon": 3492,
  "break ": 3493,
  "struggl": 3494,
  "soul": 3495,
  "alone": 3496,
  "ous\\u000a": 3497,
  "so, ": 3498,
  "control ": 3499,
  "s on ": 3500,
  "compar": 3501,
  "destro": 3502,
  "took a ": 3503,
  "met ": 3504,
  "belong": 3505,
  "enfi": 3506,
  "wouldn’t ": 3507,
  "the first ": 3508,
  "completely ": 3509,
  "Sea": 3510,
  "ox": 3511,
  "arg": 3512,
  "scienti": 3513,
  ". You": 3514,
  "sible ": 3515,
  "Me": 3516,
  "position": 3517,
  "question ": 3518,
  "Found": 3519,
  "isn't ": 3520,
  "ed.\\u000a\\u000a": 3521,
  "o'clock in the ": 3522,
  "Invisible Man": 3523,
  "Ady": 3524,
  "produc": 3525,
  "which I ": 3526,
  "oy": 3527,
  "perfect": 3528,
  "ing up ": 3529,
  "expla": 3530,
  "wood": 3531,
  "shut ": 3532,
  "es of the ": 3533,
  "wild ": 3534,
  "ir\\u000a": 3535,
  ".\\u000aThen ": 3536,
  "in their ": 3537,
  "then the ": 3538,
  "alread": 3539,
  "ished ": 3540,
  "up\\u000a": 3541,
  "brow": 3542,
  "with my ": 3543,
  "believ": 3544,
  "live ": 3545,
  "else ": 3546,
  "anything": 3547,
  "wre": 3548,
  "present ": 3549,
  "lor": 3550,
  "doz": 3551,
  "lab": 3552,
  "ides, ": 3553,
  "sweet ": 3554,
  "shap": 3555,
  "at once": 3556,
  "bas": 3557,
  "thank": 3558,
  "point ": 3559,
  "ulf ": 3560,
  "repor": 3561,
  "in that ": 3562,
  "proper": 3563,
  ". Its ": 3564,
  "swa": 3565,
  "Did ": 3566,
  "polic": 3567,
  "okay": 3568,
  "Mediter": 3569,
  "Mediterr": 3570,
  "Mediterrane": 3571,
  "er's ": 3572,
  "we're ": 3573,
  "'d ": 3574,
  ",\" Captain Nemo ": 3575,
  "esten": 3576,
  "ph ": 3577,
  "s a ": 3578,
  "London": 3579,
  "s of this ": 3580,
  "ax": 3581,
  "may": 3582,
  "mous ": 3583,
  "week": 3584,
  "who had ": 3585,
  "mother": 3586,
  "ed. I ": 3587,
  "ed on the ": 3588,
  "east": 3589,
  "in which ": 3590,
  "scream": 3591,
  "his face ": 3592,
  "so that ": 3593,
  "stone ": 3594,
  ",\\u000aI ": 3595,
  "need to ": 3596,
  ".” He ": 3597,
  "rang ": 3598,
  "me a ": 3599,
  "absol": 3600,
  "everything": 3601,
  "twenty-": 3602,
  "o’": 3603,
  "histor": 3604,
  "law": 3605,
  ". These ": 3606,
  "human": 3607,
  "I would ": 3608,
  "Ex": 3609,
  "ter, ": 3610,
  "working ": 3611,
  "twenty ": 3612,
  "around": 3613,
  "tered ": 3614,
  "about to ": 3615,
  "san": 3616,
  "came\\u000a": 3617,
  "face\\u000a": 3618,
  "rage ": 3619,
  "scra": 3620,
  "cloth": 3621,
  "thick ": 3622,
  "ally, ": 3623,
  "on this ": 3624,
  "iled ": 3625,
  "ried ": 3626,
  "’t\\u000a": 3627,
  "it’s ": 3628,
  "visit": 3629,
  "sav": 3630,
  "marin": 3631,
  "reason": 3632,
  "nature ": 3633,
  "thin ": 3634,
  "pub": 3635,
  "edi": 3636,
  "eward ": 3637,
  "acif": 3638,
  "Far": 3639,
  "collar": 3640,
  "onto the ": 3641,
  "the Nautilus": 3642,
  "latitude ": 3643,
  "color": 3644,
  "early ": 3645,
  "fall ": 3646,
  "Car": 3647,
  "wild": 3648,
  "Sou": 3649,
  "dle ": 3650,
  "tend": 3651,
  "odd ": 3652,
  "among": 3653,
  "n\\u000a": 3654,
  "I could not ": 3655,
  "ed with the ": 3656,
  "ood\\u000a": 3657,
  "conv": 3658,
  "die ": 3659,
  "rising ": 3660,
  "number of ": 3661,
  "your\\u000a": 3662,
  "irr": 3663,
  "whatever ": 3664,
  "study ": 3665,
  "surround": 3666,
  "death ": 3667,
  "bear ": 3668,
  "little": 3669,
  "peci": 3670,
  "cin": 3671,
  "nodd": 3672,
  "ually ": 3673,
  ".\\u000aThere ": 3674,
  "leap": 3675,
  "Stre": 3676,
  "you can ": 3677,
  "visible": 3678,
  "aboard ": 3679,
  "it would ": 3680,
  "breathing ": 3681,
  "allow": 3682,
  "when she ": 3683,
  "what\\u000a": 3684,
  ", her ": 3685,
  "unable to ": 3686,
  "eu": 3687,
  "Pacif": 3688,
  "\\u000a\\u000cCHAPTER ": 3689,
  "lounge ": 3690,
  "Dr. Seward’s ": 3691,
  "should be ": 3692,
  "hardly ": 3693,
  "pul": 3694,
  "home": 3695,
  ". On ": 3696,
  "occas": 3697,
  "said, “": 3698,
  ",” I ": 3699,
  "the sun ": 3700,
  "only a ": 3701,
  "que ": 3702,
  "that this ": 3703,
  "that they ": 3704,
  "might": 3705,
  "solem": 3706,
  "pit": 3707,
  "hom": 3708,
  "meant ": 3709,
  "catch ": 3710,
  "of an ": 3711,
  "sharp": 3712,
  "tern": 3713,
  "experienc": 3714,
  "agon": 3715,
  "ed my ": 3716,
  "udden": 3717,
  "left": 3718,
  "? W": 3719,
  "absolut": 3720,
  "him, and ": 3721,
  ", with ": 3722,
  "silent ": 3723,
  "trouble ": 3724,
  "bon": 3725,
  "pull": 3726,
  "hours ": 3727,
  "ning to ": 3728,
  "amaz": 3729,
  "instant ": 3730,
  "remember ": 3731,
  "slowly ": 3732,
  ". To ": 3733,
  "deli": 3734,
  "half-": 3735,
  "fold": 3736,
  "set": 3737,
  "Why ": 3738,
  "wheel": 3739,
  "husband": 3740,
  "antic ": 3741,
  "ing to the ": 3742,
  "The": 3743,
  "foc": 3744,
  "soon": 3745,
  "los": 3746,
  "gott": 3747,
  "erha": 3748,
  "figure ": 3749,
  "ce of ": 3750,
  "complet": 3751,
  "we shall ": 3752,
  "liquid ": 3753,
  "meter ": 3754,
  "Doctor Jackson ": 3755,
  ".\\u000aCassie ": 3756,
  "other word": 3757,
  "you're ": 3758,
  "wouldn't ": 3759,
  "they're ": 3760,
  "enfre": 3761,
  "—\"\\u000a\"": 3762,
  "**": 3763,
  "14": 3764,
  "anu": 3765,
  "import": 3766,
  "travel": 3767,
  "was still ": 3768,
  "separ": 3769,
  "for me": 3770,
  "ce, ": 3771,
  "plor": 3772,
  "owever": 3773,
  "tong": 3774,
  "tongu": 3775,
  "them\\u000a": 3776,
  "first": 3777,
  "spect ": 3778,
  "rif": 3779,
  "of it": 3780,
  "seemed to be ": 3781,
  "no one ": 3782,
  "at, ": 3783,
  "bran": 3784,
  "hair": 3785,
  "afraid ": 3786,
  "warm": 3787,
  "ely, ": 3788,
  "to the\\u000a": 3789,
  "rust": 3790,
  "oppos": 3791,
  ". Wh": 3792,
  "\\u000aof the ": 3793,
  "written ": 3794,
  "ates ": 3795,
  "Whit": 3796,
  "I think ": 3797,
  "s! ": 3798,
  "doing ": 3799,
  "spent ": 3800,
  "\\u000awas ": 3801,
  "before the ": 3802,
  "s on the ": 3803,
  "seri": 3804,
  "he is ": 3805,
  "presence ": 3806,
  "brain ": 3807,
  "are you ": 3808,
  "Are ": 3809,
  "paper ": 3810,
  "eight ": 3811,
  "monster ": 3812,
  "weight ": 3813,
  "took the ": 3814,
  "accoun": 3815,
  "classi": 3816,
  "ular": 3817,
  "on board": 3818,
  "voy": 3819,
  "in fron": 3820,
  "hadn’t ": 3821,
  "indic": 3822,
  "specim": 3823,
  "animals ": 3824,
  "weigh": 3825,
  "push": 3826,
  "that had ": 3827,
  "uring ": 3828,
  "whale ": 3829,
  "replied.\\u000a\\u000a\"": 3830,
  "?\"\\u000a\\u000a": 3831,
  "Canadian": 3832,
  "arrived ": 3833,
  "from\\u000athe ": 3834,
  "ing\\u000athe ": 3835,
  "spl": 3836,
  "lov": 3837,
  "enormous ": 3838,
  "four": 3839,
  "effect": 3840,
  "seems ": 3841,
  "ed, the ": 3842,
  "pointed ": 3843,
  "that it was ": 3844,
  "although ": 3845,
  "there\\u000a": 3846,
  "thinking ": 3847,
  "their\\u000a": 3848,
  "over and ": 3849,
  "another": 3850,
  "quiet ": 3851,
  "broken ": 3852,
  "key ": 3853,
  "const": 3854,
  "pol": 3855,
  "reason ": 3856,
  "went on, ": 3857,
  "fortun": 3858,
  "existence ": 3859,
  "movement ": 3860,
  "sweet": 3861,
  "resul": 3862,
  "the bar": 3863,
  "ris": 3864,
  "ek ": 3865,
  "command": 3866,
  "led\\u000a": 3867,
  "despa": 3868,
  "worked ": 3869,
  "gram": 3870,
  "partic": 3871,
  "attack": 3872,
  ".\\u000aA ": 3873,
  "individ": 3874,
  "teen ": 3875,
  "control": 3876,
  "distribut": 3877,
  "matt": 3878,
  "*\\u000a": 3879,
  "1.E": 3880,
  ",\\u000aa ": 3881,
  "replied ": 3882,
  ".\" ": 3883,
  "marine ": 3884,
  "e's ": 3885,
  "n't\\u000a": 3886,
  "island ": 3887,
  "Invisible Man ": 3888,
  ",\" said Kemp": 3889,
  "ed\\u000awith ": 3890,
  ". I shall ": 3891,
  "aut": 3892,
  "and his ": 3893,
  "e-": 3894,
  "siz": 3895,
  "pass": 3896,
  "green ": 3897,
  "yard": 3898,
  "acked ": 3899,
  "itself ": 3900,
  "road ": 3901,
  "bent ": 3902,
  "brown ": 3903,
  "ool ": 3904,
  "neither ": 3905,
  "long, ": 3906,
  "on their ": 3907,
  "edge ": 3908,
  "rolled ": 3909,
  "within ": 3910,
  "batt": 3911,
  "astonish": 3912,
  "finish": 3913,
  "it to ": 3914,
  ". Our ": 3915,
  "probably ": 3916,
  "waters ": 3917,
  "inform": 3918,
  "surely ": 3919,
  "have a ": 3920,
  "in these ": 3921,
  "smoo": 3922,
  "sheet": 3923,
  ",\\u000aand the ": 3924,
  "breath ": 3925,
  "can\\u000a": 3926,
  "pearl": 3927,
  "sens": 3928,
  "clothe": 3929,
  "woke ": 3930,
  "a-": 3931,
  "ured ": 3932,
  ". No": 3933,
  "Gulf ": 3934,
  "clam": 3935,
  "ships ": 3936,
  "Stra": 3937,
  "itude": 3938,
  "around her ": 3939,
  "friend Joh": 3940,
  "alarm": 3941,
  "attach": 3942,
  "you’re ": 3943,
  "lifted ": 3944,
  "corrid": 3945,
  "I'd ": 3946,
  "line ": 3947,
  "English": 3948,
  "phi": 3949,
  "30": 3950,
  "search ": 3951,
  ", to ": 3952,
  ".\\u000aIt was ": 3953,
  ". Be": 3954,
  "years ": 3955,
  "fashi": 3956,
  "mone": 3957,
  "at all": 3958,
  "reach ": 3959,
  "scen": 3960,
  ".\\u000aAs ": 3961,
  ". Now ": 3962,
  "e, the ": 3963,
  "fier": 3964,
  "eag": 3965,
  "ashed ": 3966,
  "appeared ": 3967,
  "remark": 3968,
  "step ": 3969,
  "wel": 3970,
  "stepped ": 3971,
  "passage": 3972,
  "a small ": 3973,
  "you will ": 3974,
  "pra": 3975,
  "shud": 3976,
  "cof": 3977,
  "immense ": 3978,
  "—I ": 3979,
  "makes ": 3980,
  "stop": 3981,
  "learn ": 3982,
  "sir, ": 3983,
  "ently, ": 3984,
  "mani": 3985,
  "at the\\u000a": 3986,
  "bottom ": 3987,
  "defin": 3988,
  "time, ": 3989,
  "rac": 3990,
  "iness": 3991,
  "ally": 3992,
  "stance ": 3993,
  "better": 3994,
  "fad": 3995,
  "bell": 3996,
  ".\\u000aThey ": 3997,
  "with a\\u000a": 3998,
  "hosp": 3999,
  "gun": 4000,
  "walk": 4001,
  "burst ": 4002,
  "bodi": 4003,
  "There": 4004,
  "nature": 4005,
  "entire ": 4006,
  "noi": 4007,
  "wake ": 4008,
  "ber, ": 4009,
  "for an ": 4010,
  "Sir": 4011,
  "s.\\u000aThe ": 4012,
  "Van\\u000a": 4013,
  "Van\\u000aHel": 4014,
  "tent": 4015,
  "thu": 4016,
  "policem": 4017,
  "pite ": 4018,
  "pushed ": 4019,
  "mattres": 4020,
  "1.E.": 4021,
  "spear ": 4022,
  "plant": 4023,
  "\\u000a\\u000a\\u000a\\u000a                                                  ": 4024,
  ".\\u000a\\u000a\\u000a\\u000a                                                ": 4025,
  "includ": 4026,
  "ail": 4027,
  "RE": 4028,
  "Journ": 4029,
  "11": 4030,
  "edg": 4031,
  ", and it ": 4032,
  "Her": 4033,
  "least": 4034,
  "knew": 4035,
  "fe ": 4036,
  "room and ": 4037,
  "English ": 4038,
  "lest ": 4039,
  "ple ": 4040,
  "amongst ": 4041,
  "would not ": 4042,
  "on our ": 4043,
  "themselves ": 4044,
  "calcul": 4045,
  "m\\u000a": 4046,
  "lamp": 4047,
  "my own ": 4048,
  "out a ": 4049,
  "vit": 4050,
  "stead ": 4051,
  "tical ": 4052,
  "there, ": 4053,
  ". Just ": 4054,
  "asleep": 4055,
  ". In the ": 4056,
  "into his ": 4057,
  "ed\\u000ato ": 4058,
  "which he ": 4059,
  "se and ": 4060,
  "me and ": 4061,
  "opposite ": 4062,
  ",” he ": 4063,
  "so many ": 4064,
  "ers": 4065,
  "fted ": 4066,
  "ina ": 4067,
  "fact": 4068,
  "At ": 4069,
  "church": 4070,
  "soul ": 4071,
  "ench ": 4072,
  "knows ": 4073,
  "especi": 4074,
  "fascin": 4075,
  "ating": 4076,
  "ins ": 4077,
  "wonder ": 4078,
  "velop": 4079,
  "sem": 4080,
  "pressure": 4081,
  "impossible ": 4082,
  "compo": 4083,
  "ing with ": 4084,
  "hell": 4085,
  "women ": 4086,
  "prov": 4087,
  "little\\u000a": 4088,
  "ousl": 4089,
  "a good ": 4090,
  "Morri": 4091,
  "fellow ": 4092,
  "esides, ": 4093,
  "with\\u000athe ": 4094,
  "food ": 4095,
  "centr": 4096,
  "From ": 4097,
  "fro": 4098,
  "dly ": 4099,
  ", but she ": 4100,
  "Van Helsing, ": 4101,
  ".\\u000aSo ": 4102,
  "us to ": 4103,
  "aware ": 4104,
  "started to ": 4105,
  "doesn't ": 4106,
  "mollusk": 4107,
  "I don't ": 4108,
  "wasn't ": 4109,
  ",\" Ned Land ": 4110,
  "panel": 4111,
  "stateroom": 4112,
  "orig": 4113,
  "ON": 4114,
  "Harker’s ": 4115,
  "25": 4116,
  "ing of ": 4117,
  "ful\\u000a": 4118,
  "knowledge ": 4119,
  "sit ": 4120,
  "seems to ": 4121,
  "foot ": 4122,
  "anxi": 4123,
  "bring ": 4124,
  "letter ": 4125,
  "else": 4126,
  "—\\u000a": 4127,
  "silver ": 4128,
  "what he ": 4129,
  "smile ": 4130,
  "opening ": 4131,
  "atmo": 4132,
  "atmosp": 4133,
  "I felt ": 4134,
  "requ": 4135,
  "gone": 4136,
  "heard a ": 4137,
  "cover ": 4138,
  "this time ": 4139,
  "has\\u000a": 4140,
  "s from ": 4141,
  "told him ": 4142,
  "suit": 4143,
  "ening ": 4144,
  ";\\u000abut ": 4145,
  ", I was ": 4146,
  "especially ": 4147,
  "ps, ": 4148,
  "someone ": 4149,
  "all that ": 4150,
  "followed ": 4151,
  "girl": 4152,
  "adm": 4153,
  ". In": 4154,
  "glanc": 4155,
  "Miss ": 4156,
  "each other": 4157,
  "wanted ": 4158,
  "Here ": 4159,
  "ents ": 4160,
  "north": 4161,
  "Fin": 4162,
  "see the ": 4163,
  "haven": 4164,
  "ignor": 4165,
  "appar": 4166,
  "weak": 4167,
  ". She had ": 4168,
  "s of her ": 4169,
  "tele": 4170,
  "Good ": 4171,
  "Oh ": 4173,
  "clut": 4174,
  "level ": 4175,
  "tar": 4176,
  "depth of ": 4177,
  "idi": 4178,
  "beac": 4179,
  "mutter": 4180,
  "fish, ": 4181,
  "fearsome ": 4182,
  "?\\u000a\\u000a": 4183,
  "Commander Far": 4184,
  "Commander Farrag": 4185,
  "Mr. L": 4186,
  ",\" I said, \"": 4187,
  "seaflo": 4188,
  "rect": 4189,
  "Diar": 4190,
  "ay, ": 4191,
  "should have ": 4192,
  ".\\u000aWe ": 4193,
  ". I had ": 4194,
  "reci": 4195,
  "nation": 4196,
  "distin": 4197,
  "Nor": 4198,
  "harm": 4199,
  "cheer": 4200,
  ", and that ": 4201,
  "rou": 4202,
  "saw": 4203,
  "grey ": 4204,
  "talking ": 4205,
  "swept ": 4206,
  "after the ": 4207,
  "—the ": 4208,
  "rying ": 4209,
  "speaking ": 4210,
  ". Then, ": 4211,
  ",” said ": 4212,
  "again, and ": 4213,
  "they had ": 4214,
  "person ": 4215,
  "Count’s ": 4216,
  "opportunity ": 4217,
  "talk": 4218,
  "above the ": 4219,
  ". An": 4220,
  "hab": 4221,
  "went to ": 4222,
  "beginning to ": 4223,
  "After ": 4224,
  "s it ": 4225,
  "wise ": 4226,
  "any\\u000a": 4227,
  "think of ": 4228,
  "ave ": 4229,
  "Co": 4230,
  "part of the ": 4231,
  "ater": 4232,
  "corner": 4233,
  "advanc": 4234,
  "fire ": 4235,
  "less, ": 4236,
  "ion ": 4237,
  "occur": 4238,
  "forth ": 4239,
  "woman": 4240,
  "object": 4241,
  "the most ": 4242,
  "her, and ": 4243,
  "accid": 4244,
  "radi": 4245,
  "bird": 4246,
  "ather": 4247,
  "doctor": 4248,
  "It’s ": 4249,
  "s of a ": 4250,
  "bull": 4251,
  "New ": 4252,
  "10": 4253,
  "ising ": 4254,
  "oxy": 4255,
  "we must ": 4256,
  "equip": 4257,
  "just": 4258,
  "ice, ": 4259,
  "s.\\u000a‘": 4260,
  "fucking ": 4261,
  "spin": 4262,
  "upper ": 4263,
  "Thomas’s ": 4264,
  "specimen": 4265,
  "Mean": 4266,
  "me, \"": 4267,
  ",\" he said": 4268,
  "iff ": 4269,
  "Drac": 4270,
  "what": 4271,
  "On": 4272,
  "OU": 4273,
  "VI": 4274,
  "glimp": 4275,
  "late ": 4276,
  "start ": 4277,
  "I found ": 4278,
  "very\\u000a": 4279,
  "ago ": 4280,
  "will\\u000a": 4281,
  "detail": 4282,
  ". Do ": 4283,
  "such\\u000a": 4284,
  "suppo": 4285,
  "diary ": 4286,
  "sign ": 4287,
  "er to ": 4288,
  "us\\u000a": 4289,
  "ently": 4290,
  "er of ": 4291,
  "ining ": 4292,
  "white": 4293,
  "latter ": 4294,
  "into\\u000a": 4295,
  "ed. He ": 4296,
  "which the ": 4297,
  "side of the ": 4298,
  "must have been ": 4299,
  "bad": 4300,
  "somewhere ": 4301,
  "away from ": 4302,
  "horror": 4303,
  "living ": 4304,
  "raised ": 4305,
  "main ": 4306,
  "his hand ": 4307,
  "door, ": 4308,
  "my eyes ": 4309,
  "suffer": 4310,
  "send ": 4311,
  "sely ": 4312,
  "though": 4313,
  "while": 4314,
  "But": 4315,
  "boy": 4316,
  "ed this ": 4317,
  "tail ": 4318,
  "below": 4319,
  "unless ": 4320,
  "desper": 4321,
  "shut": 4322,
  "giving ": 4323,
  "les, ": 4324,
  "lead ": 4325,
  "course": 4326,
  "what you ": 4327,
  "fut": 4328,
  "sme": 4329,
  "with me": 4330,
  "promise ": 4331,
  "s. But ": 4332,
  "opened the ": 4333,
  "g\\u000a": 4334,
  "hyp": 4335,
  "tall": 4336,
  "sick": 4337,
  ". Not ": 4338,
  "heard": 4339,
  "wrong": 4340,
  "Li": 4341,
  "exper": 4342,
  "attention ": 4343,
  "experience ": 4344,
  "during ": 4345,
  "erhaps ": 4346,
  "brac": 4347,
  "sni": 4348,
  "knowing ": 4349,
  "non": 4350,
  "no more ": 4351,
  "soci": 4352,
  "Red ": 4353,
  "jud": 4354,
  "Un-": 4355,
  "Un-De": 4356,
  "parl": 4357,
  "unting ": 4358,
  "gallant ": 4359,
  "horn": 4360,
  "ed its ": 4361,
  "platform ": 4362,
  "zoo": 4363,
  ". It's ": 4364,
  ".\"\\u000a\\u000aI ": 4365,
  "d'": 4366,
  "19": 4367,
  "ale": 4368,
  "know how ": 4369,
  ", as ": 4370,
  "mix": 4371,
  "excellent ": 4372,
  "ty-": 4373,
  ". When I ": 4374,
  "immediately ": 4375,
  "ess, ": 4376,
  "! The ": 4377,
  ". They were ": 4378,
  "touch": 4379,
  "which\\u000a": 4380,
  "general ": 4381,
  "which, ": 4382,
  "darkness ": 4383,
  "turning ": 4384,
  "increas": 4385,
  "custom": 4386,
  "ed them ": 4387,
  "terror ": 4388,
  "try to ": 4389,
  ". So": 4390,
  "eat ": 4391,
  "using ": 4392,
  "temp": 4393,
  "In the ": 4394,
  "manner": 4395,
  "for his ": 4396,
  "s from the ": 4397,
  "hoo": 4398,
  "mention": 4399,
  "thick": 4400,
  "lum": 4401,
  "ast of ": 4402,
  "atur": 4403,
  "shri": 4404,
  "yourself": 4405,
  "his": 4406,
  "out the ": 4407,
  "magnific": 4408,
  "occup": 4409,
  "of their ": 4410,
  "able, ": 4411,
  "pull ": 4412,
  ". Fr": 4413,
  "fair ": 4414,
  "pau": 4415,
  "bul": 4416,
  "man’s ": 4417,
  "later": 4418,
  "lose ": 4419,
  "s. W": 4420,
  "ell ": 4421,
  "passing ": 4422,
  "ous, ": 4423,
  "compli": 4424,
  "reef": 4425,
  "whale": 4426,
  ", if ": 4427,
  "was so ": 4428,
  "ture ": 4429,
  "west": 4430,
  "arriv": 4431,
  "station": 4432,
  "mission ": 4433,
  ". Van Helsing ": 4434,
  "\\u000aher ": 4435,
  ",’ he ": 4436,
  "Mr. B": 4437,
  "element": 4438,
  "avoid": 4439,
  "tomor": 4440,
  "South ": 4441,
  "volcan": 4442,
  " Octo": 4443,
  "cable ": 4444,
  "abrup": 4445,
  "spotted ": 4446,
  ".\\u000a\\u000aBut ": 4447,
  "man's ": 4448,
  ",\\u000a\"": 4449,
  "mong ": 4450,
  "!\"\\u000a": 4451,
  "ed; ": 4452,
  "OR": 4453,
  "D ": 4454,
  "ogra": 4455,
  "24": 4456,
  "train ": 4457,
  "an hour ": 4458,
  "which was ": 4459,
  "Europe": 4460,
  "country ": 4461,
  "desc": 4462,
  "hill": 4463,
  "exac": 4464,
  "part ": 4465,
  "not, ": 4466,
  "poly": 4467,
  " and ": 4468,
  "considerable ": 4469,
  "complete ": 4470,
  "of us ": 4471,
  "blue ": 4472,
  "able\\u000a": 4473,
  "there was no ": 4474,
  "seal": 4475,
  "own\\u000a": 4476,
  "physi": 4477,
  "meet": 4478,
  "that his ": 4479,
  "It is ": 4480,
  "made": 4481,
  "bound ": 4482,
  "Al": 4483,
  "glad ": 4484,
  "interest ": 4485,
  "past": 4486,
  "the\\u000a\\u000a\\u000c": 4487,
  "while, ": 4488,
  "of some ": 4489,
  "died ": 4490,
  "solid ": 4491,
  "ated": 4492,
  "warm ": 4493,
  "uddenly ": 4494,
  "brain": 4495,
  "o-": 4496,
  "when\\u000a": 4497,
  "enem": 4498,
  "accur": 4499,
  "yellow ": 4500,
  "I knew ": 4501,
  "the man ": 4502,
  "left the ": 4503,
  "moder": 4504,
  "in one ": 4505,
  "and then ": 4506,
  ";\\u000aand ": 4507,
  "morn": 4508,
  "back and ": 4509,
  "es were ": 4510,
  "hands, ": 4511,
  "head, ": 4512,
  "threat": 4513,
  "Mina, ": 4514,
  "proc": 4515,
  "orn": 4516,
  "stain": 4517,
  "coming": 4518,
  "proceed": 4519,
  "to find ": 4520,
  "alist": 4521,
  "to you": 4522,
  "managed to ": 4523,
  "cry": 4524,
  "American ": 4525,
  "that he was ": 4526,
  "tum": 4527,
  "mother ": 4528,
  "Renfi": 4529,
  "antly ": 4530,
  "27": 4531,
  "fully": 4532,
  "cen": 4533,
  "Under ": 4534,
  "front ": 4535,
  "advanta": 4536,
  "Then, ": 4537,
  "interrup": 4538,
  "lion": 4539,
  "Our ": 4540,
  "ux": 4541,
  "square ": 4542,
  "stayed ": 4543,
  "ation\\u000a": 4544,
  "discus": 4545,
  ", \"": 4546,
  "eel": 4547,
  "gig": 4548,
  "Its ": 4549,
  "you'll ": 4550,
  "longitude ": 4551,
  "100 ": 4552,
  "ship's ": 4553,
  ",\" I replied, \"": 4554,
  "captain's ": 4555,
  "Ice ": 4556,
  "Ice B": 4557,
  "?\" said ": 4558,
  "origin": 4559,
  "Let": 4560,
  "28": 4561,
  "May": 4562,
  "extre": 4563,
  "a and ": 4564,
  "slept ": 4565,
  "than the ": 4566,
  "self-": 4567,
  "mes": 4568,
  "to-mor": 4569,
  "ourne": 4570,
  "crossed ": 4571,
  "it all ": 4572,
  "in some ": 4573,
  "state of ": 4574,
  "ed to a ": 4575,
  "s like ": 4576,
  "ans ": 4577,
  "inging ": 4578,
  "companions ": 4579,
  "mist": 4580,
  "you must ": 4581,
  "urg": 4582,
  "s and the ": 4583,
  "darkness": 4584,
  "e\\u000athe ": 4585,
  "bright ": 4586,
  "in and ": 4587,
  "ling": 4588,
  "ver\\u000a": 4589,
  "shel": 4590,
  "ves\\u000a": 4591,
  "when they ": 4592,
  "could have ": 4593,
  "people": 4594,
  "chain": 4595,
  "holding ": 4596,
  "made me ": 4597,
  "; so ": 4598,
  "attack ": 4599,
  "ready to ": 4600,
  "drawn ": 4601,
  "—a ": 4602,
  "s of his ": 4603,
  "on\\u000athe ": 4604,
  "ely\\u000a": 4605,
  "small": 4606,
  "can be ": 4607,
  "men, ": 4608,
  "heavi": 4609,
  "more, ": 4610,
  "what was ": 4611,
  "silence": 4612,
  "ed as ": 4613,
  "went on ": 4614,
  "in your ": 4615,
  "bad ": 4616,
  "narrow ": 4617,
  "his head ": 4618,
  "hall ": 4619,
  "must\\u000a": 4620,
  "it and ": 4621,
  "lies ": 4622,
  "pale ": 4623,
  "sical ": 4624,
  "then\\u000a": 4625,
  "deal ": 4626,
  "pocket": 4627,
  "pound": 4628,
  "edly ": 4629,
  "from this ": 4630,
  "direction ": 4631,
  "distance ": 4632,
  "s\\u000awere ": 4633,
  "lie ": 4634,
  "scal": 4635,
  "worth ": 4636,
  "not a ": 4637,
  "dear, ": 4638,
  "miser": 4639,
  "gul": 4640,
  "his hand": 4641,
  "that’s ": 4642,
  "gust": 4643,
  "Cape ": 4644,
  "ity\\u000a": 4645,
  "for a moment": 4646,
  "blow": 4647,
  "during the ": 4648,
  "carry ": 4649,
  "ject\\u000a": 4650,
  "hatch": 4651,
  "stern": 4652,
  "gotten ": 4653,
  "crew ": 4654,
  "ed her eyes ": 4655,
  "gni": 4656,
  "trun": 4657,
  "at\\u000athe ": 4658,
  "creature": 4659,
  "Su": 4660,
  "inous ": 4661,
  "ftly ": 4662,
  "snapp": 4663,
  "blind": 4664,
  "treat": 4665,
  "dry ": 4666,
  "kitch": 4667,
  "Mo": 4668,
  "colli": 4669,
  "get": 4670,
  "typ": 4671,
  "letting ": 4672,
  "Jessic": 4673,
  "Handler’s ": 4674,
  ", and Cassie ": 4675,
  "continent": 4676,
  "186": 4677,
  "in other word": 4678,
  "went on, \"": 4679,
  "said.\\u000a\\u000a\"": 4680,
  "Fe": 4681,
  "zoophy": 4682,
  ",\" the captain ": 4683,
  "Mrs. Hall ": 4684,
  ". '": 4685,
  "right, ": 4686,
  "near the ": 4687,
  "impres": 4688,
  "dish": 4689,
  "libr": 4690,
  "ink ": 4691,
  "30 ": 4692,
  "bel": 4693,
  "ball": 4694,
  "Lond": 4695,
  "beautiful ": 4696,
  "comfort ": 4697,
  "itself": 4698,
  "sym": 4699,
  "exer": 4700,
  ". One ": 4701,
  "give me ": 4702,
  "for some ": 4703,
  "soft": 4704,
  "s, a ": 4705,
  "guard": 4706,
  "s, and the ": 4707,
  "wolves ": 4708,
  "effect ": 4709,
  "following ": 4710,
  "? What ": 4711,
  "leaving ": 4712,
  "after a ": 4713,
  "quiver": 4714,
  "palm": 4715,
  "house, ": 4716,
  "az": 4717,
  "iron": 4718,
  "his eyes ": 4719,
  "sat down ": 4720,
  "if the ": 4721,
  "suspic": 4722,
  "brave ": 4723,
  "spi": 4724,
  "key": 4725,
  "sequ": 4726,
  "entered the ": 4727,
  "cape": 4728,
  "disturb": 4729,
  "rail": 4730,
  "sense": 4731,
  "es are ": 4732,
  "fil": 4733,
  "va": 4734,
  "s of\\u000a": 4735,
  "hall": 4736,
  "intense ": 4737,
  "mile ": 4738,
  "sim": 4739,
  "body, ": 4740,
  "hand and ": 4741,
  "downstair": 4742,
  "husband ": 4743,
  "Mr. Morri": 4744,
  "seven ": 4745,
  "picked ": 4746,
  "heal": 4747,
  "itted ": 4748,
  "object ": 4749,
  "cause": 4750,
  "ger ": 4751,
  "that she was ": 4752,
  "upstair": 4753,
  "rough ": 4754,
  "recogni": 4755,
  "What": 4756,
  "waiting for ": 4757,
  "Oce": 4758,
  "instrument": 4759,
  "greater ": 4760,
  "plex": 4761,
  "Madam Mina": 4762,
  "from its ": 4763,
  "You’re ": 4764,
  "ters ": 4765,
  "pursu": 4766,
  "vision": 4767,
  "speed": 4768,
  "electronic work": 4769,
  "Project\\u000a": 4770,
  "Project\\u000aGutenber": 4771,
  "agreement": 4772,
  "needed to ": 4773,
  "obviously ": 4774,
  ".\\u000a\\u000a\\u000c‘": 4775,
  "gen ": 4776,
  ",’ Thomas ": 4777,
  "frigate ": 4778,
  ".\\u000a\\u000aAt ": 4779,
  "chief offic": 4780,
  "!\" Conseil ": 4781,
  "Don't ": 4782,
  "Henfre": 4783,
  "Voice": 4784,
  "Project Gutenberg ": 4785,
  "Archi": 4786,
  "Dr. Seward’s Diar": 4787,
  "26": 4788,
  "from the\\u000a": 4789,
  "it was a ": 4790,
  "; it ": 4791,
  "just\\u000a": 4792,
  "I did not ": 4793,
  "may have ": 4794,
  "and was ": 4795,
  "ps of ": 4796,
  "with their ": 4797,
  "occasion": 4798,
  "London ": 4799,
  "enjo": 4800,
  "exactly ": 4801,
  "money ": 4802,
  "that I was ": 4803,
  "easy ": 4804,
  "I got ": 4805,
  "here and ": 4806,
  "sun ": 4807,
  "like\\u000a": 4808,
  "Count": 4809,
  "cloud": 4810,
  "rap": 4811,
  "same": 4812,
  "purcha": 4813,
  "meet ": 4814,
  "seemingly ": 4815,
  "regre": 4816,
  "ici": 4817,
  "volu": 4818,
  "know, ": 4819,
  "to you ": 4820,
  "clearly ": 4821,
  "bour": 4822,
  "ed into ": 4823,
  "atic ": 4824,
  "yester": 4825,
  "ence\\u000a": 4826,
  "et me ": 4827,
  "seiz": 4828,
  "oul ": 4829,
  "ge\\u000a": 4830,
  "touch ": 4831,
  "over, ": 4832,
  "ness, ": 4833,
  "carefully ": 4834,
  "manner ": 4835,
  ". From ": 4836,
  "to this ": 4837,
  "floor, ": 4838,
  "ler": 4839,
  ". But the ": 4840,
  "m, ": 4841,
  "sac": 4842,
  "stup": 4843,
  "with a s": 4844,
  "ple of ": 4845,
  "genu": 4846,
  "grim": 4847,
  "echo": 4848,
  "waited ": 4849,
  "ily, ": 4850,
  "I’ll ": 4851,
  "tomb": 4852,
  "horse ": 4853,
  "sent": 4854,
  "spid": 4855,
  "until the ": 4856,
  "watching ": 4857,
  "on board ": 4858,
  "Ba": 4859,
  "public ": 4860,
  "her and ": 4861,
  "idea": 4862,
  "came to ": 4863,
  "him and ": 4864,
  "Dr. Seward ": 4865,
  "medic": 4866,
  "s. She ": 4867,
  "swiftly ": 4868,
  "than\\u000a": 4869,
  "Dr. Van Helsing ": 4870,
  ".\\u000aAfter ": 4871,
  "Par": 4872,
  "provid": 4873,
  "audi": 4874,
  "pearl ": 4875,
  "metal ": 4876,
  "ed to her ": 4877,
  "despite ": 4878,
  "encounter": 4879,
  "ingly, ": 4880,
  "spac": 4881,
  "def": 4882,
  "clench": 4883,
  "rescu": 4884,
  "Jessica ": 4885,
  "invisible ": 4886,
  "explo": 4887,
  ",\"\\u000a": 4888,
  "diving ": 4889,
  "commander ": 4890,
  "ki": 4891,
  ".\"\\u000a\\u000a\"But ": 4892,
  ".\"\\u000a\\u000a\"And ": 4893,
  "Janu": 4894,
  "F ": 4895,
  "Harker’s Journ": 4896,
  ". Here ": 4897,
  "country": 4898,
  "ed\\u000aby ": 4899,
  "whir": 4900,
  "well, ": 4901,
  "when you ": 4902,
  "that my ": 4903,
  "such an ": 4904,
  "allow ": 4905,
  "some of the ": 4906,
  "round the ": 4907,
  "guard ": 4908,
  "fact ": 4909,
  "horses ": 4910,
  "neigh": 4911,
  "whisp": 4912,
  "resum": 4913,
  "came a ": 4914,
  "behind the ": 4915,
  "down and ": 4916,
  "success": 4917,
  "horrible ": 4918,
  "loud ": 4919,
  ".\\u000aW": 4920,
  "out, ": 4921,
  "fresh": 4922,
  ". It was a ": 4923,
  "mely ": 4924,
  "say, ": 4925,
  "tak": 4926,
  "and\\u000athe ": 4927,
  "none ": 4928,
  "thoughts ": 4929,
  "s? ": 4930,
  "am\\u000a": 4931,
  "tide": 4932,
  "may not ": 4933,
  "telling ": 4934,
  "flung ": 4935,
  "thousand ": 4936,
  "ted": 4937,
  "spoke": 4938,
  "earth ": 4939,
  "worth": 4940,
  "ow, ": 4941,
  "who was ": 4942,
  "consul": 4943,
  "in any ": 4944,
  "wing": 4945,
  "built ": 4946,
  "sad ": 4947,
  "kis": 4948,
  "as she\\u000a": 4949,
  "hear the ": 4950,
  "positi": 4951,
  "cast ": 4952,
  "task": 4953,
  "le and ": 4954,
  "took": 4955,
  "floating ": 4956,
  "it had ": 4957,
  "led, ": 4958,
  "sprang ": 4959,
  "gap": 4960,
  "cried ": 4961,
  "revol": 4962,
  "weight": 4963,
  "\\u000awith ": 4964,
  "ously": 4965,
  "goes ": 4966,
  "second": 4967,
  "ture": 4968,
  "if\\u000a": 4969,
  "hope": 4970,
  "wo ": 4971,
  "be, ": 4972,
  "he’d ": 4973,
  "six": 4974,
  "refu": 4975,
  "does not ": 4976,
  "seam": 4977,
  "2 ": 4978,
  "that her ": 4979,
  "omen": 4980,
  "beast": 4981,
  "thern ": 4982,
  "die": 4983,
  "space ": 4984,
  "her to ": 4985,
  "through her ": 4986,
  " September.—": 4987,
  "haz": 4988,
  "rela": 4989,
  "medical ": 4990,
  "realis": 4991,
  "direction": 4992,
  "’t": 4993,
  "dropp": 4994,
  "pick ": 4995,
  "actual ": 4996,
  "rele": 4997,
  "mechan": 4998,
  "irrit": 4999,
  "ski": 5000,
  "copy": 5001,
  "contact ": 5002,
  "current ": 5003,
  "backward": 5004,
  "shaped ": 5005,
  "frown": 5006,
  "stared at ": 5007,
  ".’\\u000aCassie ": 5008,
  ",’ Cassie ": 5009,
  "They": 5010,
  "gigantic ": 5011,
  "1,": 5012,
  "?\" I ": 5013,
  "!\" Ned Land ": 5014,
  "Captain Nemo's ": 5015,
  "Febru": 5016,
  "____": 5017,
  "20": 5018,
  "ica": 5019,
  "23": 5020,
  "29": 5021,
  "place, ": 5022,
  "dinner": 5023,
  "ended ": 5024,
  "trouser": 5025,
  "are, ": 5026,
  "delight": 5027,
  "double ": 5028,
  "ed\\u000aand ": 5029,
  "each other ": 5030,
  "up with ": 5031,
  "up, and ": 5032,
  "ses of ": 5033,
  "had not ": 5034,
  "falling ": 5035,
  "evening ": 5036,
  "flick": 5037,
  "whit": 5038,
  "side, ": 5039,
  "for it ": 5040,
  "ary, ": 5041,
  "noise ": 5042,
  "actually ": 5043,
  "itor": 5044,
  "the sound ": 5045,
  "work, ": 5046,
  "teeth": 5047,
  "I heard ": 5048,
  "childr": 5049,
  ". Some ": 5050,
  "Engl": 5051,
  "even\\u000a": 5052,
  "is to ": 5053,
  "rush ": 5054,
  "to-day": 5055,
  "Because ": 5056,
  "mes ": 5057,
  "it in ": 5058,
  "door and ": 5059,
  "plan ": 5060,
  "free": 5061,
  "m of ": 5062,
  "trouble": 5063,
  "soft ": 5064,
  "study": 5065,
  "escape": 5066,
  "furn": 5067,
  "schoo": 5068,
  "he has ": 5069,
  "pier": 5070,
  "conne": 5071,
  ".\\u000aMy ": 5072,
  "rig": 5073,
  "closed": 5074,
  "due ": 5075,
  "silence, ": 5076,
  "danger ": 5077,
  "furni": 5078,
  "coffin": 5079,
  "milli": 5080,
  "crea": 5081,
  "vent ": 5082,
  "ly:—\\u000a“": 5083,
  "gentle": 5084,
  "sad": 5085,
  "avoid ": 5086,
  "August": 5087,
  "make\\u000a": 5088,
  "ally\\u000a": 5089,
  "hurt ": 5090,
  "replied, ": 5091,
  "quarter": 5092,
  "bill": 5093,
  "est of ": 5094,
  "xim": 5095,
  "issu": 5096,
  "ago": 5097,
  "pot": 5098,
  ".\\u000aE": 5099,
  "agra": 5100,
  "grow ": 5101,
  "! And ": 5102,
  "satisfi": 5103,
  "slightly ": 5104,
  "must": 5105,
  "lly": 5106,
  "blow ": 5107,
  "head and ": 5108,
  "ate, ": 5109,
  "sheet ": 5110,
  "ing,\\u000a": 5111,
  "limit": 5112,
  "es.\\u000a": 5113,
  "numer": 5114,
  "fifteen ": 5115,
  "equal ": 5116,
  "unusual ": 5117,
  "zar": 5118,
  "phen": 5119,
  "phenomen": 5120,
  "laun": 5121,
  "Nov": 5122,
  "located ": 5123,
  "?’\\u000a": 5124,
  "stared ": 5125,
  "centime": 5126,
  "gau": 5127,
  "plus ": 5128,
  "magnificent ": 5129,
  "bandag": 5130,
  "whales ": 5131,
  "s--": 5132,
  "s.\\u000a\\u000a\"": 5133,
  ",' ": 5134,
  "propeller ": 5135,
  "?\"\\u000a\\u000a\"Yes, ": 5136,
  "January ": 5137,
  "What's ": 5138,
  "!\"\\u000a\"": 5139,
  "ense ": 5140,
  "ww": 5141,
  "., ": 5142,
  "late": 5143,
  "walk ": 5144,
  "nam": 5145,
  "local": 5146,
  "enter ": 5147,
  "the Count ": 5148,
  "it; ": 5149,
  "a,\\u000a": 5150,
  "subject ": 5151,
  "wore ": 5152,
  "boot": 5153,
  ". At the ": 5154,
  "colour": 5155,
  "went": 5156,
  "journe": 5157,
  "underst": 5158,
  "wife": 5159,
  "you know ": 5160,
  "waiting ": 5161,
  "book ": 5162,
  "ities ": 5163,
  "difficulty ": 5164,
  "y of the ": 5165,
  "up to the ": 5166,
  "closing ": 5167,
  "extraordinary ": 5168,
  ". How ": 5169,
  "notice ": 5170,
  "clean ": 5171,
  "lam": 5172,
  "rejo": 5173,
  "spread ": 5174,
  "mal": 5175,
  "shall be ": 5176,
  "shudder": 5177,
  "expression ": 5178,
  "hot ": 5179,
  "gold": 5180,
  "centuri": 5181,
  "sorry ": 5182,
  ". Whi": 5183,
  "noticed ": 5184,
  "When I ": 5185,
  "imprison": 5186,
  "see, ": 5187,
  "s, or ": 5188,
  "about it": 5189,
  "begin ": 5190,
  "bank": 5191,
  "ham": 5192,
  "means of ": 5193,
  "what I ": 5194,
  "puzz": 5195,
  "sume ": 5196,
  "craw": 5197,
  "lives ": 5198,
  "passi": 5199,
  "I should ": 5200,
  "bed, ": 5201,
  "luck": 5202,
  "ffled ": 5203,
  "shoulder ": 5204,
  "short": 5205,
  "spot ": 5206,
  "ed—": 5207,
  "search": 5208,
  "in the air": 5209,
  "despair": 5210,
  "ute ": 5211,
  "glass": 5212,
  "inj": 5213,
  "excep": 5214,
  "grate": 5215,
  "prin": 5216,
  "May ": 5217,
  "family ": 5218,
  "pill": 5219,
  "concern": 5220,
  ".\\u000aHer ": 5221,
  "fting ": 5222,
  "French ": 5223,
  "mist ": 5224,
  "deck": 5225,
  "keeping ": 5226,
  "tired ": 5227,
  "savag": 5228,
  "her. She ": 5229,
  "personal ": 5230,
  "over her ": 5231,
  "e,\\u000a": 5232,
  "promi": 5233,
  "piece of ": 5234,
  "padd": 5235,
  "she would ": 5236,
  "ithout ": 5237,
  "accept ": 5238,
  "what she ": 5239,
  ".\\u000aT": 5240,
  "dem": 5241,
  "surprise": 5242,
  "ort ": 5243,
  "reh": 5244,
  "King ": 5245,
  "fic ": 5246,
  "grip ": 5247,
  "gaz": 5248,
  "vision ": 5249,
  "dazz": 5250,
  "argum": 5251,
  "cted ": 5252,
  "freedom": 5253,
  "ed. She ": 5254,
  "?’ she ": 5255,
  "Ok": 5256,
  "Cassie\\u000a": 5257,
  "ctic ": 5258,
  ".\\u000a\\u000aAfter ": 5259,
  "Pacific": 5260,
  "\\u000a\\u000a                                                ": 5261,
  "Near ": 5262,
  "Mr. Land": 5263,
  "exclaimed.\\u000a\\u000a\"": 5264,
  "let's ": 5265,
  "oyster": 5266,
  "kor": 5267,
  "observed ": 5268,
  "February ": 5269,
  "ed from ": 5270,
  "II\\u000a": 5271,
  "Westen": 5272,
  "Tur": 5273,
  "town ": 5274,
  "ed into the ": 5275,
  "shir": 5276,
  "fashion": 5277,
  "for you": 5278,
  "somewhat ": 5279,
  "understood ": 5280,
  "further": 5281,
  "went\\u000a": 5282,
  "owever, ": 5283,
  "course, ": 5284,
  "”—": 5285,
  ". I must ": 5286,
  "wit": 5287,
  "yard ": 5288,
  "are not ": 5289,
  "here\\u000a": 5290,
  ". As the ": 5291,
  "roll": 5292,
  "expected ": 5293,
  "of them": 5294,
  "hide ": 5295,
  "pac": 5296,
  ", for I ": 5297,
  "few\\u000a": 5298,
  "was to ": 5299,
  "aid ": 5300,
  "stac": 5301,
  "y that ": 5302,
  "knock": 5303,
  "kind of ": 5304,
  "ed:—\\u000a“": 5305,
  "yourself ": 5306,
  ". He is ": 5307,
  "chair ": 5308,
  "ality ": 5309,
  "as you ": 5310,
  "writing ": 5311,
  "aw ": 5312,
  "content ": 5313,
  "so long ": 5314,
  "eter ": 5315,
  ". Even ": 5316,
  "into the\\u000a": 5317,
  "amoun": 5318,
  "hand, ": 5319,
  "evening": 5320,
  "feet, ": 5321,
  "ake ": 5322,
  "chief": 5323,
  "cauti": 5324,
  "firm": 5325,
  "ood, ": 5326,
  "might have ": 5327,
  "it would be ": 5328,
  "abil": 5329,
  "I will ": 5330,
  "ring ": 5331,
  "imagine ": 5332,
  "s\\u000athe ": 5333,
  "dust": 5334,
  "Great ": 5335,
  "pen ": 5336,
  "the sk": 5337,
  "it be ": 5338,
  "lock ": 5339,
  "rate ": 5340,
  "man who ": 5341,
  "minute ": 5342,
  "calm ": 5343,
  "grad": 5344,
  "God, ": 5345,
  ", and in ": 5346,
  "violent ": 5347,
  "One ": 5348,
  "grave ": 5349,
  "Lucy, ": 5350,
  "ince ": 5351,
  "ig ": 5352,
  "!”\\u000a“": 5353,
  "see\\u000a": 5354,
  "I’ve ": 5355,
  "n’t\\u000a": 5356,
  "scatter": 5357,
  "proble": 5358,
  "bat": 5359,
  "experim": 5360,
  "who\\u000a": 5361,
  "nother ": 5362,
  "verything ": 5363,
  "ING": 5364,
  "frequ": 5365,
  "intens": 5366,
  "surface\\u000a": 5367,
  "guid": 5368,
  "aff": 5369,
  "yi": 5370,
  "while the ": 5371,
  ". We have ": 5372,
  "if she ": 5373,
  "Mr. ": 5374,
  "vanish": 5375,
  "solemn": 5376,
  "Are you ": 5377,
  "friend John": 5378,
  "noon ": 5379,
  "ate\\u000a": 5380,
  "trade": 5381,
  "Van\\u000aHelsing ": 5382,
  "that she had ": 5383,
  "tears ": 5384,
  "truth ": 5385,
  "learn": 5386,
  "paragra": 5387,
  "Indian ": 5388,
  "class ": 5389,
  "sperm ": 5390,
  "at this ": 5391,
  "lac": 5392,
  "before he ": 5393,
  "covered with ": 5394,
  "continued to ": 5395,
  "toward the ": 5396,
  "Novem": 5397,
  "transpar": 5398,
  "back of her ": 5399,
  "hit": 5400,
  "ly.\\u000a‘": 5401,
  "spear": 5402,
  "engine": 5403,
  "Hank’s ": 5404,
  ".\\u000a\\u000aThis ": 5405,
  "Abraham Lincoln ": 5406,
  "?\" Conseil ": 5407,
  "aren't ": 5408,
  "Just then ": 5409,
  "--\"\\u000a\\u000a\"": 5410,
  "marvel": 5411,
  "!\" he ": 5412,
  "Ned my friend": 5413,
  ",\" he said ": 5414,
  "s. \"": 5415,
  "ula": 5416,
  "eB": 5417,
  "avail": 5418,
  "accord": 5419,
  "IT": 5420,
  "Y ": 5421,
  "at my ": 5422,
  "Tr": 5423,
  "sort": 5424,
  "move": 5425,
  "river": 5426,
  "stream": 5427,
  "lot of ": 5428,
  "nail": 5429,
  "received ": 5430,
  "know that ": 5431,
  "two\\u000a": 5432,
  "fix ": 5433,
  "simple ": 5434,
  "seat": 5435,
  "from my ": 5436,
  "inn": 5437,
  "drove ": 5438,
  "throw ": 5439,
  "fallen ": 5440,
  "snow": 5441,
  "good\\u000a": 5442,
  ",\\u000a\\u000a\\u000c": 5443,
  "carrying ": 5444,
  "spur": 5445,
  "grim ": 5446,
  "back\\u000a": 5447,
  "disappo": 5448,
  "crossing ": 5449,
  "thrown ": 5450,
  "instead ": 5451,
  "moan": 5452,
  "blank": 5453,
  "faint ": 5454,
  "gloom": 5455,
  "hund": 5456,
  "hundred ": 5457,
  "gain ": 5458,
  "strength": 5459,
  "insi": 5460,
  "all my ": 5461,
  "awkin": 5462,
  "forehead": 5463,
  "ded ": 5464,
  "me, I ": 5465,
  "first\\u000a": 5466,
  "Ah, ": 5467,
  "like to ": 5468,
  "go\\u000a": 5469,
  "went on:—\\u000a“": 5470,
  "estim": 5471,
  "come\\u000a": 5472,
  "that all ": 5473,
  "fact, ": 5474,
  "I, ": 5475,
  "fool": 5476,
  "display": 5477,
  "spark": 5478,
  "previ": 5479,
  "wro": 5480,
  "when": 5481,
  "peace": 5482,
  "arily ": 5483,
  "dozen ": 5484,
  "?”\\u000a": 5485,
  "have no ": 5486,
  "other\\u000a": 5487,
  "still\\u000a": 5488,
  "ance\\u000a": 5489,
  "? I ": 5490,
  "terror": 5491,
  "west ": 5492,
  "possibly ": 5493,
  "last": 5494,
  "etc": 5495,
  "cip": 5496,
  "perfectly ": 5497,
  "led the ": 5498,
  "upon the ": 5499,
  "conscious": 5500,
  "gold ": 5501,
  "less than ": 5502,
  "couple of ": 5503,
  "Mon": 5504,
  "entr": 5505,
  "ess of ": 5506,
  "sister": 5507,
  "prof": 5508,
  "locked ": 5509,
  "rub": 5510,
  "overw": 5511,
  "rum": 5512,
  "secret": 5513,
  "this is ": 5514,
  "s. B": 5515,
  ". Lucy ": 5516,
  "; she ": 5517,
  "Ed": 5518,
  "won’t ": 5519,
  "play ": 5520,
  "it will ": 5521,
  "raw": 5522,
  "al.\\u000a": 5523,
  "I’d ": 5524,
  ". We": 5525,
  "effort ": 5526,
  "water, ": 5527,
  "vern": 5528,
  "height": 5529,
  "curios": 5530,
  "poli": 5531,
  "bin": 5532,
  "Ju": 5533,
  "as her ": 5534,
  "she felt ": 5535,
  "refr": 5536,
  "tiny ": 5537,
  "charge ": 5538,
  "effort": 5539,
  "child ": 5540,
  "telegra": 5541,
  "surprised ": 5542,
  "itely ": 5543,
  "suggest": 5544,
  "aver": 5545,
  "happened": 5546,
  "story": 5547,
  "p, ": 5548,
  "pron": 5549,
  "slamm": 5550,
  "we could ": 5551,
  ". He had ": 5552,
  "encounter ": 5553,
  "bility ": 5554,
  "spas": 5555,
  "rop": 5556,
  "anger ": 5557,
  "stagg": 5558,
  "awk": 5559,
  "Mrs. Harker ": 5560,
  "phosp": 5561,
  "access ": 5562,
  "dle of the ": 5563,
  "valuable ": 5564,
  "shore": 5565,
  "Liter": 5566,
  "thirty ": 5567,
  "scoff": 5568,
  "trigg": 5569,
  "starting to ": 5570,
  "block": 5571,
  "grun": 5572,
  "epat": 5573,
  "waterway": 5574,
  "March ": 5575,
  "cetacean": 5576,
  "kilo": 5577,
  "snail": 5578,
  ". The Nautilus ": 5579,
  "Kemp's ": 5580,
  "Mrs. Hall": 5581,
  ".\\u000a\\u000a\\u000c\"": 5582,
  " OF ": 5583,
  "reading ": 5584,
  "SE": 5585,
  "CHAPTER XX": 5586,
  "AL": 5587,
  "Ger": 5588,
  "sal ": 5589,
  "East ": 5590,
  "ool": 5591,
  "howling ": 5592,
  "I had to ": 5593,
  "sleeping ": 5594,
  "breakfast ": 5595,
  "river ": 5596,
  "posses": 5597,
  "tight ": 5598,
  "important ": 5599,
  "Do you ": 5600,
  "duty ": 5601,
  "usual": 5602,
  "so far ": 5603,
  "wolf ": 5604,
  "ter\\u000a": 5605,
  "respect ": 5606,
  "eping ": 5607,
  "deni": 5608,
  "bless": 5609,
  "flew ": 5610,
  "mountain ": 5611,
  "steam ": 5612,
  "plun": 5613,
  "reply": 5614,
  "lugg": 5615,
  "prodi": 5616,
  "way to ": 5617,
  "unknown ": 5618,
  "placed ": 5619,
  "incid": 5620,
  ".\\u000aAt ": 5621,
  "red\\u000a": 5622,
  "only\\u000a": 5623,
  "him a ": 5624,
  "indeed ": 5625,
  "conclu": 5626,
  "ratt": 5627,
  "gesture": 5628,
  "for a moment ": 5629,
  "absolutely ": 5630,
  ".\\u000aHis ": 5631,
  "extremely ": 5632,
  "dressed ": 5633,
  ". There are ": 5634,
  "fab": 5635,
  "castle ": 5636,
  "thank ": 5637,
  "one who ": 5638,
  "affair": 5639,
  "Of ": 5640,
  "conversation ": 5641,
  "ced": 5642,
  "last night": 5643,
  "treas": 5644,
  "fought ": 5645,
  "anch": 5646,
  "as his ": 5647,
  "necessary ": 5648,
  "to him ": 5649,
  ". It\\u000a": 5650,
  "habit": 5651,
  "Good": 5652,
  "alway": 5653,
  "ready": 5654,
  ". I felt ": 5655,
  "obli": 5656,
  "chin": 5657,
  "icking ": 5658,
  "explor": 5659,
  "all these ": 5660,
  "y is ": 5661,
  ".\\u000aF": 5662,
  "vein": 5663,
  "up his ": 5664,
  "ks ": 5665,
  "beat": 5666,
  "gain": 5667,
  "metho": 5668,
  "third ": 5669,
  "freedom ": 5670,
  "mel": 5671,
  "mere ": 5672,
  "dread ": 5673,
  "future ": 5674,
  "play": 5675,
  "girl ": 5676,
  "skin ": 5677,
  "invol": 5678,
  "most\\u000a": 5679,
  "pass ": 5680,
  "fy ": 5681,
  "hurri": 5682,
  "eti": 5683,
  "morning, ": 5684,
  "beyond the ": 5685,
  "outside": 5686,
  "instin": 5687,
  "overwhelm": 5688,
  "gives ": 5689,
  "says ": 5690,
  "oh, ": 5691,
  "physical ": 5692,
  "for him": 5693,
  "walking ": 5694,
  "storm": 5695,
  "wreck": 5696,
  "tast": 5697,
  "ore ": 5698,
  "strain": 5699,
  "sion, ": 5700,
  "to its ": 5701,
  "impati": 5702,
  "rout": 5703,
  "job": 5704,
  ", because ": 5705,
  "a moment ": 5706,
  "wrist ": 5707,
  "setting ": 5708,
  "weak ": 5709,
  "forth": 5710,
  "infin": 5711,
  "dropped ": 5712,
  "decided to ": 5713,
  "scrat": 5714,
  "distr": 5715,
  "’\\u000a\\u000a\\u000c": 5716,
  "told me": 5717,
  "DI": 5718,
  "made of ": 5719,
  ", his ": 5720,
  "pt": 5721,
  "tomorrow": 5722,
  "represent": 5723,
  "Pic": 5724,
  "cadi": 5725,
  "wondered ": 5726,
  "ras": 5727,
  "Madam Mina ": 5728,
  ". Do": 5729,
  "groan": 5730,
  "sailor": 5731,
  "numerous ": 5732,
  "individual ": 5733,
  "noted ": 5734,
  "climbed ": 5735,
  "glim": 5736,
  "scar ": 5737,
  "killed ": 5738,
  "Yet ": 5739,
  "hunting ": 5740,
  "footsteps ": 5741,
  "collap": 5742,
  "away from the ": 5743,
  "phosphor": 5744,
  "track": 5745,
  "eyes\\u000a": 5746,
  "supply ": 5747,
  "leg ": 5748,
  "her lips ": 5749,
  "water\\u000a": 5750,
  "forear": 5751,
  ".\\u000a*\\u000a": 5752,
  "Handler": 5753,
  ". ‘You ": 5754,
  "whim": 5755,
  "oxygen ": 5756,
  "?’ Thomas ": 5757,
  "region": 5758,
  "ric ": 5759,
  "surface": 5760,
  "tentac": 5761,
  "leagues ": 5762,
  "ccord": 5763,
  "\\u000a\\u000a\\u000a\\u000a                                                     ": 5764,
  "Ned, ": 5765,
  "?\" I ask": 5766,
  "?\"\\u000a": 5767,
  "Nautilus\\u000a": 5768,
  "shells, ": 5769,
  "skiff": 5770,
  "He's ": 5771,
  "Kemp, ": 5772,
  "Dracula": 5773,
  "America": 5774,
  "dispo": 5775,
  "exact ": 5776,
  "post ": 5777,
  "fairly ": 5778,
  "guess ": 5779,
  "for this ": 5780,
  "eight": 5781,
  "ants ": 5782,
  "hat": 5783,
  "kind ": 5784,
  "cow": 5785,
  "ed over ": 5786,
  "told": 5787,
  "and\\u000a\\u000a\\u000c": 5788,
  "eri": 5789,
  "at least": 5790,
  "t\\u000aof ": 5791,
  "it was the ": 5792,
  "know\\u000a": 5793,
  "that is ": 5794,
  "made the ": 5795,
  "passeng": 5796,
  "age, ": 5797,
  "hast": 5798,
  "selves": 5799,
  "lef": 5800,
  "peak": 5801,
  "wound ": 5802,
  "ears ": 5803,
  "before\\u000a": 5804,
  "pause ": 5805,
  "excitement ": 5806,
  "level": 5807,
  "eager": 5808,
  "curious ": 5809,
  "shaking ": 5810,
  "nel": 5811,
  "sounded ": 5812,
  "saw a ": 5813,
  "jumped ": 5814,
  "of a\\u000a": 5815,
  "vast ": 5816,
  "solic": 5817,
  "swung ": 5818,
  "vely": 5819,
  "closed the ": 5820,
  "suffici": 5821,
  "ses, ": 5822,
  "finished ": 5823,
  "un ": 5824,
  "aqu": 5825,
  "long and ": 5826,
  "o’clock": 5827,
  "deed": 5828,
  "did you ": 5829,
  "subject": 5830,
  "umph": 5831,
  "with him ": 5832,
  "Carfa": 5833,
  "no doubt ": 5834,
  "priv": 5835,
  "ing my ": 5836,
  "about\\u000a": 5837,
  "ing. I ": 5838,
  "father": 5839,
  "sed the ": 5840,
  "shad": 5841,
  "Have ": 5842,
  "emplo": 5843,
  "them to ": 5844,
  "circumstances ": 5845,
  "Var": 5846,
  "for your ": 5847,
  "ater.—": 5848,
  "tried ": 5849,
  "make a ": 5850,
  "on the floor": 5851,
  "happened ": 5852,
  "lur": 5853,
  "doing": 5854,
  "cket ": 5855,
  "me with ": 5856,
  "Go ": 5857,
  "entire": 5858,
  "unic": 5859,
  ". Se": 5860,
  "1 ": 5861,
  "cular ": 5862,
  "destroy ": 5863,
  "struggle ": 5864,
  "returned to the ": 5865,
  "fill ": 5866,
  "\\u000ain the ": 5867,
  ", where ": 5868,
  "type": 5869,
  "one of those ": 5870,
  ". Oh, ": 5871,
  "atic": 5872,
  "no matter ": 5873,
  "perfect ": 5874,
  "loved ": 5875,
  "to say ": 5876,
  "lack ": 5877,
  "top of ": 5878,
  "lights ": 5879,
  "Dr. Seward’s Diary.\\u000a": 5880,
  "mind, ": 5881,
  "angry ": 5882,
  "anxious ": 5883,
  "as soon ": 5884,
  "weather ": 5885,
  "usually ": 5886,
  "deck ": 5887,
  "alt": 5888,
  "man\\u000a": 5889,
  "inqu": 5890,
  "paid ": 5891,
  "knif": 5892,
  ", this ": 5893,
  "lung": 5894,
  "close": 5895,
  "Sco": 5896,
  "not only ": 5897,
  "surprise ": 5898,
  "depart": 5899,
  "\\u000aa ": 5900,
  "on and ": 5901,
  "aster": 5902,
  "appreci": 5903,
  "way to the ": 5904,
  "twel": 5905,
  "plain": 5906,
  "dru": 5907,
  "ones ": 5908,
  "dete": 5909,
  "If you ": 5910,
  "lift ": 5911,
  "operation": 5912,
  "mark ": 5913,
  "exhausti": 5914,
  "if they ": 5915,
  ". The Professor ": 5916,
  "pronounc": 5917,
  "dee": 5918,
  "heat ": 5919,
  "slum": 5920,
  "her own ": 5921,
  "remov": 5922,
  "ted the ": 5923,
  "closer ": 5924,
  "forehead ": 5925,
  "visit ": 5926,
  "domin": 5927,
  "her face ": 5928,
  "s,\\u000athe ": 5929,
  "phosphores": 5930,
  "exhi": 5931,
  "shop": 5932,
  "suppor": 5933,
  "confin": 5934,
  "aim": 5935,
  "weapon": 5936,
  "sions ": 5937,
  "suppli": 5938,
  "inside the ": 5939,
  "500 ": 5940,
  "copyright ": 5941,
  "Literary ": 5942,
  "Literary Archi": 5943,
  "ve Found": 5944,
  "including ": 5945,
  "uncomfor": 5946,
  "against her ": 5947,
  "pink ": 5948,
  "heel": 5949,
  "pole": 5950,
  "gym ": 5951,
  "yepat": 5952,
  "?’ Cassie ": 5953,
  ": \"": 5954,
  "hull": 5955,
  "per hour": 5956,
  "ed.\\u000a\"": 5957,
  "!\" the Canadian ": 5958,
  "maneu": 5959,
  "thern": 5960,
  "you've ": 5961,
  "I didn't ": 5962,
  "skiff ": 5963,
  "?\" asked ": 5964,
  "zoophyt": 5965,
  "Mr. Marvel ": 5966,
  "Cus": 5967,
  "’S ": 5968,
  ".\\u000aB": 5969,
  "are the ": 5970,
  "it may ": 5971,
  "breakfast": 5972,
  "rush": 5973,
  "beaut": 5974,
  "floo": 5975,
  "coat": 5976,
  "practi": 5977,
  "to-morrow ": 5978,
  "got a ": 5979,
  "asked him ": 5980,
  "ref": 5981,
  "was in ": 5982,
  "asking ": 5983,
  "yes": 5984,
  "business ": 5985,
  "cruci": 5986,
  "trees ": 5987,
  "driver ": 5988,
  ". I could ": 5989,
  "forget ": 5990,
  "load": 5991,
  "e of a ": 5992,
  "covered ": 5993,
  "right\\u000a": 5994,
  "Look": 5995,
  ". This was ": 5996,
  "by, ": 5997,
  "fai": 5998,
  ". There were ": 5999,
  "from our ": 6000,
  "glad": 6001,
  "An ": 6002,
  "tall ": 6003,
  "a great ": 6004,
  "swift": 6005,
  "gleam": 6006,
  "prodigi": 6007,
  "\\u000ain ": 6008,
  "in a few ": 6009,
  "rear": 6010,
  "closer": 6011,
  "helpl": 6012,
  "advent": 6013,
  "patient": 6014,
  "tion of ": 6015,
  "sively ": 6016,
  "leaning ": 6017,
  "eyebrow": 6018,
  "they are ": 6019,
  "bag ": 6020,
  "a sound ": 6021,
  "somehow ": 6022,
  "idea of ": 6023,
  "things that ": 6024,
  "of all ": 6025,
  "he could ": 6026,
  "is it ": 6027,
  "et, ": 6028,
  "dining-": 6029,
  "his own ": 6030,
  "lion ": 6031,
  "Ber": 6032,
  "thousand": 6033,
  "Who ": 6034,
  "s and\\u000a": 6035,
  "s was ": 6036,
  "and un": 6037,
  "sheer ": 6038,
  "brilli": 6039,
  "toler": 6040,
  "nose ": 6041,
  "would have been ": 6042,
  "admit ": 6043,
  "coat ": 6044,
  "felt\\u000a": 6045,
  "fail": 6046,
  "but the ": 6047,
  "fled ": 6048,
  "claw": 6049,
  "open the ": 6050,
  "came back ": 6051,
  "risk": 6052,
  "renew": 6053,
  "the whole ": 6054,
  "ing, but ": 6055,
  "ra ": 6056,
  "tear ": 6057,
  "jaw ": 6058,
  "s so ": 6059,
  "that he had ": 6060,
  "a bit ": 6061,
  "That’s ": 6062,
  "has": 6063,
  "my hand": 6064,
  ". Ar": 6065,
  "Look ": 6066,
  "favour": 6067,
  "bare ": 6068,
  "with him": 6069,
  "number": 6070,
  "not even ": 6071,
  "IL": 6072,
  "Cor": 6073,
  "report": 6074,
  "Ma": 6075,
  "surface\\u000aof the ": 6076,
  "cti": 6077,
  "Before ": 6078,
  "fasten": 6079,
  ". Al": 6080,
  "because the ": 6081,
  "loose ": 6082,
  ". We were ": 6083,
  "length ": 6084,
  "been": 6085,
  "a long ": 6086,
  "endous ": 6087,
  "prevent ": 6088,
  "artic": 6089,
  "Is ": 6090,
  "wolf": 6091,
  "maybe ": 6092,
  "clutch": 6093,
  "aring ": 6094,
  "assa": 6095,
  "Quincey Morri": 6096,
  "rehen": 6097,
  "if we ": 6098,
  "Piccadi": 6099,
  "main": 6100,
  "excitement": 6101,
  "Lat": 6102,
  "enthu": 6103,
  "Un-Dead": 6104,
  "design": 6105,
  "feature": 6106,
  "fal": 6107,
  "months ": 6108,
  "tally ": 6109,
  "caus": 6110,
  "with this ": 6111,
  "man-": 6112,
  "posed ": 6113,
  "uch ": 6114,
  "apu": 6115,
  "flying ": 6116,
  "hanging ": 6117,
  "des ": 6118,
  "familiar": 6119,
  "across her ": 6120,
  "inside her ": 6121,
  "led her ": 6122,
  "lip ": 6123,
  ".\\u000a‘You ": 6124,
  "surface, ": 6125,
  "harpooner ": 6126,
  "'t": 6127,
  "ocean's ": 6128,
  "haven't ": 6129,
  ".\\u000a\\u000aS": 6130,
  "metri": 6131,
  "Commander Farragut ": 6132,
  "professor, ": 6133,
  "You're ": 6134,
  "said. \"": 6135,
  "exclaimed. \"": 6136,
  "there's ": 6137,
  ",\" he said, \"": 6138,
  ",000,000 ": 6139,
  "ast tank": 6140,
  "onto the platform": 6141,
  "Captain Nemo\\u000a": 6142,
  "s.\\u000a\"": 6143,
  "dug": 6144,
  "Ice Bank": 6145,
  "RA": 6146,
  "scri": 6147,
  "United ": 6148,
  "United St": 6149,
  "AT": 6150,
  "IV": 6151,
  "spoken ": 6152,
  "istr": 6153,
  "Vi": 6154,
  "time, and ": 6155,
  "ary\\u000a": 6156,
  "deal": 6157,
  "Bu": 6158,
  "ans, ": 6159,
  "punct": 6160,
  "train": 6161,
  "jack": 6162,
  "them, and ": 6163,
  "means ": 6164,
  "at once, ": 6165,
  "?” I ": 6166,
  "gho": 6167,
  "-by": 6168,
  "passed": 6169,
  "distant ": 6170,
  "er, and ": 6171,
  "over his ": 6172,
  "all\\u000athe ": 6173,
  "s\\u000aof the ": 6174,
  "God’s ": 6175,
  "stem": 6176,
  "red, ": 6177,
  "s which ": 6178,
  "times, ": 6179,
  "tos": 6180,
  "nest": 6181,
  "explan": 6182,
  "at last ": 6183,
  "worse ": 6184,
  "now\\u000a": 6185,
  "us, and ": 6186,
  "rays ": 6187,
  ", my friend": 6188,
  "whispered ": 6189,
  "out his ": 6190,
  "straight": 6191,
  "match": 6192,
  "looked\\u000a": 6193,
  "whist": 6194,
  "afraid": 6195,
  "asleep ": 6196,
  ". Once ": 6197,
  "pulling ": 6198,
  "he took ": 6199,
  "dawn ": 6200,
  "ing in ": 6201,
  "flesh ": 6202,
  "test": 6203,
  "ving\\u000a": 6204,
  "trave": 6205,
  "e, I ": 6206,
  ", though ": 6207,
  "with me ": 6208,
  ". There is ": 6209,
  "notice": 6210,
  "seen": 6211,
  "hidd": 6212,
  "it,\\u000a": 6213,
  "to look ": 6214,
  "Gu": 6215,
  "Harker ": 6216,
  "wall, ": 6217,
  "struct": 6218,
  "heavily ": 6219,
  "up a ": 6220,
  "times": 6221,
  "ore": 6222,
  "! But ": 6223,
  "safe ": 6224,
  "lost": 6225,
  "mistaken": 6226,
  "trick": 6227,
  "piec": 6228,
  "had come ": 6229,
  "story ": 6230,
  "condu": 6231,
  "observation": 6232,
  "port": 6233,
  "do\\u000a": 6234,
  ", and his ": 6235,
  "by his ": 6236,
  "these\\u000a": 6237,
  "to me, ": 6238,
  ". I thought ": 6239,
  "or two ": 6240,
  "love": 6241,
  "purpose": 6242,
  "truth": 6243,
  "anticip": 6244,
  "rage": 6245,
  "zed ": 6246,
  "join": 6247,
  "ghter ": 6248,
  "him. He ": 6249,
  "at any ": 6250,
  ". Well": 6251,
  "he went ": 6252,
  "Get ": 6253,
  "occurr": 6254,
  "clothes": 6255,
  "distance": 6256,
  "to think ": 6257,
  "was no ": 6258,
  "depth ": 6259,
  "filled with ": 6260,
  "empty": 6261,
  "pel": 6262,
  "in a\\u000a": 6263,
  "softly ": 6264,
  ". Un": 6265,
  "e the ": 6266,
  "before, ": 6267,
  "simil": 6268,
  "merely ": 6269,
  "nice ": 6270,
  "guess": 6271,
  "als ": 6272,
  "\\u000a\\u000a\\u000c“": 6273,
  "sea, ": 6274,
  "ers and ": 6275,
  "Sp": 6276,
  "e that ": 6277,
  "ere": 6278,
  "buzz": 6279,
  "thum": 6280,
  "let him ": 6281,
  "attendant ": 6282,
  "absor": 6283,
  "had just ": 6284,
  "out her ": 6285,
  "north ": 6286,
  "sea was ": 6287,
  "cus": 6288,
  "clar": 6289,
  "Ad": 6290,
  "boxes ": 6291,
  "nine ": 6292,
  "lish ": 6293,
  "forgotten ": 6294,
  "left to ": 6295,
  "breathing": 6296,
  "obedi": 6297,
  "such as ": 6298,
  "as much ": 6299,
  "all of ": 6300,
  "attention": 6301,
  "maid": 6302,
  "strike ": 6303,
  "had gone ": 6304,
  "equipment ": 6305,
  "WAR": 6306,
  "crum": 6307,
  "gather ": 6308,
  "reply ": 6309,
  "reached ": 6310,
  "tack": 6311,
  "survi": 6312,
  "alive": 6313,
  "inch": 6314,
  "enthusi": 6315,
  "elbow": 6316,
  "We were ": 6317,
  "Where ": 6318,
  "sink ": 6319,
  "awkward": 6320,
  "extend": 6321,
  "reflect": 6322,
  "bale": 6323,
  "final ": 6324,
  "tightly ": 6325,
  "diver": 6326,
  "situation ": 6327,
  "Project\\u000aGutenberg-t": 6328,
  "Project\\u000aGutenberg-tm ": 6329,
  "Literary Archive Found": 6330,
  "ator ": 6331,
  "ram": 6332,
  "froz": 6333,
  "feet and ": 6334,
  "thigh": 6335,
  "–": 6336,
  ",’ the ": 6337,
  "activ": 6338,
  "…’ ": 6339,
  "indicated ": 6340,
  "stared at the ": 6341,
  "predi": 6342,
  "interi": 6343,
  "length": 6344,
  "dragon ": 6345,
  "Atlantic ": 6346,
  "speed of ": 6347,
  "ccordingly, ": 6348,
  "We're ": 6349,
  "Abraham Lincoln": 6350,
  "asked.\\u000a\\u000a\"": 6351,
  "franc": 6352,
  "1\\u000a\\u000c": 6353,
  "I couldn't ": 6354,
  "o'clock": 6355,
  "Mediterranean ": 6356,
  "genuine ": 6357,
  "Red Sea": 6358,
  "d'U": 6359,
  "d'Ur": 6360,
  "d'Urvill": 6361,
  "Papu": 6362,
  "invisible": 6363,
  "parlour ": 6364,
  ".\"\\u000aHe ": 6365,
  "Adye": 6366,
  "& ": 6367,
  "lish": 6368,
  "8 ": 6369,
  "leaving the ": 6370,
  "ps": 6371,
  "ities": 6372,
  "claim ": 6373,
  ". There was a ": 6374,
  "sty": 6375,
  "stuff": 6376,
  "clum": 6377,
  "ange": 6378,
  "Slov": 6379,
  "long\\u000a": 6380,
  "wanting ": 6381,
  "you and ": 6382,
  "it seemed ": 6383,
  "time\\u000a": 6384,
  "to meet ": 6385,
  "sorrow": 6386,
  "front of ": 6387,
  "—“": 6388,
  "slo": 6389,
  "Ho": 6390,
  "afternoon ": 6391,
  "rever": 6392,
  "glow": 6393,
  "—for ": 6394,
  "go to ": 6395,
  "light\\u000a": 6396,
  "sense of ": 6397,
  "atmospher": 6398,
  "andy ": 6399,
  "tone": 6400,
  "teeth, ": 6401,
  "ive ": 6402,
  "ed to his ": 6403,
  "e\\u000aof ": 6404,
  "sharply ": 6405,
  "rolling ": 6406,
  "worn ": 6407,
  "like that": 6408,
  "now and ": 6409,
  "silent": 6410,
  "host": 6411,
  "nose": 6412,
  "strea": 6413,
  "children ": 6414,
  ". Your ": 6415,
  "chair": 6416,
  "spa": 6417,
  "door open": 6418,
  "rough": 6419,
  "to know ": 6420,
  "went to the ": 6421,
  "room, and ": 6422,
  "perio": 6423,
  "ury": 6424,
  "ety ": 6425,
  "ness of ": 6426,
  ".\\u000aP": 6427,
  "Yor": 6428,
  "that were ": 6429,
  "it, but ": 6430,
  "that I am ": 6431,
  "assur": 6432,
  "that a ": 6433,
  "up my ": 6434,
  "it a ": 6435,
  "pour": 6436,
  "flag": 6437,
  "Ara": 6438,
  "to our ": 6439,
  "accept": 6440,
  "sely": 6441,
  "nal ": 6442,
  "one-": 6443,
  "light, ": 6444,
  ", so I ": 6445,
  "hate ": 6446,
  "God! ": 6447,
  "way\\u000a": 6448,
  "pierc": 6449,
  "how\\u000a": 6450,
  "den ": 6451,
  "ry, ": 6452,
  "dangerous ": 6453,
  "intend": 6454,
  "les of ": 6455,
  "aband": 6456,
  "of\\u000aher ": 6457,
  "fat": 6458,
  "corner of the ": 6459,
  "chance": 6460,
  "sign of ": 6461,
  "prove ": 6462,
  "ed.\\u000a“": 6463,
  "ously, ": 6464,
  "down to the ": 6465,
  "ade ": 6466,
  "better than ": 6467,
  "studi": 6468,
  "for a\\u000a": 6469,
  "twice ": 6470,
  "logical ": 6471,
  "hone": 6472,
  "let us ": 6473,
  "rar": 6474,
  "you’ve ": 6475,
  "green": 6476,
  "breez": 6477,
  "dred": 6478,
  "fishing ": 6479,
  "August.—": 6480,
  "s\\u000athat ": 6481,
  "year ": 6482,
  "spirit": 6483,
  "ori": 6484,
  "settled ": 6485,
  "catching ": 6486,
  "Bur": 6487,
  "moments ": 6488,
  "line": 6489,
  "ont ": 6490,
  "her mind ": 6491,
  "undul": 6492,
  "snat": 6493,
  "ashing ": 6494,
  "realiz": 6495,
  "corp": 6496,
  "where he ": 6497,
  "the captain ": 6498,
  "cabin": 6499,
  "panic ": 6500,
  "hide": 6501,
  "busy ": 6502,
  "deserted ": 6503,
  "hero": 6504,
  "intention": 6505,
  "waves, ": 6506,
  "carried ": 6507,
  "furi": 6508,
  ". Wha": 6509,
  "disting": 6510,
  "distingu": 6511,
  "order to ": 6512,
  "in front of ": 6513,
  "pect ": 6514,
  "expression": 6515,
  "angle ": 6516,
  ". As she ": 6517,
  "patient ": 6518,
  "cally": 6519,
  "he’s ": 6520,
  "poor dear ": 6521,
  "task ": 6522,
  "ourselves ": 6523,
  "us and ": 6524,
  "can do ": 6525,
  "face was ": 6526,
  "smil": 6527,
  "particular": 6528,
  "had to be ": 6529,
  "end of the ": 6530,
  "Madam Mina, ": 6531,
  "true": 6532,
  "a second ": 6533,
  "hunt ": 6534,
  "thrust ": 6535,
  "paragraph ": 6536,
  ". An ": 6537,
  "hard to ": 6538,
  "mass ": 6539,
  "Godalming ": 6540,
  "divid": 6541,
  "inve": 6542,
  ", sir": 6543,
  "quickly": 6544,
  "active ": 6545,
  "energy ": 6546,
  "gripp": 6547,
  "relax": 6548,
  "a shi": 6549,
  "........": 6550,
  "aler": 6551,
  "haul": 6552,
  "ies of ": 6553,
  "Cre": 6554,
  "1.F": 6555,
  "side of her ": 6556,
  "spor": 6557,
  "ceiling ": 6558,
  "stomach": 6559,
  "bucket": 6560,
  "abruptly ": 6561,
  "her.\\u000a‘": 6562,
  ". She could ": 6563,
  "pum": 6564,
  "tremendous ": 6565,
  "medic ": 6566,
  "spectac": 6567,
  "shell ": 6568,
  "Thomas was ": 6569,
  "Tom": 6570,
  "current": 6571,
  "South Po": 6572,
  "he's ": 6573,
  "essence, ": 6574,
  "naturalist": 6575,
  "Dum": 6576,
  "8\\u000a\\u000c": 6577,
  "metric ": 6578,
  "metric ton": 6579,
  "highly ": 6580,
  "baleen ": 6581,
  "master's ": 6582,
  "Atlantic": 6583,
  "kil": 6584,
  "we've ": 6585,
  "dens": 6586,
  "glow ": 6587,
  "spong": 6588,
  "from the genus ": 6589,
  "in the midst of the ": 6590,
  "temperature ": 6591,
  ".\\u000a\"I ": 6592,
  "invisi": 6593,
  ". \"It's ": 6594,
  ".\"\\u000a\\u000a\\u000c": 6595,
  "Lic": 6596,
  ".org": 6597,
  "Westenra": 6598,
  "itz": 6599,
  "Le": 6600,
  "stern ": 6601,
  "ges ": 6602,
  "Br": 6603,
  "east ": 6604,
  "Or": 6605,
  "some of ": 6606,
  "memory ": 6607,
  "through a ": 6608,
  "town": 6609,
  "s. It ": 6610,
  "takes ": 6611,
  "s, and\\u000a": 6612,
  "beginning ": 6613,
  "questions ": 6614,
  ", when ": 6615,
  "evil ": 6616,
  "lady": 6617,
  "e was ": 6618,
  "pleasant ": 6619,
  ". Of ": 6620,
  "touched ": 6621,
  "eling ": 6622,
  "devo": 6623,
  "ech": 6624,
  "strew": 6625,
  "sunset ": 6626,
  "ahead ": 6627,
  "s and a ": 6628,
  "flash ": 6629,
  "pair ": 6630,
  "lik": 6631,
  "as far ": 6632,
  "in the same ": 6633,
  "again and ": 6634,
  "and all ": 6635,
  "startled ": 6636,
  "field ": 6637,
  "with such ": 6638,
  "moonlight ": 6639,
  "painful ": 6640,
  "come, ": 6641,
  "climb": 6642,
  "remarkable ": 6643,
  "way of ": 6644,
  "seat ": 6645,
  "on which ": 6646,
  "door, and ": 6647,
  "ger": 6648,
  "ll of ": 6649,
  "showed ": 6650,
  "knees ": 6651,
  "afternoon": 6652,
  "enjoy": 6653,
  "fee ": 6654,
  ".” I ": 6655,
  ", and so ": 6656,
  "ton ": 6657,
  "none of ": 6658,
  "y, the ": 6659,
  "ed, and the ": 6660,
  "eyes and ": 6661,
  "triumph": 6662,
  "appear ": 6663,
  "apo": 6664,
  "that\\u000athe ": 6665,
  "requi": 6666,
  "please ": 6667,
  "ring": 6668,
  "eter": 6669,
  "uneas": 6670,
  "must not ": 6671,
  "hung ": 6672,
  "startl": 6673,
  "which is ": 6674,
  "s; and ": 6675,
  "afterward": 6676,
  "es, the ": 6677,
  "laughter": 6678,
  "st of ": 6679,
  "business": 6680,
  "perhaps, ": 6681,
  "envelop": 6682,
  "respect": 6683,
  "out and ": 6684,
  "me; ": 6685,
  "window and ": 6686,
  "feel the ": 6687,
  "ation of the ": 6688,
  "nerves ": 6689,
  "s of their ": 6690,
  "mad ": 6691,
  "footstep": 6692,
  "bitter ": 6693,
  "ed\\u000aher ": 6694,
  ". With a ": 6695,
  "arou": 6696,
  "chance to ": 6697,
  "Jun": 6698,
  "es; ": 6699,
  ", since ": 6700,
  "path ": 6701,
  "drive ": 6702,
  "may\\u000a": 6703,
  "evidence ": 6704,
  "hypnoti": 6705,
  "ond": 6706,
  "gathered ": 6707,
  "fer ": 6708,
  "pity ": 6709,
  "mine": 6710,
  "filled ": 6711,
  "with all ": 6712,
  "remain ": 6713,
  ",—\\u000a“": 6714,
  "with you": 6715,
  "sque": 6716,
  "o’clock ": 6717,
  "to tell ": 6718,
  "truly ": 6719,
  "heard him ": 6720,
  " ‘": 6721,
  "driving ": 6722,
  "all this ": 6723,
  "riv": 6724,
  "or a ": 6725,
  "upset ": 6726,
  "into\\u000athe ": 6727,
  "there be ": 6728,
  "swear ": 6729,
  "a big ": 6730,
  "gran": 6731,
  "half a ": 6732,
  "the sou": 6733,
  "but not ": 6734,
  "succ": 6735,
  "either": 6736,
  "Renfield ": 6737,
  "for a few ": 6738,
  "s, so ": 6739,
  "food": 6740,
  "res ": 6741,
  "branch ": 6742,
  "Jonathan, ": 6743,
  "finding ": 6744,
  "dec": 6745,
  "gently ": 6746,
  "convul": 6747,
  "fog": 6748,
  "Bo": 6749,
  "compla": 6750,
  "k of ": 6751,
  "ater ": 6752,
  "Ch": 6753,
  "knife ": 6754,
  "finger ": 6755,
  "much\\u000a": 6756,
  "contr": 6757,
  "me,\\u000a": 6758,
  "bout ": 6759,
  "ky ": 6760,
  "next day, ": 6761,
  "stir": 6762,
  "tively ": 6763,
  "vigor": 6764,
  "Right": 6765,
  "how much ": 6766,
  "! What ": 6767,
  "wand": 6768,
  "spraw": 6769,
  "shutter": 6770,
  "in such ": 6771,
  "breaking ": 6772,
  "frustr": 6773,
  ". Their ": 6774,
  "shoulders ": 6775,
  "Very ": 6776,
  "cand": 6777,
  "by her ": 6778,
  "Lord Godalming ": 6779,
  "Lord": 6780,
  ", what ": 6781,
  "pace ": 6782,
  "belief": 6783,
  "smiled ": 6784,
  "willing to ": 6785,
  "reck": 6786,
  ". Besides, ": 6787,
  "just a ": 6788,
  "Even ": 6789,
  "releas": 6790,
  "gla": 6791,
  "pressing ": 6792,
  "sen ": 6793,
  "inted ": 6794,
  "pical ": 6795,
  "produ": 6796,
  "changed ": 6797,
  "ickn": 6798,
  "dragged ": 6799,
  "offer": 6800,
  "ed and she ": 6801,
  "grunt": 6802,
  "shrugg": 6803,
  "stomach ": 6804,
  "sniff": 6805,
  "shu": 6806,
  "reapp": 6807,
  "Okay": 6808,
  "?’ He ": 6809,
  ". Hank ": 6810,
  "govern": 6811,
  "under the water": 6812,
  "Antar": 6813,
  "favor": 6814,
  ".\\u000a\\u000aIn ": 6815,
  "dimen": 6816,
  ".\\u000a\\u000aOn ": 6817,
  ",\\u000aor ": 6818,
  "species ": 6819,
  ".\\u000a\\u000a\\u000a\\u000a                                                    ": 6820,
  "frigate": 6821,
  "kilome": 6822,
  "kilogram": 6823,
  "thernmost ": 6824,
  ".\\u000a\\u000aBy ": 6825,
  "little by ": 6826,
  "\\u000a\\u000a\\u000a                                                    ": 6827,
  "3\\u000a\\u000c": 6828,
  "Meanwhile ": 6829,
  ".\"\\u000a\\u000aThe ": 6830,
  "chief officer ": 6831,
  ".\\u000aIts ": 6832,
  "pressure gau": 6833,
  ". \"I ": 6834,
  "I'm not ": 6835,
  "excur": 6836,
  "fins ": 6837,
  "seafloor ": 6838,
  "another moment ": 6839,
  "ram ": 6840,
  "attempt ": 6841,
  "ate the ": 6842,
  "phon": 6843,
  "ing\\u000ato ": 6844,
  "reser": 6845,
  "3 ": 6846,
  "street": 6847,
  "Trans": 6848,
  "well-": 6849,
  "found the ": 6850,
  "before we ": 6851,
  "got to ": 6852,
  "ual": 6853,
  "4 ": 6854,
  "dinner ": 6855,
  "outside the ": 6856,
  "ver, ": 6857,
  ". Before ": 6858,
  "crown": 6859,
  "mighty ": 6860,
  "rock ": 6861,
  "less\\u000a": 6862,
  "by\\u000athe ": 6863,
  "ite\\u000a": 6864,
  "seem to ": 6865,
  "essly ": 6866,
  "ourag": 6867,
  "like a\\u000a": 6868,
  "kindly ": 6869,
  "hot": 6870,
  "thunder": 6871,
  "beard": 6872,
  "vor": 6873,
  "looked up ": 6874,
  "had no ": 6875,
  "and-": 6876,
  "s, he ": 6877,
  "narrow": 6878,
  "places ": 6879,
  "check": 6880,
  "ground, ": 6881,
  "scream ": 6882,
  "limb": 6883,
  ".\\u000aFor ": 6884,
  "compas": 6885,
  "disappeared ": 6886,
  ". Come ": 6887,
  "ed in a ": 6888,
  "bush": 6889,
  "s, whose ": 6890,
  "firm ": 6891,
  "pall": 6892,
  "broad": 6893,
  "feeling": 6894,
  "ke of ": 6895,
  "found a ": 6896,
  "service ": 6897,
  "life and ": 6898,
  "share ": 6899,
  "ed. “": 6900,
  "has not ": 6901,
  "the bloo": 6902,
  "destru": 6903,
  "even the ": 6904,
  "for my ": 6905,
  "came in ": 6906,
  "lap": 6907,
  "after\\u000a": 6908,
  "in every ": 6909,
  "wrote ": 6910,
  "anno": 6911,
  "tree ": 6912,
  "describe ": 6913,
  "trying ": 6914,
  "find": 6915,
  "tang": 6916,
  ". To-": 6917,
  "ful, ": 6918,
  ".\\u000aM": 6919,
  "his hands ": 6920,
  "pool ": 6921,
  "dying ": 6922,
  "those\\u000a": 6923,
  "reached the ": 6924,
  "for our ": 6925,
  "recor": 6926,
  "only one ": 6927,
  "?” I ask": 6928,
  "protect ": 6929,
  "it was\\u000a": 6930,
  "; but I ": 6931,
  "creature ": 6932,
  "awful ": 6933,
  "s to the ": 6934,
  "consequ": 6935,
  "cure": 6936,
  "es\\u000aof ": 6937,
  "oft ": 6938,
  ": the ": 6939,
  "s!\\u000a": 6940,
  "replac": 6941,
  "came into ": 6942,
  "stin": 6943,
  "to-night ": 6944,
  "right to ": 6945,
  "it\\u000awas ": 6946,
  "a bit": 6947,
  "conscious ": 6948,
  "anger": 6949,
  "took\\u000a": 6950,
  "to us": 6951,
  "provide ": 6952,
  "becoming ": 6953,
  "she saw ": 6954,
  "ated, ": 6955,
  "what had ": 6956,
  "threaten": 6957,
  "nobody ": 6958,
  "weapon ": 6959,
  "who have ": 6960,
  "cause, ": 6961,
  "tes": 6962,
  "stig": 6963,
  "lid ": 6964,
  ".\\u000aNow ": 6965,
  "squeez": 6966,
  "lines ": 6967,
  "Tell ": 6968,
  "mamm": 6969,
  "nervous ": 6970,
  "best": 6971,
  "isn’t ": 6972,
  "——": 6973,
  "serious ": 6974,
  ". It’s ": 6975,
  "any other ": 6976,
  ". Don": 6977,
  "influ": 6978,
  "deed, ": 6979,
  "ye ": 6980,
  "ier": 6981,
  "Apri": 6982,
  "; or ": 6983,
  "Gulf of ": 6984,
  "50": 6985,
  ",” he said": 6986,
  "vation ": 6987,
  "develop": 6988,
  "attrac": 6989,
  "told the ": 6990,
  "belief ": 6991,
  "Mrs. W": 6992,
  "Mrs. Westen": 6993,
  "Another ": 6994,
  "wrink": 6995,
  "he saw ": 6996,
  "raised his ": 6997,
  "known": 6998,
  "trembling ": 6999,
  "without\\u000a": 7000,
  "group ": 7001,
  "had been\\u000a": 7002,
  "special ": 7003,
  "reliev": 7004,
  "gha": 7005,
  "work is ": 7006,
  "funer": 7007,
  "buri": 7008,
  "ing at ": 7009,
  "off, ": 7010,
  "brist": 7011,
  "take\\u000a": 7012,
  "clothes ": 7013,
  "and more ": 7014,
  "succeed": 7015,
  "se,\\u000a": 7016,
  "at our ": 7017,
  "restor": 7018,
  "ray ": 7019,
  "thought of ": 7020,
  "wrong ": 7021,
  "never\\u000a": 7022,
  "lease ": 7023,
  "moon ": 7024,
  "ce\\u000a": 7025,
  ", but it ": 7026,
  "y,\\u000a": 7027,
  "er of the ": 7028,
  "sion of ": 7029,
  "ed the\\u000a": 7030,
  "counter": 7031,
  "Ah": 7032,
  "tranqu": 7033,
  "dark\\u000a": 7034,
  "blind ": 7035,
  "that so ": 7036,
  "flowers ": 7037,
  "drop ": 7038,
  "had\\u000abeen ": 7039,
  "eal": 7040,
  "chuck": 7041,
  "s. ‘": 7042,
  "carpet": 7043,
  "Sure": 7044,
  "cylin": 7045,
  "ting\\u000a": 7046,
  "gur": 7047,
  "was now ": 7048,
  "ing this ": 7049,
  "work of ": 7050,
  "took her ": 7051,
  "brow ": 7052,
  "back to her ": 7053,
  "interrupted ": 7054,
  "permission ": 7055,
  "charac": 7056,
  "Hor": 7057,
  "missed ": 7058,
  "and her ": 7059,
  "rare ": 7060,
  "dish ": 7061,
  "wast": 7062,
  "as long ": 7063,
  "companion ": 7064,
  "breathe ": 7065,
  "sour": 7066,
  "central ": 7067,
  "instantly ": 7068,
  "engin": 7069,
  "maj": 7070,
  "yellow": 7071,
  " October.—": 7072,
  "track ": 7073,
  "Mal": 7074,
  "exe": 7075,
  "author": 7076,
  "resem": 7077,
  "her hands ": 7078,
  "blinked ": 7079,
  "organ": 7080,
  "village ": 7081,
  "Gal": 7082,
  "nati": 7083,
  "1.F.": 7084,
  "maxim": 7085,
  "\\u000a\\u000aThe ": 7086,
  "ating\\u000a": 7087,
  "situation": 7088,
  "jol": 7089,
  "trigger": 7090,
  "onto her ": 7091,
  "into its ": 7092,
  "felt the ": 7093,
  "skir": 7094,
  ".’\\u000aShe ": 7095,
  "guy ": 7096,
  "heading ": 7097,
  "?’ She ": 7098,
  "Eyepat": 7099,
  "Yea": 7100,
  "indicat": 7101,
  "shoo": 7102,
  "dragon": 7103,
  "group": 7104,
  "Mediterranean": 7105,
  "Suez": 7106,
  "Antarctic ": 7107,
  "polar ": 7108,
  "'\\u000a": 7109,
  "hull ": 7110,
  "300 ": 7111,
  "s.\\u000a\\u000aThe ": 7112,
  "strata ": 7113,
  "coast of ": 7114,
  "?\" he ": 7115,
  "seren": 7116,
  "in other words, ": 7117,
  "put in": 7118,
  "longboat": 7119,
  ".\\u000a\\u000aNear ": 7120,
  "o'clock in the morning": 7121,
  "?\" I asked.\\u000a\\u000a\"": 7122,
  "vege": 7123,
  ".\\u000a\\u000aCaptain Nemo ": 7124,
  ".\\u000aCaptain Nemo ": 7125,
  "copper ": 7126,
  "centi": 7127,
  "Vani": 7128,
  "Dumont ": 7129,
  "Dumont d'Urvill": 7130,
  "surface of the waves": 7131,
  "riffin": 7132,
  "IS ": 7133,
  "htt": 7134,
  "http": 7135,
  "http:": 7136,
  "http:/": 7137,
  "http://": 7138,
  "NE": 7139,
  "IN ": 7140,
  "Mur": 7141,
  "22": 7142,
  "istritz": 7143,
  "est and ": 7144,
  ", which is ": 7145,
  "midst ": 7146,
  "ian ": 7147,
  "popul": 7148,
  "it. I ": 7149,
  "force": 7150,
  "flutter": 7151,
  ". On the ": 7152,
  "side of ": 7153,
  "Pas": 7154,
  "I had no ": 7155,
  "night, ": 7156,
  "evident ": 7157,
  ". Fin": 7158,
  "raise ": 7159,
  "anked ": 7160,
  "put the ": 7161,
  "many\\u000a": 7162,
  "quietly ": 7163,
  "for me, ": 7164,
  "sing\\u000a": 7165,
  "steep": 7166,
  "endless ": 7167,
  "delic": 7168,
  "qual": 7169,
  ", and the\\u000a": 7170,
  "culi": 7171,
  "slowly": 7172,
  ". Then the ": 7173,
  " of ": 7174,
  "disappoint": 7175,
  "driven ": 7176,
  "smile": 7177,
  "z ": 7178,
  "accustom": 7179,
  "ess\\u000a": 7180,
  "aly": 7181,
  "his voice ": 7182,
  "aside ": 7183,
  "windows ": 7184,
  "hand\\u000a": 7185,
  "penet": 7186,
  "behind": 7187,
  "welcome ": 7188,
  "ed to see ": 7189,
  "making a ": 7190,
  "wave ": 7191,
  "plea": 7192,
  "already": 7193,
  "fusion": 7194,
  "dawn": 7195,
  "tired": 7196,
  "them in ": 7197,
  ", its ": 7198,
  ".\\u000aYou ": 7199,
  "conversation": 7200,
  "Why, ": 7201,
  "arti": 7202,
  "last, ": 7203,
  "sid": 7204,
  "ts of the ": 7205,
  "young": 7206,
  "heart, ": 7207,
  "himself, ": 7208,
  "miss ": 7209,
  "saw\\u000a": 7210,
  "blaz": 7211,
  "am I ": 7212,
  "; that ": 7213,
  "memories ": 7214,
  "sympath": 7215,
  "ia ": 7216,
  "occupi": 7217,
  "have": 7218,
  "as well as ": 7219,
  "bow ": 7220,
  "will not ": 7221,
  "careful ": 7222,
  "my dear ": 7223,
  "Sh": 7224,
  "gru": 7225,
  "clung ": 7226,
  "crack": 7227,
  "dust ": 7228,
  "reduc": 7229,
  "es. The ": 7230,
  "like an ": 7231,
  "itive ": 7232,
  "at that ": 7233,
  "draw ": 7234,
  "horror ": 7235,
  "es to ": 7236,
  "secret ": 7237,
  "did\\u000a": 7238,
  "him in ": 7239,
  "new\\u000a": 7240,
  "gradually ": 7241,
  "ed herself ": 7242,
  "metall": 7243,
  "can I ": 7244,
  "agit": 7245,
  "slid ": 7246,
  "ents, ": 7247,
  "find the ": 7248,
  "passage ": 7249,
  "only the ": 7250,
  "it! ": 7251,
  "ripp": 7252,
  "a new ": 7253,
  "back of the ": 7254,
  "push ": 7255,
  "I want ": 7256,
  "school": 7257,
  "ild ": 7258,
  "journ": 7259,
  "es, but ": 7260,
  "ever\\u000a": 7261,
  "respond": 7262,
  "olm": 7263,
  "has a ": 7264,
  "lunatic": 7265,
  "at all ": 7266,
  ", even ": 7267,
  "bread": 7268,
  "ittle ": 7269,
  "kissed ": 7270,
  "it will be ": 7271,
  ". Arth": 7272,
  "sea\\u000a": 7273,
  "relati": 7274,
  "change": 7275,
  "gres": 7276,
  "Had ": 7277,
  "she is ": 7278,
  "6 ": 7279,
  "giant ": 7280,
  "storm ": 7281,
  "day\\u000a": 7282,
  "sky ": 7283,
  "shore ": 7284,
  "distinct": 7285,
  "paused ": 7286,
  "men\\u000a": 7287,
  "inner ": 7288,
  "removed ": 7289,
  "re\\u000a": 7290,
  "torn ": 7291,
  "that day ": 7292,
  "North ": 7293,
  "ghastly ": 7294,
  "kni": 7295,
  ". But I ": 7296,
  "s, and I ": 7297,
  "said to ": 7298,
  "Ter": 7299,
  "wrapped ": 7300,
  "as, ": 7301,
  "door\\u000a": 7302,
  "had the ": 7303,
  "remind": 7304,
  "beast ": 7305,
  "much, ": 7306,
  "felt a ": 7307,
  ", but he ": 7308,
  "with no ": 7309,
  " September": 7310,
  ". Perhaps ": 7311,
  "twelve ": 7312,
  "acted ": 7313,
  "vir": 7314,
  "mut": 7315,
  "you were ": 7316,
  "I know": 7317,
  "with the\\u000a": 7318,
  "fath": 7319,
  "ism": 7320,
  "Professor’s ": 7321,
  "recogn": 7322,
  "live": 7323,
  "resently ": 7324,
  "saying": 7325,
  "appearance ": 7326,
  "amid ": 7327,
  "s. We ": 7328,
  "treatment ": 7329,
  ". I’": 7330,
  "Cer": 7331,
  "quarter ": 7332,
  "shop ": 7333,
  "on the floor ": 7334,
  "frightful ": 7335,
  "limbs ": 7336,
  "defe": 7337,
  "gave her ": 7338,
  "Can ": 7339,
  "out of her ": 7340,
  "Harker’s Journal.\\u000a": 7341,
  "game ": 7342,
  "l of ": 7343,
  "stum": 7344,
  "did the ": 7345,
  "shape ": 7346,
  "yield": 7347,
  "hence ": 7348,
  "ies": 7349,
  "sugge": 7350,
  "emotion ": 7351,
  "exhib": 7352,
  "loud": 7353,
  "hands and ": 7354,
  "while she ": 7355,
  "money": 7356,
  "le-": 7357,
  "identi": 7358,
  "Galat": 7359,
  "voyage ": 7360,
  "eleven ": 7361,
  "ed of ": 7362,
  "associ": 7363,
  "terms of this ": 7364,
  "net": 7365,
  "vom": 7366,
  "her fingers ": 7367,
  "gasp": 7368,
  ". She’d ": 7369,
  "dor": 7370,
  "to the floor": 7371,
  "gaze ": 7372,
  "over a ": 7373,
  "cage and ": 7374,
  ".’ Her ": 7375,
  "family": 7376,
  ". ‘I ": 7377,
  "paw": 7378,
  "wash": 7379,
  "today": 7380,
  "’\\u000a\\u000a\\u000c‘": 7381,
  "Complex": 7382,
  "rib": 7383,
  "grunted ": 7384,
  "Cassie, ": 7385,
  "sible": 7386,
  "observe ": 7387,
  "grade": 7388,
  "les\\u000a": 7389,
  "batter": 7390,
  "4\\u000a\\u000c": 7391,
  "5\\u000a\\u000c": 7392,
  ".\\u000a\\u000aFor ": 7393,
  "mariner": 7394,
  "phosphorescent ": 7395,
  "meridi": 7396,
  "smash": 7397,
  ",\\u000a\\u000a\\u000a\\u000a                                                   ": 7398,
  "farther ": 7399,
  ".\\u000a\\u000aSo ": 7400,
  "miles per hour": 7401,
  ". Conseil ": 7402,
  ",\" Conseil replied, \"": 7403,
  "Ned Land's ": 7404,
  ".\\u000a\"The ": 7405,
  "here's ": 7406,
  "you'd ": 7407,
  "Canadian's ": 7408,
  "6\\u000a\\u000c": 7409,
  "uniqu": 7410,
  "coral": 7411,
  "the Nautilus's ": 7412,
  "ballast tank": 7413,
  "a P": 7414,
  "Vanikor": 7415,
  "crab": 7416,
  "Griffin": 7417,
  "use of ": 7418,
  "Author": 7419,
  "UT": 7420,
  "ext": 7421,
  "HAR": 7422,
  "HARK": 7423,
  "HARKER": 7424,
  "indeed, ": 7425,
  "Transy": 7426,
  "Transyl": 7427,
  "Transylvani": 7428,
  "Bistritz": 7429,
  "s\\u000ain the ": 7430,
  "s of the\\u000a": 7431,
  "Sz": 7432,
  "were the ": 7433,
  "carriage ": 7434,
  "water, and ": 7435,
  "tures": 7436,
  "Slovak": 7437,
  "wife ": 7438,
  "any one ": 7439,
  "will have ": 7440,
  "distres": 7441,
  "ingly": 7442,
  "pok": 7443,
  "ampi": 7444,
  "mass of ": 7445,
  "eign ": 7446,
  "purple ": 7447,
  "shining ": 7448,
  "vall": 7449,
  "peculi": 7450,
  "earli": 7451,
  "relief ": 7452,
  "edge of the ": 7453,
  "peered ": 7454,
  "for he ": 7455,
  "underne": 7456,
  "undernea": 7457,
  "delay": 7458,
  "over the\\u000a": 7459,
  "soo": 7460,
  "jump": 7461,
  "snow ": 7462,
  "without a ": 7463,
  "illum": 7464,
  "took it ": 7465,
  "through the\\u000a": 7466,
  ".\\u000aAll ": 7467,
  "cann": 7468,
  "prodigious ": 7469,
  "mine ": 7470,
  "purchase ": 7471,
  "ation was ": 7472,
  ", and to ": 7473,
  "burn": 7474,
  "!” He ": 7475,
  ",\\u000aand I ": 7476,
  "hollow ": 7477,
  "instruction": 7478,
  "with some ": 7479,
  "smoke ": 7480,
  "nostri": 7481,
  "pale": 7482,
  "broad ": 7483,
  "nau": 7484,
  "conce": 7485,
  "shall\\u000a": 7486,
  "meal": 7487,
  "newspa": 7488,
  "newspaper": 7489,
  "hours of ": 7490,
  "stranger": 7491,
  "s\\u000aare ": 7492,
  "inv": 7493,
  "take the ": 7494,
  "law ": 7495,
  "eaten ": 7496,
  "there is a ": 7497,
  "think that ": 7498,
  "breathe": 7499,
  "tted ": 7500,
  ". Suddenly ": 7501,
  "did so ": 7502,
  "with it": 7503,
  "drink": 7504,
  "ing in the ": 7505,
  "whenever ": 7506,
  "lon": 7507,
  "fate ": 7508,
  "ere, ": 7509,
  "for, ": 7510,
  "it? ": 7511,
  "shadow ": 7512,
  "thus ": 7513,
  "s to be ": 7514,
  "mak": 7515,
  "illing": 7516,
  "bath": 7517,
  "hole ": 7518,
  "top of the ": 7519,
  "south ": 7520,
  "roo": 7521,
  "ill-": 7522,
  "warning ": 7523,
  "to return ": 7524,
  "burning ": 7525,
  "ling\\u000a": 7526,
  "delightful ": 7527,
  "eyeli": 7528,
  "ender ": 7529,
  "others, ": 7530,
  ". There was no ": 7531,
  "me, and I ": 7532,
  "arrive ": 7533,
  "ed it": 7534,
  "pose ": 7535,
  "in hand": 7536,
  "hall, ": 7537,
  "muffled ": 7538,
  "ed in my ": 7539,
  "metallic ": 7540,
  "courage ": 7541,
  "fifty ": 7542,
  "look of ": 7543,
  "patch": 7544,
  "bolt": 7545,
  "simpl": 7546,
  "lifting ": 7547,
  "away the ": 7548,
  "voices ": 7549,
  "build ": 7550,
  "to-day ": 7551,
  "poor\\u000a": 7552,
  "only to ": 7553,
  "ures": 7554,
  "together, ": 7555,
  "instead": 7556,
  "selfish": 7557,
  "UR": 7558,
  ". This is ": 7559,
  "ett": 7560,
  "harb": 7561,
  "days": 7562,
  "argu": 7563,
  "agreement ": 7564,
  "in her\\u000a": 7565,
  "heads ": 7566,
  "going": 7567,
  "cliff": 7568,
  "Re": 7569,
  ". Tha": 7570,
  "where she ": 7571,
  "astonishment": 7572,
  "already\\u000a": 7573,
  "sne": 7574,
  "scop": 7575,
  "how many ": 7576,
  ". Po": 7577,
  "is to be ": 7578,
  "week ": 7579,
  "horizon ": 7580,
  "pper": 7581,
  ", not ": 7582,
  "Rus": 7583,
  "ST": 7584,
  "was un": 7585,
  "sail ": 7586,
  "beat ": 7587,
  "wet ": 7588,
  "reve": 7589,
  "rushing ": 7590,
  "shore, ": 7591,
  "shifted ": 7592,
  "ile ": 7593,
  "focus ": 7594,
  "arrival ": 7595,
  "talked ": 7596,
  "possibil": 7597,
  "greatest ": 7598,
  "unte": 7599,
  "rai": 7600,
  "captain, ": 7601,
  "s have ": 7602,
  "icked ": 7603,
  "Thank ": 7604,
  "face and ": 7605,
  "sight of ": 7606,
  "expect ": 7607,
  "as possible": 7608,
  "difference ": 7609,
  "once": 7610,
  "Jo": 7611,
  "desir": 7612,
  "aster ": 7613,
  "which we ": 7614,
  "made no ": 7615,
  "distribu": 7616,
  "knew that ": 7617,
  "shin": 7618,
  "particular ": 7619,
  "we should ": 7620,
  "in\\u000aher ": 7621,
  "riend ": 7622,
  "obje": 7623,
  ". It was\\u000a": 7624,
  "gave a ": 7625,
  "felt her ": 7626,
  "appli": 7627,
  "assum": 7628,
  "purpose ": 7629,
  "average ": 7630,
  "chun": 7631,
  "bbing ": 7632,
  "exclu": 7633,
  "watched ": 7634,
  "in his hand": 7635,
  "properly ": 7636,
  "two men ": 7637,
  "men were ": 7638,
  "buried ": 7639,
  "ism ": 7640,
  "aside": 7641,
  "tit": 7642,
  "laughed ": 7643,
  "tomb ": 7644,
  "finish ": 7645,
  "eath": 7646,
  "bum": 7647,
  "fying ": 7648,
  "is that ": 7649,
  "impossible to ": 7650,
  "ated the ": 7651,
  "ulti": 7652,
  "grimac": 7653,
  "mach": 7654,
  "swallow": 7655,
  "lav": 7656,
  "sunrise ": 7657,
  "guil": 7658,
  "collection": 7659,
  "phr": 7660,
  "phrase ": 7661,
  "ic\\u000a": 7662,
  "area ": 7663,
  "s;\\u000a": 7664,
  "dry": 7665,
  ",\\u000athat ": 7666,
  "armed ": 7667,
  "ull": 7668,
  "strip": 7669,
  "corridor": 7670,
  "Sea ": 7671,
  "Czar": 7672,
  "Cather": 7673,
  "wip": 7674,
  "cough": 7675,
  "stun": 7676,
  "Man": 7677,
  "perish": 7678,
  "vibr": 7679,
  "the snow ": 7680,
  "liter": 7681,
  "gyp": 7682,
  "articul": 7683,
  "* ": 7684,
  "domain ": 7685,
  "Project Gutenberg-tm\\u000a": 7686,
  "refun": 7687,
  "ers of ": 7688,
  "maximum ": 7689,
  ". Shit": 7690,
  "while\\u000a": 7691,
  "sica": 7692,
  "spasm": 7693,
  "reappear": 7694,
  ". Her Handler ": 7695,
  ",’ she said ": 7696,
  "April ": 7697,
  "glimmer": 7698,
  "Nothing ": 7699,
  "on the platform": 7700,
  "Island ": 7701,
  "\\u000a\\u000a\\u000a\\u000a\\u000a": 7702,
  "scientific ": 7703,
  "Pacific ": 7704,
  "eddy ": 7705,
  "New Yor": 7706,
  "armed with ": 7707,
  "muse": 7708,
  "species of ": 7709,
  "ed on board": 7710,
  ",\" I replied. \"": 7711,
  "pilo": 7712,
  "sheet-": 7713,
  "surface of the ocean": 7714,
  "There's ": 7715,
  "Let's ": 7716,
  "!\" said the ": 7717,
  "Conseil's ": 7718,
  "They're ": 7719,
  ". \"You ": 7720,
  ".\\u000a\"But ": 7721,
  "Captain Nemo, ": 7722,
  "?\" the Canadian ": 7723,
  "Canadian, ": 7724,
  "jelly": 7725,
  "centigrade": 7726,
  "Mr. Bunt": 7727,
  ",\" said the Voice": 7728,
  ",\" said Mr. Marvel": 7729,
  ". Kemp ": 7730,
  "License ": 7731,
  "note": 7732,
  "LA": 7733,
  "ub": 7734,
  "United Stat": 7735,
  "LI": 7736,
  "noble ": 7737,
  ",” and ": 7738,
  "portion": 7739,
  "as yet ": 7740,
  "descend": 7741,
  ". Sometimes ": 7742,
  "s; but ": 7743,
  "waist": 7744,
  "sleev": 7745,
  "old\\u000a": 7746,
  ", I am ": 7747,
  "asser": 7748,
  "existence": 7749,
  "Harker": 7750,
  "messa": 7751,
  "t-": 7752,
  "secur": 7753,
  "the best ": 7754,
  "hyster": 7755,
  "told her ": 7756,
  "it is": 7757,
  "sake": 7758,
  "s I ": 7759,
  "fanc": 7760,
  "stick": 7761,
  "crowd ": 7762,
  "glor": 7763,
  "agged ": 7764,
  "sheep": 7765,
  "clouds ": 7766,
  "on to ": 7767,
  "separated ": 7768,
  "out for ": 7769,
  "stam": 7770,
  "at the same ": 7771,
  "test ": 7772,
  "gave me ": 7773,
  "wolves": 7774,
  "down a ": 7775,
  "powder": 7776,
  ", so that ": 7777,
  "every\\u000a": 7778,
  "rapid": 7779,
  "\\u000aand the ": 7780,
  "dim ": 7781,
  "where I ": 7782,
  "likely ": 7783,
  "through\\u000athe ": 7784,
  "great\\u000a": 7785,
  "colour ": 7786,
  "of any ": 7787,
  "of your ": 7788,
  "gesture ": 7789,
  "lamp ": 7790,
  "him. I ": 7791,
  ".”\\u000aThe ": 7792,
  "ant\\u000a": 7793,
  "bid": 7794,
  "nostril": 7795,
  "ey ": 7796,
  "music": 7797,
  "is all ": 7798,
  "last\\u000a": 7799,
  "where, ": 7800,
  "ent of ": 7801,
  "happened to ": 7802,
  "generally ": 7803,
  "achi": 7804,
  "up in ": 7805,
  "Come": 7806,
  "myri": 7807,
  "neighbour": 7808,
  "ancient ": 7809,
  "Carfax": 7810,
  "it from ": 7811,
  "a very ": 7812,
  "Some": 7813,
  "nine": 7814,
  "manife": 7815,
  ". You must ": 7816,
  "of\\u000a\\u000a\\u000c": 7817,
  "flies ": 7818,
  "within the ": 7819,
  "vagu": 7820,
  "an instant ": 7821,
  "annoy": 7822,
  "went out ": 7823,
  "fully\\u000a": 7824,
  "servant": 7825,
  "ess and ": 7826,
  "trust": 7827,
  "receiv": 7828,
  "blood, ": 7829,
  "employ": 7830,
  "resist": 7831,
  "behind him": 7832,
  "Varna": 7833,
  "stock ": 7834,
  ".\\u000aLater.—": 7835,
  "entered ": 7836,
  "back the ": 7837,
  "it with ": 7838,
  "mysterious ": 7839,
  "pleasure ": 7840,
  "ense of ": 7841,
  "gentle ": 7842,
  "below the ": 7843,
  "ec": 7844,
  "me as ": 7845,
  "me! ": 7846,
  "ure of ": 7847,
  ". Something ": 7848,
  "hurled ": 7849,
  "shall not ": 7850,
  "smooth": 7851,
  "door was ": 7852,
  "surprise, ": 7853,
  "looked like ": 7854,
  "pointing ": 7855,
  "window, ": 7856,
  "laz": 7857,
  "gam": 7858,
  "struggling to ": 7859,
  "beam": 7860,
  "breast": 7861,
  "abandon": 7862,
  "she\\u000awas ": 7863,
  "dizz": 7864,
  "furnish": 7865,
  "vey": 7866,
  ". I can ": 7867,
  "came the ": 7868,
  "ier ": 7869,
  "than ever": 7870,
  "llen ": 7871,
  "over to ": 7872,
  "sense ": 7873,
  "similar ": 7874,
  "horrid ": 7875,
  "rid ": 7876,
  "sk ": 7877,
  "through\\u000a": 7878,
  ".\\u000a“My ": 7879,
  "with you ": 7880,
  "exerci": 7881,
  "hurried ": 7882,
  "parti": 7883,
  "would\\u000abe ": 7884,
  "add ": 7885,
  "exas": 7886,
  "stream ": 7887,
  "doesn’t ": 7888,
  "funn": 7889,
  "his arm": 7890,
  ". Arthur ": 7891,
  "hearts ": 7892,
  "wood ": 7893,
  ".”\\u000a\\u000a\\u000c": 7894,
  "something\\u000a": 7895,
  "gang": 7896,
  "’d\\u000a": 7897,
  "field": 7898,
  "marri": 7899,
  "both": 7900,
  ". He has ": 7901,
  "gets ": 7902,
  "progres": 7903,
  "obl": 7904,
  "theor": 7905,
  "pha": 7906,
  "experiment": 7907,
  "was very ": 7908,
  "ated\\u000a": 7909,
  "searching ": 7910,
  "!” he ": 7911,
  "set\\u000a": 7912,
  "signal ": 7913,
  "port ": 7914,
  "discovered ": 7915,
  "vessel ": 7916,
  "flat ": 7917,
  "came": 7918,
  "sustain": 7919,
  "being\\u000a": 7920,
  "July ": 7921,
  "go, ": 7922,
  "ate, and ": 7923,
  "crep": 7924,
  "too late": 7925,
  "oul": 7926,
  "bottle ": 7927,
  "opin": 7928,
  "waking ": 7929,
  "coff": 7930,
  "scru": 7931,
  "crou": 7932,
  "sing-": 7933,
  "too\\u000a": 7934,
  "ately": 7935,
  "prick": 7936,
  "sleep, ": 7937,
  "opened her eyes ": 7938,
  "remaining ": 7939,
  "street ": 7940,
  "circl": 7941,
  "On the ": 7942,
  "pay": 7943,
  "s, we ": 7944,
  ". You are ": 7945,
  "edition": 7946,
  "sinking ": 7947,
  "AG": 7948,
  "enched ": 7949,
  "grown ": 7950,
  "instinc": 7951,
  "for myself": 7952,
  "up of ": 7953,
  "and,\\u000a": 7954,
  "desol": 7955,
  "ite": 7956,
  "ession": 7957,
  "opportunity": 7958,
  "rest of the ": 7959,
  "we may ": 7960,
  "ation, and ": 7961,
  "tis": 7962,
  "Dr. Van Helsing": 7963,
  "stopped, ": 7964,
  "the Professor ": 7965,
  "perform": 7966,
  ". If you ": 7967,
  "she had been ": 7968,
  "wire ": 7969,
  "bli": 7970,
  "hypo": 7971,
  "es—": 7972,
  "said to me": 7973,
  "first time ": 7974,
  "infinite ": 7975,
  "Ke": 7976,
  "bloom": 7977,
  ". I’m ": 7978,
  "Certain": 7979,
  "Well ": 7980,
  "information ": 7981,
  "aven": 7982,
  "kitchen ": 7983,
  "let her ": 7984,
  "first, ": 7985,
  "had, ": 7986,
  "stoo": 7987,
  "opened her ": 7988,
  "monstr": 7989,
  "tender": 7990,
  "closed her eyes ": 7991,
  "enh": 7992,
  "enhanc": 7993,
  "under a ": 7994,
  "sides": 7995,
  "ign ": 7996,
  "rot": 7997,
  "prefer": 7998,
  "argument": 7999,
  "policeman ": 8000,
  "ampire ": 8001,
  "ating the ": 8002,
  "wrapp": 8003,
  "He\\u000a": 8004,
  "dul": 8005,
  "tac": 8006,
  "let the ": 8007,
  "chron": 8008,
  "ft of ": 8009,
  "through his ": 8010,
  "stic ": 8011,
  "being": 8012,
  "stretched ": 8013,
  "of-": 8014,
  "conven": 8015,
  "emerged ": 8016,
  "before she ": 8017,
  "sca": 8018,
  "type of ": 8019,
  "describ": 8020,
  "alo": 8021,
  "decision ": 8022,
  "jaws ": 8023,
  "suddenly, ": 8024,
  "would you ": 8025,
  "everal ": 8026,
  "quickly, ": 8027,
  "brief": 8028,
  "she didn’t ": 8029,
  "utterly ": 8030,
  "ctive ": 8031,
  "lower": 8032,
  ". Her\\u000a": 8033,
  "mile": 8034,
  "man-eat": 8035,
  "later, ": 8036,
  "going to be ": 8037,
  "from their ": 8038,
  "swir": 8039,
  "signal": 8040,
  "leapt ": 8041,
  "transparent ": 8042,
  "eBook": 8043,
  "charg": 8044,
  "illumin": 8045,
  "horns ": 8046,
  "Finally, ": 8047,
  "iner": 8048,
  "stiff": 8049,
  "Jessica": 8050,
  "capable ": 8051,
  ",’ he said ": 8052,
  "spott": 8053,
  "rubbed her ": 8054,
  "crush": 8055,
  "fist": 8056,
  "– ": 8057,
  "lux": 8058,
  "Hey": 8059,
  "presum": 8060,
  "facial ": 8061,
  "towards her ": 8062,
  "Doctor Jackson": 8063,
  ". Doctor Jack": 8064,
  "rich ": 8065,
  "obvious ": 8066,
  "ist ": 8067,
  ",\\u000athen ": 8068,
  "Cassie was ": 8069,
  "stroll": 8070,
  "o, ": 8071,
  "cub": 8072,
  ",\\u000ait ": 8073,
  "150 ": 8074,
  "2,000 ": 8075,
  "Per": 8076,
  "France": 8077,
  "9\\u000a\\u000c": 8078,
  ".\\u000a\\u000aD": 8079,
  "honor": 8080,
  "We'll ": 8081,
  "Strait of ": 8082,
  "devilfish ": 8083,
  "salt ": 8084,
  ".\\u000a\\u000a\\u000a\\u000a\\u000a                                                    ": 8085,
  "fathom": 8086,
  "!\" he said": 8087,
  "2\\u000a\\u000c": 8088,
  "turt": 8089,
  "submersible ": 8090,
  ". \"But ": 8091,
  "stranger's ": 8092,
  "s.\"\\u000a\\u000a": 8093,
  "Captain Nemo had ": 8094,
  "meters long": 8095,
  "lime": 8096,
  "sodi": 8097,
  "7 degrees ": 8098,
  "Gulf Stre": 8099,
  "cartil": 8100,
  "alga": 8101,
  "Mr. Thomas ": 8102,
  "Mr. Thomas Marvel": 8103,
  "; \"": 8104,
  "Mr. Hux": 8105,
  ", by ": 8106,
  "anyone ": 8107,
  "copy ": 8108,
  "THIS ": 8109,
  "cal ": 8110,
  "UN": 8111,
  "of C": 8112,
  "\\u000aTHE ": 8113,
  "glimpse ": 8114,
  "wid": 8115,
  "fail ": 8116,
  "giv": 8117,
  "distinct ": 8118,
  "Hun": 8119,
  "sorts of ": 8120,
  "plant ": 8121,
  ":30 ": 8122,
  "crowd": 8123,
  "dir": 8124,
  "stuff ": 8125,
  "ge to ": 8126,
  "landl": 8127,
  "ord ": 8128,
  "ries ": 8129,
  "lady ": 8130,
  "it was all ": 8131,
  "seemed to have ": 8132,
  "language ": 8133,
  "nothing to ": 8134,
  "offered ": 8135,
  "gard": 8136,
  "horizon, ": 8137,
  "naturally ": 8138,
  "collection ": 8139,
  "blank ": 8140,
  "losing ": 8141,
  "before us": 8142,
  "shr": 8143,
  "masses of ": 8144,
  "asc": 8145,
  "arly ": 8146,
  "solemn ": 8147,
  "fanci": 8148,
  "each": 8149,
  "side and ": 8150,
  "est\\u000a": 8151,
  "seemed\\u000a": 8152,
  "snor": 8153,
  "coal": 8154,
  ":—\\u000a“You ": 8155,
  "y, I ": 8156,
  "decei": 8157,
  "bold": 8158,
  "branch": 8159,
  "altogether": 8160,
  "he can ": 8161,
  "chance of ": 8162,
  "he came ": 8163,
  "saw him ": 8164,
  "obstac": 8165,
  "then a ": 8166,
  "cloud ": 8167,
  "sky": 8168,
  "bigg": 8169,
  "awake": 8170,
  "home, ": 8171,
  "throwing ": 8172,
  "strange\\u000a": 8173,
  "freely ": 8174,
  "impul": 8175,
  "bring": 8176,
  "to whom ": 8177,
  "repl": 8178,
  "pray ": 8179,
  "how you ": 8180,
  "Mr. Hawkin": 8181,
  "faith": 8182,
  "of which ": 8183,
  "cruel": 8184,
  "over\\u000a": 8185,
  "dream ": 8186,
  "With a ": 8187,
  ". God ": 8188,
  ". Do not ": 8189,
  "weal": 8190,
  "ings of ": 8191,
  "have not ": 8192,
  "something to ": 8193,
  "ograph": 8194,
  "polit": 8195,
  "tongue ": 8196,
  "by our ": 8197,
  "things": 8198,
  "explain": 8199,
  "on that ": 8200,
  "men and ": 8201,
  "will, ": 8202,
  "my friend ": 8203,
  "only a few ": 8204,
  "not the ": 8205,
  "books ": 8206,
  "was an ": 8207,
  "previous ": 8208,
  "concei": 8209,
  "on me": 8210,
  "window, and ": 8211,
  "I do not ": 8212,
  "walls ": 8213,
  "convic": 8214,
  "ideas ": 8215,
  "desperate ": 8216,
  "cautiously ": 8217,
  "have\\u000abeen ": 8218,
  "he spoke ": 8219,
  "prou": 8220,
  "European ": 8221,
  "Afri": 8222,
  "till": 8223,
  "? And ": 8224,
  "to us ": 8225,
  "down\\u000a": 8226,
  "ultim": 8227,
  "cock": 8228,
  "local ": 8229,
  ". Good": 8230,
  "say\\u000a": 8231,
  "Now, ": 8232,
  "nothing\\u000a": 8233,
  ". They\\u000a": 8234,
  "which were ": 8235,
  "handle ": 8236,
  "serious": 8237,
  "peac": 8238,
  "at first ": 8239,
  ".\\u000aWhat ": 8240,
  "secure": 8241,
  "enab": 8242,
  "preser": 8243,
  "kes": 8244,
  "fearful ": 8245,
  "lived ": 8246,
  "very, ": 8247,
  "cun": 8248,
  "! You ": 8249,
  "deliber": 8250,
  "cked her ": 8251,
  "you? ": 8252,
  "laughter ": 8253,
  "entirely ": 8254,
  "destroy": 8255,
  "were": 8256,
  "know the ": 8257,
  "acqu": 8258,
  "without the ": 8259,
  "pray": 8260,
  "resolut": 8261,
  "go on": 8262,
  "hidden ": 8263,
  "mot": 8264,
  "instinct": 8265,
  "entrance ": 8266,
  "chanc": 8267,
  "risk ": 8268,
  "as that ": 8269,
  "were, ": 8270,
  "it.\\u000a": 8271,
  "continued ": 8272,
  "ave\\u000a": 8273,
  "subt": 8274,
  "swo": 8275,
  "exhaust": 8276,
  "stopped and ": 8277,
  "glanced ": 8278,
  "Jonathan’s ": 8279,
  "descrip": 8280,
  "picture": 8281,
  "ford ": 8282,
  "John ": 8283,
  "count ": 8284,
  "Two ": 8285,
  "torr": 8286,
  "you a ": 8287,
  "soon, ": 8288,
  "anyhow": 8289,
  "for that ": 8290,
  "—he ": 8291,
  "ble, ": 8292,
  "stood up ": 8293,
  "done, ": 8294,
  "series of ": 8295,
  "prai": 8296,
  "ing at the ": 8297,
  "Jul": 8298,
  "churchyard": 8299,
  "s me ": 8300,
  "hundred": 8301,
  "gh ": 8302,
  "scor": 8303,
  "wise": 8304,
  "murder": 8305,
  "stick ": 8306,
  "alone, ": 8307,
  "at present ": 8308,
  "ated with ": 8309,
  "focus": 8310,
  "a whole ": 8311,
  "too much ": 8312,
  "ous, and ": 8313,
  ". Poor ": 8314,
  "ting the ": 8315,
  "churchyard ": 8316,
  "Whitby": 8317,
  "concentr": 8318,
  "es the ": 8319,
  ". Everything ": 8320,
  "altogether ": 8321,
  ". But": 8322,
  "content": 8323,
  "decide ": 8324,
  "DA": 8325,
  "outlin": 8326,
  "air, ": 8327,
  "air\\u000a": 8328,
  "needed ": 8329,
  "wrea": 8330,
  "space": 8331,
  ". Every ": 8332,
  ",\\u000awho ": 8333,
  "mitt": 8334,
  "vili": 8335,
  "ed, his ": 8336,
  "on to the ": 8337,
  "oppon": 8338,
  ". Ex": 8339,
  "short, ": 8340,
  "ike ": 8341,
  "fit ": 8342,
  "s’ ": 8343,
  "with us": 8344,
  "piece ": 8345,
  "whole\\u000a": 8346,
  "constant ": 8347,
  "no matter how ": 8348,
  "experience": 8349,
  "ch and ": 8350,
  "promise": 8351,
  "away\\u000a": 8352,
  "ed to be ": 8353,
  "we went ": 8354,
  "bound": 8355,
  "EL": 8356,
  "shown ": 8357,
  "to\\u000aher ": 8358,
  "Mis": 8359,
  "pois": 8360,
  ",\\u000amy ": 8361,
  "Ocean": 8362,
  "offer ": 8363,
  "art": 8364,
  ", which was ": 8365,
  "presently ": 8366,
  "el, ": 8367,
  "worse": 8368,
  "appearance": 8369,
  "doctor’s ": 8370,
  "Am": 8371,
  "think, ": 8372,
  "began to\\u000a": 8373,
  ", like ": 8374,
  "cigar": 8375,
  "telegram ": 8376,
  "tell you": 8377,
  "hands, and ": 8378,
  "dain": 8379,
  "to speak": 8380,
  "proportion": 8381,
  "do it": 8382,
  "turned her ": 8383,
  "led with ": 8384,
  "we all ": 8385,
  "day and ": 8386,
  "with that ": 8387,
  "on your ": 8388,
  "insan": 8389,
  "ette": 8390,
  "scratch": 8391,
  "for us": 8392,
  "consider ": 8393,
  "bars ": 8394,
  "remembered ": 8395,
  "rather than ": 8396,
  "meat ": 8397,
  "happen ": 8398,
  "ed, and she ": 8399,
  "drawing ": 8400,
  "boil": 8401,
  "in it": 8402,
  "are we ": 8403,
  "What’s ": 8404,
  ", and you ": 8405,
  "Ro": 8406,
  "treated ": 8407,
  "next day ": 8408,
  "answered me": 8409,
  "of us": 8410,
  ",\\u000ahe ": 8411,
  "protect": 8412,
  "strewn ": 8413,
  "so we ": 8414,
  "laugh ": 8415,
  "reality ": 8416,
  "clean": 8417,
  "chiefly ": 8418,
  "husband’s ": 8419,
  "listen ": 8420,
  "bub": 8421,
  "daily ": 8422,
  "Spani": 8423,
  "from one ": 8424,
  "Would ": 8425,
  "case, ": 8426,
  "irresi": 8427,
  "irresisti": 8428,
  "gas ": 8429,
  "difficult ": 8430,
  "comprehen": 8431,
  "directly ": 8432,
  "frame ": 8433,
  "This is ": 8434,
  "whiten": 8435,
  "tish ": 8436,
  "game": 8437,
  "Jap": 8438,
  "victim": 8439,
  "circle ": 8440,
  "an ex": 8441,
  "contain ": 8442,
  "volcanic ": 8443,
  "dg": 8444,
  "div": 8445,
  "-of-": 8446,
  "right now": 8447,
  "they would ": 8448,
  "shot back": 8449,
  "y\\u000aand ": 8450,
  "tip": 8451,
  "by the name ": 8452,
  "investig": 8453,
  "accident": 8454,
  "abre": 8455,
  "god": 8456,
  "surface of the water": 8457,
  "inju": 8458,
  "accent": 8459,
  "ated by ": 8460,
  "tension ": 8461,
  "impossible": 8462,
  "held her ": 8463,
  "cting ": 8464,
  "flin": 8465,
  "anchor ": 8466,
  "tably ": 8467,
  "Czarina ": 8468,
  "Czarina Cather": 8469,
  "French": 8470,
  "her\\u000a\\u000a\\u000c": 8471,
  "depend": 8472,
  "asi": 8473,
  "works ": 8474,
  "slow ": 8475,
  "open-": 8476,
  "equipment": 8477,
  "O ": 8478,
  ".\\u000a‘S": 8479,
  "forearm": 8480,
  "barri": 8481,
  "its head ": 8482,
  "eleg": 8483,
  "musc": 8484,
  ".’ The ": 8485,
  "fem": 8486,
  "stretched out ": 8487,
  "consist": 8488,
  ".\\u000a‘I ": 8489,
  "whimper": 8490,
  "ures ": 8491,
  "air and ": 8492,
  "coo": 8493,
  "collision ": 8494,
  "?’ he ": 8495,
  "zen": 8496,
  "?’\\u000aCassie ": 8497,
  "off a ": 8498,
  "tly": 8499,
  "collision": 8500,
  "motionless ": 8501,
  "counted ": 8502,
  ".\\u000a\\u000aAnd ": 8503,
  "\\u000a\\u000a\\u000a\\u000a\\u000a                                                ": 8504,
  ",\" and ": 8505,
  "coral, ": 8506,
  "seamen ": 8507,
  "200 ": 8508,
  "dimension": 8509,
  "Consequ": 8510,
  "Consequently, ": 8511,
  "cetacean ": 8512,
  ".\" Ed": 8513,
  "churn": 8514,
  "Scoti": 8515,
  ".\\u000a\\u000aI was ": 8516,
  "abund": 8517,
  "crust": 8518,
  "Commander Farragut": 8519,
  "--and ": 8520,
  ".\"\\u000a\\u000a\"Then ": 8521,
  "cabin ": 8522,
  ".\\u000a\\u000aJust then ": 8523,
  "harpoon ": 8524,
  "sperm wha": 8525,
  ",\" Ned ": 8526,
  "Which ": 8527,
  "surface of the sea": 8528,
  "weren't ": 8529,
  "luminous ": 8530,
  "?\"\\u000a\\u000a\"No, ": 8531,
  "won't be ": 8532,
  "bluish ": 8533,
  "recogniz": 8534,
  ",\" Conseil said, \"": 8535,
  "Tor": 8536,
  "told me, \"": 8537,
  "nets ": 8538,
  "thermom": 8539,
  ".\\u000a\\u000aThere ": 8540,
  "Gulf Stream": 8541,
  "tropical ": 8542,
  "gray ": 8543,
  "Port": 8544,
  "s.\\u000a\\u000aI ": 8545,
  "La P": 8546,
  "La Pé": 8547,
  "La Pérou": 8548,
  "Port ": 8549,
  "Henfrey": 8550,
  "Iping ": 8551,
  "Hux": 8552,
  "?' ": 8553,
  "Jaf": 8554,
  "Jaffer": 8555,
  "Voice, ": 8556,
  "Burdo": 8557,
  "www": 8558,
  "www.": 8559,
  "The\\u000a": 8560,
  "original ": 8561,
  "Lucy Westenra": 8562,
  "splen": 8563,
  "over my ": 8564,
  "superst": 8565,
  "all about ": 8566,
  "comfortable ": 8567,
  "egg": 8568,
  "meat": 8569,
  "also": 8570,
  "station ": 8571,
  "steep ": 8572,
  ",” I said, “": 8573,
  "true, ": 8574,
  ":\\u000a“": 8575,
  "shook her head ": 8576,
  "implor": 8577,
  "dicul": 8578,
  "as I could": 8579,
  "eyes, and ": 8580,
  "mother’s ": 8581,
  "the old ": 8582,
  "before I ": 8583,
  "do, ": 8584,
  "t of\\u000a": 8585,
  ", I must ": 8586,
  "journey": 8587,
  "ers were ": 8588,
  "gon": 8589,
  "gloom ": 8590,
  "tossed ": 8591,
  "ture of ": 8592,
  "is no ": 8593,
  "mouth, ": 8595,
  "; and\\u000a": 8596,
  "p and ": 8597,
  "frighten": 8598,
  "by its ": 8599,
  "began": 8600,
  "shiver": 8601,
  "ed us ": 8602,
  "still, ": 8603,
  "ceas": 8604,
  "us a ": 8605,
  "; but the ": 8606,
  "afraid to ": 8607,
  "ments ": 8608,
  "I had been ": 8609,
  "in the morning ": 8610,
  "globe ": 8611,
  "grasp": 8612,
  "took my ": 8613,
  "insist": 8614,
  "mal ": 8615,
  "sufficient ": 8616,
  "his, ": 8617,
  "cheeks ": 8618,
  "white and ": 8619,
  "rose and ": 8620,
  "day, and ": 8621,
  "ed, and\\u000a": 8622,
  "library": 8623,
  "—or ": 8624,
  "into that ": 8625,
  "doors ": 8626,
  "sure of ": 8627,
  "may be": 8628,
  "in the world": 8629,
  "cleared the ": 8630,
  "notes ": 8631,
  "ure, ": 8632,
  "es,\\u000aand ": 8633,
  "houses ": 8634,
  "private ": 8635,
  "asy": 8636,
  "seek ": 8637,
  "shine ": 8638,
  "broken": 8639,
  "shade ": 8640,
  "accor": 8641,
  "look at ": 8642,
  "looking at ": 8643,
  "Whitby ": 8644,
  "!” he said": 8645,
  "night, and ": 8646,
  "yesterday ": 8647,
  ". So I ": 8648,
  "there is no ": 8649,
  "see how ": 8650,
  "things, ": 8651,
  "s.\\u000aBut ": 8652,
  "good, ": 8653,
  "examine ": 8654,
  "cel": 8655,
  "spiri": 8656,
  "aboard": 8657,
  "standard ": 8658,
  "to come ": 8659,
  "when, ": 8660,
  "Let me ": 8661,
  "illu": 8662,
  "served ": 8663,
  "labour": 8664,
  "laying ": 8665,
  "determined to ": 8666,
  "it were ": 8667,
  "to try ": 8668,
  "my heart ": 8669,
  "safety ": 8670,
  "put it ": 8671,
  "fol": 8672,
  ". I suppose ": 8673,
  "brilliant ": 8674,
  "tuous ": 8675,
  "lips": 8676,
  "ashe": 8677,
  "lips and ": 8678,
  "ing. The ": 8679,
  "result": 8680,
  "name": 8681,
  "varieti": 8682,
  "hospit": 8683,
  "horses": 8684,
  "in, and ": 8685,
  "for the\\u000a": 8686,
  "ages ": 8687,
  ", I could ": 8688,
  "suffered ": 8689,
  "got\\u000a": 8690,
  "regard ": 8691,
  "vain": 8692,
  "for any ": 8693,
  "! He ": 8694,
  ". Re": 8695,
  "panting ": 8696,
  "leth": 8697,
  "s: ": 8698,
  "against\\u000a": 8699,
  "for\\u000athe ": 8700,
  ", I thought ": 8701,
  "struck": 8702,
  "blood-": 8703,
  "that would ": 8704,
  "what a ": 8705,
  "playing ": 8706,
  "way that ": 8707,
  "hoped ": 8708,
  "honest": 8709,
  "double": 8710,
  ". Why ": 8711,
  "quite a ": 8712,
  "ning\\u000a": 8713,
  "time for ": 8714,
  "into my ": 8715,
  "grateful ": 8716,
  "for all ": 8717,
  "appet": 8718,
  ". Renfi": 8719,
  "fixed ": 8720,
  "harbour": 8721,
  "len": 8722,
  "ligh": 8723,
  "ought": 8724,
  "son, ": 8725,
  "is so ": 8726,
  "stock": 8727,
  "\\u000ayou ": 8728,
  "stranger, ": 8729,
  "thru": 8730,
  "Ge": 8731,
  "regular ": 8732,
  "feed": 8733,
  "dimin": 8734,
  "problem ": 8735,
  "parted ": 8736,
  "viv": 8737,
  "cat ": 8738,
  "20 ": 8739,
  "feather": 8740,
  "buzzing ": 8741,
  "life-": 8742,
  "science ": 8743,
  "record": 8744,
  "stopped": 8745,
  "ses and ": 8746,
  "do the ": 8747,
  ". Oh": 8748,
  "fishermen ": 8749,
  "stretch ": 8750,
  "drifting ": 8751,
  "Russi": 8752,
  "ING ": 8753,
  "amount of ": 8754,
  "vio": 8755,
  "incredi": 8756,
  ", and even ": 8757,
  "fog ": 8758,
  "head\\u000a": 8759,
  "seemed to\\u000a": 8760,
  "cut the ": 8761,
  "Admir": 8762,
  "ations": 8763,
  "moor": 8764,
  "stiff ": 8765,
  "narr": 8766,
  "EM": 8767,
  "rain": 8768,
  "Gi": 8769,
  "Bay of ": 8770,
  "volunte": 8771,
  "feel\\u000a": 8772,
  ". Had ": 8773,
  "work\\u000a": 8774,
  "shouted ": 8775,
  "crept ": 8776,
  "Will ": 8777,
  "grave": 8778,
  ".\\u000aNo ": 8779,
  "addition": 8780,
  "close to the ": 8781,
  "weed": 8782,
  "job ": 8783,
  "became\\u000a": 8784,
  "for her": 8785,
  "put her ": 8786,
  "more and more ": 8787,
  "Mrs.\\u000a": 8788,
  "though the ": 8789,
  "waved ": 8790,
  "nur": 8791,
  "thanks to ": 8792,
  "Master ": 8793,
  "had taken ": 8794,
  "might\\u000a": 8795,
  "out of his ": 8796,
  "that the\\u000a": 8797,
  "seconds ": 8798,
  "for me ": 8799,
  "as\\u000ashe ": 8800,
  "with which ": 8801,
  ".”\\u000a“And ": 8802,
  "in the morning": 8803,
  "; then ": 8804,
  "perhap": 8805,
  "to reach ": 8806,
  "stal": 8807,
  "to help ": 8808,
  "!” said ": 8809,
  "how long ": 8810,
  "weakn": 8811,
  "riend Joh": 8812,
  "What do you ": 8813,
  "will you ": 8814,
  "m and ": 8815,
  "wondering ": 8816,
  "of course": 8817,
  "you do not ": 8818,
  "wear": 8819,
  "s.\\u000a\\u000a\\u000c": 8820,
  "Gaz": 8821,
  "you’d ": 8822,
  "of him": 8823,
  "vul": 8824,
  "recover": 8825,
  "Did you ": 8826,
  "ime ": 8827,
  "rigid": 8828,
  "waited for ": 8829,
  "es, I ": 8830,
  ",\\u000aand he ": 8831,
  "place\\u000a": 8832,
  "bit ": 8833,
  "estab": 8834,
  "you—": 8835,
  "that our ": 8836,
  "skill": 8837,
  "parall": 8838,
  "thinking": 8839,
  "to that ": 8840,
  "ed me": 8841,
  "despair ": 8842,
  "check ": 8843,
  "easy to ": 8844,
  "convinc": 8845,
  "line of ": 8846,
  "ational ": 8847,
  "s.\\u000aHe ": 8848,
  "this was ": 8849,
  "and a half ": 8850,
  "twist": 8851,
  "birds ": 8852,
  "barras": 8853,
  "energe": 8854,
  ". Yet ": 8855,
  "Uni": 8856,
  " October, ": 8857,
  "mess": 8858,
  "contrac": 8859,
  "slipped ": 8860,
  "sig": 8861,
  "into this ": 8862,
  "chosen ": 8863,
  "distribute ": 8864,
  "concl": 8865,
  "conclud": 8866,
  "in the middle of the ": 8867,
  "What about ": 8868,
  "So, ": 8869,
  "obtain": 8870,
  "mention ": 8871,
  "get the ": 8872,
  "catch": 8873,
  "ads of ": 8874,
  "cutting ": 8875,
  "everyone ": 8876,
  "adorn": 8877,
  "belonging to the ": 8878,
  "ably": 8879,
  "ie": 8880,
  "sole ": 8881,
  "trail": 8882,
  "launch": 8883,
  "changing ": 8884,
  "inhabit": 8885,
  "public domain ": 8886,
  "trademark": 8887,
  "Fu": 8888,
  "ty\\u000a": 8889,
  "Project Gutenberg Literary Archive Found": 8890,
  "link": 8891,
  "- ": 8892,
  "ties ": 8893,
  "variet": 8894,
  "pgla": 8895,
  "pglaf": 8896,
  "pglaf.org": 8897,
  "While ": 8898,
  "male ": 8899,
  "jer": 8900,
  "ceil": 8901,
  "completely": 8902,
  "survey": 8903,
  "her\\u000abody ": 8904,
  "Like ": 8905,
  "!’ she ": 8906,
  "anyway": 8907,
  "capable of ": 8908,
  "inspect ": 8909,
  "making her ": 8910,
  "team ": 8911,
  "anymore": 8912,
  "ed at her ": 8913,
  "-shaped ": 8914,
  "picked up ": 8915,
  "fruit": 8916,
  "bony ": 8917,
  "in mid": 8918,
  "her Handler’s ": 8919,
  "—’\\u000a‘": 8920,
  "exasper": 8921,
  "felt": 8922,
  "It was a ": 8923,
  ". Doctor Jackson ": 8924,
  "ug": 8925,
  "hitting ": 8926,
  "major ": 8927,
  "furrow": 8928,
  "guy": 8929,
  ".\\u000aHank ": 8930,
  "approached the ": 8931,
  "somed": 8932,
  "tile ": 8933,
  "predic": 8934,
  "ocean depth": 8935,
  "unique ": 8936,
  "seashell": 8937,
  "classifi": 8938,
  ",\\u000a\\u000a\\u000a\\u000a                                                    ": 8939,
  "nav": 8940,
  "Author's ": 8941,
  "Author's No": 8942,
  "Author's Note": 8943,
  "moderate ": 8944,
  "lounge, ": 8945,
  "!\\u000a\\u000a\"": 8946,
  "specimens of ": 8947,
  "trunk": 8948,
  "s whose ": 8949,
  ".\\u000a\\u000aAs for ": 8950,
  ". I've ": 8951,
  "sheet-iron ": 8952,
  "1,000 ": 8953,
  "spy": 8954,
  "blackish ": 8955,
  "Conseil, ": 8956,
  ".\\u000a\\u000aWe ": 8957,
  "electricity ": 8958,
  ".\\u000a\\u000aMeanwhile ": 8959,
  "added, \"": 8960,
  "asked, \"": 8961,
  "it.\"\\u000a\\u000a\"": 8962,
  "swimm": 8963,
  "theless, ": 8964,
  "submerged ": 8965,
  "companions and ": 8966,
  "Ned Land and ": 8967,
  "strata": 8968,
  "filam": 8969,
  ". Captain Nemo ": 8970,
  "Nautilus was ": 8971,
  "Nautilus, ": 8972,
  "sun's ": 8973,
  "reenter": 8974,
  " degrees centigrade": 8975,
  "ach and ": 8976,
  "________": 8977,
  ". \"W": 8978,
  "Ip": 8979,
  "ain't ": 8980,
  "dressing-": 8981,
  ",\" said the Invisible Man": 8982,
  "45": 8983,
  "RO": 8984,
  "ED ": 8985,
  "RI": 8986,
  "Mina Mur": 8987,
  "OUR": 8988,
  "impression ": 8989,
  "among the ": 8990,
  "trad": 8991,
  "asked the ": 8992,
  "aving ": 8993,
  "locality ": 8994,
  "Mag": 8995,
  "ury ": 8996,
  "centre ": 8997,
  "Chin": 8998,
  "German": 8999,
  "pictures": 9000,
  "strange": 9001,
  "who were ": 9002,
  "Bor": 9003,
  "war ": 9004,
  "proper ": 9005,
  "ed me to ": 9006,
  "garm": 9007,
  "smiled": 9008,
  "said in a ": 9009,
  "engag": 9010,
  ". Do you ": 9011,
  "put down ": 9012,
  "me, for ": 9013,
  "a lo": 9014,
  "meant": 9015,
  "the last ": 9016,
  "arch": 9017,
  "age of ": 9018,
  "set off ": 9019,
  "might not ": 9020,
  "fly ": 9021,
  "themselves": 9022,
  "an end": 9023,
  "aga": 9024,
  "hill ": 9025,
  "way, and ": 9026,
  ". There\\u000a": 9027,
  "-like ": 9028,
  "us,\\u000a": 9029,
  "ender": 9030,
  "; “": 9031,
  ".” The ": 9032,
  "merci": 9033,
  "ch of ": 9034,
  "earnest": 9035,
  "easter": 9036,
  "all was ": 9037,
  "after all": 9038,
  "a, and ": 9039,
  "recent ": 9040,
  "sighed ": 9041,
  "minutes, ": 9042,
  "tunnel": 9043,
  ". I did not ": 9044,
  "it, for ": 9045,
  "times\\u000a": 9046,
  "paraly": 9047,
  "in a t": 9048,
  "act of ": 9049,
  "daylight": 9050,
  "stood\\u000a": 9051,
  "old and ": 9052,
  "bell ": 9053,
  "eign": 9054,
  "approaching ": 9055,
  "the sound of ": 9056,
  "s as ": 9057,
  "over\\u000athe ": 9058,
  "?” He ": 9059,
  "; and I ": 9060,
  "whose\\u000a": 9061,
  "within a ": 9062,
  "ready, ": 9063,
  "grace": 9064,
  "join ": 9065,
  "him the ": 9066,
  "and took ": 9067,
  "asked me ": 9068,
  "desire ": 9069,
  "same\\u000a": 9070,
  "dge ": 9071,
  "meeting ": 9072,
  "chin ": 9073,
  "till the ": 9074,
  "twenty-four ": 9075,
  "on the table": 9076,
  "relat": 9077,
  "refer": 9078,
  "did I ": 9079,
  "of me": 9080,
  ":\\u000a—\\u000a“": 9081,
  "are in ": 9082,
  "pret": 9083,
  "drifted ": 9084,
  "lying\\u000a": 9085,
  "four-": 9086,
  "close to ": 9087,
  "added ": 9088,
  "did not seem ": 9089,
  "satur": 9090,
  "papers ": 9091,
  "like, ": 9092,
  "all in ": 9093,
  "!—": 9094,
  "facts ": 9095,
  "ly, but ": 9096,
  ",” he said, “": 9097,
  ". It is a ": 9098,
  "shat": 9099,
  "medium": 9100,
  "the blood ": 9101,
  "Europ": 9102,
  "devil ": 9103,
  "indeed": 9104,
  "to rest ": 9105,
  "useful ": 9106,
  "prac": 9107,
  "in case ": 9108,
  "explain ": 9109,
  "fully, ": 9110,
  "resid": 9111,
  "stood up and ": 9112,
  "Have you ": 9113,
  "to any ": 9114,
  "toes ": 9115,
  "speed, ": 9116,
  "Once ": 9117,
  "vanished ": 9118,
  "opportunity to ": 9119,
  "which": 9120,
  "resistance ": 9121,
  "disgu": 9122,
  "rav": 9123,
  "made my ": 9124,
  "I am": 9125,
  "date ": 9126,
  "venge": 9127,
  "ance of ": 9128,
  "ty, ": 9129,
  ". U": 9130,
  "knew what ": 9131,
  ".\\u000aI was ": 9132,
  "face, and ": 9133,
  "at the moment ": 9134,
  "kiss ": 9135,
  "Mina’s ": 9136,
  "mouth and ": 9137,
  "involunt": 9138,
  "positively ": 9139,
  "fierce ": 9140,
  ", with a ": 9141,
  "shot": 9142,
  "ast night ": 9143,
  "Szg": 9144,
  "obe": 9145,
  "ality": 9146,
  "ed to my ": 9147,
  ". Then I ": 9148,
  ".\\u000aSome": 9149,
  "dogs ": 9150,
  "holding her ": 9151,
  ". Then she ": 9152,
  "night and ": 9153,
  "25 ": 9154,
  "always\\u000a": 9155,
  "seen him ": 9156,
  "building ": 9157,
  "ously\\u000a": 9158,
  "Greek ": 9159,
  "door. I ": 9160,
  "pho": 9161,
  "s\\u000ato ": 9162,
  "leave the ": 9163,
  "gone, ": 9164,
  "hell ": 9165,
  "diary": 9166,
  "knees, ": 9167,
  "million": 9168,
  "widen": 9169,
  "earthly ": 9170,
  "merc": 9171,
  "interview": 9172,
  "Street": 9173,
  "tax ": 9174,
  "an immense ": 9175,
  "says that ": 9176,
  "Septem": 9177,
  "strong and ": 9178,
  "away and ": 9179,
  "ated and ": 9180,
  "ing out ": 9181,
  "earn": 9182,
  "—\\u000a\\u000a\\u000c“": 9183,
  ". Don’t ": 9184,
  "take it ": 9185,
  "selfish ": 9186,
  "’ll be ": 9187,
  "went down ": 9188,
  "accident ": 9189,
  "harbour ": 9190,
  "thouse": 9191,
  "sea-": 9192,
  "from behind ": 9193,
  "s at ": 9194,
  "tea ": 9195,
  ".”\\u000aHe ": 9196,
  "down the\\u000a": 9197,
  "I came ": 9198,
  "come and ": 9199,
  "member ": 9200,
  ".\\u000aThese ": 9201,
  "invent": 9202,
  "bodies ": 9203,
  "on all ": 9204,
  "showing ": 9205,
  "where they ": 9206,
  "off\\u000a": 9207,
  "haven’t ": 9208,
  "understand the ": 9209,
  "ment of ": 9210,
  "10 ": 9211,
  "cum": 9212,
  "account ": 9213,
  "Mrs. Westenra ": 9214,
  "liff ": 9215,
  "this very ": 9216,
  "suddenly": 9217,
  ", S": 9218,
  "masses ": 9219,
  "flapping ": 9220,
  "shout ": 9221,
  "mirac": 9222,
  "climb ": 9223,
  "or even ": 9224,
  "man was ": 9225,
  "rud": 9226,
  "dragg": 9227,
  "civili": 9228,
  "missing ": 9229,
  "transl": 9230,
  "cook": 9231,
  "irst ": 9232,
  "off his ": 9233,
  "steadi": 9234,
  ", and I\\u000a": 9235,
  "gave\\u000a": 9236,
  "et of ": 9237,
  "jump ": 9238,
  "s, it ": 9239,
  "coffin ": 9240,
  "all the time": 9241,
  "Perhaps ": 9242,
  "bristling ": 9243,
  "cally, ": 9244,
  "forgot ": 9245,
  "bless ": 9246,
  ", but not ": 9247,
  ".\\u000aD": 9248,
  "striking ": 9249,
  "’s C": 9250,
  "ruin": 9251,
  "surpris": 9252,
  "lunch ": 9253,
  "strolled ": 9254,
  ", and was ": 9255,
  "ding": 9256,
  "receive ": 9257,
  "deliver": 9258,
  "), ": 9259,
  "I suppose ": 9260,
  "SI": 9261,
  "filling ": 9262,
  "to it": 9263,
  "coming to ": 9264,
  "cross ": 9265,
  ": ‘": 9266,
  "while he ": 9267,
  "ribb": 9268,
  "tell him ": 9269,
  "prep": 9270,
  "with your ": 9271,
  "arrangement": 9272,
  "ask you ": 9273,
  "failed": 9274,
  "satisfac": 9275,
  "Amster": 9276,
  "wishes": 9277,
  "philos": 9278,
  "philosop": 9279,
  "EWAR": 9280,
  "EWARD": 9281,
  "of those ": 9282,
  "between two ": 9283,
  "voice, ": 9284,
  "mood": 9285,
  "promin": 9286,
  "Van Helsing’s ": 9287,
  "conver": 9288,
  "lay\\u000a": 9289,
  "knock ": 9290,
  "ised the ": 9291,
  "ency": 9292,
  "strain ": 9293,
  ". You have ": 9294,
  "There are ": 9295,
  "a smile ": 9296,
  "peace ": 9297,
  "left her ": 9298,
  "came from ": 9299,
  "red and ": 9300,
  "indu": 9301,
  "watched the ": 9302,
  "she had\\u000a": 9303,
  "into a\\u000a": 9304,
  "pole ": 9305,
  "yer ": 9306,
  "Don’t ": 9307,
  "sover": 9308,
  "brisk": 9309,
  "saved ": 9310,
  "so she ": 9311,
  "ter of ": 9312,
  "DR": 9313,
  "paus": 9314,
  "attacked ": 9315,
  "plent": 9316,
  "profound ": 9317,
  "pay ": 9318,
  "put a ": 9319,
  "roy": 9320,
  "antic": 9321,
  "fit": 9322,
  "ed in this ": 9323,
  "way and ": 9324,
  "most": 9325,
  "using the ": 9326,
  "neck, ": 9327,
  "grief": 9328,
  "geon": 9329,
  "liv": 9330,
  "store ": 9331,
  "staring at ": 9332,
  "lean ": 9333,
  "arm, ": 9334,
  "character": 9335,
  "particularly ": 9336,
  "writer": 9337,
  "announc": 9338,
  "er or ": 9339,
  "infer": 9340,
  "age and ": 9341,
  "ical": 9342,
  "you could ": 9343,
  "enthusias": 9344,
  "contem": 9345,
  "nut": 9346,
  "pod": 9347,
  "Professor, ": 9348,
  "ted\\u000a": 9349,
  "proof ": 9350,
  "when it ": 9351,
  ",\\u000atheir ": 9352,
  "brown": 9353,
  "ed their ": 9354,
  "interven": 9355,
  "direction of the ": 9356,
  "Un-Dead ": 9357,
  "stake ": 9358,
  "whitish ": 9359,
  "s-": 9360,
  "pped\\u000a": 9361,
  "vely, ": 9362,
  "! A ": 9363,
  "hamm": 9364,
  "arrived at the ": 9365,
  "embarras": 9366,
  "scene": 9367,
  "judge ": 9368,
  "burst": 9369,
  "free to ": 9370,
  "corridor ": 9371,
  "had already ": 9372,
  "earth-": 9373,
  "inquir": 9374,
  "bullet": 9375,
  "holding the ": 9376,
  "trip": 9377,
  "intensity": 9378,
  "agree ": 9379,
  "emerg": 9380,
  "signific": 9381,
  ". Such ": 9382,
  "headed ": 9383,
  "lessly ": 9384,
  "ing the\\u000a": 9385,
  "struggle": 9386,
  "his head": 9387,
  "superi": 9388,
  "logi": 9389,
  "execut": 9390,
  "advantage of ": 9391,
  "chem": 9392,
  "weapons ": 9393,
  "gap ": 9394,
  "ed, she ": 9395,
  "hypno": 9396,
  "hypnotic ": 9397,
  "volcano": 9398,
  "definitely ": 9399,
  ", and this ": 9400,
  "mast": 9401,
  "it in the ": 9402,
  "tabl": 9403,
  "thumb ": 9404,
  "oar": 9405,
  "ie ": 9406,
  "i ": 9407,
  "refuge ": 9408,
  "choice ": 9409,
  "set forth ": 9410,
  "process": 9411,
  "site ": 9412,
  "RAN": 9413,
  "process ": 9414,
  ",\\u000abecause ": 9415,
  "under her ": 9416,
  "shit ": 9417,
  "Que": 9418,
  "frozen ": 9419,
  "lets ": 9420,
  "awkwardly ": 9421,
  "until she ": 9422,
  ".’\\u000a‘You ": 9423,
  "topp": 9424,
  "bread ": 9425,
  "hazy ": 9426,
  "gestur": 9427,
  "space, ": 9428,
  "controll": 9429,
  ". Two ": 9430,
  "gym": 9431,
  "just like ": 9432,
  "remin": 9433,
  "demand": 9434,
  "objects ": 9435,
  "ing it": 9436,
  "despite the ": 9437,
  "?’ her Handler ": 9438,
  "one last ": 9439,
  "slowly, ": 9440,
  "ing. She ": 9441,
  "while Cassie ": 9442,
  "shouted, ": 9443,
  "to these ": 9444,
  "s that were ": 9445,
  "ember ": 9446,
  "xi": 9447,
  "pig": 9448,
  "Hank\\u000a": 9449,
  "Ne": 9450,
  ".’ Thomas ": 9451,
  "belli": 9452,
  "comment": 9453,
  "beach": 9454,
  "unpredic": 9455,
  "paradi": 9456,
  "fruit ": 9457,
  "South Pole": 9458,
  "inexp": 9459,
  "inexpli": 9460,
  "Now then, ": 9461,
  ".\\u000aAs for ": 9462,
  "measured ": 9463,
  "centimeter": 9464,
  "craft ": 9465,
  "crewmen ": 9466,
  "narwhale": 9467,
  "ing.\\u000a\\u000a\"": 9468,
  ".\"\\u000a\\u000a\\u000a\\u000a                                                ": 9469,
  ",\" I told ": 9470,
  "waters of the ": 9471,
  "cannon": 9472,
  "Ned Land was ": 9473,
  "dol": 9474,
  "vertical ": 9475,
  ".\\u000a\\u000a\"Well, ": 9476,
  "maneuver": 9477,
  "colored ": 9478,
  "astic ": 9479,
  "helms": 9480,
  "November ": 9481,
  "little by little": 9482,
  "harpooner": 9483,
  ".\\u000a\\u000a\"Sir": 9484,
  "evertheless, ": 9485,
  "couldn't\\u000a": 9486,
  "substance ": 9487,
  "carap": 9488,
  ".\\u000a\\u000a\"But ": 9489,
  "hasn't ": 9490,
  "Dam": 9491,
  "Ned Land, ": 9492,
  "Latin": 9493,
  ".\"\\u000a\\u000a\"That's ": 9494,
  "Ned and ": 9495,
  "extrac": 9496,
  "answered, \"": 9497,
  "Professor Aronnax, ": 9498,
  "spite ": 9499,
  "globe": 9500,
  "snails, ": 9501,
  "meters.\\u000a": 9502,
  "meters, ": 9503,
  "measuring ": 9504,
  "the Nautilus was ": 9505,
  "aginous ": 9506,
  "climbed onto the platform": 9507,
  ".\\u000a\\u000aIt was ": 9508,
  "ashor": 9509,
  "?\" Ned Land ": 9510,
  ". \"And ": 9511,
  "these animals ": 9512,
  "that the Nautilus ": 9513,
  "coasts of ": 9514,
  "Torres ": 9515,
  "the skiff ": 9516,
  "gulf": 9517,
  ".\"\\u000aThe ": 9518,
  "Horses": 9519,
  "adg": 9520,
  ",\" said the Voice, ": 9521,
  ". You may ": 9522,
  "gutenber": 9523,
  "gutenberg": 9524,
  "licen": 9525,
  "available ": 9526,
  "correct": 9527,
  ".\\u000a(": 9528,
  "1\\u000a": 9529,
  "’S J": 9530,
  "’S JOUR": 9531,
  "’S JOURN": 9532,
  "’S JOURNAL": 9533,
  "shorth": 9534,
  "Carpath": 9535,
  ". I found ": 9536,
  "countr": 9537,
  ".\\u000aIn the ": 9538,
  "aci": 9539,
  "knocking ": 9540,
  "began\\u000a": 9541,
  "flood": 9542,
  "people, ": 9543,
  "peas": 9544,
  "boy ": 9545,
  ", all ": 9546,
  ". They are ": 9547,
  "harmless ": 9548,
  "Dracul": 9549,
  "thorough": 9550,
  "ed, for ": 9551,
  ",\\u000a“": 9552,
  "May.—": 9553,
  "s he ": 9554,
  "frightened ": 9555,
  "busin": 9556,
  "sway": 9557,
  "her, but ": 9558,
  "in such a ": 9559,
  "let it ": 9560,
  "I am not ": 9561,
  "exact": 9562,
  "ed, and then ": 9563,
  "; so I ": 9564,
  "ampire": 9565,
  "pathe": 9566,
  "cracked ": 9567,
  "put in ": 9568,
  "sink": 9569,
  ". One of ": 9570,
  "behind\\u000a": 9571,
  "cool ": 9572,
  "ated to ": 9573,
  "it the ": 9574,
  "seated ": 9575,
  "cea": 9576,
  "; and then ": 9577,
  "encourag": 9578,
  "mountains ": 9579,
  "evil": 9580,
  "us the ": 9581,
  "dark, ": 9582,
  "in the air ": 9583,
  "oppres": 9584,
  "me to the ": 9585,
  "white\\u000a": 9586,
  "the next ": 9587,
  ":—\\u000a“The ": 9588,
  "replied:—\\u000a“": 9589,
  "turned his ": 9590,
  "exceed": 9591,
  "altern": 9592,
  "ing that ": 9593,
  "; it was ": 9594,
  "imagination ": 9595,
  "grasp ": 9596,
  "affect": 9597,
  "shelter": 9598,
  "ing of the ": 9599,
  "incident": 9600,
  "circle": 9601,
  "clad ": 9602,
  "face to ": 9603,
  ". As he ": 9604,
  "awake ": 9605,
  "it by ": 9606,
  "held out ": 9607,
  "steel ": 9608,
  "stone": 9609,
  "the re": 9610,
  "opening": 9611,
  "should\\u000a": 9612,
  "day of ": 9613,
  "if it were ": 9614,
  "rog": 9615,
  ";\\u000athe ": 9616,
  "guest": 9617,
  "to your ": 9618,
  "he\\u000a\\u000a\\u000c": 9619,
  "wide\\u000a": 9620,
  "luggage ": 9621,
  "toi": 9622,
  "on one ": 9623,
  "thri": 9624,
  "regret ": 9625,
  "et and ": 9626,
  "attend ": 9627,
  "told\\u000a": 9628,
  "he, ": 9629,
  "awo": 9630,
  "so that I ": 9631,
  "materi": 9632,
  "itter": 9633,
  "as! ": 9634,
  "err": 9635,
  "that I had ": 9636,
  "forgive ": 9637,
  "frank": 9638,
  "found\\u000a": 9639,
  "little, ": 9640,
  "dare ": 9641,
  "went into ": 9642,
  "room\\u000a": 9643,
  "on the sof": 9644,
  ", an ": 9645,
  "at the end ": 9646,
  "pard": 9647,
  "repair": 9648,
  "that it is ": 9649,
  "volup": 9650,
  "conceiv": 9651,
  "detail ": 9652,
  "about this ": 9653,
  "the only ": 9654,
  ". Let me ": 9655,
  "reflection ": 9656,
  "sticking ": 9657,
  "foul ": 9658,
  "I did ": 9659,
  "a thousand ": 9660,
  "feet\\u000a": 9661,
  "thread": 9662,
  "prisoner": 9663,
  "beha": 9664,
  "s. So ": 9665,
  "strait": 9666,
  "he may ": 9667,
  "suspicion": 9668,
  "excited ": 9669,
  "lord": 9670,
  "Was it ": 9671,
  "record ": 9672,
  "Rom": 9673,
  "the day ": 9674,
  "hands of ": 9675,
  "direct ": 9676,
  "turning to ": 9677,
  "he were ": 9678,
  "expan": 9679,
  "repul": 9680,
  "begin to ": 9681,
  "atively ": 9682,
  ",\\u000athough ": 9683,
  "rested ": 9684,
  "better\\u000a": 9685,
  "serve ": 9686,
  "things which ": 9687,
  "puzzled ": 9688,
  "pocket ": 9689,
  "in the midst of ": 9690,
  "note ": 9691,
  "the sof": 9692,
  "moist": 9693,
  "as it\\u000a": 9694,
  "ache": 9695,
  "passion": 9696,
  "forms ": 9697,
  "accustomed to ": 9698,
  "proof": 9699,
  "rel ": 9700,
  "and the\\u000a": 9701,
  "asked\\u000a": 9702,
  "language": 9703,
  "communic": 9704,
  "to her": 9705,
  "have the ": 9706,
  "cry ": 9707,
  "look\\u000a": 9708,
  "an hour": 9709,
  "crimin": 9710,
  "speck": 9711,
  "iest ": 9712,
  "phant": 9713,
  "There, ": 9714,
  "I do": 9715,
  "? How ": 9716,
  "this morning ": 9717,
  "f\\u000a": 9718,
  "ventur": 9719,
  "room was ": 9720,
  "breath, ": 9721,
  ". I want ": 9722,
  ". After a ": 9723,
  "angri": 9724,
  "There was a ": 9725,
  "joined ": 9726,
  "obtain ": 9727,
  "hammer": 9728,
  "hid ": 9729,
  "; it is ": 9730,
  "common": 9731,
  "ther\\u000a": 9732,
  "attempt": 9733,
  "For": 9734,
  "delay ": 9735,
  "s is ": 9736,
  ". I don’t ": 9737,
  "inclin": 9738,
  "MIN": 9739,
  "flat": 9740,
  "myself\\u000a": 9741,
  "again, but ": 9742,
  "all our ": 9743,
  "confidence ": 9744,
  "Mr. Morris ": 9745,
  "in’": 9746,
  "a word ": 9747,
  ". Thank ": 9748,
  "like that ": 9749,
  "ately, ": 9750,
  "Holm": 9751,
  "drun": 9752,
  ". He": 9753,
  "July": 9754,
  "are all ": 9755,
  "twisted ": 9756,
  "dau": 9757,
  "umb": 9758,
  "irk": 9759,
  "pir": 9760,
  "father ": 9761,
  "they’d ": 9762,
  "This was ": 9763,
  "Geor": 9764,
  "ed by his ": 9765,
  "hated ": 9766,
  "rew": 9767,
  "harm ": 9768,
  "all over ": 9769,
  "seems to have ": 9770,
  ". He looked ": 9771,
  "life, ": 9772,
  ". Those ": 9773,
  "ran\\u000a": 9774,
  "very, very ": 9775,
  ". m": 9776,
  "early": 9777,
  "Lord Godalming": 9778,
  "sounds ": 9779,
  "weeks ": 9780,
  "Mill": 9781,
  "blowing ": 9782,
  ". More ": 9783,
  "set, ": 9784,
  "ts were ": 9785,
  "distinctly ": 9786,
  "sand": 9787,
  "white, ": 9788,
  "absorb": 9789,
  "backed ": 9790,
  "shudder ": 9791,
  ", as if ": 9792,
  "police ": 9793,
  "ations, ": 9794,
  "wooden ": 9795,
  "acting ": 9796,
  "to\\u000a\\u000a\\u000c": 9797,
  "belly ": 9798,
  "steady ": 9799,
  "reported ": 9800,
  "bun": 9801,
  "something of the ": 9802,
  "feared ": 9803,
  "spread": 9804,
  ", I shall ": 9805,
  ". Only ": 9806,
  "Rou": 9807,
  "lieve ": 9808,
  "annel": 9809,
  "hoar": 9810,
  "knife": 9811,
  "Him": 9812,
  "word, ": 9813,
  "sunri": 9814,
  "duty": 9815,
  "enough, ": 9816,
  "g, ": 9817,
  "with our ": 9818,
  "ant, ": 9819,
  "came in": 9820,
  "expected": 9821,
  "trembl": 9822,
  "spell": 9823,
  "church ": 9824,
  "anxiet": 9825,
  "locked the ": 9826,
  "benef": 9827,
  ", and as ": 9828,
  "destin": 9829,
  "require": 9830,
  "utmost ": 9831,
  "dela": 9832,
  "staying ": 9833,
  "ride ": 9834,
  "resolu": 9835,
  "where\\u000a": 9836,
  "on the other ": 9837,
  "Renfield": 9838,
  "door of the ": 9839,
  "treat ": 9840,
  "I can see ": 9841,
  "back, and ": 9842,
  "me by ": 9843,
  "plain ": 9844,
  "responsi": 9845,
  "even more ": 9846,
  "ree ": 9847,
  "proved ": 9848,
  "his mind ": 9849,
  "we came ": 9850,
  "waked ": 9851,
  "summon": 9852,
  "s. Her ": 9853,
  "that time ": 9854,
  "report ": 9855,
  "account of ": 9856,
  "without any ": 9857,
  "mic": 9858,
  "question, ": 9859,
  "over-": 9860,
  "chol": 9861,
  "intell": 9862,
  "intelle": 9863,
  "; but": 9864,
  "what we ": 9865,
  "cro": 9866,
  "in his\\u000a": 9867,
  "itual ": 9868,
  "hand of ": 9869,
  "eyebrows ": 9870,
  "maid ": 9871,
  "absolute ": 9872,
  "adjust": 9873,
  "stood up": 9874,
  "!” I ": 9875,
  "on\\u000aher ": 9876,
  "precau": 9877,
  "owe ": 9878,
  "credi": 9879,
  "dining-room ": 9880,
  "sob": 9881,
  "Gazette": 9882,
  "eper": 9883,
  "no, ": 9884,
  "can you ": 9885,
  "had done ": 9886,
  "utch": 9887,
  "of his own ": 9888,
  "sex": 9889,
  "entry ": 9890,
  "stupid ": 9891,
  "ied ": 9892,
  "percep": 9893,
  "perplex": 9894,
  "slumber": 9895,
  "is it": 9896,
  "Tru": 9897,
  "phra": 9898,
  ". However, ": 9899,
  "he\\u000awas ": 9900,
  "going on ": 9901,
  "ve and ": 9902,
  "Only ": 9903,
  "sis": 9904,
  "up\\u000athe ": 9905,
  "expressed ": 9906,
  "violence ": 9907,
  "mped ": 9908,
  "said to him": 9909,
  "Under the ": 9910,
  "faith ": 9911,
  "inte": 9912,
  "Lord Godalming, ": 9913,
  "former ": 9914,
  "To": 9915,
  "circumstances": 9916,
  "sacred ": 9917,
  "Quite ": 9918,
  "or three ": 9919,
  "faced ": 9920,
  "roll ": 9921,
  "was almost ": 9922,
  "perman": 9923,
  "ata ": 9924,
  "sion\\u000a": 9925,
  "one more ": 9926,
  "FOR": 9927,
  "give you ": 9928,
  "staggered ": 9929,
  "northern ": 9930,
  "screw": 9931,
  "stab": 9932,
  "t\\u000aof the ": 9933,
  "again,\\u000a": 9934,
  ". We all ": 9935,
  "unseen ": 9936,
  "growl": 9937,
  "Greek": 9938,
  "ready for ": 9939,
  "sold": 9940,
  "writhing ": 9941,
  "ed and\\u000a": 9942,
  "Mrs. Harker’s ": 9943,
  "on his\\u000a": 9944,
  "connect": 9945,
  "sister ": 9946,
  "contemp": 9947,
  "consum": 9948,
  "battle ": 9949,
  "ings and ": 9950,
  "owl": 9951,
  "was he ": 9952,
  "where we ": 9953,
  "it for ": 9954,
  "considered ": 9955,
  ",\\u000ahis ": 9956,
  "frantic ": 9957,
  "amen": 9958,
  "were a ": 9959,
  "out of\\u000a": 9960,
  "fascinating ": 9961,
  "interview ": 9962,
  ". She hadn’t ": 9963,
  "conveni": 9964,
  "loom": 9965,
  "cus ": 9966,
  "a large ": 9967,
  "difficult to ": 9968,
  "Fear": 9969,
  "s. A ": 9970,
  "grabb": 9971,
  "suffoc": 9972,
  "requir": 9973,
  "or of ": 9974,
  "asked, ": 9975,
  "ing her to ": 9976,
  "she said": 9977,
  "As for ": 9978,
  "spur ": 9979,
  "opened and ": 9980,
  "lapping ": 9981,
  "long-": 9982,
  "s for the ": 9983,
  "humanity": 9984,
  "fy": 9985,
  "ed her\\u000a": 9986,
  "that,\\u000a": 9987,
  "Ru": 9988,
  "Galatz": 9989,
  "Ri": 9990,
  "response ": 9991,
  "-up": 9992,
  "via ": 9993,
  "Skin": 9994,
  "chase ": 9995,
  "stopping ": 9996,
  "return to the ": 9997,
  "e of these ": 9998,
  "es\\u000aand ": 9999
}