{
  "\\u0000": 0,
  "\\u0001": 1,
  "\\u0002": 2,
  "\\u0003": 3,
  "\\u0004": 4,
  "\\u0005": 5,
  "\\u0006": 6,
  "\\u0007": 7,
  "\\u0008": 8,
  "\\u0009": 9,
  "\\u000a": 10,
  "\\u000b": 11,
  "\\u000c": 12,
  "\\u000d": 13,
  "\\u000e": 14,
  "\\u000f": 15,
  "\\u0010": 16,
  "\\u0011": 17,
  "\\u0012": 18,
  "\\u0013": 19,
  "\\u0014": 20,
  "\\u0015": 21,
  "\\u0016": 22,
  "\\u0017": 23,
  "\\u0018": 24,
  "\\u0019": 25,
  "\\u001a": 26,
  "\\u001b": 27,
  "\\u001c": 28,
  "\\u001d": 29,
  "\\u001e": 30,
  "\\u001f": 31,
  " ": 32,
  "!": 33,
  "\"": 34,
  "#": 35,
  "$": 36,
  "%": 37,
  "&": 38,
  "'": 39,
  "(": 40,
  ")": 41,
  "*": 42,
  "+": 43,
  ",": 44,
  "-": 45,
  ".": 46,
  "/": 47,
  "0": 48,
  "1": 49,
  "2": 50,
  "3": 51,
  "4": 52,
  "5": 53,
  "6": 54,
  "7": 55,
  "8": 56,
  "9": 57,
  ":": 58,
  ";": 59,
  "<": 60,
  "=": 61,
  ">": 62,
  "?": 63,
  "@": 64,
  "A": 65,
  "B": 66,
  "C": 67,
  "D": 68,
  "E": 69,
  "F": 70,
  "G": 71,
  "H": 72,
  "I": 73,
  "J": 74,
  "K": 75,
  "L": 76,
  "M": 77,
  "N": 78,
  "O": 79,
  "P": 80,
  "Q": 81,
  "R": 82,
  "S": 83,
  "T": 84,
  "U": 85,
  "V": 86,
  "W": 87,
  "X": 88,
  "Y": 89,
  "Z": 90,
  "[": 91,
  "\\": 92,
  "]": 93,
  "^": 94,
  "_": 95,
  "`": 96,
  "a": 97,
  "b": 98,
  "c": 99,
  "d": 100,
  "e": 101,
  "f": 102,
  "g": 103,
  "h": 104,
  "i": 105,
  "j": 106,
  "k": 107,
  "l": 108,
  "m": 109,
  "n": 110,
  "o": 111,
  "p": 112,
  "q": 113,
  "r": 114,
  "s": 115,
  "t": 116,
  "u": 117,
  "v": 118,
  "w": 119,
  "x": 120,
  "y": 121,
  "z": 122,
  "{": 123,
  "|": 124,
  "}": 125,
  "~": 126,
  "\\u007f": 127,
  "\\x80": 128,
  "\\x81": 129,
  "\\x82": 130,
  "\\x83": 131,
  "\\x84": 132,
  "\\x85": 133,
  "\\x86": 134,
  "\\x87": 135,
  "\\x88": 136,
  "\\x89": 137,
  "\\x8a": 138,
  "\\x8b": 139,
  "\\x8c": 140,
  "\\x8d": 141,
  "\\x8e": 142,
  "\\x8f": 143,
  "\\x90": 144,
  "\\x91": 145,
  "\\x92": 146,
  "\\x93": 147,
  "\\x94": 148,
  "\\x95": 149,
  "\\x96": 150,
  "\\x97": 151,
  "\\x98": 152,
  "\\x99": 153,
  "\\x9a": 154,
  "\\x9b": 155,
  "\\x9c": 156,
  "\\x9d": 157,
  "\\x9e": 158,
  "\\x9f": 159,
  " ": 160,
  "¡": 161,
  "¢": 162,
  "£": 163,
  "¤": 164,
  "¥": 165,
  "¦": 166,
  "§": 167,
  "¨": 168,
  "©": 169,
  "ª": 170,
  "«": 171,
  "¬": 172,
  "\\xad": 173,
  "®": 174,
  "¯": 175,
  "°": 176,
  "±": 177,
  "²": 178,
  "³": 179,
  "´": 180,
  "µ": 181,
  "¶": 182,
  "·": 183,
  "¸": 184,
  "¹": 185,
  "º": 186,
  "»": 187,
  "¼": 188,
  "½": 189,
  "¾": 190,
  "¿": 191,
  "À": 192,
  "Á": 193,
  "Â": 194,
  "Ã": 195,
  "Ä": 196,
  "Å": 197,
  "Æ": 198,
  "Ç": 199,
  "È": 200,
  "É": 201,
  "Ê": 202,
  "Ë": 203,
  "Ì": 204,
  "Í": 205,
  "Î": 206,
  "Ï": 207,
  "Ð": 208,
  "Ñ": 209,
  "Ò": 210,
  "Ó": 211,
  "Ô": 212,
  "Õ": 213,
  "Ö": 214,
  "×": 215,
  "Ø": 216,
  "Ù": 217,
  "Ú": 218,
  "Û": 219,
  "Ü": 220,
  "Ý": 221,
  "Þ": 222,
  "ß": 223,
  "à": 224,
  "á": 225,
  "â": 226,
  "ã": 227,
  "ä": 228,
  "å": 229,
  "æ": 230,
  "ç": 231,
  "è": 232,
  "é": 4161,
  "ê": 234,
  "ë": 235,
  "ì": 236,
  "í": 237,
  "î": 238,
  "ï": 239,
  "ð": 240,
  "ñ": 241,
  "ò": 242,
  "ó": 243,
  "ô": 244,
  "õ": 245,
  "ö": 246,
  "÷": 247,
  "ø": 248,
  "ù": 249,
  "ú": 250,
  "û": 251,
  "ü": 252,
  "ý": 253,
  "þ": 254,
  "ÿ": 255,
  "e ": 256,
  "th": 257,
  "d ": 258,
  "t ": 259,
  "s ": 260,
  "in": 261,
  "er": 262,
  "an": 263,
  ", ": 264,
  "the ": 265,
  "ou": 266,
  "en": 267,
  "on": 268,
  "o ": 269,
  "y ": 270,
  "  ": 271,
  "ed ": 272,
  "or": 273,
  "ing": 274,
  ". ": 275,
  "ar": 276,
  "and ": 277,
  "f ": 278,
  "to ": 279,
  "er ": 280,
  "re": 281,
  "�": 282,
  "ing ": 283,
  "st": 284,
  "ll": 285,
  "of ": 286,
  "ha": 287,
  "hi": 288,
  "a ": 289,
  "wa": 290,
  "he ": 291,
  "om": 292,
  "I ": 293,
  "    ": 294,
  "in ": 295,
  "at ": 296,
  "se": 297,
  "at": 298,
  "ow": 299,
  ".\\u000a": 300,
  "es": 301,
  "it": 302,
  "ac": 303,
  "le": 304,
  "en ": 305,
  "wi": 306,
  "gh": 307,
  "or ": 308,
  "al": 309,
  "ll ": 310,
  "ed": 311,
  "on ": 312,
  "as": 313,
  "ch": 314,
  "li": 315,
  "was ": 316,
  "ti": 317,
  "be": 318,
  ", and ": 319,
  "si": 320,
  "ri": 321,
  "th ": 322,
  "’": 323,
  "that ": 324,
  "an ": 325,
  "sh": 326,
  "the": 327,
  "her ": 328,
  "ro": 329,
  "k ": 330,
  "is ": 331,
  "ly ": 332,
  "ur": 333,
  "un": 334,
  "ve ": 335,
  "you": 336,
  "        ": 337,
  "oo": 338,
  "di": 339,
  "us": 340,
  "ld ": 341,
  "ere ": 342,
  "he": 343,
  "his ": 344,
  "it ": 345,
  "sa": 346,
  "m ": 347,
  "\\u000a\\u000a": 348,
  "as ": 349,
  "with ": 350,
  "me": 351,
  "no": 352,
  "ut ": 353,
  "le ": 354,
  "de": 355,
  "ir": 356,
  ",\\u000a": 357,
  "ca": 358,
  "me ": 359,
  "and": 360,
  "ad": 361,
  "wh": 362,
  "for ": 363,
  "es ": 364,
  "ra": 365,
  "p ": 366,
  "had ": 367,
  "ic": 368,
  "she ": 369,
  "ver": 370,
  "el": 371,
  "ta": 372,
  "ter": 373,
  "em": 374,
  ". T": 375,
  "ow ": 376,
  "ould ": 377,
  "oun": 378,
  "lo": 379,
  "ch ": 380,
  "sp": 381,
  "ent": 382,
  "for": 383,
  "su": 384,
  "ag": 385,
  "fr": 386,
  "n ": 387,
  "of the ": 388,
  "om ": 389,
  "s, ": 390,
  "whi": 391,
  "ab": 392,
  "pp": 393,
  "ne": 394,
  "my ": 395,
  "you ": 396,
  "our": 397,
  "fe": 398,
  "s\\u000a": 399,
  ".\\u000a\\u000a": 400,
  "; ": 401,
  "ght ": 402,
  "ent ": 403,
  "se ": 404,
  "to": 405,
  "—": 406,
  "out ": 407,
  "ma": 408,
  "but ": 409,
  "not ": 410,
  "com": 411,
  "be ": 412,
  "this ": 413,
  "il": 414,
  "e\\u000a": 415,
  "ke ": 416,
  "con": 417,
  "we ": 418,
  "id": 419,
  "\" ": 420,
  "e, ": 421,
  "have ": 422,
  "from ": 423,
  "by ": 424,
  "to the ": 425,
  "la": 426,
  "al ": 427,
  "qu": 428,
  "ex": 429,
  "all ": 430,
  "som": 431,
  "we": 432,
  "po": 433,
  "st ": 434,
  "                ": 435,
  "ght": 436,
  "in the ": 437,
  "so ": 438,
  "of": 439,
  "‘": 440,
  ". H": 441,
  "her": 442,
  "'s ": 443,
  "“": 444,
  "ati": 445,
  "y, ": 446,
  "w ": 447,
  "fi": 448,
  "mo": 449,
  "do": 450,
  "ul": 451,
  "op": 452,
  "one ": 453,
  "ce ": 454,
  "ver ": 455,
  "were ": 456,
  "ru": 457,
  "ce": 458,
  "\"\\u000a\\u000a": 459,
  ". I ": 460,
  "ong": 461,
  "bo": 462,
  "ed to ": 463,
  "ar ": 464,
  ". S": 465,
  "”": 466,
  "ust ": 467,
  "wor": 468,
  "all": 469,
  "ut": 470,
  "ld": 471,
  "ter ": 472,
  "co": 473,
  "is": 474,
  "hat ": 475,
  "ge": 476,
  "id ": 477,
  "ough": 478,
  "im": 479,
  "mor": 480,
  ". I": 481,
  "our ": 482,
  "s of ": 483,
  "te": 484,
  "ct": 485,
  "are ": 486,
  "ck": 487,
  "the\\u000a": 488,
  "kn": 489,
  "’ ": 490,
  "ther ": 491,
  "pl": 492,
  "sel": 493,
  "its ": 494,
  "y\\u000a": 495,
  "am": 496,
  "der": 497,
  "loo": 498,
  "vi": 499,
  "ang": 500,
  "ir ": 501,
  "which ": 502,
  "per": 503,
  "’s ": 504,
  ",\" ": 505,
  "ther": 506,
  "us ": 507,
  "res": 508,
  "dow": 509,
  "could ": 510,
  "him": 511,
  "ed, ": 512,
  "up ": 513,
  "\"\\u000a\\u000a\"": 514,
  "bac": 515,
  "et": 516,
  "if ": 517,
  "ough ": 518,
  "would ": 519,
  "go": 520,
  ". The ": 521,
  "him ": 522,
  "ard": 523,
  "ain": 524,
  "on the ": 525,
  "pro": 526,
  ". A": 527,
  "so": 528,
  "fac": 529,
  "ked ": 530,
  "man": 531,
  "'t ": 532,
  "ep": 533,
  "ound ": 534,
  "thing ": 535,
  "ap": 536,
  "\\u000athe ": 537,
  "some ": 538,
  "ev": 539,
  "da": 540,
  "tr": 541,
  "ess": 542,
  "pe": 543,
  "ey": 544,
  "til": 545,
  "no ": 546,
  "ed the ": 547,
  "The ": 548,
  "au": 549,
  "said ": 550,
  "um": 551,
  "they ": 552,
  "ard ": 553,
  "when ": 554,
  ". W": 555,
  "ed\\u000a": 556,
  "! ": 557,
  "mi": 558,
  "bl": 559,
  "ad ": 560,
  "king ": 561,
  "gre": 562,
  "assi": 563,
  "tain ": 564,
  "sti": 565,
  "sc": 566,
  "there ": 567,
  "long": 568,
  "But ": 569,
  "ble ": 570,
  "ear": 571,
  "what ": 572,
  "like ": 573,
  "been ": 574,
  "af": 575,
  "out": 576,
  "’t ": 577,
  "s and ": 578,
  "es, ": 579,
  "et ": 580,
  "” ": 581,
  "ese ": 582,
  "Th": 583,
  "sha": 584,
  "then ": 585,
  "fin": 586,
  "ni": 587,
  "tur": 588,
  "very ": 589,
  "\\u000a“": 590,
  "ly": 591,
  ", but ": 592,
  "de ": 593,
  "clo": 594,
  "str": 595,
  "ting ": 596,
  "ted ": 597,
  ". He ": 598,
  "into ": 599,
  "up": 600,
  "and\\u000a": 601,
  ". She ": 602,
  "spe": 603,
  "sur": 604,
  "their ": 605,
  "end": 606,
  "thr": 607,
  "your": 608,
  "ould": 609,
  "with": 610,
  "Cassi": 611,
  "ation": 612,
  "ach": 613,
  "ast ": 614,
  "ing\\u000a": 615,
  "ess ": 616,
  "gr": 617,
  "back ": 618,
  "ge ": 619,
  ", the ": 620,
  ". Th": 621,
  "min": 622,
  "par": 623,
  "again": 624,
  "over ": 625,
  "these ": 626,
  "more ": 627,
  "sh ": 628,
  "ous ": 629,
  "tw": 630,
  "too": 631,
  "way ": 632,
  "                                ": 633,
  "said": 634,
  "autil": 635,
  "ant ": 636,
  "Nautil": 637,
  "came ": 638,
  "gi": 639,
  "ound": 640,
  "ose ": 641,
  ", I ": 642,
  "at the ": 643,
  "ood ": 644,
  "will ": 645,
  "only ": 646,
  "hand": 647,
  "can ": 648,
  "must ": 649,
  "You": 650,
  "ci": 651,
  "went ": 652,
  "ke": 653,
  "ful": 654,
  "fu": 655,
  "t\\u000a": 656,
  "befor": 657,
  "do ": 658,
  "sed ": 659,
  "than ": 660,
  "some": 661,
  "mu": 662,
  "itt": 663,
  "cl": 664,
  "seem": 665,
  "them ": 666,
  "? ": 667,
  "thing": 668,
  "see ": 669,
  "vo": 670,
  "pres": 671,
  "nd ": 672,
  ". \"": 673,
  "about ": 674,
  "rea": 675,
  "any ": 676,
  "read": 677,
  "in a ": 678,
  "mad": 679,
  "other ": 680,
  ".\"\\u000a\\u000a\"": 681,
  "tion": 682,
  "n't ": 683,
  "ate ": 684,
  "fl": 685,
  "your ": 686,
  "Cap": 687,
  "from the ": 688,
  "der ": 689,
  "’\\u000a": 690,
  ".\\u000a\\u000a\"": 691,
  "br": 692,
  "est ": 693,
  "that": 694,
  "ck ": 695,
  "ve": 696,
  "way": 697,
  "a\\u000a": 698,
  "thin": 699,
  "star": 700,
  "il ": 701,
  "Mr": 702,
  "d\\u000a": 703,
  "ast": 704,
  ".\\u000a‘": 705,
  "Cassie ": 706,
  "ho": 707,
  "ep ": 708,
  "rep": 709,
  ". It ": 710,
  "Con": 711,
  "time": 712,
  "down ": 713,
  "who ": 714,
  "don": 715,
  "ing the ": 716,
  "ing to ": 717,
  "man ": 718,
  "own ": 719,
  "just ": 720,
  "00": 721,
  "time ": 722,
  ",\\u000aand ": 723,
  "app": 724,
  "ff": 725,
  "Captain ": 726,
  "a s": 727,
  "ber": 728,
  "ant": 729,
  "g ": 730,
  "turn": 731,
  "ble": 732,
  "know ": 733,
  "made ": 734,
  "self ": 735,
  "to\\u000a": 736,
  "thou": 737,
  "\\u000a\\u000a\\u000c": 738,
  "has ": 739,
  "car": 740,
  "am ": 741,
  "through ": 742,
  "before ": 743,
  "Conse": 744,
  "able ": 745,
  "pa": 746,
  "Nem": 747,
  "iti": 748,
  "\"\\u000a": 749,
  "them": 750,
  "ite ": 751,
  "did ": 752,
  "comp": 753,
  "He ": 754,
  "ed her ": 755,
  "fir": 756,
  "Pro": 757,
  "ster": 758,
  "re ": 759,
  "win": 760,
  "use ": 761,
  "under": 762,
  "cap": 763,
  "Captain Nem": 764,
  "gl": 765,
  "You ": 766,
  "av": 767,
  "litt": 768,
  "fri": 769,
  "by the ": 770,
  "shi": 771,
  "sing ": 772,
  "att": 773,
  "n’t ": 774,
  "hor": 775,
  "ever": 776,
  "ct ": 777,
  "ation ": 778,
  "even ": 779,
  "cor": 780,
  "face ": 781,
  "plac": 782,
  "where ": 783,
  "cont": 784,
  "—\\u000a“": 785,
  "ful ": 786,
  "may ": 787,
  "ob": 788,
  "ed with ": 789,
  "ga": 790,
  "ing, ": 791,
  "tain": 792,
  "now ": 793,
  "s.\\u000a": 794,
  "can": 795,
  "come ": 796,
  "arm": 797,
  "how ": 798,
  "water": 799,
  "tic": 800,
  "open": 801,
  "dd": 802,
  "fo": 803,
  "cre": 804,
  "s, and ": 805,
  "pre": 806,
  "ark": 807,
  "ed and ": 808,
  "bet": 809,
  "go ": 810,
  "took ": 811,
  "beg": 812,
  "uc": 813,
  "na": 814,
  "two ": 815,
  "’\\u000a‘": 816,
  "t of ": 817,
  "saw ": 818,
  ":—\\u000a“": 819,
  "ste": 820,
  "ser": 821,
  "such ": 822,
  "ure": 823,
  ". ‘": 824,
  "it was ": 825,
  "vel": 826,
  "into the ": 827,
  "tion ": 828,
  "des": 829,
  "ally ": 830,
  "shall ": 831,
  "side ": 832,
  "get ": 833,
  "ence ": 834,
  ". But ": 835,
  "of\\u000a": 836,
  "tri": 837,
  "I'": 838,
  ".\\u000a\"": 839,
  "fre": 840,
  "still ": 841,
  "ol": 842,
  "ic ": 843,
  "brea": 844,
  "one": 845,
  "sle": 846,
  "je": 847,
  "emp": 848,
  "fel": 849,
  "tra": 850,
  "long ": 851,
  "fess": 852,
  "know": 853,
  "ed in ": 854,
  "sl": 855,
  "pu": 856,
  "with the ": 857,
  "most ": 858,
  "ity ": 859,
  "sta": 860,
  "self": 861,
  "did": 862,
  "bod": 863,
  "eyes ": 864,
  "day": 865,
  "e of ": 866,
  "ts ": 867,
  "And ": 868,
  "anc": 869,
  "ved ": 870,
  "No": 871,
  "tt": 872,
  "tre": 873,
  "s,\\u000a": 874,
  "little ": 875,
  "t, ": 876,
  "pri": 877,
  "pos": 878,
  "after ": 879,
  "with a ": 880,
  "l ": 881,
  "enc": 882,
  "ell": 883,
  "; and ": 884,
  "for the ": 885,
  "s to ": 886,
  "ft ": 887,
  "off ": 888,
  "light": 889,
  "off": 890,
  "est": 891,
  "end ": 892,
  "gu": 893,
  "d, ": 894,
  "visi": 895,
  "wer": 896,
  "pas": 897,
  "over": 898,
  "cha": 899,
  "ans": 900,
  "head ": 901,
  "!\" ": 902,
  ". M": 903,
  "bu": 904,
  "thre": 905,
  "It ": 906,
  "think ": 907,
  "make ": 908,
  "ance ": 909,
  "en, ": 910,
  "felt ": 911,
  ".’ ": 912,
  "Conseil ": 913,
  "he\\u000a": 914,
  "now": 915,
  "ves ": 916,
  "Ned ": 917,
  "ving ": 918,
  "ach ": 919,
  "new ": 920,
  "repli": 921,
  "ack": 922,
  "opp": 923,
  ".”": 924,
  "head": 925,
  "ph": 926,
  "could": 927,
  "ated ": 928,
  "ong ": 929,
  "door ": 930,
  "She ": 931,
  "my": 932,
  "ill": 933,
  "mom": 934,
  "ous": 935,
  "ank ": 936,
  "that the ": 937,
  "ef": 938,
  "int": 939,
  "her\\u000a": 940,
  "mer": 941,
  "hel": 942,
  "I\\u000a": 943,
  "Hel": 944,
  "Captain Nemo ": 945,
  "I was ": 946,
  "other": 947,
  "Nautilus ": 948,
  "ate": 949,
  "\\u000a\\u000c": 950,
  "dist": 951,
  "cur": 952,
  "won": 953,
  "mp": 954,
  "gra": 955,
  "hear": 956,
  "ank": 957,
  "sk": 958,
  "                                                ": 959,
  "to be ": 960,
  "te ": 961,
  "cer": 962,
  ", and the ": 963,
  "sil": 964,
  "Ar": 965,
  "looked ": 966,
  "was\\u000a": 967,
  "wha": 968,
  "without ": 969,
  "gg": 970,
  "on, ": 971,
  "cause ": 972,
  "form": 973,
  "under ": 974,
  "spo": 975,
  "got ": 976,
  "back": 977,
  "Nautilus": 978,
  "ers ": 979,
  "me, ": 980,
  "Go": 981,
  "much ": 982,
  "led ": 983,
  "stru": 984,
  "ary ": 985,
  "wr": 986,
  "lly ": 987,
  "hen ": 988,
  "\\u000aand ": 989,
  "anim": 990,
  "any": 991,
  "fa": 992,
  "ros": 993,
  "ly, ": 994,
  "day ": 995,
  "chi": 996,
  "cle": 997,
  "ure ": 998,
  "let ": 999,
  "night": 1000,
  "door": 1001,
  "while ": 1002,
  "ice ": 1003,
  "room": 1004,
  "ele": 1005,
  "though ": 1006,
  "tow": 1007,
  "cr": 1008,
  "feel": 1009,
  "?\"\\u000a\\u000a\"": 1010,
  "flo": 1011,
  "Thom": 1012,
  "s that ": 1013,
  "put ": 1014,
  "heard ": 1015,
  "found ": 1016,
  ": ": 1017,
  "was a ": 1018,
  "en\\u000a": 1019,
  ".\\u000aThe ": 1020,
  "Luc": 1021,
  "mar": 1022,
  "of a ": 1023,
  "ning ": 1024,
  "those ": 1025,
  "happ": 1026,
  "ward": 1027,
  "less ": 1028,
  "might ": 1029,
  "I had ": 1030,
  "llow": 1031,
  "eng": 1032,
  "\"\\u000a\"": 1033,
  "I could ": 1034,
  "ort": 1035,
  "inter": 1036,
  "tell ": 1037,
  "side": 1038,
  "Profess": 1039,
  "t's ": 1040,
  "here ": 1041,
  "left ": 1042,
  "ment": 1043,
  ". O": 1044,
  "down": 1045,
  "work": 1046,
  "ps ": 1047,
  "sho": 1048,
  "lled ": 1049,
  "; but ": 1050,
  "hey ": 1051,
  "qui": 1052,
  "take ": 1053,
  "..": 1054,
  "light ": 1055,
  "pi": 1056,
  "first ": 1057,
  "away ": 1058,
  "mon": 1059,
  "sin": 1060,
  "body ": 1061,
  "ed by ": 1062,
  "sun": 1063,
  "the b": 1064,
  "tch": 1065,
  "thought ": 1066,
  "Van ": 1067,
  "strang": 1068,
  ". We ": 1069,
  "Van Hel": 1070,
  "\\u000a\\u000a\\u000a\\u000a": 1071,
  "lat": 1072,
  "ying ": 1073,
  "ves": 1074,
  "something ": 1075,
  "les ": 1076,
  "who": 1077,
  "pr": 1078,
  "hou": 1079,
  "see": 1080,
  "should ": 1081,
  "a b": 1082,
  "adi": 1083,
  "dar": 1084,
  "told ": 1085,
  "against ": 1086,
  "hin": 1087,
  ",’ ": 1088,
  "fish": 1089,
  "ani": 1090,
  "water ": 1091,
  "of his ": 1092,
  "never ": 1093,
  "coll": 1094,
  "ud": 1095,
  "Ned L": 1096,
  "ine ": 1097,
  "right ": 1098,
  "Can": 1099,
  ",\" said ": 1100,
  "good ": 1101,
  "for a ": 1102,
  "here": 1103,
  "s were ": 1104,
  "andl": 1105,
  "hand ": 1106,
  "s the ": 1107,
  "ty ": 1108,
  "men ": 1109,
  "she was ": 1110,
  ".’\\u000a‘": 1111,
  "ever ": 1112,
  "around ": 1113,
  "hu": 1114,
  "great ": 1115,
  "ood": 1116,
  "dra": 1117,
  "sudd": 1118,
  "that he ": 1119,
  ". B": 1120,
  "shed ": 1121,
  "ea": 1122,
  "his\\u000a": 1123,
  "word": 1124,
  "--": 1125,
  "had been ": 1126,
  "ick": 1127,
  "betwe": 1128,
  "of her ": 1129,
  "and the ": 1130,
  "said, ": 1131,
  "last ": 1132,
  "few ": 1133,
  "gn": 1134,
  "as he ": 1135,
  "s of the ": 1136,
  "Handl": 1137,
  ", and I ": 1138,
  "ready ": 1139,
  "itu": 1140,
  "du": 1141,
  ". F": 1142,
  "stood ": 1143,
  "as she ": 1144,
  "What ": 1145,
  "is\\u000a": 1146,
  "sub": 1147,
  "run": 1148,
  "because ": 1149,
  "cla": 1150,
  "every ": 1151,
  "ner": 1152,
  "x ": 1153,
  "In": 1154,
  "dre": 1155,
  "old ": 1156,
  "whose ": 1157,
  "ed a ": 1158,
  "0 ": 1159,
  "began ": 1160,
  "between ": 1161,
  "meter": 1162,
  "ple": 1163,
  "sou": 1164,
  "supp": 1165,
  "right": 1166,
  "es\\u000a": 1167,
  "ating ": 1168,
  "hal": 1169,
  "?\" ": 1170,
  "Canadi": 1171,
  "that I ": 1172,
  "aw": 1173,
  "sion ": 1174,
  "We ": 1175,
  "This ": 1176,
  "ack ": 1177,
  "nat": 1178,
  ".\\u000a“": 1179,
  "mis": 1180,
  "too ": 1181,
  "tru": 1182,
  "gen": 1183,
  "it, ": 1184,
  ". There ": 1185,
  ".” ": 1186,
  "cu": 1187,
  "ven ": 1188,
  "cau": 1189,
  "dis": 1190,
  "ling ": 1191,
  "stor": 1192,
  "se, ": 1193,
  "she": 1194,
  "pow": 1195,
  "sea ": 1196,
  ".\"\\u000a\\u000a": 1197,
  "coun": 1198,
  "swe": 1199,
  "ently ": 1200,
  "keep ": 1201,
  "ask": 1202,
  "Dr": 1203,
  "in\\u000a": 1204,
  ".\\u000aA": 1205,
  "work ": 1206,
  "ed, and ": 1207,
  "lic": 1208,
  "quite ": 1209,
  "tal": 1210,
  "how": 1211,
  "fur": 1212,
  "room ": 1213,
  "lif": 1214,
  "shor": 1215,
  "an\\u000a": 1216,
  "ist": 1217,
  "let": 1218,
  "mat": 1219,
  "cep": 1220,
  "sion": 1221,
  "men": 1222,
  "being ": 1223,
  "in his ": 1224,
  "?’ ": 1225,
  "bar": 1226,
  "to re": 1227,
  "'re ": 1228,
  "all the ": 1229,
  "set ": 1230,
  "ity": 1231,
  "Thomas ": 1232,
  "it\\u000a": 1233,
  "dou": 1234,
  "ight ": 1235,
  "want ": 1236,
  "have been ": 1237,
  "behin": 1238,
  "foo": 1239,
  "red ": 1240,
  ",” ": 1241,
  "bra": 1242,
  ",\" I ": 1243,
  "er, ": 1244,
  "Min": 1245,
  "sleep": 1246,
  "che": 1247,
  "diff": 1248,
  "ari": 1249,
  "as the ": 1250,
  "Professor ": 1251,
  "Coun": 1252,
  "es of ": 1253,
  "cover": 1254,
  "st\\u000a": 1255,
  "did not ": 1256,
  "lin": 1257,
  "cri": 1258,
  "ing her ": 1259,
  "kin": 1260,
  "sea": 1261,
  "well ": 1262,
  "abo": 1263,
  "seemed to ": 1264,
  "ona": 1265,
  ". Then ": 1266,
  "bloo": 1267,
  "eas": 1268,
  "ken ": 1269,
  "stra": 1270,
  "hop": 1271,
  "until": 1272,
  "night ": 1273,
  "In ": 1274,
  "mov": 1275,
  "har": 1276,
  "find ": 1277,
  "add": 1278,
  "ash": 1279,
  "was": 1280,
  ". And ": 1281,
  "she had ": 1282,
  "que": 1283,
  "sed": 1284,
  "hun": 1285,
  "\\u000a\\u000a\\u000a\\u000a                                                ": 1286,
  "le, ": 1287,
  "bi": 1288,
  "look ": 1289,
  "open ": 1290,
  "that\\u000a": 1291,
  "as if ": 1292,
  "sor": 1293,
  "own": 1294,
  "beli": 1295,
  "seemed ": 1296,
  "!\\u000a": 1297,
  "lay ": 1298,
  "Ned Land ": 1299,
  "ject ": 1300,
  "ses ": 1301,
  "med": 1302,
  "ely ": 1303,
  "hour": 1304,
  "mou": 1305,
  "e and ": 1306,
  "ain ": 1307,
  "but": 1308,
  ".—": 1309,
  "asked ": 1310,
  "he was ": 1311,
  ". You ": 1312,
  "sir": 1313,
  "ide": 1314,
  "ement": 1315,
  "give ": 1316,
  "ve\\u000a": 1317,
  "pped ": 1318,
  "ur ": 1319,
  "wom": 1320,
  "many ": 1321,
  "comm": 1322,
  "Jona": 1323,
  "stand": 1324,
  "would": 1325,
  "mid": 1326,
  ". This ": 1327,
  ", for ": 1328,
  "ak": 1329,
  "\\u000aof ": 1330,
  "until ": 1331,
  "feet ": 1332,
  "through the ": 1333,
  "ome": 1334,
  "friend": 1335,
  "same ": 1336,
  "another ": 1337,
  "she\\u000a": 1338,
  "dep": 1339,
  "kep": 1340,
  "dri": 1341,
  ".\\u000aI ": 1342,
  "window": 1343,
  "each ": 1344,
  "ty": 1345,
  "jo": 1346,
  "h, ": 1347,
  "peri": 1348,
  "sudden": 1349,
  "toge": 1350,
  "fear": 1351,
  "answer": 1352,
  "I’": 1353,
  "contin": 1354,
  "real": 1355,
  "ook": 1356,
  "once ": 1357,
  "land": 1358,
  "ew": 1359,
  ", and she ": 1360,
  "three ": 1361,
  "it is ": 1362,
  "enti": 1363,
  "fish ": 1364,
  "cal": 1365,
  "full ": 1366,
  "white ": 1367,
  "lim": 1368,
  "s.\\u000a\\u000a": 1369,
  "possi": 1370,
  "whole ": 1371,
  "appear": 1372,
  "wonder": 1373,
  "coming ": 1374,
  "bro": 1375,
  "follow": 1376,
  "gri": 1377,
  ". N": 1378,
  "behind ": 1379,
  "poor ": 1380,
  "elect": 1381,
  "yet ": 1382,
  "tu": 1383,
  "gave ": 1384,
  "nothing ": 1385,
  "ber ": 1386,
  "say ": 1387,
  "ed his ": 1388,
  "ly\\u000a": 1389,
  "stopp": 1390,
  "ry ": 1391,
  "if": 1392,
  "toward": 1393,
  "sen": 1394,
  "s. H": 1395,
  ";\\u000a": 1396,
  "since ": 1397,
  "pic": 1398,
  "col": 1399,
  "every": 1400,
  "s in ": 1401,
  "pur": 1402,
  "enough ": 1403,
  ". L": 1404,
  "seen ": 1405,
  "age ": 1406,
  "had\\u000a": 1407,
  "kept ": 1408,
  "air ": 1409,
  "stre": 1410,
  "over the ": 1411,
  "don’t ": 1412,
  "cent": 1413,
  "uten": 1414,
  "wait": 1415,
  "high": 1416,
  "God": 1417,
  "animal": 1418,
  "oce": 1419,
  "ay": 1420,
  "enter": 1421,
  "ence": 1422,
  "say": 1423,
  "son": 1424,
  "didn't ": 1425,
  "wal": 1426,
  ", which ": 1427,
  "times ": 1428,
  "knew ": 1429,
  "I am ": 1430,
  "glas": 1431,
  ". A ": 1432,
  "chang": 1433,
  "visible ": 1434,
  "led": 1435,
  "peop": 1436,
  "thro": 1437,
  "utenber": 1438,
  ",00": 1439,
  ". It was ": 1440,
  "air": 1441,
  "Van Helsing ": 1442,
  "ition": 1443,
  "din": 1444,
  ". They ": 1445,
  ". In ": 1446,
  "low": 1447,
  "should": 1448,
  "le\\u000a": 1449,
  "'ll ": 1450,
  "cour": 1451,
  "there": 1452,
  "ice": 1453,
  "ei": 1454,
  "oc": 1455,
  "held ": 1456,
  "sure ": 1457,
  "moment": 1458,
  "like a ": 1459,
  "sure": 1460,
  "not": 1461,
  "dro": 1462,
  "again ": 1463,
  "!” ": 1464,
  "Canadian ": 1465,
  "ll, ": 1466,
  "to-": 1467,
  "to me": 1468,
  "inst": 1469,
  "replied": 1470,
  "shar": 1471,
  "Com": 1472,
  "Handler ": 1473,
  "iz": 1474,
  "ought ": 1475,
  "ously ": 1476,
  "sci": 1477,
  "ric": 1478,
  "ment ": 1479,
  "nex": 1480,
  "far ": 1481,
  "bur": 1482,
  ", he ": 1483,
  ".\\u000a\\u000a\\u000c": 1484,
  "happen": 1485,
  ".”\\u000a": 1486,
  "heav": 1487,
  "se\\u000a": 1488,
  "nor": 1489,
  "wind": 1490,
  "Kemp": 1491,
  "Un": 1492,
  "Gutenber": 1493,
  "would be ": 1494,
  "began to ": 1495,
  "lu": 1496,
  "ster ": 1497,
  "of this ": 1498,
  "in her ": 1499,
  "ER": 1500,
  "as\\u000a": 1501,
  "degre": 1502,
  "ship": 1503,
  "ctor ": 1504,
  ". When ": 1505,
  "at\\u000a": 1506,
  "sm": 1507,
  "secon": 1508,
  "stri": 1509,
  "lea": 1510,
  "ll\\u000a": 1511,
  "ook ": 1512,
  "as I ": 1513,
  "poin": 1514,
  "row": 1515,
  "tic ": 1516,
  "tting ": 1517,
  "hur": 1518,
  "fam": 1519,
  "doub": 1520,
  "exp": 1521,
  "watch": 1522,
  "Then ": 1523,
  ". D": 1524,
  "fing": 1525,
  "ance": 1526,
  "ide ": 1527,
  "quick": 1528,
  "b ": 1529,
  "I'm ": 1530,
  "able to ": 1531,
  "ten ": 1532,
  "ace": 1533,
  "mm": 1534,
  "herself ": 1535,
  "tly ": 1536,
  "mean": 1537,
  ". If ": 1538,
  "consi": 1539,
  ",\" he ": 1540,
  "sing": 1541,
  "looking ": 1542,
  "both ": 1543,
  "it's ": 1544,
  "from": 1545,
  ", a ": 1546,
  "questi": 1547,
  "round ": 1548,
  "y, and ": 1549,
  "minut": 1550,
  "I have ": 1551,
  "hands ": 1552,
  "ed at ": 1553,
  "cas": 1554,
  "return": 1555,
  "already ": 1556,
  "going ": 1557,
  "cat": 1558,
  "There ": 1559,
  "to her ": 1560,
  "Captain Nemo": 1561,
  "is a ": 1562,
  ", so ": 1563,
  "place ": 1564,
  "moment ": 1565,
  "fter ": 1566,
  "lau": 1567,
  "awa": 1568,
  "feel ": 1569,
  "cru": 1570,
  "les": 1571,
  "acros": 1572,
  ".”\\u000a“": 1573,
  "So ": 1574,
  "with\\u000a": 1575,
  "?\\u000a": 1576,
  "fron": 1577,
  "there was ": 1578,
  "When ": 1579,
  "turn ": 1580,
  "thought": 1581,
  "t’s ": 1582,
  "lock": 1583,
  "had": 1584,
  ".\"\\u000a\"": 1585,
  "next ": 1586,
  "el ": 1587,
  "almost ": 1588,
  "ped ": 1589,
  "rema": 1590,
  "captain": 1591,
  "hear ": 1592,
  "ction": 1593,
  "lling ": 1594,
  "suddenly ": 1595,
  "En": 1596,
  "up the ": 1597,
  ". “": 1598,
  "with his ": 1599,
  "we were ": 1600,
  "t the ": 1601,
  "he had ": 1602,
  "on\\u000a": 1603,
  "ised ": 1604,
  "cir": 1605,
  "stro": 1606,
  "bb": 1607,
  "don't ": 1608,
  "HA": 1609,
  "me\\u000a": 1610,
  "and, ": 1611,
  "voice ": 1612,
  "things ": 1613,
  "fully ": 1614,
  "plat": 1615,
  "try": 1616,
  "eve ": 1617,
  "ish": 1618,
  "help ": 1619,
  "need": 1620,
  "arri": 1621,
  ".\\u000aH": 1622,
  "ek": 1623,
  "in my ": 1624,
  "terri": 1625,
  "My ": 1626,
  "es and ": 1627,
  "compani": 1628,
  "dear ": 1629,
  "simp": 1630,
  "start": 1631,
  "char": 1632,
  "war": 1633,
  "surpri": 1634,
  "Lucy ": 1635,
  "?’\\u000a‘": 1636,
  "continu": 1637,
  "soon ": 1638,
  "ways ": 1639,
  "sof": 1640,
  "or, ": 1641,
  "didn’t ": 1642,
  "’d ": 1643,
  "A ": 1644,
  ". Her ": 1645,
  "ed on ": 1646,
  "himself ": 1647,
  "y to ": 1648,
  "prom": 1649,
  "ning": 1650,
  "gli": 1651,
  "th, ": 1652,
  "y of ": 1653,
  "Fr": 1654,
  "ner ": 1655,
  "one of ": 1656,
  "leg": 1657,
  "mem": 1658,
  "00 ": 1659,
  "imp": 1660,
  "ven": 1661,
  "tried to ": 1662,
  "ith ": 1663,
  "serv": 1664,
  "will be ": 1665,
  "out of ": 1666,
  "face": 1667,
  "' ": 1668,
  "Conseil": 1669,
  "!\"\\u000a\\u000a\"": 1670,
  "clear": 1671,
  "new": 1672,
  "mind ": 1673,
  "er\\u000a": 1674,
  "look": 1675,
  "tor": 1676,
  "E ": 1677,
  "along ": 1678,
  "me to ": 1679,
  "want": 1680,
  "mind": 1681,
  "till ": 1682,
  "ined ": 1683,
  "under the ": 1684,
  "tee": 1685,
  "a few ": 1686,
  "ed.\\u000a": 1687,
  "feet": 1688,
  "laugh": 1689,
  "ily ": 1690,
  "indi": 1691,
  "surface ": 1692,
  "done ": 1693,
  "or\\u000a": 1694,
  "usu": 1695,
  "close ": 1696,
  "ction ": 1697,
  "fell ": 1698,
  "s are ": 1699,
  "fle": 1700,
  "tem": 1701,
  "Mrs. H": 1702,
  "ed, \"": 1703,
  "ses": 1704,
  "ness ": 1705,
  "myself ": 1706,
  "Project ": 1707,
  "Project Gutenber": 1708,
  "near": 1709,
  "ered ": 1710,
  "disa": 1711,
  "after": 1712,
  "rang": 1713,
  "sto": 1714,
  "ement ": 1715,
  "low ": 1716,
  "son ": 1717,
  "num": 1718,
  "going to ": 1719,
  "dea": 1720,
  "vol": 1721,
  "!\"\\u000a\\u000a": 1722,
  "st, ": 1723,
  "ding ": 1724,
  "step": 1725,
  "you, ": 1726,
  "this\\u000a": 1727,
  "Arth": 1728,
  "speci": 1729,
  "ask ": 1730,
  "think": 1731,
  ". As ": 1732,
  "hold": 1733,
  "friend ": 1734,
  "-t": 1735,
  "call": 1736,
  "a, ": 1737,
  "cros": 1738,
  "an, ": 1739,
  "s, the ": 1740,
  "sted ": 1741,
  "in this ": 1742,
  ",\\u000athe ": 1743,
  "dire": 1744,
  "llow ": 1745,
  "ben": 1746,
  "swi": 1747,
  "alm": 1748,
  "bri": 1749,
  "read ": 1750,
  "sound": 1751,
  "?” ": 1752,
  "sma": 1753,
  "was the ": 1754,
  "ick ": 1755,
  "y.\\u000a": 1756,
  "al\\u000a": 1757,
  "ons ": 1758,
  "ise ": 1759,
  "inside ": 1760,
  "as a ": 1761,
  "   ": 1762,
  "well": 1763,
  "when the ": 1764,
  "ran ": 1765,
  "trou": 1766,
  "natur": 1767,
  "Just ": 1768,
  ". E": 1769,
  "ight": 1770,
  "half ": 1771,
  "Qu": 1772,
  "hum": 1773,
  "Nautilus's ": 1774,
  "pect": 1775,
  "anything ": 1776,
  "such a ": 1777,
  "strange ": 1778,
  "ed to the ": 1779,
  "nar": 1780,
  "certain ": 1781,
  "away": 1782,
  "trac": 1783,
  "captain ": 1784,
  "Hank ": 1785,
  "ju": 1786,
  "ition ": 1787,
  "utter": 1788,
  "whe": 1789,
  "mas": 1790,
  "cho": 1791,
  "on his ": 1792,
  "life": 1793,
  "zz": 1794,
  "arvel": 1795,
  ".\\u000a\\u000aThe ": 1796,
  ". . ": 1797,
  "near ": 1798,
  "my\\u000a": 1799,
  "then": 1800,
  "ed that ": 1801,
  "fer": 1802,
  "do not ": 1803,
  "ject": 1804,
  "sli": 1805,
  "would have ": 1806,
  "to see ": 1807,
  "dang": 1808,
  "pan": 1809,
  ".\\u000a\\u000aA": 1810,
  ",\" Conseil ": 1811,
  "s; ": 1812,
  "comfor": 1813,
  "carri": 1814,
  "differ": 1815,
  "as it ": 1816,
  "slow": 1817,
  "sever": 1818,
  "cid": 1819,
  ". His ": 1820,
  "reas": 1821,
  "glo": 1822,
  "upon ": 1823,
  "ched ": 1824,
  "iter": 1825,
  "ef ": 1826,
  "comple": 1827,
  "adv": 1828,
  "be\\u000a": 1829,
  "heart ": 1830,
  "”\\u000a“": 1831,
  "her, ": 1832,
  "loun": 1833,
  ",\" the ": 1834,
  "Count ": 1835,
  "eyes": 1836,
  "val": 1837,
  "appro": 1838,
  "owing ": 1839,
  "dev": 1840,
  "TER": 1841,
  "we had ": 1842,
  "four ": 1843,
  "ome ": 1844,
  "year": 1845,
  "ak ": 1846,
  "hy": 1847,
  "against the ": 1848,
  "land ": 1849,
  "cra": 1850,
  "pain": 1851,
  "ing and ": 1852,
  "then, ": 1853,
  "above ": 1854,
  "used ": 1855,
  "I'll ": 1856,
  "passed ": 1857,
  "him, ": 1858,
  "better ": 1859,
  "have\\u000a": 1860,
  "bed": 1861,
  "lar": 1862,
  "wher": 1863,
  "suff": 1864,
  "Well": 1865,
  "ship ": 1866,
  ".\\u000aShe ": 1867,
  "reg": 1868,
  "stat": 1869,
  "fast": 1870,
  "fect": 1871,
  "clock ": 1872,
  "ye": 1873,
  "reach": 1874,
  "ged ": 1875,
  "ft": 1876,
  "ray": 1877,
  "stair": 1878,
  "sat ": 1879,
  "If ": 1880,
  "18": 1881,
  "animal ": 1882,
  "round": 1883,
  ",000 ": 1884,
  "ine": 1885,
  "myself": 1886,
  "shout": 1887,
  "ward ": 1888,
  "They ": 1889,
  "g-t": 1890,
  "couldn't ": 1891,
  ".\\u000aIt ": 1892,
  "cei": 1893,
  "exc": 1894,
  "this": 1895,
  "plan": 1896,
  "longer ": 1897,
  "care": 1898,
  "claim": 1899,
  "ing a ": 1900,
  "itude ": 1901,
  "cage ": 1902,
  "electric": 1903,
  "\\u000a\\u000a\\u000a": 1904,
  "cul": 1905,
  "stand ": 1906,
  "disapp": 1907,
  "ge, ": 1908,
  "bott": 1909,
  "eath ": 1910,
  "gone ": 1911,
  "s for ": 1912,
  "Lucy": 1913,
  "and I ": 1914,
  "It's ": 1915,
  "Cassie": 1916,
  "not\\u000a": 1917,
  "ical ": 1918,
  "ch\\u000a": 1919,
  "table": 1920,
  "fall": 1921,
  "hard ": 1922,
  "contro": 1923,
  "power": 1924,
  "blin": 1925,
  "\\u000a\\u000a\"": 1926,
  "when I ": 1927,
  "black ": 1928,
  ", she ": 1929,
  "people ": 1930,
  "us, ": 1931,
  "we\\u000a": 1932,
  "igh": 1933,
  "house ": 1934,
  "perha": 1935,
  "degrees ": 1936,
  "Yes, ": 1937,
  "believe ": 1938,
  "into a ": 1939,
  "escap": 1940,
  "TH": 1941,
  "fig": 1942,
  "Jonathan ": 1943,
  "wol": 1944,
  "d of ": 1945,
  "gener": 1946,
  "himself": 1947,
  "sol": 1948,
  "squ": 1949,
  "e to ": 1950,
  "dear": 1951,
  "twent": 1952,
  "’re ": 1953,
  "hard": 1954,
  "s\\u000aof ": 1955,
  "vari": 1956,
  "inten": 1957,
  "also ": 1958,
  "phy": 1959,
  "red": 1960,
  "Not ": 1961,
  "rest ": 1962,
  "agre": 1963,
  "brought ": 1964,
  "ili": 1965,
  "vid": 1966,
  "TER ": 1967,
  "may be ": 1968,
  "table ": 1969,
  "pt ": 1970,
  "ened ": 1971,
  "always ": 1972,
  "became ": 1973,
  "fic": 1974,
  "sul": 1975,
  "CHA": 1976,
  "stu": 1977,
  "making ": 1978,
  "vely ": 1979,
  "is, ": 1980,
  "pleas": 1981,
  "clu": 1982,
  "ke\\u000a": 1983,
  "tim": 1984,
  "streng": 1985,
  "I can ": 1986,
  "you\\u000a": 1987,
  ", and then ": 1988,
  "remem": 1989,
  "profess": 1990,
  "Invisible ": 1991,
  "Invisible M": 1992,
  "act ": 1993,
  "sleep ": 1994,
  "about": 1995,
  "dark ": 1996,
  "to my ": 1997,
  "evid": 1998,
  "good": 1999,
  "taken ": 2000,
  "list": 2001,
  "house": 2002,
  "fla": 2003,
  "world": 2004,
  "lay": 2005,
  "tch ": 2006,
  "said:—\\u000a“": 2007,
  "must be ": 2008,
  "there is ": 2009,
  "getting ": 2010,
  "CHAP": 2011,
  "CHAPTER ": 2012,
  "ish ": 2013,
  "s with ": 2014,
  "imag": 2015,
  "bed ": 2016,
  "more than ": 2017,
  "on her ": 2018,
  "dog": 2019,
  ", and\\u000a": 2020,
  "caught ": 2021,
  "less": 2022,
  "leave ": 2023,
  "le of ": 2024,
  "to his ": 2025,
  "ten": 2026,
  "Mr. M": 2027,
  "form ": 2028,
  "into her ": 2029,
  "…": 2030,
  "Isl": 2031,
  "inde": 2032,
  "for\\u000a": 2033,
  "ately ": 2034,
  "seas": 2035,
  "towards ": 2036,
  "box": 2037,
  "great": 2038,
  "fli": 2039,
  "together": 2040,
  "window ": 2041,
  "ener": 2042,
  "book": 2043,
  "ew ": 2044,
  "oh": 2045,
  "mouth ": 2046,
  "Mad": 2047,
  "cop": 2048,
  "o'": 2049,
  "ed.\\u000a\\u000a\"": 2050,
  "leav": 2051,
  "exist": 2052,
  "certain": 2053,
  "nes": 2054,
  "ground": 2055,
  "and a ": 2056,
  "wall": 2057,
  "through": 2058,
  "stud": 2059,
  "ill ": 2060,
  ". So ": 2061,
  "that we ": 2062,
  "second ": 2063,
  "effor": 2064,
  "they": 2065,
  "the Nautilus ": 2066,
  ", or ": 2067,
  "ali": 2068,
  "For ": 2069,
  "os": 2070,
  "if you ": 2071,
  "ing his ": 2072,
  "to a ": 2073,
  ". P": 2074,
  "fear ": 2075,
  ".’\\u000a": 2076,
  "harpo": 2077,
  "known ": 2078,
  "s—": 2079,
  "cess": 2080,
  "why ": 2081,
  "Wh": 2082,
  "one\\u000a": 2083,
  "ace ": 2084,
  "lli": 2085,
  "floor": 2086,
  "I’m ": 2087,
  "said, \"": 2088,
  "in the\\u000a": 2089,
  "however": 2090,
  "e, and ": 2091,
  "out of the ": 2092,
  "grew ": 2093,
  "experi": 2094,
  "ence, ": 2095,
  ".\\u000aBut ": 2096,
  "draw": 2097,
  "of\\u000athe ": 2098,
  "expect": 2099,
  "bow": 2100,
  "Do": 2101,
  "consider": 2102,
  "es,\\u000a": 2103,
  "oud": 2104,
  "den": 2105,
  "given ": 2106,
  ". I\\u000a": 2107,
  "pen": 2108,
  ". My ": 2109,
  "to get ": 2110,
  ":\\u000a": 2111,
  "How ": 2112,
  "sper": 2113,
  "Wha": 2114,
  "she could ": 2115,
  "Jack": 2116,
  ".\\u000a\\u000aI ": 2117,
  "fore": 2118,
  "moun": 2119,
  "smi": 2120,
  "ious ": 2121,
  "lst ": 2122,
  "od": 2123,
  "bear": 2124,
  "tou": 2125,
  "down the ": 2126,
  "sum": 2127,
  "That ": 2128,
  "beneath ": 2129,
  "secre": 2130,
  "curr": 2131,
  "bey": 2132,
  "far": 2133,
  "lan": 2134,
  "vig": 2135,
  "shell": 2136,
  "meters ": 2137,
  "thir": 2138,
  "por": 2139,
  "heavy ": 2140,
  "kne": 2141,
  "taking ": 2142,
  "so\\u000a": 2143,
  "er and ": 2144,
  "really ": 2145,
  "deep ": 2146,
  "bes": 2147,
  "ortun": 2148,
  "kill": 2149,
  "Lor": 2150,
  "band": 2151,
  "collar ": 2152,
  "memor": 2153,
  "row ": 2154,
  "youn": 2155,
  "p of ": 2156,
  "bus": 2157,
  "icul": 2158,
  "rock": 2159,
  "several ": 2160,
  "scre": 2161,
  "terrible ": 2162,
  "Mina ": 2163,
  "will": 2164,
  "”\\u000a": 2165,
  "need ": 2166,
  "life ": 2167,
  "one, ": 2168,
  "resp": 2169,
  "depth": 2170,
  "tom": 2171,
  "ocean": 2172,
  "board": 2173,
  "'s\\u000a": 2174,
  "'ve ": 2175,
  "order": 2176,
  "dream": 2177,
  "dr": 2178,
  "y-": 2179,
  "simply ": 2180,
  "quiet": 2181,
  "ond ": 2182,
  "hold ": 2183,
  "ed,\\u000a": 2184,
  "sound ": 2185,
  "from\\u000a": 2186,
  "bru": 2187,
  "ching ": 2188,
  "ed it ": 2189,
  "child": 2190,
  "closed ": 2191,
  "blood": 2192,
  "cum": 2193,
  "t to ": 2194,
  "sear": 2195,
  "five ": 2196,
  "begin": 2197,
  "ent\\u000a": 2198,
  "able": 2199,
  "conf": 2200,
  "cut ": 2201,
  "tin": 2202,
  "Dr. S": 2203,
  "surface of the ": 2204,
  ",\" said the ": 2205,
  "onna": 2206,
  "\\u000a\\u000a\\u000a\\u000a                                                    ": 2207,
  "; the ": 2208,
  ", and he ": 2209,
  "least ": 2210,
  "they were ": 2211,
  "mark": 2212,
  "ch, ": 2213,
  "lear": 2214,
  "Whi": 2215,
  "um ": 2216,
  "tun": 2217,
  "dread": 2218,
  "ror": 2219,
  "gest": 2220,
  "sight": 2221,
  "lip": 2222,
  "expres": 2223,
  "of my ": 2224,
  "bly ": 2225,
  "ez": 2226,
  "fun": 2227,
  "ane": 2228,
  "Project Gutenberg-t": 2229,
  "exclaim": 2230,
  "underwater ": 2231,
  "I saw ": 2232,
  "cept ": 2233,
  "rose ": 2234,
  "together ": 2235,
  "exam": 2236,
  "I shall ": 2237,
  "want to ": 2238,
  "wasn’t ": 2239,
  "Godalm": 2240,
  "medi": 2241,
  "Oh, ": 2242,
  "horiz": 2243,
  "either ": 2244,
  ", and we ": 2245,
  "by\\u000a": 2246,
  "rest": 2247,
  "on a ": 2248,
  "dark": 2249,
  "rup": 2250,
  "view": 2251,
  "more": 2252,
  "yell": 2253,
  "her Handler ": 2254,
  "ander ": 2255,
  ". Cassie ": 2256,
  "morning": 2257,
  "as we ": 2258,
  "tail": 2259,
  "bit": 2260,
  "even": 2261,
  "approach": 2262,
  "darkn": 2263,
  "seem ": 2264,
  "ne ": 2265,
  "sail": 2266,
  "pping ": 2267,
  "y and ": 2268,
  "sic": 2269,
  "cannot ": 2270,
  "about the ": 2271,
  "?”\\u000a“": 2272,
  "ably ": 2273,
  "does ": 2274,
  "An": 2275,
  "t of the ": 2276,
  "wo": 2277,
  "ign": 2278,
  "Aronna": 2279,
  "s. I ": 2280,
  "one of the ": 2281,
  "call ": 2282,
  "big ": 2283,
  "is the ": 2284,
  "face, ": 2285,
  "called ": 2286,
  "blu": 2287,
  ", my ": 2288,
  "to keep ": 2289,
  "dur": 2290,
  "full": 2291,
  "ed him ": 2292,
  "floor ": 2293,
  "Jonath": 2294,
  "keep": 2295,
  "throat": 2296,
  "human ": 2297,
  ". She was ": 2298,
  "viol": 2299,
  "hus": 2300,
  "Dr. ": 2301,
  "ince": 2302,
  "her eyes ": 2303,
  "1.": 2304,
  "I've ": 2305,
  "difficul": 2306,
  "lying ": 2307,
  "er’s ": 2308,
  "at a ": 2309,
  "trem": 2310,
  "moved ": 2311,
  "move ": 2312,
  "ear ": 2313,
  "offic": 2314,
  "trying to ": 2315,
  "part": 2316,
  "Tha": 2317,
  "enough to ": 2318,
  "chain ": 2319,
  "famili": 2320,
  ".\"\\u000a": 2321,
  "Aronnax": 2322,
  ":\\u000a\\u000a\"": 2323,
  "all\\u000a": 2324,
  "cell": 2325,
  "kind": 2326,
  "cally ": 2327,
  "excit": 2328,
  "notic": 2329,
  "drew ": 2330,
  "stom": 2331,
  "but\\u000a": 2332,
  ". For ": 2333,
  "ron": 2334,
  "agu": 2335,
  "back to ": 2336,
  "Amer": 2337,
  "Quince": 2338,
  "tran": 2339,
  "5 ": 2340,
  ". At ": 2341,
  ".\\u000aS": 2342,
  "that she ": 2343,
  "name ": 2344,
  "ve, ": 2345,
  "movement": 2346,
  "put": 2347,
  "were\\u000a": 2348,
  "God ": 2349,
  "in the mid": 2350,
  "mil": 2351,
  "resi": 2352,
  "at her ": 2353,
  "that was ": 2354,
  ".’ He ": 2355,
  "Madam ": 2356,
  "kes ": 2357,
  "ed out ": 2358,
  "Oh": 2359,
  "ung ": 2360,
  "ink": 2361,
  "es, and ": 2362,
  "rag": 2363,
  "a little ": 2364,
  "ba": 2365,
  "up and ": 2366,
  "lun": 2367,
  "dead": 2368,
  "coast": 2369,
  "have to ": 2370,
  "dres": 2371,
  "Hark": 2372,
  "that you ": 2373,
  "sigh": 2374,
  "er than ": 2375,
  "ings ": 2376,
  "fix": 2377,
  "Mr. H": 2378,
  ", you ": 2379,
  "ingly ": 2380,
  "idea ": 2381,
  "blood ": 2382,
  "unt": 2383,
  "\\u000ato ": 2384,
  "orri": 2385,
  "We": 2386,
  "with her ": 2387,
  "gy": 2388,
  "Professor Aronnax": 2389,
  "!\\u000a\\u000a": 2390,
  "S ": 2391,
  "morning ": 2392,
  "break": 2393,
  "running ": 2394,
  "high ": 2395,
  "fas": 2396,
  "woman ": 2397,
  "cou": 2398,
  "eyes, ": 2399,
  "lips ": 2400,
  ",\\u000abut ": 2401,
  "must have ": 2402,
  "spir": 2403,
  "vic": 2404,
  "everything ": 2405,
  "day, ": 2406,
  "couldn’t ": 2407,
  "eward": 2408,
  "ctor Jack": 2409,
  "that, ": 2410,
  "world ": 2411,
  "sal": 2412,
  "agg": 2413,
  "itting ": 2414,
  "th of ": 2415,
  "neck": 2416,
  "pear": 2417,
  "order ": 2418,
  "straight ": 2419,
  ".\\u000aHe ": 2420,
  "!’ ": 2421,
  "matter ": 2422,
  "foot": 2423,
  "IN": 2424,
  "o'clock ": 2425,
  "waves": 2426,
  "uni": 2427,
  "Lon": 2428,
  "cking ": 2429,
  "twi": 2430,
  ". She\\u000a": 2431,
  "whilst ": 2432,
  "by a ": 2433,
  "speak": 2434,
  "them, ": 2435,
  "vel ": 2436,
  "horri": 2437,
  "opportun": 2438,
  "ed for ": 2439,
  "eat": 2440,
  "atter": 2441,
  "Gre": 2442,
  "Joh": 2443,
  "waves ": 2444,
  "hadn't ": 2445,
  "replied, \"": 2446,
  "try ": 2447,
  "ely": 2448,
  "a sor": 2449,
  ". What ": 2450,
  "show": 2451,
  "ff ": 2452,
  "lad": 2453,
  "of the\\u000a": 2454,
  "ering ": 2455,
  ", we ": 2456,
  "sed\\u000a": 2457,
  "ordin": 2458,
  "s. The ": 2459,
  "had to ": 2460,
  "ers, ": 2461,
  "vers": 2462,
  "master ": 2463,
  "manag": 2464,
  "turned ": 2465,
  "when he ": 2466,
  "sign": 2467,
  "companion": 2468,
  "master": 2469,
  ". He was ": 2470,
  "miles ": 2471,
  "s. ": 2472,
  "ig": 2473,
  "dam": 2474,
  "Kem": 2475,
  "Kemp ": 2476,
  "hour ": 2477,
  "as they ": 2478,
  "s in the ": 2479,
  "enough": 2480,
  "at once ": 2481,
  "Engli": 2482,
  "from her ": 2483,
  "heart": 2484,
  "sight ": 2485,
  "different ": 2486,
  "run ": 2487,
  "as though ": 2488,
  "chance ": 2489,
  "consci": 2490,
  "Be": 2491,
  "no longer ": 2492,
  "nothing": 2493,
  "Arthur ": 2494,
  "wri": 2495,
  "\\u000a\\u000a\\u000a                                                ": 2496,
  "Mina": 2497,
  "acti": 2498,
  "lost ": 2499,
  "sun ": 2500,
  "eye": 2501,
  "sy": 2502,
  "could\\u000a": 2503,
  "help": 2504,
  ", then ": 2505,
  "disappear": 2506,
  "noti": 2507,
  "suc": 2508,
  "pati": 2509,
  "here, ": 2510,
  "paper": 2511,
  "ed by the ": 2512,
  "stay": 2513,
  "17": 2514,
  "ed at the ": 2515,
  "ann": 2516,
  "He": 2517,
  " degrees ": 2518,
  "fresh ": 2519,
  "cast": 2520,
  "wide ": 2521,
  "strong": 2522,
  "wan": 2523,
  "point": 2524,
  "cut": 2525,
  "a man ": 2526,
  "dom": 2527,
  "chur": 2528,
  "pie": 2529,
  "half": 2530,
  "now, ": 2531,
  "power ": 2532,
  "does": 2533,
  "THE ": 2534,
  "platform": 2535,
  "Hall ": 2536,
  "struck ": 2537,
  ". I was ": 2538,
  "sometimes ": 2539,
  "like the ": 2540,
  "has been ": 2541,
  "recei": 2542,
  "sent ": 2543,
  "if he ": 2544,
  "at on": 2545,
  "understand": 2546,
  "words ": 2547,
  "ed in the ": 2548,
  "that it ": 2549,
  "ance, ": 2550,
  "se of ": 2551,
  "yet": 2552,
  "to me ": 2553,
  "possible ": 2554,
  "small ": 2555,
  "sati": 2556,
  "ton": 2557,
  "emo": 2558,
  "to\\u000athe ": 2559,
  "boat": 2560,
  "cond": 2561,
  "usual ": 2562,
  " S": 2563,
  "!\" said ": 2564,
  "Island": 2565,
  ",\\u000awhich ": 2566,
  "ing, and ": 2567,
  "feeling ": 2568,
  "repe": 2569,
  "slight": 2570,
  "away, ": 2571,
  "word ": 2572,
  "perhaps ": 2573,
  ". That ": 2574,
  "alone ": 2575,
  "deep": 2576,
  "he said": 2577,
  "’s\\u000a": 2578,
  "vill": 2579,
  "pulled ": 2580,
  "of these ": 2581,
  "ness": 2582,
  "sn": 2583,
  "ature": 2584,
  "huge ": 2585,
  "professor": 2586,
  "ed.\\u000a‘": 2587,
  "some\\u000a": 2588,
  "interest": 2589,
  "wanted to ": 2590,
  "could not ": 2591,
  "all, ": 2592,
  "I know ": 2593,
  "ke, ": 2594,
  "ggl": 2595,
  "opened ": 2596,
  "bir": 2597,
  "he said ": 2598,
  "beside ": 2599,
  "arm ": 2600,
  "across ": 2601,
  "motion": 2602,
  "cord": 2603,
  "six ": 2604,
  ": “": 2605,
  "buil": 2606,
  "pla": 2607,
  "fight": 2608,
  "pal": 2609,
  "respon": 2610,
  "De": 2611,
  "electric ": 2612,
  "harpoon": 2613,
  "place": 2614,
  "s,\\u000aand ": 2615,
  "fright": 2616,
  "question": 2617,
  "ed, but ": 2618,
  "age": 2619,
  "still": 2620,
  "ok": 2621,
  "...": 2622,
  "ity, ": 2623,
  "death": 2624,
  "s, but ": 2625,
  "ies ": 2626,
  "ent, ": 2627,
  "circum": 2628,
  "are": 2629,
  "stretch": 2630,
  "spot": 2631,
  "eld": 2632,
  "ing for ": 2633,
  "board ": 2634,
  "Ad": 2635,
  "ze ": 2636,
  "Mr. Marvel": 2637,
  "ed. ‘": 2638,
  ".\\u000aIn ": 2639,
  "fire": 2640,
  "vent": 2641,
  "up to ": 2642,
  "do you ": 2643,
  "pin": 2644,
  ". The\\u000a": 2645,
  "prepar": 2646,
  "t and ": 2647,
  "curi": 2648,
  "watch ": 2649,
  "teeth ": 2650,
  "passa": 2651,
  "glass ": 2652,
  "ary": 2653,
  "ending ": 2654,
  "itch": 2655,
  "from his ": 2656,
  "back to the ": 2657,
  "strong ": 2658,
  "beyond ": 2659,
  "earth": 2660,
  "doctor ": 2661,
  "would\\u000a": 2662,
  "Thomas": 2663,
  "ocean ": 2664,
  "vis": 2665,
  "distri": 2666,
  ". I am ": 2667,
  "outside ": 2668,
  "shook ": 2669,
  "St": 2670,
  "are\\u000a": 2671,
  "duc": 2672,
  "so I ": 2673,
  "way, ": 2674,
  "ping ": 2675,
  "—and ": 2676,
  "reli": 2677,
  "w\\u000a": 2678,
  "It was ": 2679,
  "again, ": 2680,
  "iron ": 2681,
  "sharp ": 2682,
  "days ": 2683,
  "disp": 2684,
  "action": 2685,
  "satis": 2686,
  "shock ": 2687,
  "standing ": 2688,
  "tear": 2689,
  " O": 2690,
  "in’ ": 2691,
  "gro": 2692,
  "encoun": 2693,
  "knowled": 2694,
  "old": 2695,
  "ative ": 2696,
  "kno": 2697,
  "cked ": 2698,
  "per ": 2699,
  "two": 2700,
  "fore ": 2701,
  "doubt ": 2702,
  "ground ": 2703,
  "road": 2704,
  "pressed ": 2705,
  "shoulder": 2706,
  "jum": 2707,
  "fect ": 2708,
  "no\\u000a": 2709,
  "silence ": 2710,
  "actu": 2711,
  "! I ": 2712,
  "if I ": 2713,
  "sw": 2714,
  "if it ": 2715,
  "to make ": 2716,
  "log": 2717,
  "clos": 2718,
  "room, ": 2719,
  "s had ": 2720,
  "off the ": 2721,
  "obser": 2722,
  "number ": 2723,
  "mag": 2724,
  "n, ": 2725,
  "Well, ": 2726,
  "person": 2727,
  "ren": 2728,
  "reco": 2729,
  "ly and ": 2730,
  "past ": 2731,
  "inc": 2732,
  "of its ": 2733,
  "equ": 2734,
  "?\"\\u000a\"": 2735,
  "Hank": 2736,
  "ation, ": 2737,
  "vani": 2738,
  "fair": 2739,
  "top ": 2740,
  "th\\u000a": 2741,
  "used to ": 2742,
  "angu": 2743,
  "or the ": 2744,
  "me, and ": 2745,
  "I could see ": 2746,
  "As ": 2747,
  "dead ": 2748,
  "bor": 2749,
  "ly, and ": 2750,
  "been\\u000a": 2751,
  "; for ": 2752,
  "come": 2753,
  "ing-": 2754,
  "ations ": 2755,
  "remain": 2756,
  "gir": 2757,
  "quar": 2758,
  "No ": 2759,
  "ing it ": 2760,
  ". C": 2761,
  "an in": 2762,
  "cab": 2763,
  "ned ": 2764,
  "ham ": 2765,
  "we'll ": 2766,
  "rather ": 2767,
  "pe ": 2768,
  "a sort of ": 2769,
  "lead": 2770,
  "Yes": 2771,
  "time to ": 2772,
  "him\\u000a": 2773,
  "listen": 2774,
  "in\\u000athe ": 2775,
  "threw ": 2776,
  "man, ": 2777,
  "ceed": 2778,
  "strength ": 2779,
  "afra": 2780,
  "across the ": 2781,
  "doubt": 2782,
  "cold ": 2783,
  "By ": 2784,
  "tever ": 2785,
  "before": 2786,
  "disc": 2787,
  "termin": 2788,
  "hope ": 2789,
  "gent": 2790,
  "cket": 2791,
  "bil": 2792,
  "up, ": 2793,
  "our\\u000a": 2794,
  "eptem": 2795,
  "fight ": 2796,
  "ay ": 2797,
  "und": 2798,
  "obvi": 2799,
  "ber.—": 2800,
  "pell": 2801,
  "island": 2802,
  "'t\\u000a": 2803,
  ".’ She ": 2804,
  ",’ she ": 2805,
  "nearly ": 2806,
  "had a ": 2807,
  "On ": 2808,
  ". G": 2809,
  "writ": 2810,
  ". With ": 2811,
  "sive ": 2812,
  "of our ": 2813,
  "turned to ": 2814,
  "fles": 2815,
  "on my ": 2816,
  "instru": 2817,
  "change ": 2818,
  "ase ": 2819,
  "org": 2820,
  "position ": 2821,
  "rushed ": 2822,
  "gall": 2823,
  "avo": 2824,
  "speed ": 2825,
  "barely ": 2826,
  "staring ": 2827,
  "navig": 2828,
  "Project Gutenberg-tm ": 2829,
  "cage": 2830,
  "Jes": 2831,
  "Doctor Jack": 2832,
  "Cassie’s ": 2833,
  "\\u000a\\u000a\\u000a\\u000a                                                   ": 2834,
  ") ": 2835,
  "At": 2836,
  "gather": 2837,
  "to do ": 2838,
  "the door ": 2839,
  "letter": 2840,
  "speak ": 2841,
  "young ": 2842,
  "full of ": 2843,
  "selves ": 2844,
  "lower ": 2845,
  "incre": 2846,
  "sudden ": 2847,
  "fain": 2848,
  "where": 2849,
  "Se": 2850,
  "clock": 2851,
  "s, I ": 2852,
  "ken": 2853,
  "prison": 2854,
  "deser": 2855,
  "exha": 2856,
  "we have ": 2857,
  "Quincey ": 2858,
  "in, ": 2859,
  "Lord ": 2860,
  "clas": 2861,
  "oper": 2862,
  "made her ": 2863,
  "toward ": 2864,
  "pper ": 2865,
  "ed. \"": 2866,
  "wonderful ": 2867,
  "path": 2868,
  "stay ": 2869,
  "grou": 2870,
  "pet": 2871,
  "found": 2872,
  "immedi": 2873,
  "anx": 2874,
  "iness ": 2875,
  "mean ": 2876,
  "stop ": 2877,
  "my friend": 2878,
  "case ": 2879,
  ". It is ": 2880,
  "clim": 2881,
  "below ": 2882,
  "told me ": 2883,
  "not be ": 2884,
  "clear ": 2885,
  "mista": 2886,
  "Now ": 2887,
  "cli": 2888,
  "gas": 2889,
  "minutes ": 2890,
  "fif": 2891,
  "show ": 2892,
  "His ": 2893,
  "rise ": 2894,
  "atten": 2895,
  "tight": 2896,
  "liqu": 2897,
  "… ": 2898,
  "matter": 2899,
  "there were ": 2900,
  "fingers ": 2901,
  "understand ": 2902,
  "asle": 2903,
  "large ": 2904,
  "save ": 2905,
  "a sing": 2906,
  "whom ": 2907,
  "discover": 2908,
  "its\\u000a": 2909,
  "descri": 2910,
  "al, ": 2911,
  "stanc": 2912,
  "weap": 2913,
  "chest": 2914,
  "hes": 2915,
  "Americ": 2916,
  "ular ": 2917,
  "mus": 2918,
  "Lucy’s ": 2919,
  "arrang": 2920,
  "vessel": 2921,
  "breath": 2922,
  "ds ": 2923,
  "tal ": 2924,
  "rat": 2925,
  "pressure ": 2926,
  "pain ": 2927,
  "Mrs. Hark": 2928,
  "__": 2929,
  "ot": 2930,
  "talk ": 2931,
  "they\\u000a": 2932,
  "sett": 2933,
  "course ": 2934,
  "ble\\u000a": 2935,
  "ion": 2936,
  "answered ": 2937,
  "went on": 2938,
  ". There was ": 2939,
  "wish": 2940,
  "black": 2941,
  "ith": 2942,
  "sus": 2943,
  "distur": 2944,
  "ream ": 2945,
  "towards the ": 2946,
  "wish ": 2947,
  "prob": 2948,
  "soli": 2949,
  "observ": 2950,
  "purpo": 2951,
  "emer": 2952,
  "by": 2953,
  "scar": 2954,
  "ed. The ": 2955,
  "shot ": 2956,
  "can’t ": 2957,
  "’ve ": 2958,
  "seas ": 2959,
  "concer": 2960,
  "her body ": 2961,
  "leng": 2962,
  "on its ": 2963,
  ",000": 2964,
  "can't ": 2965,
  "--\\u000a": 2966,
  "frig": 2967,
  "replied. \"": 2968,
  "tty ": 2969,
  "I don’t ": 2970,
  "ited ": 2971,
  "rid": 2972,
  "at least ": 2973,
  "act": 2974,
  "No, ": 2975,
  "cent ": 2976,
  "bol": 2977,
  "moving ": 2978,
  "ror ": 2979,
  "instant": 2980,
  "laid ": 2981,
  "to him": 2982,
  "With ": 2983,
  "mir": 2984,
  "love ": 2985,
  "king": 2986,
  "Au": 2987,
  ". Then he ": 2988,
  "walked ": 2989,
  "forc": 2990,
  "loc": 2991,
  "might be ": 2992,
  "wound": 2993,
  "monster": 2994,
  "you have ": 2995,
  "an’ ": 2996,
  "equi": 2997,
  "ero": 2998,
  "and she ": 2999,
  "electron": 3000,
  "15": 3001,
  "Atlan": 3002,
  "\\u000a\\u000c\"": 3003,
  "horse": 3004,
  "sort of ": 3005,
  "further ": 3006,
  "e, but ": 3007,
  "thor": 3008,
  "myster": 3009,
  "you are ": 3010,
  "neck ": 3011,
  "often ": 3012,
  "; he ": 3013,
  "colle": 3014,
  "ily": 3015,
  ", but the ": 3016,
  "growing ": 3017,
  "boat ": 3018,
  "to take ": 3019,
  "made a ": 3020,
  "eld ": 3021,
  "like": 3022,
  "cheek": 3023,
  "seeing ": 3024,
  "To ": 3025,
  "ial ": 3026,
  "out\\u000a": 3027,
  "gar": 3028,
  "tell": 3029,
  "12": 3030,
  "determin": 3031,
  "complete": 3032,
  "voic": 3033,
  "ffl": 3034,
  "become ": 3035,
  "present": 3036,
  "Dr. Seward": 3037,
  "flu": 3038,
  "arms ": 3039,
  "realised ": 3040,
  "Abra": 3041,
  "from a ": 3042,
  "finally ": 3043,
  ". Thom": 3044,
  "Ver": 3045,
  "s.\"\\u000a\\u000a\"": 3046,
  "along the ": 3047,
  "Eu": 3048,
  "pun": 3049,
  "boo": 3050,
  "to-night": 3051,
  "sting ": 3052,
  "along": 3053,
  "fru": 3054,
  "shadow": 3055,
  "ordinary ": 3056,
  "spr": 3057,
  "lean": 3058,
  "could see ": 3059,
  "is not ": 3060,
  "ash ": 3061,
  "finger": 3062,
  "prote": 3063,
  "grow": 3064,
  "top": 3065,
  "lad ": 3066,
  "tell me ": 3067,
  "Jonathan": 3068,
  "contain": 3069,
  "various ": 3070,
  "situ": 3071,
  "danger": 3072,
  "in our ": 3073,
  "Vo": 3074,
  "having ": 3075,
  "accep": 3076,
  "spect": 3077,
  ".\\u000aL": 3078,
  "corner ": 3079,
  "ed\\u000athe ": 3080,
  "remember": 3081,
  "action ": 3082,
  "bled ": 3083,
  "condition": 3084,
  "Professor": 3085,
  "ench": 3086,
  "chest ": 3087,
  "Hall": 3088,
  ".’ Cassie ": 3089,
  "Ned": 3090,
  ",\" the Canadian ": 3091,
  "the Canadian ": 3092,
  "genus ": 3093,
  "All ": 3094,
  "ves, ": 3095,
  "follow ": 3096,
  "know what ": 3097,
  ", that ": 3098,
  "down, ": 3099,
  "gn ": 3100,
  ". R": 3101,
  "afterno": 3102,
  "where the ": 3103,
  "sna": 3104,
  "cold": 3105,
  "aking ": 3106,
  "forward": 3107,
  "to go ": 3108,
  "much": 3109,
  "heard the ": 3110,
  "steps ": 3111,
  "care ": 3112,
  "remained ": 3113,
  "quickly ": 3114,
  "fav": 3115,
  "tho": 3116,
  "Lin": 3117,
  "attend": 3118,
  "fied ": 3119,
  ". The": 3120,
  "easily ": 3121,
  "choo": 3122,
  "throat ": 3123,
  "bal": 3124,
  "es that ": 3125,
  "rais": 3126,
  "jaw": 3127,
  "AR": 3128,
  "bre": 3129,
  "spar": 3130,
  "Lord Godalm": 3131,
  "Abraham ": 3132,
  "voice": 3133,
  "won't ": 3134,
  "submer": 3135,
  "Euro": 3136,
  "started ": 3137,
  "whether ": 3138,
  "repeat": 3139,
  "an un": 3140,
  "s, which ": 3141,
  "\\u000athat ": 3142,
  "sole": 3143,
  "anci": 3144,
  "he would ": 3145,
  "others ": 3146,
  "; I ": 3147,
  "suppose ": 3148,
  "spoke ": 3149,
  ". I have ": 3150,
  ". All ": 3151,
  "a single ": 3152,
  ", in ": 3153,
  "in its ": 3154,
  "mouth": 3155,
  "immen": 3156,
  "it of ": 3157,
  "on the\\u000a": 3158,
  "thous": 3159,
  "sla": 3160,
  "Lincol": 3161,
  "I ask": 3162,
  ", it ": 3163,
  "safe": 3164,
  "iss ": 3165,
  "’ll ": 3166,
  "whisper": 3167,
  "box ": 3168,
  "hesit": 3169,
  "fine ": 3170,
  "chan": 3171,
  "you to ": 3172,
  "iling ": 3173,
  "drag": 3174,
  "ge of ": 3175,
  "natural ": 3176,
  "evidently ": 3177,
  "happy ": 3178,
  "her head ": 3179,
  "ed me ": 3180,
  "to do": 3181,
  "meas": 3182,
  "write ": 3183,
  ".\\u000aWhen ": 3184,
  "sitting ": 3185,
  "fellow": 3186,
  "ry": 3187,
  "spec": 3188,
  ". On": 3189,
  "nor ": 3190,
  "pat": 3191,
  "shock": 3192,
  "s. He ": 3193,
  "force ": 3194,
  "shing ": 3195,
  "lit ": 3196,
  "So": 3197,
  "so much ": 3198,
  "smo": 3199,
  "hang": 3200,
  "common ": 3201,
  "!”\\u000a": 3202,
  "part of ": 3203,
  "kill ": 3204,
  "maz": 3205,
  "sed, ": 3206,
  "sts ": 3207,
  "term": 3208,
  "resol": 3209,
  "around the ": 3210,
  "attemp": 3211,
  ".\\u000aAnd ": 3212,
  "temper": 3213,
  "rel": 3214,
  "bling ": 3215,
  "AN": 3216,
  "T ": 3217,
  "leagu": 3218,
  "legs ": 3219,
  "That's ": 3220,
  "Comm": 3221,
  "shark": 3222,
  "pap": 3223,
  "regard": 3224,
  "to have ": 3225,
  "mountain": 3226,
  "t, and ": 3227,
  "back, ": 3228,
  "him to ": 3229,
  "starting ": 3230,
  "state ": 3231,
  "comes ": 3232,
  "let me ": 3233,
  "the same ": 3234,
  "blo": 3235,
  "gras": 3236,
  "gle": 3237,
  "sank ": 3238,
  "there was a ": 3239,
  "return ": 3240,
  "as to ": 3241,
  "dreadful ": 3242,
  "wea": 3243,
  "examin": 3244,
  "flesh": 3245,
  "anti": 3246,
  "a sma": 3247,
  "aston": 3248,
  "I went ": 3249,
  "writt": 3250,
  "valu": 3251,
  "ctor": 3252,
  "regi": 3253,
  "flow": 3254,
  ". After ": 3255,
  "refle": 3256,
  "view ": 3257,
  "later ": 3258,
  "ed up ": 3259,
  "devil": 3260,
  "freed": 3261,
  "16": 3262,
  "tell you ": 3263,
  "more\\u000a": 3264,
  "inside": 3265,
  "empty ": 3266,
  "in an ": 3267,
  "Arthur": 3268,
  "free ": 3269,
  "stead": 3270,
  "anta": 3271,
  "Van Hels": 3272,
  "usk": 3273,
  "horizon": 3274,
  "Po": 3275,
  "ging ": 3276,
  "Indi": 3277,
  "she’d ": 3278,
  "cet": 3279,
  "cetace": 3280,
  "Abraham Lincol": 3281,
  "Commander ": 3282,
  "possible": 3283,
  "th and ": 3284,
  "pretty ": 3285,
  "use": 3286,
  "there are ": 3287,
  "home ": 3288,
  "short ": 3289,
  "figure": 3290,
  "when we ": 3291,
  "ed with a ": 3292,
  "Your ": 3293,
  "looked at ": 3294,
  "s\\u000aand ": 3295,
  "however, ": 3296,
  "bag": 3297,
  "wer ": 3298,
  "bs ": 3299,
  "ply": 3300,
  "lou": 3301,
  "was not ": 3302,
  "udd": 3303,
  "this, ": 3304,
  "uri": 3305,
  "ature ": 3306,
  "wall ": 3307,
  "case": 3308,
  "with an ": 3309,
  "post": 3310,
  "preci": 3311,
  "of that ": 3312,
  "trans": 3313,
  "thing\\u000a": 3314,
  "before the ": 3315,
  ", and a ": 3316,
  "emotion": 3317,
  "These ": 3318,
  "incl": 3319,
  "event": 3320,
  "fisher": 3321,
  "chief ": 3322,
  "herself": 3323,
  "for her ": 3324,
  "rubb": 3325,
  "Don": 3326,
  "Her ": 3327,
  "propell": 3328,
  "!\" I ": 3329,
  ". . . ": 3330,
  ", the Nautilus ": 3331,
  ". Some": 3332,
  "ston": 3333,
  "crow": 3334,
  "except ": 3335,
  "hair ": 3336,
  "ting": 3337,
  "langu": 3338,
  "Do ": 3339,
  "wait ": 3340,
  "Med": 3341,
  "answer ": 3342,
  "ed with the ": 3343,
  ", but I ": 3344,
  "ither ": 3345,
  "cloud": 3346,
  "wind ": 3347,
  "try to ": 3348,
  "come to ": 3349,
  ". He\\u000a": 3350,
  "energ": 3351,
  "forward ": 3352,
  "soul": 3353,
  "hea": 3354,
  "bla": 3355,
  "done": 3356,
  ".\\u000aThis ": 3357,
  "circumstanc": 3358,
  "real ": 3359,
  "quick ": 3360,
  "it, and ": 3361,
  "ator": 3362,
  "mur": 3363,
  ". No ": 3364,
  "steam": 3365,
  "crew": 3366,
  "just as ": 3367,
  "Van Helsing": 3368,
  "addres": 3369,
  "moll": 3370,
  "....": 3371,
  "familiar ": 3372,
  "aflo": 3373,
  "statero": 3374,
  ", who ": 3375,
  "super": 3376,
  "ual ": 3377,
  "s or ": 3378,
  "of them ": 3379,
  "in all ": 3380,
  "lov": 3381,
  "enor": 3382,
  "13": 3383,
  "not to ": 3384,
  "dut": 3385,
  "stly ": 3386,
  "with its ": 3387,
  "forest": 3388,
  "tive ": 3389,
  "best ": 3390,
  "saw the ": 3391,
  "me. I ": 3392,
  "confid": 3393,
  "amp": 3394,
  "necess": 3395,
  "ed by a ": 3396,
  "could be ": 3397,
  "eye ": 3398,
  "too, ": 3399,
  "south": 3400,
  "in the midst ": 3401,
  "something": 3402,
  "bright": 3403,
  "ult": 3404,
  "strugg": 3405,
  "we can ": 3406,
  "month": 3407,
  "decid": 3408,
  "lic ": 3409,
  "ounc": 3410,
  "cage, ": 3411,
  "shru": 3412,
  "hit ": 3413,
  "en't ": 3414,
  "ed.\\u000a\\u000a": 3415,
  "ly. ‘": 3416,
  "tank": 3417,
  "lounge": 3418,
  "among ": 3419,
  "im ": 3420,
  "fast ": 3421,
  "wide": 3422,
  "c ": 3423,
  "trust ": 3424,
  "beau": 3425,
  "beauti": 3426,
  "tro": 3427,
  "between the ": 3428,
  "at his ": 3429,
  "stranger ": 3430,
  "putting ": 3431,
  "ire ": 3432,
  "y, but ": 3433,
  "was, ": 3434,
  "then the ": 3435,
  "Come ": 3436,
  "marked ": 3437,
  "convers": 3438,
  "nific": 3439,
  "ity of ": 3440,
  "cy": 3441,
  "beneath the ": 3442,
  "cup": 3443,
  "as well ": 3444,
  ".\\u000aO": 3445,
  "acc": 3446,
  "escape ": 3447,
  "calm": 3448,
  "hon": 3449,
  "wra": 3450,
  "exhau": 3451,
  "helm": 3452,
  "we are ": 3453,
  "broke ": 3454,
  "ts of ": 3455,
  "Mar": 3456,
  "sav": 3457,
  "summ": 3458,
  "sug": 3459,
  "deci": 3460,
  "fra": 3461,
  "strat": 3462,
  ". Thomas ": 3463,
  "uck": 3464,
  "gged ": 3465,
  "powerful ": 3466,
  "electronic ": 3467,
  "that's ": 3468,
  "Marvel": 3469,
  "Ned Land": 3470,
  "coral ": 3471,
  "stopped ": 3472,
  "ation of ": 3473,
  "imagin": 3474,
  "dog ": 3475,
  "I must ": 3476,
  "excell": 3477,
  "daw": 3478,
  "band ": 3479,
  "certainly ": 3480,
  "direct": 3481,
  "jour": 3482,
  "saying ": 3483,
  "very": 3484,
  "wood": 3485,
  ". By ": 3486,
  "I thought ": 3487,
  "extra": 3488,
  "true ": 3489,
  "moon": 3490,
  "break ": 3491,
  "struggl": 3492,
  "alone": 3493,
  "ous\\u000a": 3494,
  "so, ": 3495,
  "control ": 3496,
  "s on ": 3497,
  "compar": 3498,
  "destro": 3499,
  "took a ": 3500,
  "met ": 3501,
  "belong": 3502,
  "fill": 3503,
  "enfi": 3504,
  "wouldn’t ": 3505,
  "completely ": 3506,
  "Sea": 3507,
  "ox": 3508,
  "arg": 3509,
  "scienti": 3510,
  ". You": 3511,
  "swa": 3512,
  "sible ": 3513,
  "Me": 3514,
  "position": 3515,
  "question ": 3516,
  "cto": 3517,
  "Found": 3518,
  "isn't ": 3519,
  "o'clock in the ": 3520,
  "which I ": 3521,
  "oy": 3522,
  "Car": 3523,
  "perfect": 3524,
  "ing up ": 3525,
  "expla": 3526,
  "that it was ": 3527,
  "ed. I ": 3528,
  "shut ": 3529,
  "that this ": 3530,
  "es of the ": 3531,
  "wild ": 3532,
  "ir\\u000a": 3533,
  ".\\u000aThen ": 3534,
  "in their ": 3535,
  "alread": 3536,
  "ished ": 3537,
  "up\\u000a": 3538,
  "brow": 3539,
  "with my ": 3540,
  "believ": 3541,
  "live ": 3542,
  "else ": 3543,
  "anything": 3544,
  "wre": 3545,
  "present ": 3546,
  "lor": 3547,
  "doz": 3548,
  "lab": 3549,
  "ides, ": 3550,
  "san": 3551,
  "sweet ": 3552,
  "shap": 3553,
  "at once": 3554,
  "thank": 3555,
  "ulf ": 3556,
  "repor": 3557,
  "in that ": 3558,
  "the first ": 3559,
  "proper": 3560,
  ". Its ": 3561,
  "edi": 3562,
  "Did ": 3563,
  "polic": 3564,
  "er's ": 3565,
  "'d ": 3566,
  "Invisible Man": 3567,
  "we're ": 3568,
  "okay": 3569,
  "Mediter": 3570,
  "Mediterr": 3571,
  "Mediterrane": 3572,
  ",\" Captain Nemo ": 3573,
  "London": 3574,
  "s of this ": 3575,
  "ax": 3576,
  "may": 3577,
  "mous ": 3578,
  "week": 3579,
  "who had ": 3580,
  "mother": 3581,
  "produc": 3582,
  "east": 3583,
  "in which ": 3584,
  "scream": 3585,
  "his face ": 3586,
  "sharp": 3587,
  "stone ": 3588,
  ",\\u000aI ": 3589,
  "need to ": 3590,
  ".” He ": 3591,
  "rang ": 3592,
  "me a ": 3593,
  "absol": 3594,
  "everything": 3595,
  "twenty-": 3596,
  "o’": 3597,
  "histor": 3598,
  "law": 3599,
  "Di": 3600,
  ". These ": 3601,
  "human": 3602,
  "I would ": 3603,
  "Ex": 3604,
  "\\u000aof the ": 3605,
  "working ": 3606,
  "twenty ": 3607,
  "around": 3608,
  "tered ": 3609,
  "body": 3610,
  "about to ": 3611,
  "came\\u000a": 3612,
  "face\\u000a": 3613,
  "rage ": 3614,
  "scra": 3615,
  "cloth": 3616,
  "thick ": 3617,
  "ally, ": 3618,
  "on this ": 3619,
  "bas": 3620,
  "iled ": 3621,
  "ried ": 3622,
  "nerv": 3623,
  "’t\\u000a": 3624,
  "it’s ": 3625,
  "point ": 3626,
  "visit": 3627,
  "marin": 3628,
  "reason": 3629,
  "nature ": 3630,
  "thin ": 3631,
  "eward ": 3632,
  "acif": 3633,
  "Far": 3634,
  "collar": 3635,
  "onto the ": 3636,
  "the Nautilus": 3637,
  "latitude ": 3638,
  "color": 3639,
  "early ": 3640,
  "s a ": 3641,
  "fall ": 3642,
  "wild": 3643,
  "Sou": 3644,
  "dle ": 3645,
  "tend": 3646,
  "odd ": 3647,
  "among": 3648,
  "I could not ": 3649,
  "that they ": 3650,
  "ood\\u000a": 3651,
  "ed on the ": 3652,
  "conv": 3653,
  "die ": 3654,
  "rising ": 3655,
  "number of ": 3656,
  "your\\u000a": 3657,
  "ter, ": 3658,
  "irr": 3659,
  "whatever ": 3660,
  "surround": 3661,
  "death ": 3662,
  "bear ": 3663,
  "little": 3664,
  "peci": 3665,
  "cin": 3666,
  "sweet": 3667,
  "nodd": 3668,
  "ually ": 3669,
  ".\\u000aThere ": 3670,
  "leap": 3671,
  "ph ": 3672,
  "esten": 3673,
  "you can ": 3674,
  "took the ": 3675,
  "visible": 3676,
  "aboard ": 3677,
  "pub": 3678,
  "it would ": 3679,
  "breathing ": 3680,
  "allow": 3681,
  "when she ": 3682,
  "what\\u000a": 3683,
  ", her ": 3684,
  "unable to ": 3685,
  "lounge ": 3686,
  "Pacif": 3687,
  "\\u000a\\u000cCHAPTER ": 3688,
  "should be ": 3689,
  "hardly ": 3690,
  "pul": 3691,
  "home": 3692,
  ". On ": 3693,
  "occas": 3694,
  "said, “": 3695,
  ",” I ": 3696,
  "only a ": 3697,
  "might": 3698,
  "solem": 3699,
  "pit": 3700,
  "hom": 3701,
  "meant ": 3702,
  "catch ": 3703,
  "of an ": 3704,
  "tern": 3705,
  "experienc": 3706,
  "agon": 3707,
  "so that ": 3708,
  "ed my ": 3709,
  "udden": 3710,
  "left": 3711,
  "? W": 3712,
  "absolut": 3713,
  ", with ": 3714,
  "silent ": 3715,
  "trouble ": 3716,
  "bon": 3717,
  "pull": 3718,
  "hours ": 3719,
  "ning to ": 3720,
  "amaz": 3721,
  "instant ": 3722,
  "EN": 3723,
  "\\u000awas ": 3724,
  "remember ": 3725,
  "slowly ": 3726,
  ". To ": 3727,
  "deli": 3728,
  "half-": 3729,
  "fold": 3730,
  "set": 3731,
  "Why ": 3732,
  "wheel": 3733,
  "husband": 3734,
  "antic ": 3735,
  "ing to the ": 3736,
  "The": 3737,
  "foc": 3738,
  "soon": 3739,
  "los": 3740,
  "gott": 3741,
  "erha": 3742,
  "figure ": 3743,
  "ce of ": 3744,
  "indic": 3745,
  "we shall ": 3746,
  "liquid ": 3747,
  "meter ": 3748,
  "—\"\\u000a\"": 3749,
  "you're ": 3750,
  "wouldn't ": 3751,
  "they're ": 3752,
  "Doctor Jackson ": 3753,
  ".\\u000aCassie ": 3754,
  "other word": 3755,
  "anu": 3756,
  "import": 3757,
  "travel": 3758,
  "was still ": 3759,
  "separ": 3760,
  "for me": 3761,
  "ce, ": 3762,
  "plor": 3763,
  "owever": 3764,
  "tong": 3765,
  "tongu": 3766,
  "them\\u000a": 3767,
  "ed, the ": 3768,
  "first": 3769,
  "que ": 3770,
  "spect ": 3771,
  "rif": 3772,
  "e, the ": 3773,
  "of it": 3774,
  "seemed to be ": 3775,
  "no one ": 3776,
  "at, ": 3777,
  "bran": 3778,
  "hair": 3779,
  "afraid ": 3780,
  "warm": 3781,
  "ely, ": 3782,
  "rust": 3783,
  "him, and ": 3784,
  "oppos": 3785,
  ". Wh": 3786,
  "written ": 3787,
  "ates ": 3788,
  "Whit": 3789,
  "I think ": 3790,
  "s! ": 3791,
  "doing ": 3792,
  "spent ": 3793,
  ",\\u000aand the ": 3794,
  "s on the ": 3795,
  "seri": 3796,
  "he is ": 3797,
  "presence ": 3798,
  "brain ": 3799,
  "sens": 3800,
  "are you ": 3801,
  "Are ": 3802,
  "paper ": 3803,
  "eight ": 3804,
  "monster ": 3805,
  "Stre": 3806,
  "ye ": 3807,
  "weight ": 3808,
  "accoun": 3809,
  "classi": 3810,
  "ular": 3811,
  "on board": 3812,
  "voy": 3813,
  "in fron": 3814,
  "complet": 3815,
  " Septem": 3816,
  "hadn’t ": 3817,
  "specim": 3818,
  "animals ": 3819,
  "weigh": 3820,
  "push": 3821,
  "uring ": 3822,
  "eu": 3823,
  "enfre": 3824,
  "?\"\\u000a\\u000a": 3825,
  "whale ": 3826,
  "replied.\\u000a\\u000a\"": 3827,
  "Canadian": 3828,
  "arrived ": 3829,
  "from\\u000athe ": 3830,
  "ing\\u000athe ": 3831,
  "spl": 3832,
  "enormous ": 3833,
  "four": 3834,
  "effect": 3835,
  "seems ": 3836,
  "pointed ": 3837,
  "although ": 3838,
  "there\\u000a": 3839,
  "thinking ": 3840,
  "their\\u000a": 3841,
  "over and ": 3842,
  "another": 3843,
  "quiet ": 3844,
  "broken ": 3845,
  "key ": 3846,
  "to the\\u000a": 3847,
  "const": 3848,
  "pol": 3849,
  "reason ": 3850,
  "went on, ": 3851,
  "soul ": 3852,
  "fortun": 3853,
  ". In": 3854,
  "smoo": 3855,
  "existence ": 3856,
  "movement ": 3857,
  "resul": 3858,
  "the bar": 3859,
  "ris": 3860,
  "ek ": 3861,
  "command": 3862,
  "despa": 3863,
  "arriv": 3864,
  "worked ": 3865,
  "gram": 3866,
  "partic": 3867,
  "attack": 3868,
  "individ": 3869,
  "teen ": 3870,
  "control": 3871,
  "distribut": 3872,
  "matt": 3873,
  "*\\u000a": 3874,
  "1.E": 3875,
  ".\" ": 3876,
  "n't\\u000a": 3877,
  "Invisible Man ": 3878,
  ",\" said Kemp": 3879,
  ",\\u000aa ": 3880,
  "replied ": 3881,
  "marine ": 3882,
  "island ": 3883,
  "me that ": 3884,
  "aut": 3885,
  ", to ": 3886,
  "and his ": 3887,
  "e-": 3888,
  "siz": 3889,
  "pass": 3890,
  "green ": 3891,
  "yard": 3892,
  "acked ": 3893,
  "itself ": 3894,
  "road ": 3895,
  "bent ": 3896,
  "brown ": 3897,
  "ool ": 3898,
  "neither ": 3899,
  "long, ": 3900,
  "on their ": 3901,
  "edge ": 3902,
  "rolled ": 3903,
  "within ": 3904,
  "batt": 3905,
  "astonish": 3906,
  "finish": 3907,
  "it to ": 3908,
  ". Our ": 3909,
  "probably ": 3910,
  "waters ": 3911,
  "inform": 3912,
  "surely ": 3913,
  "have a ": 3914,
  "in these ": 3915,
  "sheet": 3916,
  "breath ": 3917,
  "can\\u000a": 3918,
  "pearl": 3919,
  "clothe": 3920,
  "woke ": 3921,
  "led\\u000a": 3922,
  "a-": 3923,
  "ured ": 3924,
  ". No": 3925,
  "Gulf ": 3926,
  "see the ": 3927,
  "clam": 3928,
  "14": 3929,
  "Stra": 3930,
  "itude": 3931,
  "around her ": 3932,
  "friend Joh": 3933,
  "alarm": 3934,
  "attach": 3935,
  "you’re ": 3936,
  "lifted ": 3937,
  "that had ": 3938,
  ".\\u000aA ": 3939,
  "corrid": 3940,
  "I'd ": 3941,
  "search ": 3942,
  ". I shall ": 3943,
  ". Be": 3944,
  "years ": 3945,
  "fashi": 3946,
  "mone": 3947,
  "at all": 3948,
  "reach ": 3949,
  "scen": 3950,
  ".\\u000aAs ": 3951,
  ". Now ": 3952,
  "fier": 3953,
  "eag": 3954,
  "ashed ": 3955,
  "appeared ": 3956,
  "remark": 3957,
  "step ": 3958,
  "wel": 3959,
  "stepped ": 3960,
  "passage": 3961,
  "a small ": 3962,
  "pra": 3963,
  "shud": 3964,
  "cof": 3965,
  "immense ": 3966,
  "—I ": 3967,
  "makes ": 3968,
  "stop": 3969,
  "learn ": 3970,
  "small": 3971,
  "sir, ": 3972,
  "s from ": 3973,
  "ently, ": 3974,
  "mani": 3975,
  "at the\\u000a": 3976,
  "bottom ": 3977,
  "defin": 3978,
  "time, ": 3979,
  "rac": 3980,
  "iness": 3981,
  "ally": 3982,
  "stance ": 3983,
  "better": 3984,
  "fad": 3985,
  "bell": 3986,
  ".\\u000aThey ": 3987,
  "with a\\u000a": 3988,
  "hosp": 3989,
  "prov": 3990,
  "ere": 3991,
  "walk": 3992,
  "burst ": 3993,
  "bodi": 3994,
  "bird": 3995,
  "There": 3996,
  "nature": 3997,
  "ships ": 3998,
  "entire ": 3999,
  "noi": 4000,
  "wake ": 4001,
  "ber, ": 4002,
  "for an ": 4003,
  "Sir": 4004,
  "s.\\u000aThe ": 4005,
  "Van\\u000a": 4006,
  "Van\\u000aHel": 4007,
  "thu": 4008,
  "policem": 4009,
  "pite ": 4010,
  "pushed ": 4011,
  "mattres": 4012,
  "1.E.": 4013,
  "spear ": 4014,
  "plant": 4015,
  "\\u000a\\u000a\\u000a\\u000a                                                  ": 4016,
  ".\\u000a\\u000a\\u000a\\u000a                                                ": 4017,
  "edg": 4018,
  ".\\u000aIt was ": 4019,
  ", and it ": 4020,
  "least": 4021,
  "knew": 4022,
  "fe ": 4023,
  "room and ": 4024,
  "lest ": 4025,
  "ple ": 4026,
  "amongst ": 4027,
  "would not ": 4028,
  "on our ": 4029,
  "themselves ": 4030,
  "calcul": 4031,
  "m\\u000a": 4032,
  "lamp": 4033,
  "my own ": 4034,
  "out a ": 4035,
  "vit": 4036,
  "stead ": 4037,
  "soft": 4038,
  "tical ": 4039,
  "there, ": 4040,
  ". Just ": 4041,
  "asleep": 4042,
  ". In the ": 4043,
  "into his ": 4044,
  "ed\\u000ato ": 4045,
  "you will ": 4046,
  "which he ": 4047,
  "se and ": 4048,
  "me and ": 4049,
  "opposite ": 4050,
  ",” he ": 4051,
  "so many ": 4052,
  "ers": 4053,
  "fted ": 4054,
  "ina ": 4055,
  "study ": 4056,
  "fact": 4057,
  "church": 4058,
  "knows ": 4059,
  "especi": 4060,
  "fascin": 4061,
  "ating": 4062,
  "ins ": 4063,
  "wonder ": 4064,
  "velop": 4065,
  "sem": 4066,
  "pressure": 4067,
  "impossible ": 4068,
  "ed\\u000awith ": 4069,
  "compo": 4070,
  "ing with ": 4071,
  "hell": 4072,
  "women ": 4073,
  "little\\u000a": 4074,
  "ousl": 4075,
  "\\u000awith ": 4076,
  "phi": 4077,
  "a good ": 4078,
  "Morri": 4079,
  "fellow ": 4080,
  "esides, ": 4081,
  "with\\u000athe ": 4082,
  "food ": 4083,
  "centr": 4084,
  "From ": 4085,
  "fro": 4086,
  ", but she ": 4087,
  "10": 4088,
  "Van Helsing, ": 4089,
  ".\\u000aSo ": 4090,
  "us to ": 4091,
  "aware ": 4092,
  "tent": 4093,
  "wasn't ": 4094,
  "I don't ": 4095,
  "started to ": 4096,
  "doesn't ": 4097,
  "panel": 4098,
  "mollusk": 4099,
  ",\" Ned Land ": 4100,
  "stateroom": 4101,
  "ing of ": 4102,
  "knowledge ": 4103,
  "seems to ": 4104,
  "foot ": 4105,
  "English": 4106,
  "anxi": 4107,
  "bring ": 4108,
  "letter ": 4109,
  "English ": 4110,
  "else": 4111,
  "—\\u000a": 4112,
  "after the ": 4113,
  "what he ": 4114,
  "smile ": 4115,
  "ed. He ": 4116,
  "opening ": 4117,
  "atmo": 4118,
  "atmosp": 4119,
  "which the ": 4120,
  "I felt ": 4121,
  "requ": 4122,
  "gone": 4123,
  "heard a ": 4124,
  "ail": 4125,
  "cover ": 4126,
  "this time ": 4127,
  "has\\u000a": 4128,
  "told him ": 4129,
  "suit": 4130,
  "At ": 4131,
  "ening ": 4132,
  ";\\u000abut ": 4133,
  ", I was ": 4134,
  "especially ": 4135,
  "ps, ": 4136,
  "someone ": 4137,
  "all that ": 4138,
  "followed ": 4139,
  "girl": 4140,
  "adm": 4141,
  "glanc": 4142,
  "Miss ": 4143,
  "each other": 4144,
  "RE": 4145,
  "wanted ": 4146,
  "Here ": 4147,
  "ents ": 4148,
  "whale": 4149,
  "30": 4150,
  "north": 4151,
  "Fin": 4152,
  "haven": 4153,
  "ignor": 4154,
  "appar": 4155,
  "stern": 4156,
  "weak": 4157,
  "s of her ": 4158,
  "tele": 4159,
  "Good ": 4160,
  "Oh ": 4162,
  "clut": 4163,
  "level ": 4164,
  "tar": 4165,
  "depth of ": 4166,
  "idi": 4167,
  "beac": 4168,
  "mutter": 4169,
  "fish, ": 4170,
  "fearsome ": 4171,
  "?\\u000a\\u000a": 4172,
  "Commander Far": 4173,
  "Commander Farrag": 4174,
  "Mr. L": 4175,
  ",\" I said, \"": 4176,
  "seaflo": 4177,
  "ay, ": 4178,
  ".\\u000aWe ": 4179,
  "reci": 4180,
  "distin": 4181,
  "Nor": 4182,
  "sit ": 4183,
  "harm": 4184,
  "cheer": 4185,
  ", and that ": 4186,
  "saw": 4187,
  "grey ": 4188,
  "talking ": 4189,
  "swept ": 4190,
  "silver ": 4191,
  "—the ": 4192,
  "rying ": 4193,
  "speaking ": 4194,
  ". Then, ": 4195,
  "line ": 4196,
  ",” said ": 4197,
  "again, and ": 4198,
  "person ": 4199,
  "Count’s ": 4200,
  "opportunity ": 4201,
  "talk": 4202,
  "above the ": 4203,
  ". An": 4204,
  "hab": 4205,
  "went to ": 4206,
  "beginning to ": 4207,
  "ench ": 4208,
  "After ": 4209,
  "s it ": 4210,
  "wise ": 4211,
  "any\\u000a": 4212,
  "think of ": 4213,
  "what you ": 4214,
  "part of the ": 4215,
  "ater": 4216,
  "corner": 4217,
  "advanc": 4218,
  "sme": 4219,
  "fire ": 4220,
  "less, ": 4221,
  "ion ": 4222,
  "occur": 4223,
  "forth ": 4224,
  "woman": 4225,
  "object": 4226,
  "the most ": 4227,
  "her, and ": 4228,
  "accid": 4229,
  "radi": 4230,
  "ather": 4231,
  "doctor": 4232,
  "It’s ": 4233,
  "s of a ": 4234,
  "bull": 4235,
  "New ": 4236,
  "ising ": 4237,
  "sni": 4238,
  "oxy": 4239,
  "we must ": 4240,
  "equip": 4241,
  ". She had ": 4242,
  "CHAPTER X": 4243,
  "just": 4244,
  "blind": 4245,
  "includ": 4246,
  "ice, ": 4247,
  ",\" he said": 4248,
  "upper ": 4249,
  "spin": 4250,
  "fucking ": 4251,
  "Thomas’s ": 4252,
  "specimen": 4253,
  "Mean": 4254,
  "me, \"": 4255,
  "skif": 4256,
  "skiff ": 4257,
  "should have ": 4258,
  "glimp": 4259,
  "late ": 4260,
  "start ": 4261,
  ". I had ": 4262,
  "nation": 4263,
  "ful\\u000a": 4264,
  "I found ": 4265,
  "very\\u000a": 4266,
  "ago ": 4267,
  "will\\u000a": 4268,
  "detail": 4269,
  ". Do ": 4270,
  "such\\u000a": 4271,
  "suppo": 4272,
  "diary ": 4273,
  "sign ": 4274,
  "er to ": 4275,
  "ently": 4276,
  "er of ": 4277,
  "ining ": 4278,
  "white": 4279,
  "latter ": 4280,
  "into\\u000a": 4281,
  "s and the ": 4282,
  "side of the ": 4283,
  "must have been ": 4284,
  "bad": 4285,
  "somewhere ": 4286,
  "away from ": 4287,
  "horror": 4288,
  "living ": 4289,
  "they had ": 4290,
  "raised ": 4291,
  "main ": 4292,
  "his hand ": 4293,
  "door, ": 4294,
  "my eyes ": 4295,
  "suffer": 4296,
  "send ": 4297,
  "sely ": 4298,
  "though": 4299,
  "while": 4300,
  "But": 4301,
  "boy": 4302,
  "ed this ": 4303,
  "tail ": 4304,
  "his": 4305,
  "out the ": 4306,
  "below": 4307,
  "unless ": 4308,
  "desper": 4309,
  "shut": 4310,
  "giving ": 4311,
  "les, ": 4312,
  "lead ": 4313,
  "course": 4314,
  "ave ": 4315,
  "Co": 4316,
  "soft ": 4317,
  "orig": 4318,
  "fut": 4319,
  "with me": 4320,
  "promise ": 4321,
  "s. But ": 4322,
  "opened the ": 4323,
  "hyp": 4324,
  "tall": 4325,
  "sick": 4326,
  ". Not ": 4327,
  "heard": 4328,
  "wrong": 4329,
  "Li": 4330,
  "rect": 4331,
  "exper": 4332,
  "attention ": 4333,
  "experience ": 4334,
  "during ": 4335,
  "erhaps ": 4336,
  "knowing ": 4337,
  "non": 4338,
  "no more ": 4339,
  "soci": 4340,
  "\\u000aher ": 4341,
  "Red ": 4342,
  "jud": 4343,
  "Un-": 4344,
  "Un-De": 4345,
  "parl": 4346,
  "gallant ": 4347,
  "horn": 4348,
  "ed its ": 4349,
  ". It's ": 4350,
  "d'": 4351,
  "platform ": 4352,
  "zoo": 4353,
  ".\"\\u000a\\u000aI ": 4354,
  "ON": 4355,
  "ale": 4356,
  "know how ": 4357,
  "mix": 4358,
  "excellent ": 4359,
  "ty-": 4360,
  ". When I ": 4361,
  "immediately ": 4362,
  "ess, ": 4363,
  "! The ": 4364,
  ". They were ": 4365,
  "which\\u000a": 4366,
  "general ": 4367,
  "which, ": 4368,
  "darkness ": 4369,
  "turning ": 4370,
  "increas": 4371,
  "custom": 4372,
  "snow ": 4373,
  "ed them ": 4374,
  "terror ": 4375,
  ". So": 4376,
  "eat ": 4377,
  "using ": 4378,
  "temp": 4379,
  "that his ": 4380,
  "manner": 4381,
  "for his ": 4382,
  "s from the ": 4383,
  "hoo": 4384,
  "mention": 4385,
  "thick": 4386,
  "lum": 4387,
  "ast of ": 4388,
  "atur": 4389,
  "shri": 4390,
  "yourself": 4391,
  "magnific": 4392,
  "occup": 4393,
  "of their ": 4394,
  "able, ": 4395,
  "On": 4396,
  "pull ": 4397,
  ". Fr": 4398,
  "fair ": 4399,
  "pau": 4400,
  "ed; ": 4401,
  "19": 4402,
  "g\\u000a": 4403,
  "bul": 4404,
  "head, ": 4405,
  "man’s ": 4406,
  "later": 4407,
  "orn": 4408,
  "lose ": 4409,
  "s. W": 4410,
  "ell ": 4411,
  "dear, ": 4412,
  "passing ": 4413,
  "ous, ": 4414,
  "compli": 4415,
  "OR": 4416,
  "reef": 4417,
  "was so ": 4418,
  "ture ": 4419,
  "west": 4420,
  "station": 4421,
  "mission ": 4422,
  ". Van Helsing ": 4423,
  ",’ he ": 4424,
  "Mr. B": 4425,
  "element": 4426,
  "avoid": 4427,
  "tomor": 4428,
  "South ": 4429,
  "unting ": 4430,
  "volcan": 4431,
  "cable ": 4432,
  ",\\u000a\"": 4433,
  "!\"\\u000a": 4434,
  "abrup": 4435,
  "man's ": 4436,
  "mong ": 4437,
  "s.\\u000a‘": 4438,
  "spotted ": 4439,
  ".\\u000a\\u000aBut ": 4440,
  "OU": 4441,
  "train ": 4442,
  "an hour ": 4443,
  "which was ": 4444,
  "Europe": 4445,
  "Drac": 4446,
  "desc": 4447,
  "hill": 4448,
  "exac": 4449,
  "part ": 4450,
  "not, ": 4451,
  "poly": 4452,
  " and ": 4453,
  "considerable ": 4454,
  "snow": 4455,
  "us\\u000a": 4456,
  "e\\u000athe ": 4457,
  "complete ": 4458,
  "of us ": 4459,
  "blue ": 4460,
  "able\\u000a": 4461,
  "there was no ": 4462,
  "seal": 4463,
  "own\\u000a": 4464,
  "physi": 4465,
  "meet": 4466,
  "It is ": 4467,
  "made": 4468,
  "bound ": 4469,
  "Al": 4470,
  "glad ": 4471,
  "interest ": 4472,
  "past": 4473,
  "the\\u000a\\u000a\\u000c": 4474,
  "while, ": 4475,
  "of some ": 4476,
  "died ": 4477,
  "solid ": 4478,
  "uddenly ": 4479,
  "brain": 4480,
  "o-": 4481,
  "when\\u000a": 4482,
  "enem": 4483,
  "yellow ": 4484,
  "I knew ": 4485,
  "the man ": 4486,
  "left the ": 4487,
  "what": 4488,
  "moder": 4489,
  "in one ": 4490,
  "and then ": 4491,
  ";\\u000aand ": 4492,
  "morn": 4493,
  "dy ": 4494,
  "back and ": 4495,
  "es were ": 4496,
  "hands, ": 4497,
  "threat": 4498,
  "Mina, ": 4499,
  "stain": 4500,
  "coming": 4501,
  "proceed": 4502,
  "to find ": 4503,
  "alist": 4504,
  "to you": 4505,
  "managed to ": 4506,
  "cry": 4507,
  "American ": 4508,
  "that he was ": 4509,
  "sad": 4510,
  "tum": 4511,
  ", if ": 4512,
  "mother ": 4513,
  "Renfi": 4514,
  "antly ": 4515,
  "11": 4516,
  "fully": 4517,
  "cen": 4518,
  "Under ": 4519,
  "front ": 4520,
  "brac": 4521,
  "inous ": 4522,
  "advanta": 4523,
  "Then, ": 4524,
  "interrup": 4525,
  "lion": 4526,
  "Our ": 4527,
  "ux": 4528,
  "square ": 4529,
  "stayed ": 4530,
  "souther": 4531,
  ", \"": 4532,
  "Fe": 4533,
  "?\" said ": 4534,
  "you'll ": 4535,
  "gig": 4536,
  "Its ": 4537,
  "longitude ": 4538,
  "100 ": 4539,
  "ship's ": 4540,
  ",\" I replied, \"": 4541,
  "captain's ": 4542,
  "Ice ": 4543,
  "Ice B": 4544,
  "May": 4545,
  "extre": 4546,
  "a and ": 4547,
  "country ": 4548,
  "slept ": 4549,
  "than the ": 4550,
  "self-": 4551,
  "mes": 4552,
  "to-mor": 4553,
  "crossed ": 4554,
  "it all ": 4555,
  "in some ": 4556,
  "state of ": 4557,
  "ed to a ": 4558,
  "touch": 4559,
  "ans ": 4560,
  "inging ": 4561,
  "companions ": 4562,
  "mist": 4563,
  "you must ": 4564,
  "urg": 4565,
  "darkness": 4566,
  "bright ": 4567,
  "in and ": 4568,
  "ling": 4569,
  "ver\\u000a": 4570,
  "shel": 4571,
  "s, and the ": 4572,
  "when they ": 4573,
  "could have ": 4574,
  "people": 4575,
  "chain": 4576,
  "holding ": 4577,
  "made me ": 4578,
  "; so ": 4579,
  "attack ": 4580,
  "ready to ": 4581,
  "drawn ": 4582,
  "un ": 4583,
  "—a ": 4584,
  "s of his ": 4585,
  "on\\u000athe ": 4586,
  "ely\\u000a": 4587,
  "In the ": 4588,
  "ogra": 4589,
  "can be ": 4590,
  "men, ": 4591,
  "bour": 4592,
  "heavi": 4593,
  "ated": 4594,
  "warm ": 4595,
  "more, ": 4596,
  "what was ": 4597,
  "silence": 4598,
  "ed as ": 4599,
  "went on ": 4600,
  "in your ": 4601,
  "bad ": 4602,
  "narrow ": 4603,
  "accur": 4604,
  "his head ": 4605,
  "hall ": 4606,
  "must\\u000a": 4607,
  "it and ": 4608,
  "lies ": 4609,
  "pale ": 4610,
  "sical ": 4611,
  ". But the ": 4612,
  "then\\u000a": 4613,
  "deal ": 4614,
  "pocket": 4615,
  "sac": 4616,
  "pound": 4617,
  "24": 4618,
  "edly ": 4619,
  "from this ": 4620,
  "proc": 4621,
  "direction ": 4622,
  "distance ": 4623,
  "s\\u000awere ": 4624,
  "lie ": 4625,
  "scal": 4626,
  "worth ": 4627,
  "not a ": 4628,
  "miser": 4629,
  "gul": 4630,
  "his hand": 4631,
  "that’s ": 4632,
  "Dr. Seward’s ": 4633,
  "gust": 4634,
  "Cape ": 4635,
  "ary.\\u000a": 4636,
  "ity\\u000a": 4637,
  "for a moment": 4638,
  "blow": 4639,
  "during the ": 4640,
  "27": 4641,
  "carry ": 4642,
  "ject\\u000a": 4643,
  "hatch": 4644,
  "gotten ": 4645,
  "crew ": 4646,
  "ed her eyes ": 4647,
  "gni": 4648,
  "at\\u000athe ": 4649,
  "creature": 4650,
  "Su": 4651,
  "swif": 4652,
  "snapp": 4653,
  "treat": 4654,
  "dry ": 4655,
  "D ": 4656,
  "kitch": 4657,
  "Mo": 4658,
  "colli": 4659,
  "get": 4660,
  "typ": 4661,
  "discus": 4662,
  "letting ": 4663,
  "ski": 4664,
  "Mrs. Hall ": 4665,
  ". '": 4666,
  "continent": 4667,
  "eel": 4668,
  "Jessic": 4669,
  "Handler’s ": 4670,
  ", and Cassie ": 4671,
  "in other word": 4672,
  "went on, \"": 4673,
  "said.\\u000a\\u000a\"": 4674,
  "zoophy": 4675,
  ",\" the captain ": 4676,
  "near the ": 4677,
  "impres": 4678,
  "dish": 4679,
  "libr": 4680,
  ", as ": 4681,
  "30 ": 4682,
  "bel": 4683,
  "ball": 4684,
  "Lond": 4685,
  "beautiful ": 4686,
  "comfort ": 4687,
  "itself": 4688,
  "sym": 4689,
  "s like ": 4690,
  "exer": 4691,
  ". One ": 4692,
  "give me ": 4693,
  "for some ": 4694,
  "s, a ": 4695,
  "guard": 4696,
  "wolves ": 4697,
  "effect ": 4698,
  "following ": 4699,
  "? What ": 4700,
  "leaving ": 4701,
  "after a ": 4702,
  "quiver": 4703,
  "palm": 4704,
  "house, ": 4705,
  "az": 4706,
  "iron": 4707,
  "his eyes ": 4708,
  "sat down ": 4709,
  "if the ": 4710,
  "suspic": 4711,
  "brave ": 4712,
  "spi": 4713,
  "key": 4714,
  "sequ": 4715,
  "entered the ": 4716,
  "nal ": 4717,
  "cape": 4718,
  "28": 4719,
  "rail": 4720,
  "sense": 4721,
  "es are ": 4722,
  "fil": 4723,
  "va": 4724,
  "s of\\u000a": 4725,
  "hall": 4726,
  "intense ": 4727,
  "mile ": 4728,
  "sim": 4729,
  "body, ": 4730,
  "hand and ": 4731,
  "downstair": 4732,
  "Let": 4733,
  "husband ": 4734,
  "Mr. Morri": 4735,
  "seven ": 4736,
  "picked ": 4737,
  "heal": 4738,
  "itted ": 4739,
  "object ": 4740,
  "cause": 4741,
  "until the ": 4742,
  "ger ": 4743,
  "unk": 4744,
  "that she was ": 4745,
  "upstair": 4746,
  "rough ": 4747,
  "recogni": 4748,
  "What": 4749,
  "waiting for ": 4750,
  "Oce": 4751,
  "swiftly ": 4752,
  "instrument": 4753,
  "greater ": 4754,
  "plex": 4755,
  "Madam Mina": 4756,
  "from its ": 4757,
  "ation\\u000a": 4758,
  "ters ": 4759,
  "spac": 4760,
  "pursu": 4761,
  "vision": 4762,
  "speed": 4763,
  "electronic work": 4764,
  "Project\\u000a": 4765,
  "Project\\u000aGutenber": 4766,
  "agreement": 4767,
  "Don't ": 4768,
  "Voice": 4769,
  "gen ": 4770,
  "needed to ": 4771,
  "obviously ": 4772,
  ".\\u000a\\u000a\\u000c‘": 4773,
  ",’ Thomas ": 4774,
  "186": 4775,
  "frigate ": 4776,
  ".\\u000a\\u000aAt ": 4777,
  "chief offic": 4778,
  "!\" Conseil ": 4779,
  "from the\\u000a": 4780,
  "it was a ": 4781,
  "; it ": 4782,
  "just\\u000a": 4783,
  "I did not ": 4784,
  "ink ": 4785,
  "and was ": 4786,
  "ps of ": 4787,
  "with their ": 4788,
  "occasion": 4789,
  "London ": 4790,
  "enjo": 4791,
  "exactly ": 4792,
  "money ": 4793,
  "that I was ": 4794,
  "I got ": 4795,
  "n\\u000a": 4796,
  "like\\u000a": 4797,
  "Count": 4798,
  "whit": 4799,
  "rap": 4800,
  "same": 4801,
  "behind the ": 4802,
  "purcha": 4803,
  "meet ": 4804,
  "seemingly ": 4805,
  "regre": 4806,
  "ici": 4807,
  "volu": 4808,
  "know, ": 4809,
  "to you ": 4810,
  "clearly ": 4811,
  "ed into ": 4812,
  "atic ": 4813,
  "yester": 4814,
  "ence\\u000a": 4815,
  "et me ": 4816,
  "seiz": 4817,
  "ge\\u000a": 4818,
  "over, ": 4819,
  "ness, ": 4820,
  "carefully ": 4821,
  "manner ": 4822,
  "origin": 4823,
  ". From ": 4824,
  "to this ": 4825,
  "floor, ": 4826,
  "ler": 4827,
  "hear the ": 4828,
  "m, ": 4829,
  "stup": 4830,
  "ple of ": 4831,
  "genu": 4832,
  "grim": 4833,
  "echo": 4834,
  "waited ": 4835,
  "ily, ": 4836,
  "I’ll ": 4837,
  "tomb": 4838,
  "horse ": 4839,
  "sent": 4840,
  "spid": 4841,
  "watching ": 4842,
  "on board ": 4843,
  "Ba": 4844,
  "public ": 4845,
  "her and ": 4846,
  "die": 4847,
  "idea": 4848,
  "came to ": 4849,
  "him and ": 4850,
  "Dr. Seward ": 4851,
  "medic": 4852,
  "s. She ": 4853,
  "than\\u000a": 4854,
  "Dr. Van Helsing ": 4855,
  ".\\u000aAfter ": 4856,
  "right, ": 4857,
  "provid": 4858,
  "audi": 4859,
  "pearl ": 4860,
  "ed. She ": 4861,
  "metal ": 4862,
  "You’re ": 4863,
  "ed to her ": 4864,
  "despite ": 4865,
  "encounter": 4866,
  "ingly, ": 4867,
  "toward the ": 4868,
  "def": 4869,
  "Henfre": 4870,
  "e's ": 4871,
  "explo": 4872,
  ",\"\\u000a": 4873,
  "clench": 4874,
  "invisible ": 4875,
  "rescu": 4876,
  "Janu": 4877,
  "Jessica ": 4878,
  "diving ": 4879,
  "commander ": 4880,
  ".\"\\u000a\\u000a\"But ": 4881,
  ".\"\\u000a\\u000a\"And ": 4882,
  ". Here ": 4883,
  "country": 4884,
  "ed\\u000aby ": 4885,
  "whir": 4886,
  "well, ": 4887,
  "may have ": 4888,
  "when you ": 4889,
  "that my ": 4890,
  "underst": 4891,
  "such an ": 4892,
  "allow ": 4893,
  "some of the ": 4894,
  "round the ": 4895,
  "guard ": 4896,
  "here and ": 4897,
  "selves": 4898,
  "fact ": 4899,
  "horses ": 4900,
  "neigh": 4901,
  "whisp": 4902,
  "resum": 4903,
  "came a ": 4904,
  "down and ": 4905,
  "success": 4906,
  "horrible ": 4907,
  "loud ": 4908,
  ".\\u000aW": 4909,
  "out, ": 4910,
  "fresh": 4911,
  ". It was a ": 4912,
  "mely ": 4913,
  "say, ": 4914,
  "tak": 4915,
  "and\\u000athe ": 4916,
  "none ": 4917,
  "ourn": 4918,
  "thoughts ": 4919,
  "s? ": 4920,
  "am\\u000a": 4921,
  "tide": 4922,
  "may not ": 4923,
  "telling ": 4924,
  "flung ": 4925,
  "ted": 4926,
  "touch ": 4927,
  "spoke": 4928,
  "earth ": 4929,
  "worth": 4930,
  "ow, ": 4931,
  "who was ": 4932,
  "consul": 4933,
  "in any ": 4934,
  "built ": 4935,
  "sad ": 4936,
  "kis": 4937,
  "as she\\u000a": 4938,
  "positi": 4939,
  "cast ": 4940,
  "task": 4941,
  "le and ": 4942,
  "took": 4943,
  "floating ": 4944,
  "with a s": 4945,
  "it had ": 4946,
  "led, ": 4947,
  "sprang ": 4948,
  "gap": 4949,
  "cried ": 4950,
  "revol": 4951,
  "weight": 4952,
  "ously": 4953,
  "goes ": 4954,
  "second": 4955,
  "ture": 4956,
  "if\\u000a": 4957,
  "hope": 4958,
  "wo ": 4959,
  "be, ": 4960,
  "he’d ": 4961,
  "six": 4962,
  "refu": 4963,
  "does not ": 4964,
  "dy": 4965,
  "seam": 4966,
  "Archi": 4967,
  "2 ": 4968,
  "that her ": 4969,
  "omen": 4970,
  "beast": 4971,
  "her to ": 4972,
  "through her ": 4973,
  "Par": 4974,
  "haz": 4975,
  "rela": 4976,
  "medical ": 4977,
  "realis": 4978,
  "direction": 4979,
  "’t": 4980,
  "dropp": 4981,
  "pick ": 4982,
  "actual ": 4983,
  "rele": 4984,
  "mechan": 4985,
  "irrit": 4986,
  "copy": 4987,
  "contact ": 4988,
  "current ": 4989,
  "Febru": 4990,
  "stared at ": 4991,
  "They": 4992,
  "backward": 4993,
  "shaped ": 4994,
  "frown": 4995,
  ".’\\u000aCassie ": 4996,
  ",’ Cassie ": 4997,
  "gigantic ": 4998,
  "1,": 4999,
  "?\" I ": 5000,
  "!\" Ned Land ": 5001,
  "Captain Nemo's ": 5002,
  "____": 5003,
  "place, ": 5004,
  "dinner": 5005,
  "ended ": 5006,
  "trouser": 5007,
  "are, ": 5008,
  "delight": 5009,
  "double ": 5010,
  "ed\\u000aand ": 5011,
  "each other ": 5012,
  "up with ": 5013,
  "up, and ": 5014,
  "easy ": 5015,
  "ses of ": 5016,
  "had not ": 5017,
  "falling ": 5018,
  "evening ": 5019,
  "flick": 5020,
  "side, ": 5021,
  "for it ": 5022,
  "startled ": 5023,
  "ary, ": 5024,
  "noise ": 5025,
  "actually ": 5026,
  "itor": 5027,
  "work, ": 5028,
  "teeth": 5029,
  "childr": 5030,
  ". Some ": 5031,
  "Engl": 5032,
  "even\\u000a": 5033,
  "is to ": 5034,
  "rush ": 5035,
  "to-day": 5036,
  "Because ": 5037,
  "mes ": 5038,
  "noticed ": 5039,
  "it in ": 5040,
  "thousand ": 5041,
  "door and ": 5042,
  "plan ": 5043,
  "free": 5044,
  "m of ": 5045,
  "trouble": 5046,
  "sume ": 5047,
  "study": 5048,
  "wing": 5049,
  "escape": 5050,
  "furn": 5051,
  "schoo": 5052,
  "he has ": 5053,
  "pier": 5054,
  "conne": 5055,
  "skin ": 5056,
  ".\\u000aMy ": 5057,
  "rig": 5058,
  "closed": 5059,
  "due ": 5060,
  "bed, ": 5061,
  "silence, ": 5062,
  "danger ": 5063,
  "furni": 5064,
  "coffin": 5065,
  "milli": 5066,
  "crea": 5067,
  "vent ": 5068,
  "ly:—\\u000a“": 5069,
  "gentle": 5070,
  "avoid ": 5071,
  "26": 5072,
  "hit": 5073,
  "August": 5074,
  "make\\u000a": 5075,
  "ally\\u000a": 5076,
  "hurt ": 5077,
  "replied, ": 5078,
  "quarter": 5079,
  "bill": 5080,
  "est of ": 5081,
  "xim": 5082,
  "issu": 5083,
  "ago": 5084,
  "pot": 5085,
  ".\\u000aE": 5086,
  "agra": 5087,
  "space ": 5088,
  "grow ": 5089,
  "! And ": 5090,
  "satisfi": 5091,
  "slightly ": 5092,
  "must": 5093,
  "lly": 5094,
  "blow ": 5095,
  "head and ": 5096,
  "ate, ": 5097,
  "sheet ": 5098,
  "ing,\\u000a": 5099,
  "limit": 5100,
  "Harker’s ": 5101,
  "es.\\u000a": 5102,
  "numer": 5103,
  "norther": 5104,
  "fifteen ": 5105,
  " Octo": 5106,
  "equal ": 5107,
  "unusual ": 5108,
  "zar": 5109,
  "phen": 5110,
  "phenomen": 5111,
  "laun": 5112,
  "Nov": 5113,
  "**": 5114,
  "located ": 5115,
  "bandag": 5116,
  "stared ": 5117,
  "What's ": 5118,
  "!\"\\u000a\"": 5119,
  ",' ": 5120,
  "gau": 5121,
  "magnificent ": 5122,
  "January ": 5123,
  "centime": 5124,
  "plus ": 5125,
  "s--": 5126,
  "s.\\u000a\\u000a\"": 5127,
  "propeller ": 5128,
  "?\"\\u000a\\u000a\"Yes, ": 5129,
  "., ": 5130,
  "late": 5131,
  "walk ": 5132,
  "nam": 5133,
  "local": 5134,
  "enter ": 5135,
  "the Count ": 5136,
  "it; ": 5137,
  "a,\\u000a": 5138,
  "subject ": 5139,
  "wore ": 5140,
  "boot": 5141,
  ". At the ": 5142,
  "colour": 5143,
  "journe": 5144,
  "wife": 5145,
  "received ": 5146,
  "you know ": 5147,
  "rou": 5148,
  "waiting ": 5149,
  "book ": 5150,
  "ities ": 5151,
  "ica": 5152,
  "difficulty ": 5153,
  "y of the ": 5154,
  "up to the ": 5155,
  "closing ": 5156,
  "extraordinary ": 5157,
  ". How ": 5158,
  "notice ": 5159,
  "clean ": 5160,
  "lam": 5161,
  "rejo": 5162,
  "spread ": 5163,
  "shall be ": 5164,
  "shudder": 5165,
  "expression ": 5166,
  "hot ": 5167,
  "gold": 5168,
  "centuri": 5169,
  "sorry ": 5170,
  "When I ": 5171,
  "oul ": 5172,
  "imprison": 5173,
  "see, ": 5174,
  "s, or ": 5175,
  "about it": 5176,
  "begin ": 5177,
  "bank": 5178,
  "ham": 5179,
  "means of ": 5180,
  "what I ": 5181,
  "puzz": 5182,
  "s\\u000athe ": 5183,
  "craw": 5184,
  "lives ": 5185,
  "passi": 5186,
  "I should ": 5187,
  "29": 5188,
  "luck": 5189,
  "ffled ": 5190,
  "shoulder ": 5191,
  "short": 5192,
  "spot ": 5193,
  "ed—": 5194,
  "search": 5195,
  "despair": 5196,
  "ute ": 5197,
  "glass": 5198,
  "inj": 5199,
  "excep": 5200,
  "grate": 5201,
  "prin": 5202,
  "family ": 5203,
  "pill": 5204,
  "concern": 5205,
  ".\\u000aHer ": 5206,
  "fting ": 5207,
  "mist ": 5208,
  "deck": 5209,
  "loud": 5210,
  "F ": 5211,
  "keeping ": 5212,
  "tired ": 5213,
  "savag": 5214,
  "her. She ": 5215,
  "personal ": 5216,
  "over her ": 5217,
  "promi": 5218,
  "piece of ": 5219,
  "padd": 5220,
  "she would ": 5221,
  "23": 5222,
  "ithout ": 5223,
  "accept ": 5224,
  "what she ": 5225,
  ".\\u000aT": 5226,
  "dem": 5227,
  "surprise": 5228,
  "reh": 5229,
  "King ": 5230,
  "fic ": 5231,
  "grip ": 5232,
  "gaz": 5233,
  "suppor": 5234,
  "vision ": 5235,
  "dazz": 5236,
  "argum": 5237,
  "cted ": 5238,
  "freedom": 5239,
  "February ": 5240,
  "observed ": 5241,
  "?’\\u000a": 5242,
  "?’ she ": 5243,
  "Ok": 5244,
  "Cassie\\u000a": 5245,
  "ctic ": 5246,
  ".\\u000a\\u000aAfter ": 5247,
  "Pacific": 5248,
  "\\u000a\\u000a                                                ": 5249,
  "ki": 5250,
  "Near ": 5251,
  "Mr. Land": 5252,
  "exclaimed.\\u000a\\u000a\"": 5253,
  "let's ": 5254,
  "oyster": 5255,
  "skiff": 5256,
  "kor": 5257,
  "Tur": 5258,
  "town ": 5259,
  "ed into the ": 5260,
  "shir": 5261,
  "fashion": 5262,
  "went": 5263,
  "for you": 5264,
  "somewhat ": 5265,
  "understood ": 5266,
  "further": 5267,
  "went\\u000a": 5268,
  "owever, ": 5269,
  "course, ": 5270,
  "”—": 5271,
  "from my ": 5272,
  ". I must ": 5273,
  "wit": 5274,
  "yard ": 5275,
  "are not ": 5276,
  "here\\u000a": 5277,
  ". As the ": 5278,
  "roll": 5279,
  "expected ": 5280,
  "hide ": 5281,
  "pac": 5282,
  ", for I ": 5283,
  "few\\u000a": 5284,
  "was to ": 5285,
  "aid ": 5286,
  "stac": 5287,
  "y that ": 5288,
  "knock": 5289,
  "kind of ": 5290,
  "ed:—\\u000a“": 5291,
  "yourself ": 5292,
  "mal": 5293,
  ". He is ": 5294,
  "chair ": 5295,
  "ality ": 5296,
  "as you ": 5297,
  "writing ": 5298,
  "aw ": 5299,
  "content ": 5300,
  "so long ": 5301,
  "eter ": 5302,
  "that all ": 5303,
  ". Even ": 5304,
  ". Whi": 5305,
  "into the\\u000a": 5306,
  "amoun": 5307,
  "hand, ": 5308,
  "evening": 5309,
  "feet, ": 5310,
  "ake ": 5311,
  "chief": 5312,
  "cauti": 5313,
  "firm": 5314,
  "ood, ": 5315,
  "might have ": 5316,
  "it would be ": 5317,
  "abil": 5318,
  "I will ": 5319,
  "ring ": 5320,
  "imagine ": 5321,
  "? I ": 5322,
  "make a ": 5323,
  "dust": 5324,
  "pen ": 5325,
  "disturb": 5326,
  "it be ": 5327,
  "lock ": 5328,
  "rate ": 5329,
  "man who ": 5330,
  "minute ": 5331,
  "calm ": 5332,
  "grad": 5333,
  "God, ": 5334,
  ", and in ": 5335,
  "violent ": 5336,
  "One ": 5337,
  "grave ": 5338,
  "Lucy, ": 5339,
  "ince ": 5340,
  "ig ": 5341,
  "!”\\u000a“": 5342,
  "I’ve ": 5343,
  "n’t\\u000a": 5344,
  "scatter": 5345,
  "Diary.\\u000a": 5346,
  "May ": 5347,
  "proble": 5348,
  "experim": 5349,
  "who\\u000a": 5350,
  "nother ": 5351,
  "verything ": 5352,
  "frequ": 5353,
  "intens": 5354,
  "surface\\u000a": 5355,
  "guid": 5356,
  "aff": 5357,
  "yi": 5358,
  "while the ": 5359,
  ". We have ": 5360,
  "if she ": 5361,
  "Mr. ": 5362,
  "vanish": 5363,
  "solemn": 5364,
  "Are you ": 5365,
  "friend John": 5366,
  " September.—": 5367,
  "noon ": 5368,
  "ate\\u000a": 5369,
  "trade": 5370,
  "Van\\u000aHelsing ": 5371,
  "tears ": 5372,
  "truth ": 5373,
  "learn": 5374,
  "paragra": 5375,
  "Indian ": 5376,
  "class ": 5377,
  "sperm ": 5378,
  "at this ": 5379,
  "lac": 5380,
  "before he ": 5381,
  "covered with ": 5382,
  "continued to ": 5383,
  "shore": 5384,
  "Novem": 5385,
  "transpar": 5386,
  "Project Gutenberg ": 5387,
  ",\" he said ": 5388,
  ". \"I ": 5389,
  "aren't ": 5390,
  "!\" he ": 5391,
  "marvel": 5392,
  "engine": 5393,
  "back of her ": 5394,
  "ly.\\u000a‘": 5395,
  "spear": 5396,
  "Hank’s ": 5397,
  ".\\u000a\\u000aThis ": 5398,
  "Abraham Lincoln ": 5399,
  "?\" Conseil ": 5400,
  "Just then ": 5401,
  "--\"\\u000a\\u000a\"": 5402,
  "Ned my friend": 5403,
  "at my ": 5404,
  "sort": 5405,
  "move": 5406,
  "river": 5407,
  "stream": 5408,
  "lot of ": 5409,
  "nail": 5410,
  "know that ": 5411,
  "two\\u000a": 5412,
  "fix ": 5413,
  "simple ": 5414,
  "seat": 5415,
  "inn": 5416,
  "drove ": 5417,
  "throw ": 5418,
  "fallen ": 5419,
  "good\\u000a": 5420,
  ",\\u000a\\u000a\\u000c": 5421,
  "carrying ": 5422,
  "spur": 5423,
  "grim ": 5424,
  "back\\u000a": 5425,
  " of ": 5426,
  "disappo": 5427,
  "crossing ": 5428,
  "thrown ": 5429,
  "instead ": 5430,
  "moan": 5431,
  "blank": 5432,
  "faint ": 5433,
  "gloom": 5434,
  "hund": 5435,
  "hundred ": 5436,
  "gain ": 5437,
  "strength": 5438,
  "insi": 5439,
  "all my ": 5440,
  "awkin": 5441,
  "forehead": 5442,
  "me, I ": 5443,
  "first\\u000a": 5444,
  "Ah, ": 5445,
  "like to ": 5446,
  "go\\u000a": 5447,
  "went on:—\\u000a“": 5448,
  "estim": 5449,
  "come\\u000a": 5450,
  "fact, ": 5451,
  "I, ": 5452,
  "fool": 5453,
  "display": 5454,
  "spark": 5455,
  "previ": 5456,
  "wro": 5457,
  "when": 5458,
  "peace": 5459,
  "arily ": 5460,
  "dozen ": 5461,
  "shad": 5462,
  "?”\\u000a": 5463,
  "have no ": 5464,
  "other\\u000a": 5465,
  "by his ": 5466,
  "still\\u000a": 5467,
  "ance\\u000a": 5468,
  "terror": 5469,
  "west ": 5470,
  "possibly ": 5471,
  "last": 5472,
  "Great ": 5473,
  "etc": 5474,
  "cip": 5475,
  "perfectly ": 5476,
  "led the ": 5477,
  "upon the ": 5478,
  "conscious": 5479,
  "gold ": 5480,
  "less than ": 5481,
  "couple of ": 5482,
  "Mon": 5483,
  "entr": 5484,
  "ess of ": 5485,
  "sister": 5486,
  "prof": 5487,
  "locked ": 5488,
  "rub": 5489,
  "\\u000ain the ": 5490,
  "Westen": 5491,
  "rum": 5492,
  "secret": 5493,
  "this is ": 5494,
  "s. B": 5495,
  ". Lucy ": 5496,
  "; she ": 5497,
  "Ed": 5498,
  "20": 5499,
  "see\\u000a": 5500,
  "won’t ": 5501,
  "bat": 5502,
  "play ": 5503,
  "it will ": 5504,
  "raw": 5505,
  "Journ": 5506,
  "al.\\u000a": 5507,
  "I’d ": 5508,
  ". We": 5509,
  "ING": 5510,
  "sky ": 5511,
  "French ": 5512,
  "effort ": 5513,
  "water, ": 5514,
  "vern": 5515,
  "height": 5516,
  "curios": 5517,
  "poli": 5518,
  "bin": 5519,
  "as her ": 5520,
  "she felt ": 5521,
  "refr": 5522,
  "tiny ": 5523,
  "charge ": 5524,
  "effort": 5525,
  "child ": 5526,
  "telegra": 5527,
  "surprised ": 5528,
  "itely ": 5529,
  "aver": 5530,
  "happened": 5531,
  "story": 5532,
  "pron": 5533,
  "slamm": 5534,
  "we could ": 5535,
  ". He had ": 5536,
  "that she had ": 5537,
  "encounter ": 5538,
  "bility ": 5539,
  "spas": 5540,
  "rop": 5541,
  "anger ": 5542,
  "stagg": 5543,
  "awk": 5544,
  "Mrs. Harker ": 5545,
  "phosp": 5546,
  "access ": 5547,
  "dle of the ": 5548,
  "valuable ": 5549,
  "Liter": 5550,
  "thirty ": 5551,
  "Mrs. Hall": 5552,
  ".\\u000a\\u000a\\u000c\"": 5553,
  "scoff": 5554,
  "grun": 5555,
  "trigg": 5556,
  "starting to ": 5557,
  "block": 5558,
  "epat": 5559,
  "whales ": 5560,
  "waterway": 5561,
  "March ": 5562,
  "cetacean": 5563,
  "kilo": 5564,
  "25": 5565,
  "snail": 5566,
  ". The Nautilus ": 5567,
  "AL": 5568,
  "Ger": 5569,
  "sal ": 5570,
  "Tr": 5571,
  "East ": 5572,
  "ool": 5573,
  "howling ": 5574,
  "I had to ": 5575,
  "sleeping ": 5576,
  "breakfast ": 5577,
  "river ": 5578,
  "posses": 5579,
  "tight ": 5580,
  "t\\u000aof ": 5581,
  "important ": 5582,
  "Do you ": 5583,
  "usual": 5584,
  "so far ": 5585,
  "wolf ": 5586,
  "made the ": 5587,
  "respect ": 5588,
  "covered ": 5589,
  "eping ": 5590,
  "deni": 5591,
  "bless": 5592,
  "flew ": 5593,
  "sense of ": 5594,
  "mountain ": 5595,
  "steam ": 5596,
  "sand": 5597,
  "plun": 5598,
  "reply": 5599,
  "lugg": 5600,
  "prodi": 5601,
  "way to ": 5602,
  "unknown ": 5603,
  "placed ": 5604,
  "incid": 5605,
  ".\\u000aAt ": 5606,
  "red\\u000a": 5607,
  "only\\u000a": 5608,
  "him a ": 5609,
  "indeed ": 5610,
  "conclu": 5611,
  "ratt": 5612,
  "gesture": 5613,
  "for a moment ": 5614,
  "avail": 5615,
  "absolutely ": 5616,
  ".\\u000aHis ": 5617,
  "extremely ": 5618,
  "accord": 5619,
  "dressed ": 5620,
  ". There are ": 5621,
  "fab": 5622,
  "castle ": 5623,
  "thank ": 5624,
  "one who ": 5625,
  "affair": 5626,
  "Of ": 5627,
  "conversation ": 5628,
  "ced": 5629,
  "last night": 5630,
  "treas": 5631,
  "fought ": 5632,
  "anch": 5633,
  "as his ": 5634,
  "even the ": 5635,
  "necessary ": 5636,
  ". It\\u000a": 5637,
  "habit": 5638,
  "Good": 5639,
  "alway": 5640,
  "ready": 5641,
  ". I felt ": 5642,
  "obli": 5643,
  "chin": 5644,
  "icking ": 5645,
  "explor": 5646,
  "all these ": 5647,
  "ere, ": 5648,
  "vein": 5649,
  "up his ": 5650,
  "beat": 5651,
  "gain": 5652,
  "third ": 5653,
  "freedom ": 5654,
  "mel": 5655,
  "mere ": 5656,
  "dread ": 5657,
  "future ": 5658,
  "play": 5659,
  "girl ": 5660,
  "invol": 5661,
  "most\\u000a": 5662,
  "pass ": 5663,
  "fy ": 5664,
  "hurri": 5665,
  "eti": 5666,
  "morning, ": 5667,
  "beyond the ": 5668,
  "outside": 5669,
  "instin": 5670,
  "overw": 5671,
  "gives ": 5672,
  "says ": 5673,
  "oh, ": 5674,
  "heard him ": 5675,
  "physical ": 5676,
  "for him": 5677,
  "walking ": 5678,
  "line": 5679,
  "storm": 5680,
  "wreck": 5681,
  "tast": 5682,
  "ore ": 5683,
  "strain": 5684,
  "sion, ": 5685,
  "to its ": 5686,
  "Ju": 5687,
  "impati": 5688,
  "rout": 5689,
  "job": 5690,
  ", because ": 5691,
  "a moment ": 5692,
  "wrist ": 5693,
  "setting ": 5694,
  "weak ": 5695,
  "forth": 5696,
  "infin": 5697,
  "dropped ": 5698,
  "decided to ": 5699,
  "scrat": 5700,
  "distr": 5701,
  "p, ": 5702,
  "’\\u000a\\u000a\\u000c": 5703,
  "told me": 5704,
  "DI": 5705,
  "made of ": 5706,
  "if we ": 5707,
  ", his ": 5708,
  "pt": 5709,
  "tomorrow": 5710,
  "represent": 5711,
  "Pic": 5712,
  "cadi": 5713,
  "wondered ": 5714,
  "ras": 5715,
  "Madam Mina ": 5716,
  ". Do": 5717,
  "groan": 5718,
  "sailor": 5719,
  "numerous ": 5720,
  "individual ": 5721,
  "noted ": 5722,
  "climbed ": 5723,
  "glim": 5724,
  "scar ": 5725,
  "killed ": 5726,
  "Yet ": 5727,
  "hunting ": 5728,
  "footsteps ": 5729,
  "s,\\u000athe ": 5730,
  "collap": 5731,
  "away from the ": 5732,
  "phosphor": 5733,
  "track": 5734,
  "eyes\\u000a": 5735,
  "supply ": 5736,
  "leg ": 5737,
  "her lips ": 5738,
  "water\\u000a": 5739,
  "?\"\\u000a": 5740,
  "He's ": 5741,
  "whim": 5742,
  "Adye": 5743,
  "forear": 5744,
  ".\\u000a*\\u000a": 5745,
  "pole": 5746,
  "Handler": 5747,
  ". ‘You ": 5748,
  "oxygen ": 5749,
  "?’ Thomas ": 5750,
  "region": 5751,
  "surface": 5752,
  "tentac": 5753,
  "leagues ": 5754,
  "ccord": 5755,
  "\\u000a\\u000a\\u000a\\u000a                                                     ": 5756,
  "Ned, ": 5757,
  "?\" I ask": 5758,
  "Nautilus\\u000a": 5759,
  "shells, ": 5760,
  "dispo": 5761,
  "exact ": 5762,
  "ula": 5763,
  "post ": 5764,
  "fairly ": 5765,
  "are the ": 5766,
  "guess ": 5767,
  "for this ": 5768,
  "eight": 5769,
  "ants ": 5770,
  "hat": 5771,
  "kind ": 5772,
  "cow": 5773,
  "told": 5774,
  "and\\u000a\\u000a\\u000c": 5775,
  "eri": 5776,
  "at least": 5777,
  "it was the ": 5778,
  "duty ": 5779,
  "know\\u000a": 5780,
  "that is ": 5781,
  "passeng": 5782,
  "over his ": 5783,
  "hast": 5784,
  "ter\\u000a": 5785,
  "lef": 5786,
  "peak": 5787,
  "wound ": 5788,
  "shr": 5789,
  "ears ": 5790,
  "s which ": 5791,
  "before\\u000a": 5792,
  "pause ": 5793,
  "excitement ": 5794,
  "level": 5795,
  "eager": 5796,
  "from our ": 5797,
  "of them": 5798,
  "swift": 5799,
  "curious ": 5800,
  "shaking ": 5801,
  "nel": 5802,
  "sounded ": 5803,
  "saw a ": 5804,
  "jumped ": 5805,
  "vast ": 5806,
  "II\\u000a": 5807,
  "solic": 5808,
  "swung ": 5809,
  "tion of ": 5810,
  "vely": 5811,
  "closed the ": 5812,
  "suffici": 5813,
  "ses, ": 5814,
  "finished ": 5815,
  "aqu": 5816,
  "long and ": 5817,
  "o’clock": 5818,
  "deed": 5819,
  "did you ": 5820,
  "subject": 5821,
  "umph": 5822,
  "with him ": 5823,
  "to him ": 5824,
  "Carfa": 5825,
  "no doubt ": 5826,
  "priv": 5827,
  "e the ": 5828,
  "ing my ": 5829,
  "about\\u000a": 5830,
  "ing. I ": 5831,
  ".\\u000aF": 5832,
  "father": 5833,
  "sed the ": 5834,
  "emplo": 5835,
  "reading ": 5836,
  "them to ": 5837,
  "circumstances ": 5838,
  "Var": 5839,
  "for your ": 5840,
  "ater.—": 5841,
  "tried ": 5842,
  "on the floor": 5843,
  "happened ": 5844,
  "lur": 5845,
  "doing": 5846,
  "cket ": 5847,
  "me with ": 5848,
  "Go ": 5849,
  "entire": 5850,
  "unic": 5851,
  ". Se": 5852,
  "1 ": 5853,
  "25 ": 5854,
  "cular ": 5855,
  "fled ": 5856,
  "destroy ": 5857,
  "struggle ": 5858,
  "returned to the ": 5859,
  "in the air": 5860,
  "fill ": 5861,
  "overwhelm": 5862,
  ", where ": 5863,
  "type": 5864,
  "one of those ": 5865,
  ". Oh, ": 5866,
  "atic": 5867,
  "no matter ": 5868,
  "s so ": 5869,
  "perfect ": 5870,
  "loved ": 5871,
  "to say ": 5872,
  "lack ": 5873,
  "top of ": 5874,
  "lights ": 5875,
  "Dr. Seward’s Diary.\\u000a": 5876,
  "mind, ": 5877,
  "angry ": 5878,
  "anxious ": 5879,
  "as soon ": 5880,
  "weather ": 5881,
  "Cor": 5882,
  "usually ": 5883,
  "gun": 5884,
  "deck ": 5885,
  "alt": 5886,
  "man\\u000a": 5887,
  "inqu": 5888,
  "paid ": 5889,
  "knif": 5890,
  ", this ": 5891,
  "lung": 5892,
  "close": 5893,
  "Sco": 5894,
  "not only ": 5895,
  "surprise ": 5896,
  "depart": 5897,
  "\\u000aa ": 5898,
  "on and ": 5899,
  "aster": 5900,
  "appreci": 5901,
  "way to the ": 5902,
  "twel": 5903,
  "plain": 5904,
  "dru": 5905,
  "ones ": 5906,
  "dete": 5907,
  "If you ": 5908,
  "lift ": 5909,
  "operation": 5910,
  "mark ": 5911,
  "exhausti": 5912,
  "if they ": 5913,
  ". The Professor ": 5914,
  "pronounc": 5915,
  "dee": 5916,
  "heat ": 5917,
  "slum": 5918,
  "her own ": 5919,
  "ted the ": 5920,
  "closer ": 5921,
  "forehead ": 5922,
  "visit ": 5923,
  "domin": 5924,
  "her face ": 5925,
  "phosphores": 5926,
  "exhi": 5927,
  "shop": 5928,
  "confin": 5929,
  "aim": 5930,
  "weapon": 5931,
  "sions ": 5932,
  "suppli": 5933,
  "inside the ": 5934,
  "500 ": 5935,
  "copyright ": 5936,
  "Literary ": 5937,
  "Literary Archi": 5938,
  "ve Found": 5939,
  "including ": 5940,
  "s. \"": 5941,
  "uncomfor": 5942,
  "you've ": 5943,
  "ed.\\u000a\"": 5944,
  ": \"": 5945,
  "pink ": 5946,
  "Cus": 5947,
  "against her ": 5948,
  "heel": 5949,
  "?\" asked ": 5950,
  "Kemp's ": 5951,
  "Kemp, ": 5952,
  "ric ": 5953,
  "gym ": 5954,
  "yepat": 5955,
  "?’ Cassie ": 5956,
  "hull": 5957,
  "per hour": 5958,
  "!\" the Canadian ": 5959,
  "maneu": 5960,
  "zoophyt": 5961,
  "’S ": 5962,
  "Bu": 5963,
  "it may ": 5964,
  "breakfast": 5965,
  "rush": 5966,
  "beaut": 5967,
  "floo": 5968,
  "practi": 5969,
  "err": 5970,
  "to-morrow ": 5971,
  "got a ": 5972,
  "asked him ": 5973,
  "ref": 5974,
  "was in ": 5975,
  "asking ": 5976,
  "yes": 5977,
  "business ": 5978,
  "cruci": 5979,
  "trees ": 5980,
  "driver ": 5981,
  ". I could ": 5982,
  "forget ": 5983,
  "age, ": 5984,
  "slo": 5985,
  "load": 5986,
  "e of a ": 5987,
  "right\\u000a": 5988,
  "Look": 5989,
  ". This was ": 5990,
  "by, ": 5991,
  ". There were ": 5992,
  "glad": 5993,
  "tall ": 5994,
  "a great ": 5995,
  "gleam": 5996,
  "prodigi": 5997,
  "\\u000ain ": 5998,
  "in a few ": 5999,
  "rear": 6000,
  "closer": 6001,
  "helpl": 6002,
  "advent": 6003,
  "patient": 6004,
  "sively ": 6005,
  "leaning ": 6006,
  "eyebrow": 6007,
  "e, I ": 6008,
  "they are ": 6009,
  "a sound ": 6010,
  "somehow ": 6011,
  "idea of ": 6012,
  "things that ": 6013,
  "of all ": 6014,
  "he could ": 6015,
  "is it ": 6016,
  "et, ": 6017,
  "dining-": 6018,
  "lion ": 6019,
  "Ber": 6020,
  "thousand": 6021,
  "Who ": 6022,
  "s and\\u000a": 6023,
  "metho": 6024,
  "Have ": 6025,
  "s was ": 6026,
  "and un": 6027,
  "sheer ": 6028,
  "brilli": 6029,
  "toler": 6030,
  "nose ": 6031,
  "would have been ": 6032,
  "admit ": 6033,
  "coat ": 6034,
  "felt\\u000a": 6035,
  "fail": 6036,
  "but the ": 6037,
  "claw": 6038,
  "open the ": 6039,
  "came back ": 6040,
  "renew": 6041,
  "the whole ": 6042,
  "ing, but ": 6043,
  "tear ": 6044,
  "jaw ": 6045,
  "that he had ": 6046,
  "a bit ": 6047,
  "That’s ": 6048,
  "has": 6049,
  "my hand": 6050,
  ". Ar": 6051,
  "Y ": 6052,
  "Look ": 6053,
  "favour": 6054,
  "bare ": 6055,
  "with him": 6056,
  "number": 6057,
  "IL": 6058,
  "report": 6059,
  "Ma": 6060,
  "surface\\u000aof the ": 6061,
  "cti": 6062,
  "Before ": 6063,
  "cus": 6064,
  ". Al": 6065,
  "because the ": 6066,
  "loose ": 6067,
  ". We were ": 6068,
  "length ": 6069,
  "been": 6070,
  "a long ": 6071,
  "endous ": 6072,
  "prevent ": 6073,
  "artic": 6074,
  "Is ": 6075,
  "wolf": 6076,
  "maybe ": 6077,
  "clutch": 6078,
  "aring ": 6079,
  "assa": 6080,
  "Quincey Morri": 6081,
  "rehen": 6082,
  "remov": 6083,
  "Piccadi": 6084,
  "main": 6085,
  "excitement": 6086,
  "Lat": 6087,
  "enthu": 6088,
  "Un-Dead": 6089,
  "design": 6090,
  "America": 6091,
  "sink ": 6092,
  "cle ": 6093,
  "fal": 6094,
  "months ": 6095,
  "tally ": 6096,
  "with this ": 6097,
  "man-": 6098,
  "posed ": 6099,
  "uch ": 6100,
  "apu": 6101,
  "flying ": 6102,
  "IT": 6103,
  "situation ": 6104,
  "hanging ": 6105,
  "des ": 6106,
  ",\" he said, \"": 6107,
  "s.\\u000a\"": 6108,
  "'t": 6109,
  "there's ": 6110,
  "haven't ": 6111,
  "You're ": 6112,
  "Mr. Marvel ": 6113,
  "surface, ": 6114,
  "professor, ": 6115,
  "familiar": 6116,
  "across her ": 6117,
  "inside her ": 6118,
  "led her ": 6119,
  "indicated ": 6120,
  ".\\u000a‘You ": 6121,
  "harpooner ": 6122,
  "ocean's ": 6123,
  ".\\u000a\\u000aS": 6124,
  "metri": 6125,
  "Commander Farragut ": 6126,
  "Abraham Lincoln": 6127,
  "exclaimed. \"": 6128,
  ",000,000 ": 6129,
  "sun's ": 6130,
  "ast tank": 6131,
  "onto the platform": 6132,
  "Captain Nemo\\u000a": 6133,
  "dug": 6134,
  "Ice Bank": 6135,
  "istr": 6136,
  "time, and ": 6137,
  "ary\\u000a": 6138,
  "deal": 6139,
  "Dracula": 6140,
  "ans, ": 6141,
  "punct": 6142,
  "train": 6143,
  "jack": 6144,
  "coat": 6145,
  "them, and ": 6146,
  "means ": 6147,
  "at once, ": 6148,
  "?” I ": 6149,
  "gho": 6150,
  "passed": 6151,
  "distant ": 6152,
  "er, and ": 6153,
  "all\\u000athe ": 6154,
  "s\\u000aof the ": 6155,
  "touched ": 6156,
  "God’s ": 6157,
  "stem": 6158,
  "red, ": 6159,
  "times, ": 6160,
  "sunset ": 6161,
  "tos": 6162,
  "nest": 6163,
  "fai": 6164,
  "explan": 6165,
  "at last ": 6166,
  "An ": 6167,
  "worse ": 6168,
  "now\\u000a": 6169,
  "us, and ": 6170,
  "rays ": 6171,
  ", my friend": 6172,
  "whispered ": 6173,
  "out his ": 6174,
  "straight": 6175,
  "looked\\u000a": 6176,
  "whist": 6177,
  "afraid": 6178,
  "asleep ": 6179,
  ". Once ": 6180,
  "pulling ": 6181,
  "he took ": 6182,
  "dawn ": 6183,
  "ing in ": 6184,
  "test": 6185,
  "ving\\u000a": 6186,
  "trave": 6187,
  ", though ": 6188,
  "with me ": 6189,
  ". There is ": 6190,
  "notice": 6191,
  "seen": 6192,
  "hidd": 6193,
  "it,\\u000a": 6194,
  "to look ": 6195,
  "Gu": 6196,
  "Harker ": 6197,
  "wall, ": 6198,
  "struct": 6199,
  "sid": 6200,
  "heavily ": 6201,
  "up a ": 6202,
  "times": 6203,
  "ore": 6204,
  "! But ": 6205,
  "safe ": 6206,
  "lost": 6207,
  "mistaken": 6208,
  "trick": 6209,
  "piec": 6210,
  "had come ": 6211,
  "his own ": 6212,
  "y is ": 6213,
  "condu": 6214,
  "observation": 6215,
  "port": 6216,
  "do\\u000a": 6217,
  ", and his ": 6218,
  "these\\u000a": 6219,
  "to me, ": 6220,
  ". I thought ": 6221,
  "feel the ": 6222,
  "or two ": 6223,
  "love": 6224,
  "purpose": 6225,
  "truth": 6226,
  "anticip": 6227,
  "rage": 6228,
  "zed ": 6229,
  "ghter ": 6230,
  "him. He ": 6231,
  "at any ": 6232,
  "he went ": 6233,
  "Get ": 6234,
  "occurr": 6235,
  "clothes": 6236,
  "to think ": 6237,
  "was no ": 6238,
  "empty": 6239,
  "pel": 6240,
  "in a\\u000a": 6241,
  "softly ": 6242,
  ". Un": 6243,
  "simil": 6244,
  "merely ": 6245,
  "guess": 6246,
  "Septem": 6247,
  "als ": 6248,
  "\\u000a\\u000a\\u000c“": 6249,
  "sea, ": 6250,
  "ers and ": 6251,
  "Sp": 6252,
  "settled ": 6253,
  "buzz": 6254,
  "thum": 6255,
  "let him ": 6256,
  "attendant ": 6257,
  "absor": 6258,
  "had just ": 6259,
  "out her ": 6260,
  "north ": 6261,
  "sea was ": 6262,
  "fasten": 6263,
  "clar": 6264,
  "boxes ": 6265,
  "nine ": 6266,
  "lish ": 6267,
  "forgotten ": 6268,
  "left to ": 6269,
  "carried ": 6270,
  "breathing": 6271,
  "obedi": 6272,
  "such as ": 6273,
  "as much ": 6274,
  "all of ": 6275,
  "attention": 6276,
  "maid": 6277,
  "strike ": 6278,
  "had gone ": 6279,
  "equipment ": 6280,
  "WAR": 6281,
  "gather ": 6282,
  "reply ": 6283,
  "reached ": 6284,
  "tack": 6285,
  "suggest": 6286,
  "survi": 6287,
  "alive": 6288,
  "inch": 6289,
  "SE": 6290,
  "enthusi": 6291,
  "elbow": 6292,
  "We were ": 6293,
  "Where ": 6294,
  "feature": 6295,
  "sugge": 6296,
  "awkward": 6297,
  "sour": 6298,
  "extend": 6299,
  "reflect": 6300,
  "bale": 6301,
  "ed from ": 6302,
  "final ": 6303,
  "tightly ": 6304,
  "diver": 6305,
  "ense ": 6306,
  "ww": 6307,
  "eB": 6308,
  "Project\\u000aGutenberg-t": 6309,
  "Project\\u000aGutenberg-tm ": 6310,
  "Literary Archive Found": 6311,
  "ator ": 6312,
  "ram": 6313,
  "parlour ": 6314,
  "said. \"": 6315,
  ".\"\\u000aHe ": 6316,
  "o'clock": 6317,
  "invisible": 6318,
  "felt the ": 6319,
  "spor": 6320,
  "stared at the ": 6321,
  "feet and ": 6322,
  "interi": 6323,
  "activ": 6324,
  "froz": 6325,
  "thigh": 6326,
  "–": 6327,
  ",’ the ": 6328,
  "…’ ": 6329,
  "predi": 6330,
  "length": 6331,
  "dragon ": 6332,
  "Atlantic ": 6333,
  "speed of ": 6334,
  "ccordingly, ": 6335,
  "We're ": 6336,
  "asked.\\u000a\\u000a\"": 6337,
  "franc": 6338,
  "1\\u000a\\u000c": 6339,
  "I couldn't ": 6340,
  "Mediterranean ": 6341,
  "genuine ": 6342,
  "Red Sea": 6343,
  "d'U": 6344,
  "d'Ur": 6345,
  "d'Urvill": 6346,
  "Papu": 6347,
  "Vi": 6348,
  "leaving the ": 6349,
  "wid": 6350,
  "ps": 6351,
  "ities": 6352,
  "claim ": 6353,
  ". There was a ": 6354,
  "sty": 6355,
  "stuff": 6356,
  "clum": 6357,
  "ange": 6358,
  "Slov": 6359,
  "long\\u000a": 6360,
  "wanting ": 6361,
  "you and ": 6362,
  "it seemed ": 6363,
  "time\\u000a": 6364,
  "to meet ": 6365,
  "sorrow": 6366,
  "front of ": 6367,
  "—“": 6368,
  "Ho": 6369,
  ".\\u000aB": 6370,
  "afternoon ": 6371,
  "rever": 6372,
  "glow": 6373,
  "—for ": 6374,
  "go to ": 6375,
  "light\\u000a": 6376,
  "atmospher": 6377,
  "spoken ": 6378,
  "tone": 6379,
  "teeth, ": 6380,
  "ive ": 6381,
  "ed to his ": 6382,
  "e\\u000aof ": 6383,
  "match": 6384,
  "wolves": 6385,
  "sharply ": 6386,
  "clou": 6387,
  "rolling ": 6388,
  "of a\\u000a": 6389,
  "worn ": 6390,
  "like that": 6391,
  "flesh ": 6392,
  "ved": 6393,
  "silent": 6394,
  "host": 6395,
  "nose": 6396,
  "strea": 6397,
  "children ": 6398,
  ". Your ": 6399,
  "chair": 6400,
  "bag ": 6401,
  "spa": 6402,
  "y, the ": 6403,
  "door open": 6404,
  "rough": 6405,
  "to know ": 6406,
  "went to the ": 6407,
  "room, and ": 6408,
  "scri": 6409,
  "ury": 6410,
  "ety ": 6411,
  "ness of ": 6412,
  ".\\u000aP": 6413,
  "Yor": 6414,
  "it, but ": 6415,
  "that I am ": 6416,
  "assur": 6417,
  "that a ": 6418,
  "up my ": 6419,
  "it a ": 6420,
  "story ": 6421,
  "expe": 6422,
  "pour": 6423,
  "flag": 6424,
  "Ara": 6425,
  "business": 6426,
  "to our ": 6427,
  "accept": 6428,
  "sely": 6429,
  "one-": 6430,
  "light, ": 6431,
  ", so I ": 6432,
  "hate ": 6433,
  ": the ": 6434,
  "God! ": 6435,
  "way\\u000a": 6436,
  "pierc": 6437,
  "how\\u000a": 6438,
  "ry, ": 6439,
  "join": 6440,
  "dangerous ": 6441,
  "intend": 6442,
  "les of ": 6443,
  "distance": 6444,
  "ond": 6445,
  "aband": 6446,
  "of\\u000aher ": 6447,
  "fat": 6448,
  "depth ": 6449,
  "filled with ": 6450,
  "corner of the ": 6451,
  "chance": 6452,
  "sign of ": 6453,
  "prove ": 6454,
  "ed.\\u000a“": 6455,
  "ously, ": 6456,
  "mine": 6457,
  "down to the ": 6458,
  "risk": 6459,
  "filled ": 6460,
  "ade ": 6461,
  "better than ": 6462,
  "studi": 6463,
  "nice ": 6464,
  "for a\\u000a": 6465,
  "ra ": 6466,
  "twice ": 6467,
  "logical ": 6468,
  "hone": 6469,
  "let us ": 6470,
  "rar": 6471,
  "you’ve ": 6472,
  "green": 6473,
  "breez": 6474,
  "dred": 6475,
  "fishing ": 6476,
  "August.—": 6477,
  "s\\u000athat ": 6478,
  "year ": 6479,
  "spirit": 6480,
  "catching ": 6481,
  "s, so ": 6482,
  "Journal.\\u000a": 6483,
  "moments ": 6484,
  "ont ": 6485,
  "her mind ": 6486,
  "undul": 6487,
  "snat": 6488,
  "ashing ": 6489,
  "realiz": 6490,
  "corp": 6491,
  "where he ": 6492,
  "the captain ": 6493,
  "cabin": 6494,
  "panic ": 6495,
  "hide": 6496,
  "busy ": 6497,
  "deserted ": 6498,
  "knife ": 6499,
  "hero": 6500,
  "intention": 6501,
  "waves, ": 6502,
  "furi": 6503,
  ". Wha": 6504,
  "disting": 6505,
  "distingu": 6506,
  "order to ": 6507,
  "in front of ": 6508,
  "expression": 6509,
  "angle ": 6510,
  ". As she ": 6511,
  "patient ": 6512,
  "cally": 6513,
  "he’s ": 6514,
  "poor dear ": 6515,
  "task ": 6516,
  "ourselves ": 6517,
  "crum": 6518,
  "us and ": 6519,
  "can do ": 6520,
  "face was ": 6521,
  "smil": 6522,
  "particular": 6523,
  "by her ": 6524,
  "had to be ": 6525,
  "end of the ": 6526,
  "Madam Mina, ": 6527,
  "true": 6528,
  "a second ": 6529,
  "hunt ": 6530,
  "thrust ": 6531,
  "paragraph ": 6532,
  ". An ": 6533,
  "hard to ": 6534,
  "mass ": 6535,
  "Godalming ": 6536,
  "divid": 6537,
  "ze": 6538,
  "inve": 6539,
  ", sir": 6540,
  "quickly": 6541,
  "active ": 6542,
  "gripp": 6543,
  "relax": 6544,
  "a shi": 6545,
  "........": 6546,
  "aler": 6547,
  "haul": 6548,
  "ies of ": 6549,
  "Cre": 6550,
  "United ": 6551,
  "United St": 6552,
  "1.F": 6553,
  "spectac": 6554,
  "Tom": 6555,
  "glow ": 6556,
  ".\"\\u000a\\u000a\\u000c": 6557,
  "he's ": 6558,
  "sniff": 6559,
  ".\\u000a\"I ": 6560,
  ". \"It's ": 6561,
  "I didn't ": 6562,
  "spong": 6563,
  "tremendous ": 6564,
  "ceiling ": 6565,
  "abruptly ": 6566,
  "kil": 6567,
  "in the midst of the ": 6568,
  "highly ": 6569,
  "dens": 6570,
  "side of her ": 6571,
  "stomach": 6572,
  "bucket": 6573,
  "her.\\u000a‘": 6574,
  ". She could ": 6575,
  "pum": 6576,
  "medic ": 6577,
  "shell ": 6578,
  "Thomas was ": 6579,
  "current": 6580,
  "South Po": 6581,
  "essence, ": 6582,
  "naturalist": 6583,
  "Dum": 6584,
  "8\\u000a\\u000c": 6585,
  "metric ": 6586,
  "metric ton": 6587,
  "baleen ": 6588,
  "master's ": 6589,
  "Atlantic": 6590,
  "we've ": 6591,
  "nmost ": 6592,
  "from the genus ": 6593,
  "temperature ": 6594,
  "AT": 6595,
  "itz": 6596,
  "stern ": 6597,
  "ges ": 6598,
  "Br": 6599,
  "east ": 6600,
  "Or": 6601,
  "some of ": 6602,
  "memory ": 6603,
  "found the ": 6604,
  "through a ": 6605,
  "town": 6606,
  "s. It ": 6607,
  "takes ": 6608,
  "s, and\\u000a": 6609,
  "beginning ": 6610,
  "questions ": 6611,
  "evil ": 6612,
  "lady": 6613,
  "good-": 6614,
  "pleasant ": 6615,
  ". Of ": 6616,
  "eling ": 6617,
  "devo": 6618,
  "ech": 6619,
  "strew": 6620,
  "ahead ": 6621,
  "s and a ": 6622,
  "flash ": 6623,
  "pair ": 6624,
  "p and ": 6625,
  "lik": 6626,
  "as far ": 6627,
  "in the same ": 6628,
  "again and ": 6629,
  "field ": 6630,
  "with such ": 6631,
  "moonlight ": 6632,
  "painful ": 6633,
  "come, ": 6634,
  "climb": 6635,
  "remarkable ": 6636,
  "way of ": 6637,
  "seat ": 6638,
  "on which ": 6639,
  "now and ": 6640,
  "door, and ": 6641,
  "ed in a ": 6642,
  "ger": 6643,
  "ll of ": 6644,
  "showed ": 6645,
  "knees ": 6646,
  "afternoon": 6647,
  "enjoy": 6648,
  "fee ": 6649,
  ".” I ": 6650,
  ", and so ": 6651,
  "ton ": 6652,
  "none of ": 6653,
  "ed, and the ": 6654,
  "eyes and ": 6655,
  "triumph": 6656,
  "appear ": 6657,
  "apo": 6658,
  "that\\u000athe ": 6659,
  "requi": 6660,
  "ring": 6661,
  "8 ": 6662,
  "uneas": 6663,
  "must not ": 6664,
  "hung ": 6665,
  "which is ": 6666,
  "s; and ": 6667,
  "afterward": 6668,
  "es, the ": 6669,
  "st of ": 6670,
  "perhaps, ": 6671,
  "envelop": 6672,
  "& ": 6673,
  "respect": 6674,
  "out and ": 6675,
  "me; ": 6676,
  "window and ": 6677,
  "ation of the ": 6678,
  "nerves ": 6679,
  "s of their ": 6680,
  "mad ": 6681,
  "footstep": 6682,
  "bitter ": 6683,
  "ed\\u000aher ": 6684,
  ". With a ": 6685,
  "den ": 6686,
  "arou": 6687,
  "chance to ": 6688,
  "Jun": 6689,
  "es; ": 6690,
  ", since ": 6691,
  "path ": 6692,
  "drive ": 6693,
  "may\\u000a": 6694,
  "evidence ": 6695,
  "hypnoti": 6696,
  "gathered ": 6697,
  "fer ": 6698,
  "pity ": 6699,
  "before, ": 6700,
  "with all ": 6701,
  "remain ": 6702,
  ",—\\u000a“": 6703,
  "with you": 6704,
  "sque": 6705,
  "o’clock ": 6706,
  "to tell ": 6707,
  "truly ": 6708,
  " ‘": 6709,
  "driving ": 6710,
  "all this ": 6711,
  "or a ": 6712,
  "upset ": 6713,
  "into\\u000athe ": 6714,
  "there be ": 6715,
  "swear ": 6716,
  "a big ": 6717,
  "gran": 6718,
  "half a ": 6719,
  "but not ": 6720,
  "ori": 6721,
  "either": 6722,
  "field": 6723,
  "Renfield ": 6724,
  "for a few ": 6725,
  "food": 6726,
  "res ": 6727,
  "branch ": 6728,
  "Bur": 6729,
  "Jonathan, ": 6730,
  "finding ": 6731,
  "dec": 6732,
  "gently ": 6733,
  "convul": 6734,
  "fog": 6735,
  "compla": 6736,
  "k of ": 6737,
  "ater ": 6738,
  "Ch": 6739,
  "finger ": 6740,
  "e that ": 6741,
  "much\\u000a": 6742,
  "contr": 6743,
  "me,\\u000a": 6744,
  "bout ": 6745,
  "next day, ": 6746,
  "stir": 6747,
  "tively ": 6748,
  "vigor": 6749,
  "Right": 6750,
  "how much ": 6751,
  "counter": 6752,
  "! What ": 6753,
  "wand": 6754,
  "spraw": 6755,
  "shutter": 6756,
  "in such ": 6757,
  "breaking ": 6758,
  "ort ": 6759,
  "frustr": 6760,
  ". Their ": 6761,
  "shoulders ": 6762,
  "Very ": 6763,
  "cand": 6764,
  "Lord Godalming ": 6765,
  "Lord": 6766,
  ", what ": 6767,
  "pace ": 6768,
  "belief": 6769,
  "smiled ": 6770,
  "willing to ": 6771,
  "reck": 6772,
  ". Besides, ": 6773,
  "just a ": 6774,
  "Even ": 6775,
  "caus": 6776,
  "releas": 6777,
  "gla": 6778,
  "pressing ": 6779,
  "sen ": 6780,
  "inted ": 6781,
  "pical ": 6782,
  "energy ": 6783,
  "produ": 6784,
  "changed ": 6785,
  "ickn": 6786,
  "dragged ": 6787,
  "offer": 6788,
  "invisi": 6789,
  "another moment ": 6790,
  "govern": 6791,
  "shu": 6792,
  "reapp": 6793,
  "I'm not ": 6794,
  "dimen": 6795,
  "situation": 6796,
  "ed and she ": 6797,
  "grunt": 6798,
  "shrugg": 6799,
  "stomach ": 6800,
  "Okay": 6801,
  "?’ He ": 6802,
  ". Hank ": 6803,
  "under the water": 6804,
  "Antar": 6805,
  "favor": 6806,
  ".\\u000a\\u000aOn ": 6807,
  ",\\u000aor ": 6808,
  "species ": 6809,
  ".\\u000a\\u000a\\u000a\\u000a                                                    ": 6810,
  "frigate": 6811,
  "kilome": 6812,
  "kilogram": 6813,
  ".\\u000a\\u000aBy ": 6814,
  "little by ": 6815,
  "\\u000a\\u000a\\u000a                                                    ": 6816,
  "3\\u000a\\u000c": 6817,
  "Meanwhile ": 6818,
  ".\"\\u000a\\u000aThe ": 6819,
  "chief officer ": 6820,
  ".\\u000aIts ": 6821,
  "pressure gau": 6822,
  "excur": 6823,
  "fins ": 6824,
  "seafloor ": 6825,
  "surface of the waves": 6826,
  "street": 6827,
  "well-": 6828,
  "before we ": 6829,
  "ed over ": 6830,
  "got to ": 6831,
  "ual": 6832,
  ", when ": 6833,
  "dinner ": 6834,
  "outside the ": 6835,
  "ver, ": 6836,
  ". Before ": 6837,
  "crown": 6838,
  "mighty ": 6839,
  "rock ": 6840,
  "less\\u000a": 6841,
  "by\\u000athe ": 6842,
  "ite\\u000a": 6843,
  "seem to ": 6844,
  "essly ": 6845,
  "ourag": 6846,
  "like a\\u000a": 6847,
  ". Then the ": 6848,
  "kindly ": 6849,
  "hot": 6850,
  "thunder": 6851,
  "separated ": 6852,
  "beard": 6853,
  "vor": 6854,
  "looked up ": 6855,
  "s, he ": 6856,
  "narrow": 6857,
  "places ": 6858,
  "and all ": 6859,
  "check": 6860,
  "ground, ": 6861,
  "scream ": 6862,
  "limb": 6863,
  ".\\u000aFor ": 6864,
  "compas": 6865,
  "disappeared ": 6866,
  ". Come ": 6867,
  "him the ": 6868,
  "bush": 6869,
  "s, whose ": 6870,
  "firm ": 6871,
  "pall": 6872,
  "broad": 6873,
  "I heard ": 6874,
  "feeling": 6875,
  "ke of ": 6876,
  "found a ": 6877,
  "service ": 6878,
  "life and ": 6879,
  "share ": 6880,
  "ed. “": 6881,
  "has not ": 6882,
  "destru": 6883,
  "take the ": 6884,
  "for my ": 6885,
  "came in ": 6886,
  "lap": 6887,
  "after\\u000a": 6888,
  "eter": 6889,
  "in every ": 6890,
  "wrote ": 6891,
  "that were ": 6892,
  "anno": 6893,
  "tree ": 6894,
  "describe ": 6895,
  "trying ": 6896,
  "find": 6897,
  "tang": 6898,
  ". To-": 6899,
  "ful, ": 6900,
  ".\\u000aM": 6901,
  "his hands ": 6902,
  "pool ": 6903,
  "dying ": 6904,
  "those\\u000a": 6905,
  "reached the ": 6906,
  "that the\\u000a": 6907,
  "laughter": 6908,
  "for our ": 6909,
  "only one ": 6910,
  "please ": 6911,
  "?” I ask": 6912,
  "protect ": 6913,
  "it was\\u000a": 6914,
  "; but I ": 6915,
  "creature ": 6916,
  "awful ": 6917,
  "s to the ": 6918,
  "consequ": 6919,
  "cure": 6920,
  "es\\u000aof ": 6921,
  "s!\\u000a": 6922,
  "replac": 6923,
  "came into ": 6924,
  "stin": 6925,
  "to-night ": 6926,
  "ling\\u000a": 6927,
  "right to ": 6928,
  "it\\u000awas ": 6929,
  "a bit": 6930,
  "conscious ": 6931,
  "anger": 6932,
  "took\\u000a": 6933,
  ". Well": 6934,
  "to us": 6935,
  "provide ": 6936,
  "becoming ": 6937,
  "she saw ": 6938,
  "ated, ": 6939,
  "what had ": 6940,
  "threaten": 6941,
  "nobody ": 6942,
  "weapon ": 6943,
  "who have ": 6944,
  "cause, ": 6945,
  "stig": 6946,
  "lid ": 6947,
  "sense ": 6948,
  ".\\u000aNow ": 6949,
  "Westenra": 6950,
  "squeez": 6951,
  "lines ": 6952,
  "Tell ": 6953,
  "respond": 6954,
  "mamm": 6955,
  "nervous ": 6956,
  "best": 6957,
  "isn’t ": 6958,
  "——": 6959,
  "serious ": 6960,
  ". It’s ": 6961,
  "any other ": 6962,
  ". Don": 6963,
  "riv": 6964,
  "influ": 6965,
  "deed, ": 6966,
  "Apri": 6967,
  "; or ": 6968,
  "Gulf of ": 6969,
  "50": 6970,
  ",” he said": 6971,
  "vation ": 6972,
  "develop": 6973,
  "attrac": 6974,
  "told the ": 6975,
  "belief ": 6976,
  "Mrs. W": 6977,
  "Mrs. Westen": 6978,
  "Another ": 6979,
  "not even ": 6980,
  "easi": 6981,
  "wrink": 6982,
  "he saw ": 6983,
  "raised his ": 6984,
  "known": 6985,
  "shore ": 6986,
  "trembling ": 6987,
  "without\\u000a": 6988,
  "removed ": 6989,
  "Bo": 6990,
  "had been\\u000a": 6991,
  "special ": 6992,
  " OF ": 6993,
  "reliev": 6994,
  "gha": 6995,
  "work is ": 6996,
  "funer": 6997,
  "buri": 6998,
  "yield": 6999
}