{
  "\\u0000": 0,
  "\\u0001": 1,
  "\\u0002": 2,
  "\\u0003": 3,
  "\\u0004": 4,
  "\\u0005": 5,
  "\\u0006": 6,
  "\\u0007": 7,
  "\\u0008": 8,
  "\\u0009": 9,
  "\\u000a": 10,
  "\\u000b": 11,
  "\\u000c": 12,
  "\\u000d": 13,
  "\\u000e": 14,
  "\\u000f": 15,
  "\\u0010": 16,
  "\\u0011": 17,
  "\\u0012": 18,
  "\\u0013": 19,
  "\\u0014": 20,
  "\\u0015": 21,
  "\\u0016": 22,
  "\\u0017": 23,
  "\\u0018": 24,
  "\\u0019": 25,
  "\\u001a": 26,
  "\\u001b": 27,
  "\\u001c": 28,
  "\\u001d": 29,
  "\\u001e": 30,
  "\\u001f": 31,
  " ": 32,
  "!": 33,
  "\"": 34,
  "#": 35,
  "$": 36,
  "%": 37,
  "&": 38,
  "'": 39,
  "(": 40,
  ")": 41,
  "*": 42,
  "+": 43,
  ",": 44,
  "-": 45,
  ".": 46,
  "/": 47,
  "0": 48,
  "1": 49,
  "2": 50,
  "3": 51,
  "4": 52,
  "5": 53,
  "6": 54,
  "7": 55,
  "8": 56,
  "9": 57,
  ":": 58,
  ";": 59,
  "<": 60,
  "=": 61,
  ">": 62,
  "?": 63,
  "@": 64,
  "A": 65,
  "B": 66,
  "C": 67,
  "D": 68,
  "E": 69,
  "F": 70,
  "G": 71,
  "H": 72,
  "I": 73,
  "J": 74,
  "K": 75,
  "L": 76,
  "M": 77,
  "N": 78,
  "O": 79,
  "P": 80,
  "Q": 81,
  "R": 82,
  "S": 83,
  "T": 84,
  "U": 85,
  "V": 86,
  "W": 87,
  "X": 88,
  "Y": 89,
  "Z": 90,
  "[": 91,
  "\\": 92,
  "]": 93,
  "^": 94,
  "_": 95,
  "`": 96,
  "a": 97,
  "b": 98,
  "c": 99,
  "d": 100,
  "e": 101,
  "f": 102,
  "g": 103,
  "h": 104,
  "i": 105,
  "j": 106,
  "k": 107,
  "l": 108,
  "m": 109,
  "n": 110,
  "o": 111,
  "p": 112,
  "q": 113,
  "r": 114,
  "s": 115,
  "t": 116,
  "u": 117,
  "v": 118,
  "w": 119,
  "x": 120,
  "y": 121,
  "z": 122,
  "{": 123,
  "|": 124,
  "}": 125,
  "~": 126,
  "\\u007f": 127,
  "\\x80": 128,
  "\\x81": 129,
  "\\x82": 130,
  "\\x83": 131,
  "\\x84": 132,
  "\\x85": 133,
  "\\x86": 134,
  "\\x87": 135,
  "\\x88": 136,
  "\\x89": 137,
  "\\x8a": 138,
  "\\x8b": 139,
  "\\x8c": 140,
  "\\x8d": 141,
  "\\x8e": 142,
  "\\x8f": 143,
  "\\x90": 144,
  "\\x91": 145,
  "\\x92": 146,
  "\\x93": 147,
  "\\x94": 148,
  "\\x95": 149,
  "\\x96": 150,
  "\\x97": 151,
  "\\x98": 152,
  "\\x99": 153,
  "\\x9a": 154,
  "\\x9b": 155,
  "\\x9c": 156,
  "\\x9d": 157,
  "\\x9e": 158,
  "\\x9f": 159,
  " ": 160,
  "¡": 161,
  "¢": 162,
  "£": 163,
  "¤": 164,
  "¥": 165,
  "¦": 166,
  "§": 167,
  "¨": 168,
  "©": 169,
  "ª": 170,
  "«": 171,
  "¬": 172,
  "\\xad": 173,
  "®": 174,
  "¯": 175,
  "°": 176,
  "±": 177,
  "²": 178,
  "³": 179,
  "´": 180,
  "µ": 181,
  "¶": 182,
  "·": 183,
  "¸": 184,
  "¹": 185,
  "º": 186,
  "»": 187,
  "¼": 188,
  "½": 189,
  "¾": 190,
  "¿": 191,
  "À": 192,
  "Á": 193,
  "Â": 194,
  "Ã": 195,
  "Ä": 196,
  "Å": 197,
  "Æ": 198,
  "Ç": 199,
  "È": 200,
  "É": 201,
  "Ê": 202,
  "Ë": 203,
  "Ì": 204,
  "Í": 205,
  "Î": 206,
  "Ï": 207,
  "Ð": 208,
  "Ñ": 209,
  "Ò": 210,
  "Ó": 211,
  "Ô": 212,
  "Õ": 213,
  "Ö": 214,
  "×": 215,
  "Ø": 216,
  "Ù": 217,
  "Ú": 218,
  "Û": 219,
  "Ü": 220,
  "Ý": 221,
  "Þ": 222,
  "ß": 223,
  "à": 224,
  "á": 225,
  "â": 226,
  "ã": 227,
  "ä": 228,
  "å": 229,
  "æ": 230,
  "ç": 231,
  "è": 232,
  "é": 233,
  "ê": 234,
  "ë": 235,
  "ì": 236,
  "í": 237,
  "î": 238,
  "ï": 239,
  "ð": 240,
  "ñ": 241,
  "ò": 242,
  "ó": 243,
  "ô": 244,
  "õ": 245,
  "ö": 246,
  "÷": 247,
  "ø": 248,
  "ù": 249,
  "ú": 250,
  "û": 251,
  "ü": 252,
  "ý": 253,
  "þ": 254,
  "ÿ": 255,
  "e ": 256,
  " t": 257,
  " a": 258,
  "in": 259,
  " th": 260,
  "er": 261,
  "d ": 262,
  "t ": 263,
  "s ": 264,
  "ou": 265,
  " the ": 266,
  "en": 267,
  ". ": 268,
  "on": 269,
  ", ": 270,
  " an": 271,
  "�": 272,
  "th": 273,
  "or": 274,
  "ing": 275,
  "an": 276,
  " h": 277,
  " s": 278,
  "re": 279,
  "of": 280,
  " to": 281,
  "y ": 282,
  "ll": 283,
  "ar": 284,
  "ed": 285,
  "st": 286,
  " w": 287,
  "he ": 288,
  "at": 289,
  "ed ": 290,
  " and ": 291,
  "om": 292,
  "it": 293,
  "ow": 294,
  "er ": 295,
  "as": 296,
  "is": 297,
  "is ": 298,
  "ha": 299,
  "es": 300,
  "’": 301,
  " m": 302,
  "el": 303,
  "ch": 304,
  "im": 305,
  "gh": 306,
  "for": 307,
  " b": 308,
  "no": 309,
  "le": 310,
  "ion": 311,
  "at ": 312,
  "ac": 313,
  "as ": 314,
  " c": 315,
  ".\\u000a": 316,
  "to": 317,
  "e\\u000a": 318,
  "ing ": 319,
  "ith": 320,
  "em": 321,
  "id": 322,
  "al": 323,
  "ve ": 324,
  " d": 325,
  "you": 326,
  "ic": 327,
  "ro": 328,
  "us": 329,
  " and": 330,
  "wh": 331,
  ", and ": 332,
  "ur": 333,
  " f": 334,
  "be": 335,
  "lo": 336,
  "un": 337,
  "ent": 338,
  "ere ": 339,
  "ad": 340,
  "li": 341,
  ". I": 342,
  "ri": 343,
  "ver": 344,
  "oul": 345,
  " that ": 346,
  "it ": 347,
  "le ": 348,
  "ly": 349,
  "ay": 350,
  "ir": 351,
  ". T": 352,
  " of": 353,
  " p": 354,
  "ear": 355,
  "am": 356,
  "ec": 357,
  "ut": 358,
  "with": 359,
  " in": 360,
  "—": 361,
  "was ": 362,
  "ain": 363,
  "se": 364,
  " I": 365,
  "all": 366,
  "and": 367,
  "she ": 368,
  "e th": 369,
  "ill": 370,
  "ok": 371,
  "et": 372,
  "“": 373,
  "ut ": 374,
  "up": 375,
  " g": 376,
  "il": 377,
  "oun": 378,
  "ould ": 379,
  "ol": 380,
  "e s": 381,
  "‘": 382,
  "ak": 383,
  "ag": 384,
  " as ": 385,
  "her": 386,
  "”": 387,
  "ght": 388,
  " ha": 389,
  "e of": 390,
  "now": 391,
  "if": 392,
  "ep": 393,
  "ter": 394,
  "es ": 395,
  ". H": 396,
  "op": 397,
  ", and": 398,
  "not ": 399,
  "rom": 400,
  " to ": 401,
  "res": 402,
  "ly ": 403,
  "e, ": 404,
  "her ": 405,
  "and ": 406,
  " her": 407,
  " his ": 408,
  ". S": 409,
  "ea": 410,
  " wh": 411,
  "\\u000a\\u000a": 412,
  "ough": 413,
  "ack": 414,
  "our": 415,
  " all": 416,
  " her ": 417,
  "ex": 418,
  "ey": 419,
  "ell": 420,
  "\\u000ath": 421,
  "od": 422,
  "so": 423,
  "was": 424,
  "si": 425,
  " you": 426,
  "do": 427,
  "t of": 428,
  "ra": 429,
  "e to": 430,
  "pp": 431,
  " the s": 432,
  "own": 433,
  "his ": 434,
  "ess": 435,
  " as": 436,
  " a ": 437,
  "id ": 438,
  "os": 439,
  "qu": 440,
  "ot": 441,
  " the\\u000a": 442,
  "ay ": 443,
  "ation": 444,
  "out": 445,
  " st": 446,
  " ar": 447,
  "ed to": 448,
  ", b": 449,
  "ul": 450,
  "ev": 451,
  " at": 452,
  "e m": 453,
  "oth": 454,
  "’s ": 455,
  "ent ": 456,
  "sh": 457,
  "s of": 458,
  "com": 459,
  "him": 460,
  "e w": 461,
  "ind": 462,
  "ich": 463,
  "from": 464,
  "had ": 465,
  ",\\u000a": 466,
  "ne": 467,
  "per": 468,
  " with": 469,
  "sel": 470,
  "ab": 471,
  "der": 472,
  " sa": 473,
  " on": 474,
  ". A": 475,
  ". The ": 476,
  "uc": 477,
  "ard": 478,
  " at ": 479,
  " H": 480,
  "um": 481,
  ". Th": 482,
  "not": 483,
  "ud": 484,
  "con": 485,
  "hat ": 486,
  " that": 487,
  " ag": 488,
  " him": 489,
  "ang": 490,
  "ght ": 491,
  "self": 492,
  "e a": 493,
  " sh": 494,
  "ust ": 495,
  " was ": 496,
  "ong": 497,
  "know": 498,
  "ect": 499,
  "in the ": 500,
  " re": 501,
  "over": 502,
  "\\u000a“": 503,
  "go": 504,
  " she ": 505,
  "enc": 506,
  "ant": 507,
  " it": 508,
  " he ": 509,
  "have ": 510,
  ". W": 511,
  "pl": 512,
  ".’": 513,
  "Th": 514,
  "eth": 515,
  "est": 516,
  " the f": 517,
  ". She ": 518,
  "assi": 519,
  " the c": 520,
  "out ": 521,
  "been": 522,
  "look": 523,
  " ab": 524,
  "str": 525,
  "into": 526,
  "et ": 527,
  "end": 528,
  "uch": 529,
  "Cassi": 530,
  "ous": 531,
  " the m": 532,
  "ound": 533,
  " the b": 534,
  "’t ": 535,
  "be ": 536,
  ".”": 537,
  "ct": 538,
  " do": 539,
  " have ": 540,
  "la": 541,
  "\\u000as": 542,
  "s, ": 543,
  "ight": 544,
  "fe": 545,
  " the": 546,
  "ink": 547,
  " this ": 548,
  "lik": 549,
  "way": 550,
  "ath": 551,
  " tr": 552,
  " them": 553,
  "itt": 554,
  "ever": 555,
  " a s": 556,
  "when": 557,
  "by": 558,
  "ome ": 559,
  " al": 560,
  " again": 561,
  " then": 562,
  "anc": 563,
  "ork": 564,
  "ist": 565,
  "od ": 566,
  " there ": 567,
  ", but ": 568,
  " for": 569,
  "ust": 570,
  " it ": 571,
  "which": 572,
  "e c": 573,
  " had ": 574,
  "ck": 575,
  "ark": 576,
  "ick": 577,
  " the w": 578,
  "ull": 579,
  "\\u000am": 580,
  "fac": 581,
  "ig": 582,
  " se": 583,
  "ive ": 584,
  " l": 585,
  "ber": 586,
  "urn": 587,
  "ing to": 588,
  "ame ": 589,
  " so": 590,
  " the p": 591,
  "gr": 592,
  " tim": 593,
  "rough": 594,
  "sa": 595,
  ".\\u000a‘": 596,
  "ef": 597,
  ", I": 598,
  "down": 599,
  "were ": 600,
  "hall": 601,
  "sp": 602,
  "iv": 603,
  " my ": 604,
  "You": 605,
  "back": 606,
  "ound ": 607,
  "ble ": 608,
  "e,": 609,
  "ould": 610,
  "red": 611,
  "ish": 612,
  "The ": 613,
  "one ": 614,
  "other": 615,
  " be": 616,
  ". He ": 617,
  "room": 618,
  "Mr": 619,
  "oll": 620,
  " am": 621,
  "man": 622,
  "door": 623,
  "ed, ": 624,
  " the t": 625,
  "ank": 626,
  "ca": 627,
  "ed\\u000a": 628,
  ". It ": 629,
  "art": 630,
  "bl": 631,
  "ort": 632,
  "ew": 633,
  "ight ": 634,
  "e and ": 635,
  " ang": 636,
  "ead": 637,
  "e. ": 638,
  "act": 639,
  "e the ": 640,
  "had": 641,
  "otion": 642,
  "pos": 643,
  "ov": 644,
  "e in": 645,
  " the d": 646,
  "—\\u000a“": 647,
  "st ": 648,
  "open": 649,
  "po": 650,
  "\\u000a\\u000a\\u000c": 651,
  "who": 652,
  "eep": 653,
  "emp": 654,
  "s\\u000a": 655,
  " go": 656,
  "ed in": 657,
  "\\u000a‘": 658,
  "\\u000athe ": 659,
  "\"\\u000a": 660,
  "mor": 661,
  "or ": 662,
  " af": 663,
  "pres": 664,
  " a m": 665,
  "my ": 666,
  " the h": 667,
  " be ": 668,
  ":—\\u000a“": 669,
  " con": 670,
  "\\u000aw": 671,
  "sing": 672,
  "emotion": 673,
  ". B": 674,
  "seem": 675,
  "s and ": 676,
  "vi": 677,
  "ect ": 678,
  "red ": 679,
  " me": 680,
  "ast": 681,
  "?’": 682,
  "ed her ": 683,
  "read": 684,
  " was": 685,
  "sid": 686,
  " ac": 687,
  "ess ": 688,
  "ub": 689,
  "befor": 690,
  "thing": 691,
  "ris": 692,
  "ob": 693,
  "inc": 694,
  "even": 695,
  "n’t ": 696,
  "ple": 697,
  "we ": 698,
  "rem": 699,
  "Cassie ": 700,
  "pe": 701,
  "Wh": 702,
  "int": 703,
  "how": 704,
  "new": 705,
  "would ": 706,
  " S": 707,
  " think": 708,
  "\" sa": 709,
  "ens": 710,
  "y of": 711,
  "atch": 712,
  ". ‘": 713,
  " can": 714,
  "under": 715,
  "ometh": 716,
  " an ": 717,
  " my": 718,
  ", for": 719,
  " which": 720,
  "los": 721,
  " a f": 722,
  "ff": 723,
  "den": 724,
  " tak": 725,
  ".\\u000a\"": 726,
  "pro": 727,
  " this": 728,
  "air": 729,
  "ind ": 730,
  "we": 731,
  " are ": 732,
  "hear": 733,
  ", s": 734,
  " through": 735,
  "off": 736,
  "ass": 737,
  "unt": 738,
  "ile ": 739,
  "vis": 740,
  "leep": 741,
  "ed and ": 742,
  "row": 743,
  "e sa": 744,
  "ward": 745,
  "ug": 746,
  ".\\u000a\\u000a": 747,
  "s to": 748,
  " a c": 749,
  ". \"": 750,
  "able ": 751,
  "I ": 752,
  "ord": 753,
  " though": 754,
  "gl": 755,
  "ittle ": 756,
  "ite ": 757,
  "ful": 758,
  "ip": 759,
  "ity": 760,
  "ing\\u000a": 761,
  "ed her": 762,
  "sc": 763,
  "dis": 764,
  " A": 765,
  "old": 766,
  "wo": 767,
  "ey ": 768,
  " a p": 769,
  "tain": 770,
  " from": 771,
  "Van": 772,
  "y s": 773,
  "ant ": 774,
  "cl": 775,
  " could ": 776,
  "e, and ": 777,
  "ject ": 778,
  "ing of": 779,
  " they ": 780,
  " their": 781,
  "vo": 782,
  "ret": 783,
  "don": 784,
  "e that ": 785,
  "could ": 786,
  "ach": 787,
  "other ": 788,
  "night": 789,
  " a\\u000a": 790,
  "will": 791,
  "'s ": 792,
  "but ": 793,
  "ook": 794,
  "mad": 795,
  " a b": 796,
  " a l": 797,
  "erv": 798,
  "es, ": 799,
  "son": 800,
  "y\\u000a": 801,
  "tr": 802,
  "hand": 803,
  "Luc": 804,
  ", but": 805,
  "ed with": 806,
  "alk": 807,
  "rec": 808,
  " ex": 809,
  "udden": 810,
  "Thom": 811,
  "are ": 812,
  "beg": 813,
  "me": 814,
  "ed the ": 815,
  "bod": 816,
  " is ": 817,
  "by ": 818,
  "ast ": 819,
  "ally ": 820,
  "..": 821,
  "may ": 822,
  "vel": 823,
  "er of": 824,
  " hand": 825,
  "\"\\u000a\"": 826,
  "ush": 827,
  "your": 828,
  "old ": 829,
  " any ": 830,
  "fl": 831,
  "! ": 832,
  "gre": 833,
  "feel": 834,
  "y, ": 835,
  "very ": 836,
  "plac": 837,
  " hear": 838,
  "; b": 839,
  " his": 840,
  "att": 841,
  " not ": 842,
  " com": 843,
  " will": 844,
  " tell": 845,
  "app": 846,
  " Hel": 847,
  " att": 848,
  "Van Hel": 849,
  "s,": 850,
  " anger": 851,
  "right": 852,
  ". M": 853,
  "ous ": 854,
  "an ": 855,
  " and\\u000a": 856,
  "ition": 857,
  "ious": 858,
  "ros": 859,
  "nd ": 860,
  "berg": 861,
  "uck": 862,
  "eel": 863,
  "uten": 864,
  "utenberg": 865,
  "ure": 866,
  "light": 867,
  "Pro": 868,
  "ost ": 869,
  "ft": 870,
  "me ": 871,
  "has ": 872,
  " too": 873,
  " a d": 874,
  " aw": 875,
  "di": 876,
  "ave ": 877,
  "andl": 878,
  " or": 879,
  "ina": 880,
  " M": 881,
  "fel": 882,
  "es of": 883,
  "port": 884,
  " work": 885,
  "ing in": 886,
  " app": 887,
  " what ": 888,
  "keep": 889,
  " we ": 890,
  ".’\\u000a‘": 891,
  "ble": 892,
  "fer": 893,
  "ollow": 894,
  " ask": 895,
  "!”": 896,
  "pa": 897,
  " they": 898,
  "ate ": 899,
  " shall": 900,
  "Dr": 901,
  "my": 902,
  "can": 903,
  "low": 904,
  "ead ": 905,
  " of ": 906,
  " any": 907,
  "where ": 908,
  "still": 909,
  "full": 910,
  ", the ": 911,
  "Gutenberg": 912,
  "ning": 913,
  " to the ": 914,
  "ness": 915,
  "but": 916,
  "out of": 917,
  " after": 918,
  "br": 919,
  "e. I": 920,
  ". Wh": 921,
  " that I": 922,
  "day": 923,
  " had": 924,
  "ron": 925,
  "us ": 926,
  "indow": 927,
  "\" said ": 928,
  ", so": 929,
  ".\\u000a“": 930,
  "? ": 931,
  "end ": 932,
  "Kemp": 933,
  " n": 934,
  "?”": 935,
  " know": 936,
  "ought": 937,
  "est ": 938,
  "ed him": 939,
  "what ": 940,
  "press": 941,
  " up": 942,
  ", as ": 943,
  "its ": 944,
  " turn": 945,
  " str": 946,
  "; and ": 947,
  " your": 948,
  "visi": 949,
  "Handl": 950,
  "form": 951,
  " he sa": 952,
  "onc": 953,
  "Van Helsing": 954,
  "just": 955,
  "work": 956,
  "av": 957,
  ", with": 958,
  "lock": 959,
  ",’": 960,
  "ed by": 961,
  " must ": 962,
  "ore ": 963,
  " would ": 964,
  "voic": 965,
  " a w": 966,
  "uff": 967,
  "ever ": 968,
  "ry": 969,
  "did ": 970,
  "the ": 971,
  "arm": 972,
  "came ": 973,
  " our": 974,
  "hel": 975,
  "ost": 976,
  "alm": 977,
  "sw": 978,
  "al ": 979,
  "ater": 980,
  "qui": 981,
  " man": 982,
  "ad ": 983,
  "aw": 984,
  " took": 985,
  " thing": 986,
  "ept": 987,
  "just ": 988,
  "igh": 989,
  " le": 990,
  " back": 991,
  " about ": 992,
  "-t": 993,
  " us": 994,
  " to\\u000a": 995,
  ". Then": 996,
  " about": 997,
  "ject": 998,
  "ome": 999
}