{
  "\\u0000": 0,
  "\\u0001": 1,
  "\\u0002": 2,
  "\\u0003": 3,
  "\\u0004": 4,
  "\\u0005": 5,
  "\\u0006": 6,
  "\\u0007": 7,
  "\\u0008": 8,
  "\\u0009": 9,
  "\\u000a": 10,
  "\\u000b": 11,
  "\\u000c": 12,
  "\\u000d": 13,
  "\\u000e": 14,
  "\\u000f": 15,
  "\\u0010": 16,
  "\\u0011": 17,
  "\\u0012": 18,
  "\\u0013": 19,
  "\\u0014": 20,
  "\\u0015": 21,
  "\\u0016": 22,
  "\\u0017": 23,
  "\\u0018": 24,
  "\\u0019": 25,
  "\\u001a": 26,
  "\\u001b": 27,
  "\\u001c": 28,
  "\\u001d": 29,
  "\\u001e": 30,
  "\\u001f": 31,
  " ": 32,
  "!": 33,
  "\"": 34,
  "#": 35,
  "$": 36,
  "%": 37,
  "&": 38,
  "'": 39,
  "(": 40,
  ")": 41,
  "*": 42,
  "+": 43,
  ",": 44,
  "-": 45,
  ".": 46,
  "/": 47,
  "0": 48,
  "1": 49,
  "2": 50,
  "3": 51,
  "4": 52,
  "5": 53,
  "6": 54,
  "7": 55,
  "8": 56,
  "9": 57,
  ":": 58,
  ";": 59,
  "<": 60,
  "=": 61,
  ">": 62,
  "?": 63,
  "@": 64,
  "A": 65,
  "B": 66,
  "C": 67,
  "D": 68,
  "E": 69,
  "F": 70,
  "G": 71,
  "H": 72,
  "I": 73,
  "J": 74,
  "K": 75,
  "L": 76,
  "M": 77,
  "N": 78,
  "O": 79,
  "P": 80,
  "Q": 81,
  "R": 82,
  "S": 83,
  "T": 84,
  "U": 85,
  "V": 86,
  "W": 87,
  "X": 88,
  "Y": 89,
  "Z": 90,
  "[": 91,
  "\\": 92,
  "]": 93,
  "^": 94,
  "_": 95,
  "`": 96,
  "a": 97,
  "b": 98,
  "c": 99,
  "d": 100,
  "e": 101,
  "f": 102,
  "g": 103,
  "h": 104,
  "i": 105,
  "j": 106,
  "k": 107,
  "l": 108,
  "m": 109,
  "n": 110,
  "o": 111,
  "p": 112,
  "q": 113,
  "r": 114,
  "s": 115,
  "t": 116,
  "u": 117,
  "v": 118,
  "w": 119,
  "x": 120,
  "y": 121,
  "z": 122,
  "{": 123,
  "|": 124,
  "}": 125,
  "~": 126,
  "\\u007f": 127,
  "\\x80": 128,
  "\\x81": 129,
  "\\x82": 130,
  "\\x83": 131,
  "\\x84": 132,
  "\\x85": 133,
  "\\x86": 134,
  "\\x87": 135,
  "\\x88": 136,
  "\\x89": 137,
  "\\x8a": 138,
  "\\x8b": 139,
  "\\x8c": 140,
  "\\x8d": 141,
  "\\x8e": 142,
  "\\x8f": 143,
  "\\x90": 144,
  "\\x91": 145,
  "\\x92": 146,
  "\\x93": 147,
  "\\x94": 148,
  "\\x95": 149,
  "\\x96": 150,
  "\\x97": 151,
  "\\x98": 152,
  "\\x99": 153,
  "\\x9a": 154,
  "\\x9b": 155,
  "\\x9c": 156,
  "\\x9d": 157,
  "\\x9e": 158,
  "\\x9f": 159,
  " ": 160,
  "¡": 161,
  "¢": 162,
  "£": 163,
  "¤": 164,
  "¥": 165,
  "¦": 166,
  "§": 167,
  "¨": 168,
  "©": 169,
  "ª": 170,
  "«": 171,
  "¬": 172,
  "\\xad": 173,
  "®": 174,
  "¯": 175,
  "°": 176,
  "±": 177,
  "²": 178,
  "³": 179,
  "´": 180,
  "µ": 181,
  "¶": 182,
  "·": 183,
  "¸": 184,
  "¹": 185,
  "º": 186,
  "»": 187,
  "¼": 188,
  "½": 189,
  "¾": 190,
  "¿": 191,
  "À": 192,
  "Á": 193,
  "Â": 194,
  "Ã": 195,
  "Ä": 196,
  "Å": 197,
  "Æ": 198,
  "Ç": 199,
  "È": 200,
  "É": 2755,
  "Ê": 202,
  "Ë": 203,
  "Ì": 204,
  "Í": 205,
  "Î": 206,
  "Ï": 207,
  "Ð": 208,
  "Ñ": 209,
  "Ò": 210,
  "Ó": 211,
  "Ô": 212,
  "Õ": 213,
  "Ö": 214,
  "×": 215,
  "Ø": 216,
  "Ù": 217,
  "Ú": 218,
  "Û": 219,
  "Ü": 220,
  "Ý": 221,
  "Þ": 222,
  "ß": 223,
  "à": 224,
  "á": 225,
  "â": 1870,
  "ã": 227,
  "ä": 228,
  "å": 229,
  "æ": 230,
  "ç": 231,
  "è": 674,
  "é": 610,
  "ê": 234,
  "ë": 235,
  "ì": 236,
  "í": 237,
  "î": 238,
  "ï": 239,
  "ð": 240,
  "ñ": 241,
  "ò": 242,
  "ó": 243,
  "ô": 244,
  "õ": 245,
  "ö": 246,
  "÷": 247,
  "ø": 248,
  "ù": 249,
  "ú": 250,
  "û": 251,
  "ü": 252,
  "ý": 253,
  "þ": 254,
  "ÿ": 255,
  "e ": 256,
  " t": 257,
  " a": 258,
  " th": 259,
  "in": 260,
  "d ": 261,
  "er": 262,
  "t ": 263,
  "�": 264,
  "s ": 265,
  "ou": 266,
  ", ": 267,
  " the ": 268,
  "en": 269,
  "on": 270,
  "or": 271,
  "an": 272,
  "o ": 273,
  "th": 274,
  "re": 275,
  " an": 276,
  "y ": 277,
  ". ": 278,
  "ing": 279,
  "of": 280,
  "\\u000a\\u000a": 281,
  "ha": 282,
  "hi": 283,
  "ll": 284,
  "st": 285,
  "ar": 286,
  "ed": 287,
  "ed ": 288,
  "“": 289,
  " s": 290,
  "he ": 291,
  "”": 292,
  " w": 293,
  " and ": 294,
  "at": 295,
  "om": 296,
  "es": 297,
  "you": 298,
  " to ": 299,
  "it": 300,
  "ow": 301,
  "is": 302,
  "er ": 303,
  "\\u000a\\u000a“": 304,
  "for": 305,
  "ch": 306,
  " m": 307,
  "as": 308,
  "el": 309,
  "of ": 310,
  "ing ": 311,
  "ri": 312,
  " a ": 313,
  "ve ": 314,
  "gh": 315,
  "al": 316,
  "no": 317,
  "at ": 318,
  "le": 319,
  "’": 320,
  "ith": 321,
  "his ": 322,
  "ion": 323,
  "li": 324,
  "be": 325,
  "I ": 326,
  "ai": 327,
  "”\\u000a\\u000a“": 328,
  "ent": 329,
  ", and ": 330,
  "is ": 331,
  "ac": 332,
  "as ": 333,
  "ur": 334,
  "ro": 335,
  "em": 336,
  " to": 337,
  "ad": 338,
  "ll ": 339,
  "us": 340,
  "se": 341,
  "un": 342,
  ", w": 343,
  "ir": 344,
  "en ": 345,
  " and": 346,
  " that ": 347,
  "her": 348,
  "e w": 349,
  "ver": 350,
  "ic": 351,
  "am": 352,
  "lo": 353,
  "he": 354,
  "in ": 355,
  "ld ": 356,
  "de": 357,
  "it ": 358,
  "oun": 359,
  "e th": 360,
  "him": 361,
  "im": 362,
  "e t": 363,
  "; ": 364,
  "ut": 365,
  "of the ": 366,
  "ay": 367,
  "—": 368,
  "have ": 369,
  ".”\\u000a\\u000a“": 370,
  "had ": 371,
  "con": 372,
  "not ": 373,
  "her ": 374,
  ",”": 375,
  "ly ": 376,
  "po": 377,
  "and": 378,
  "si": 379,
  "ec": 380,
  "di": 381,
  "ain": 382,
  ". T": 383,
  "ly": 384,
  "le ": 385,
  "fr": 386,
  "ut ": 387,
  "e, ": 388,
  "ag": 389,
  "ould ": 390,
  "you ": 391,
  "ill": 392,
  "ex": 393,
  "ak": 394,
  " the": 395,
  "hich": 396,
  "ter": 397,
  " sai": 398,
  "pp": 399,
  "es ": 400,
  "res": 401,
  "with": 402,
  " as ": 403,
  "com": 404,
  ", and": 405,
  "be ": 406,
  "now": 407,
  "k ": 408,
  "an ": 409,
  "up": 410,
  "all": 411,
  "ell": 412,
  "if": 413,
  "was ": 414,
  " ar": 415,
  ".\\u000a\\u000a“": 416,
  "ght": 417,
  "et": 418,
  "qu": 419,
  " as": 420,
  "or ": 421,
  "per": 422,
  ".\\u000a": 423,
  "our": 424,
  "and ": 425,
  "ho": 426,
  "from": 427,
  "ess": 428,
  "ay ": 429,
  "do": 430,
  "ther": 431,
  "ce": 432,
  "in the ": 433,
  "ul": 434,
  "ne": 435,
  "your": 436,
  " at": 437,
  "ed the ": 438,
  "oo": 439,
  "e s": 440,
  "ab": 441,
  "on ": 442,
  "ant": 443,
  "int": 444,
  "but ": 445,
  "sel": 446,
  "der": 447,
  ". I": 448,
  "ent ": 449,
  "fe": 450,
  "ang": 451,
  "ation": 452,
  "ght ": 453,
  ", s": 454,
  "ra": 455,
  "ere ": 456,
  " said ": 457,
  "for ": 458,
  "ill ": 459,
  "hat ": 460,
  "‘": 461,
  "’s ": 462,
  "my ": 463,
  "e to ": 464,
  "ard": 465,
  "one ": 466,
  ", “": 467,
  "pl": 468,
  ". H": 469,
  "not": 470,
  "a ": 471,
  "?”\\u000a\\u000a“": 472,
  "ld": 473,
  "self": 474,
  "ed to ": 475,
  "id": 476,
  "mo": 477,
  "ous": 478,
  " at ": 479,
  "co": 480,
  "uc": 481,
  " this ": 482,
  ".”": 483,
  "own": 484,
  "ect": 485,
  " with": 486,
  "um": 487,
  "ep": 488,
  "ev": 489,
  "end": 490,
  "st ": 491,
  "ce ": 492,
  "ca": 493,
  " the s": 494,
  "hich ": 495,
  "know": 496,
  "ea": 497,
  "il": 498,
  ".\\u000a\\u000a": 499,
  " that": 500,
  "ho ": 501,
  "op": 502,
  ". The ": 503,
  "coun": 504,
  "str": 505,
  "ear": 506,
  "bo": 507,
  "out": 508,
  "she ": 509,
  "ame ": 510,
  "ough": 511,
  " to the ": 512,
  "ber": 513,
  "out ": 514,
  "me": 515,
  "urn": 516,
  "go": 517,
  " all": 518,
  "ish": 519,
  ". A": 520,
  "\\u000a\\u000a\\u000a\\u000a": 521,
  "loo": 522,
  "se ": 523,
  "al ": 524,
  " al": 525,
  "your ": 526,
  "pr": 527,
  "ind": 528,
  "s, ": 529,
  " was ": 530,
  "man": 531,
  "pro": 532,
  "by": 533,
  "ack": 534,
  "ong": 535,
  " a s": 536,
  "ey": 537,
  "e the ": 538,
  "was": 539,
  "do ": 540,
  "tion": 541,
  "rep": 542,
  ". S": 543,
  " my ": 544,
  "ff": 545,
  "art": 546,
  "ked ": 547,
  "uch": 548,
  "est": 549,
  "bl": 550,
  "ust ": 551,
  ",” said ": 552,
  "on the ": 553,
  ",” ": 554,
  " am": 555,
  " ag": 556,
  "hen ": 557,
  "de ": 558,
  ", the ": 559,
  "The ": 560,
  "by ": 561,
  "ret": 562,
  "mor": 563,
  "red": 564,
  "hen": 565,
  "but": 566,
  " ac": 567,
  "fort": 568,
  "pos": 569,
  "gr": 570,
  "te ": 571,
  "ever": 572,
  "av": 573,
  " an ": 574,
  "?”": 575,
  "aw": 576,
  "s w": 577,
  "lik": 578,
  " are ": 579,
  "had": 580,
  "et ": 581,
  "ast": 582,
  "count": 583,
  "ran": 584,
  " of ": 585,
  "iv": 586,
  ", th": 587,
  "ther ": 588,
  "no ": 589,
  " them": 590,
  "ud": 591,
  "so": 592,
  "ive ": 593,
  "hand": 594,
  "I w": 595,
  "An": 596,
  "cl": 597,
  "You": 598,
  "wor": 599,
  "pe": 600,
  "anc": 601,
  "he s": 602,
  " a m": 603,
  "pres": 604,
  "dis": 605,
  "ound": 606,
  "\\u000ath": 607,
  "I s": 608,
  "br": 609,
  "Mor": 611,
  "if ": 612,
  "gn": 613,
  "ow ": 614,
  "me ": 615,
  "from ": 616,
  "with ": 617,
  "itt": 618,
  "ass": 619,
  "his": 620,
  "Mon": 621,
  "cont": 622,
  "could ": 623,
  "ed, ": 624,
  "ing the ": 625,
  "’ ": 626,
  "ust": 627,
  "rem": 628,
  "s of ": 629,
  "has ": 630,
  "pt": 631,
  " they ": 632,
  "rist": 633,
  "som": 634,
  "red ": 635,
  " tim": 636,
  "so ": 637,
  ". W": 638,
  "ath": 639,
  "back": 640,
  "lar": 641,
  "? ": 642,
  ".”\\u000a\\u000a": 643,
  "e\\u000a": 644,
  " ab": 645,
  "off": 646,
  "fac": 647,
  "No": 648,
  "ar ": 649,
  "Monte ": 650,
  "ight": 651,
  "mad": 652,
  "Monte C": 653,
  "Monte Crist": 654,
  "ake ": 655,
  "y, ": 656,
  "ing to ": 657,
  "hat": 658,
  "ille": 659,
  " said": 660,
  " at the ": 661,
  "I have ": 662,
  "rel": 663,
  "ng": 664,
  "clo": 665,
  "ol": 666,
  "ck": 667,
  "Ville": 668,
  "es, ": 669,
  " the\\u000a": 670,
  "car": 671,
  "fa": 672,
  "hom": 673,
  "fir": 675,
  "befor": 676,
  "here ": 677,
  "ist": 678,
  "ess ": 679,
  "M. ": 680,
  "ful": 681,
  "aid": 682,
  "did ": 683,
  "room": 684,
  "ci": 685,
  "read": 686,
  "ound ": 687,
  "sh": 688,
  "ight ": 689,
  "other": 690,
  "!”": 691,
  "very ": 692,
  "way": 693,
  "over": 694,
  "our ": 695,
  "him ": 696,
  "cha": 697,
  "ple": 698,
  "! ": 699,
  "ort": 700,
  "cer": 701,
  "erv": 702,
  ", with": 703,
  "into": 704,
  "gre": 705,
  "down": 706,
  ", but ": 707,
  "I am": 708,
  "; “": 709,
  "e of ": 710,
  " their": 711,
  "ct": 712,
  " again": 713,
  ",\\u000a": 714,
  "look": 715,
  "day": 716,
  "e to": 717,
  "he w": 718,
  " tr": 719,
  " app": 720,
  "ad ": 721,
  "you w": 722,
  "been ": 723,
  "fri": 724,
  "air": 725,
  "su": 726,
  "thing": 727,
  " all ": 728,
  "plac": 729,
  "one": 730,
  "ave ": 731,
  "enc": 732,
  "des": 733,
  "wo ": 734,
  "under": 735,
  "age": 736,
  "Dang": 737,
  "can": 738,
  "he had ": 739,
  "Danglar": 740,
  "ob": 741,
  " of": 742,
  ". I ": 743,
  "ver ": 744,
  "ach": 745,
  ". B": 746,
  " se": 747,
  "Mad": 748,
  "ft": 749,
  "himself": 750,
  "w ": 751,
  "we": 752,
  "been": 753,
  "young": 754,
  " me": 755,
  "e m": 756,
  ", as ": 757,
  "sp": 758,
  " said the ": 759,
  "long": 760,
  " ad": 761,
  "ous ": 762,
  ", who ": 763,
  "e was ": 764,
  "Al": 765,
  "ast ": 766,
  "door": 767,
  "fo": 768,
  "fi": 769,
  "e with": 770,
  ". “": 771,
  "tt": 772,
  "rough": 773,
  " thin": 774,
  "cri": 775,
  "ble ": 776,
  "open": 777,
  ". He ": 778,
  "gl": 779,
  " som": 780,
  "only ": 781,
  "vo": 782,
  "hall ": 783,
  "cr": 784,
  "from the ": 785,
  "ally ": 786,
  "pre": 787,
  "like ": 788,
  "vis": 789,
  "ould": 790,
  "pass": 791,
  "fu": 792,
  ", and w": 793,
  "its ": 794,
  "return": 795,
  "ark": 796,
  "repli": 797,
  "h, ": 798,
  "thing ": 799,
  "’t ": 800,
  "seem": 801,
  "Morrel": 802,
  "lin": 803,
  "assi": 804,
  "ain ": 805,
  "fin": 806,
  "gu": 807,
  "ed his ": 808,
  "\\u000a“": 809,
  "t of ": 810,
  "mon": 811,
  "vi": 812,
  "ord": 813,
  "by the ": 814,
  " att": 815,
  " in": 816,
  "for the ": 817,
  " she ": 818,
  "e that ": 819,
  " ther": 820,
  "dre": 821,
  "form": 822,
  "ure ": 823,
  "goo": 824,
  ", that ": 825,
  ". It ": 826,
  "part": 827,
  "Dant": 828,
  "And ": 829,
  "fter": 830,
  " any ": 831,
  "hear": 832,
  "ity": 833,
  "hel": 834,
  "emo": 835,
  "ect ": 836,
  "ely ": 837,
  "Dantè": 838,
  " which ": 839,
  "most ": 840,
  " with ": 841,
  "ate ": 842,
  "00": 843,
  "ant ": 844,
  "fl": 845,
  "hor": 846,
  "Fran": 847,
  "other ": 848,
  "beg": 849,
  "Villefort": 850,
  "chi": 851,
  "litt": 852,
  "ail": 853,
  "Alber": 854,
  "est ": 855,
  "app": 856,
  "what ": 857,
  " this": 858,
  "Cassi": 859,
  " too": 860,
  "s of": 861,
  "feel": 862,
  "Monte Cristo": 863,
  "ment": 864,
  "entin": 865,
  "much": 866,
  "au": 867,
  "came ": 868,
  "how": 869,
  ", and the ": 870,
  ". She ": 871,
  " their ": 872,
  "able ": 873,
  "s and ": 874,
  "son": 875,
  "happ": 876,
  "can ": 877,
  "ure": 878,
  "f ": 879,
  "bel": 880,
  "tain": 881,
  "th ": 882,
  "ug": 883,
  "ated ": 884,
  "are ": 885,
  " man": 886,
  "\\u000a\\u000a\\u000a\\u000a\\u000a\\u000a": 887,
  "atch": 888,
  "Val": 889,
  "ke": 890,
  "s to ": 891,
  "ity ": 892,
  "old ": 893,
  "end ": 894,
  "ion ": 895,
  "\\u000aw": 896,
  "Valentin": 897,
  " then": 898,
  "n ": 899,
  ".’": 900,
  "bet": 901,
  "cre": 902,
  "bre": 903,
  "friend": 904,
  "e and ": 905,
  "min": 906,
  "pa": 907,
  ".” ": 908,
  "in a ": 909,
  " turn": 910,
  " a w": 911,
  "s the ": 912,
  "exc": 913,
  "ite ": 914,
  "fel": 915,
  "ence ": 916,
  "har": 917,
  "father": 918,
  "press": 919,
  "ew": 920,
  "it is ": 921,
  "par": 922,
  "my": 923,
  "ought ": 924,
  "ought": 925,
  "even": 926,
  ".”\\u000a\\u000a“W": 927,
  "qui": 928,
  "us ": 929,
  "into ": 930,
  "cas": 931,
  "ank": 932,
  " was": 933,
  "ness": 934,
  "sw": 935,
  " so ": 936,
  "head": 937,
  "oward": 938,
  "eng": 939,
  ",” repli": 940,
  " through": 941,
  "e of": 942,
  "would ": 943,
  "ub": 944,
  "may ": 945,
  "to ": 946,
  "s of the ": 947,
  "don": 948,
  "ble": 949,
  "; but ": 950,
  "light": 951,
  ", he ": 952,
  "It ": 953,
  "Yes": 954,
  "foll": 955,
  " thes": 956,
  "hould ": 957,
  "ve": 958,
  "inter": 959,
  "in his ": 960,
  ",” said the ": 961,
  "Franz": 962,
  "caus": 963,
  "made ": 964,
  "Go": 965,
  "; and ": 966,
  ", then": 967,
  "ti": 968,
  "ance ": 969,
  "pleas": 970,
  " which": 971,
  "ick": 972,
  "ely": 973,
  "ing, ": 974,
  "den": 975,
  ".\\u000a‘": 976,
  "before ": 977,
  "\\u000as": 978,
  "ed and ": 979,
  "pi": 980,
  "ack ": 981,
  "unt": 982,
  "’s": 983,
  " any": 984,
  " there ": 985,
  " tak": 986,
  "cor": 987,
  "Madame ": 988,
  " aw": 989,
  "into the ": 990,
  "ed to": 991,
  " what ": 992,
  " ang": 993,
  "little ": 994,
  "ide": 995,
  ", which ": 996,
  "I m": 997,
  "comp": 998,
  "ed her ": 999,
  "he was ": 1000,
  "inst": 1001,
  "it was ": 1002,
  "all ": 1003,
  " we ": 1004,
  ",—": 1005,
  "the ": 1006,
  "You ": 1007,
  "ch ": 1008,
  " te": 1009,
  "ed with": 1010,
  "I am ": 1011,
  "\\u000a\\u000a\\u000c": 1012,
  "dist": 1013,
  "more ": 1014,
  "kne": 1015,
  "come ": 1016,
  "hav": 1017,
  "s, and ": 1018,
  "here": 1019,
  "ef": 1020,
  "ation ": 1021,
  " the t": 1022,
  ". ‘": 1023,
  "und": 1024,
  "e was": 1025,
  "imp": 1026,
  "were ": 1027,
  "ign": 1028,
  "peak": 1029,
  "Mr": 1030,
  " to be ": 1031,
  "you have ": 1032,
  " two ": 1033,
  "enter": 1034,
  " the w": 1035,
  ", which": 1036,
  "voic": 1037,
  "night": 1038,
  " after": 1039,
  "pect": 1040,
  "pris": 1041,
  " toward": 1042,
  "ing his ": 1043,
  "full": 1044,
  "we ": 1045,
  "ed a ": 1046,
  "ed\\u000a": 1047,
  "underst": 1048,
  "serv": 1049,
  "att": 1050,
  "do not ": 1051,
  "aid ": 1052,
  "Danglars": 1053,
  "give ": 1054,
  "Coun": 1055,
  " thre": 1056,
  "emotion": 1057,
  "riv": 1058,
  "p ": 1059,
  "let ": 1060,
  "follow": 1061,
  "bar": 1062,
  "\\u000athe ": 1063,
  "m ": 1064,
  "ence": 1065,
  "did not ": 1066,
  "ush": 1067,
  "Albert": 1068,
  "He ": 1069,
  "own ": 1070,
  "act": 1071,
  "leep": 1072,
  "hou": 1073,
  "..": 1074,
  "erous": 1075,
  " that the ": 1076,
  ", I ": 1077,
  "jo": 1078,
  "oment": 1079,
  "first ": 1080,
  "ers": 1081,
  "In": 1082,
  "e, and ": 1083,
  "ait": 1084,
  "he said": 1085,
  "call": 1086,
  "fortun": 1087,
  "cour": 1088,
  "eyes ": 1089,
  "oc": 1090,
  "bod": 1091,
  "ary": 1092,
  "of his ": 1093,
  "person": 1094,
  "know ": 1095,
  "just ": 1096,
  "ition": 1097,
  "strang": 1098,
  "ry": 1099,
  "carri": 1100,
  " about": 1101,
  "ig": 1102,
  "med": 1103,
  "beli": 1104,
  " then ": 1105,
  " mor": 1106,
  "aint": 1107,
  "!” ": 1108,
  "right": 1109,
  "possi": 1110,
  "Oh, ": 1111,
  "Pro": 1112,
  "cur": 1113,
  "ili": 1114,
  "opp": 1115,
  "ffer": 1116,
  "now ": 1117,
  ", my ": 1118,
  "image": 1119,
  "linked ": 1120,
  "inu": 1121,
  "say": 1122,
  "ge": 1123,
  ":—": 1124,
  "Ar": 1125,
  "linked image": 1126,
  "linked image\\u000a\\u000a": 1127,
  "linked image\\u000a\\u000aback": 1128,
  "linked image\\u000a\\u000aback\\u000a\\u000a\\u000a\\u000a\\u000a\\u000a": 1129,
  "iz": 1130,
  "linked image\\u000a\\u000aback\\u000a\\u000a\\u000a\\u000a\\u000a\\u000alinked image\\u000a\\u000aback\\u000a\\u000a\\u000a\\u000a\\u000a\\u000a": 1131,
  "ed by ": 1132,
  "ax": 1133,
  ", sir": 1134,
  "day ": 1135,
  "hile ": 1136,
  "\\u000a‘": 1137,
  ", to ": 1138,
  "let": 1139,
  "clos": 1140,
  "see ": 1141,
  ", a ": 1142,
  "well": 1143,
  "\"\\u000a": 1144,
  "ject ": 1145,
  "mar": 1146,
  "some": 1147,
  "fort ": 1148,
  "ps": 1149,
  "dou": 1150,
  " think": 1151,
  "get": 1152,
  "e of the ": 1153,
  "count ": 1154,
  "cond": 1155,
  "pur": 1156,
  "fre": 1157,
  "erc": 1158,
  "eas": 1159,
  "comm": 1160,
  "hal": 1161,
  "how ": 1162,
  "continu": 1163,
  "of a ": 1164,
  "will ": 1165,
  "ext": 1166,
  "he\\u000a": 1167,
  " and the ": 1168,
  "year": 1169,
  "ame": 1170,
  "Monte Cristo ": 1171,
  "inc": 1172,
  ":—\\u000a“": 1173,
  "ate": 1174,
  "lic": 1175,
  ".’ ": 1176,
  "you are ": 1177,
  ". M": 1178,
  "every": 1179,
  "Cad": 1180,
  "ult": 1181,
  ", for ": 1182,
  "Caderous": 1183,
  "just": 1184,
  "os": 1185,
  "M. de ": 1186,
  "ject": 1187,
  "dear ": 1188,
  "ed him": 1189,
  "itu": 1190,
  "rest": 1191,
  " who ": 1192,
  "never ": 1193,
  " arm": 1194,
  "ed at ": 1195,
  ".\\u000a\\u000a“W": 1196,
  "ing s": 1197,
  "house": 1198,
  "eyes": 1199,
  "good ": 1200,
  "del": 1201,
  "ough ": 1202,
  "augh": 1203,
  "ward": 1204,
  "giv": 1205,
  " my": 1206,
  "ham": 1207,
  " take ": 1208,
  ", but": 1209,
  "only": 1210,
  "ph": 1211,
  "ren": 1212,
  "els": 1213,
  "ener": 1214,
  "ed, and ": 1215,
  "ress": 1216,
  "ref": 1217,
  "hous": 1218,
  ",\"": 1219,
  "less": 1220,
  "remain": 1221,
  "n’t ": 1222,
  "On": 1223,
  "But ": 1224,
  "vel": 1225,
  "abl": 1226,
  "some ": 1227,
  "death": 1228,
  "Ed": 1229,
  ".”\\u000a\\u000a“T": 1230,
  "able": 1231,
  " tw": 1232,
  "fter ": 1233,
  "ris": 1234,
  ", who": 1235,
  "uten": 1236,
  "order": 1237,
  "ance": 1238,
  "coll": 1239,
  "Morcer": 1240,
  "you s": 1241,
  "ros": 1242,
  "age ": 1243,
  "ary ": 1244,
  "ed with ": 1245,
  "her s": 1246,
  "to": 1247,
  " wor": 1248,
  "which ": 1249,
  "ed in": 1250,
  "emp": 1251,
  "ek": 1252,
  " tell ": 1253,
  "ceiv": 1254,
  "ood": 1255,
  "did": 1256,
  ". \"": 1257,
  "udden": 1258,
  "make ": 1259,
  ", in": 1260,
  "step": 1261,
  "ook": 1262,
  "you m": 1263,
  " me ": 1264,
  "must ": 1265,
  "of s": 1266,
  "go ": 1267,
  "ently ": 1268,
  "Luc": 1269,
  "great ": 1270,
  "alk": 1271,
  "sm": 1272,
  ",” replied ": 1273,
  "-t": 1274,
  "self ": 1275,
  " think ": 1276,
  "hop": 1277,
  "keep": 1278,
  " asked ": 1279,
  "ens": 1280,
  "is a ": 1281,
  "still ": 1282,
  ". An": 1283,
  "Villefort ": 1284,
  "heart": 1285,
  "pal": 1286,
  " about ": 1287,
  "on his ": 1288,
  "berg": 1289,
  "ower": 1290,
  "I was ": 1291,
  "Cassie ": 1292,
  "ind ": 1293,
  "ft ": 1294,
  "man ": 1295,
  "utenberg": 1296,
  "aw ": 1297,
  "ever ": 1298,
  "last ": 1299,
  "bro": 1300,
  ".\\u000a\"": 1301,
  "every ": 1302,
  ". But ": 1303,
  "up ": 1304,
  "!”\\u000a\\u000a“": 1305,
  "swer": 1306,
  "ful ": 1307,
  "first": 1308,
  "ement": 1309,
  "hall": 1310,
  "cover": 1311,
  "ater": 1312,
  "row": 1313,
  "ner": 1314,
  "hour": 1315,
  "indow": 1316,
  "ning": 1317,
  " a t": 1318,
  "az": 1319,
  "ed in ": 1320,
  "?” ": 1321,
  "ally": 1322,
  "dra": 1323,
  "ru": 1324,
  "s\\u000a": 1325,
  "light ": 1326,
  "mis": 1327,
  "ing a ": 1328,
  "even ": 1329,
  "ed her": 1330,
  "might ": 1331,
  "doub": 1332,
  "reas": 1333,
  "mak": 1334,
  "found ": 1335,
  " ask": 1336,
  "over ": 1337,
  " than": 1338,
  "cap": 1339,
  " all the ": 1340,
  "lif": 1341,
  ". F": 1342,
  "is the ": 1343,
  "ici": 1344,
  "atter": 1345,
  "prom": 1346,
  "flo": 1347,
  " some ": 1348,
  "ari": 1349,
  "it was": 1350,
  "; the ": 1351,
  "char": 1352,
  "oul": 1353,
  "that ": 1354,
  "fear": 1355,
  "heard": 1356,
  "irti": 1357,
  "get ": 1358,
  "ing\\u000a": 1359,
  "Par": 1360,
  "Noirti": 1361,
  "still": 1362,
  "men": 1363,
  " ass": 1364,
  " a\\u000a": 1365,
  "Gutenberg": 1366,
  "God": 1367,
  "quest": 1368,
  "good": 1369,
  "uck": 1370,
  " them ": 1371,
  "sign": 1372,
  "cons": 1373,
  " these ": 1374,
  "peri": 1375,
  "you, ": 1376,
  "utter": 1377,
  "dr": 1378,
  "ated": 1379,
  "arm": 1380,
  " so": 1381,
  "back ": 1382,
  "betwe": 1383,
  "left ": 1384,
  "when ": 1385,
  "Thom": 1386,
  "cal": 1387,
  "door ": 1388,
  "Do ": 1389,
  "sten": 1390,
  "I will ": 1391,
  "hey ": 1392,
  "bé": 1393,
  "I had ": 1394,
  "reg": 1395,
  "quite ": 1396,
  " time ": 1397,
  "sil": 1398,
  "foo": 1399,
  "heav": 1400,
  "ed by": 1401,
  "franc": 1402,
  "ge ": 1403,
  " to s": 1404,
  "hand ": 1405,
  "Madame de ": 1406,
  "bed": 1407,
  " acc": 1408,
  "Dantès": 1409,
  "leave ": 1410,
  "gave ": 1411,
  "could": 1412,
  "eve ": 1413,
  "; he ": 1414,
  " and s": 1415,
  "chang": 1416,
  " would ": 1417,
  "e,": 1418,
  " tell": 1419,
  " thing": 1420,
  "rais": 1421,
  "led": 1422,
  "becaus": 1423,
  "Edmon": 1424,
  "; but": 1425,
  "began": 1426,
  "child": 1427,
  "ink": 1428,
  "pri": 1429,
  "Hels": 1430,
  "ember": 1431,
  "ap": 1432,
  "s were ": 1433,
  "cam": 1434,
  "himself ": 1435,
  "liv": 1436,
  "head ": 1437,
  "felt ": 1438,
  "mov": 1439,
  " ter": 1440,
  " add": 1441,
  "conf": 1442,
  "Com": 1443,
  " too ": 1444,
  "Dantès ": 1445,
  "left": 1446,
  "?’": 1447,
  "ond": 1448,
  "nec": 1449,
  "ste": 1450,
  "hil": 1451,
  "fam": 1452,
  "express": 1453,
  "start": 1454,
  "band": 1455,
  "Morcerf": 1456,
  "clai": 1457,
  "point": 1458,
  "fell": 1459,
  "cle": 1460,
  "less ": 1461,
  "eri": 1462,
  "ard ": 1463,
  "ue ": 1464,
  "hom ": 1465,
  "ebr": 1466,
  "er of ": 1467,
  "sid": 1468,
  "a s": 1469,
  "ed it": 1470,
  "rit": 1471,
  "e with ": 1472,
  "hy ": 1473,
  "m\\u000a\\u000a\\u000a\\u000a": 1474,
  "ung": 1475,
  "heard ": 1476,
  " away": 1477,
  "stor": 1478,
  "ed that ": 1479,
  "ed to the ": 1480,
  "; and": 1481,
  " than ": 1482,
  "oment ": 1483,
  "looked ": 1484,
  ". You": 1485,
  "m\\u000a\\u000a\\u000a\\u000a\\u000a\\u000a“": 1486,
  "such": 1487,
  ", so ": 1488,
  "She ": 1489,
  ".\\u000a\\u000aThe ": 1490,
  "I shall ": 1491,
  "with the ": 1492,
  " they": 1493,
  "'s ": 1494,
  "ert": 1495,
  " anger": 1496,
  "Caderousse": 1497,
  "ing her ": 1498,
  "mean": 1499,
  "——": 1500,
  "work": 1501,
  "excell": 1502,
  "visi": 1503,
  "y to ": 1504,
  "compan": 1505,
  "word": 1506,
  "e that": 1507,
  " appear": 1508,
  "ern": 1509,
  " thought": 1510,
  "bu": 1511,
  "hon": 1512,
  "ently": 1513,
  "irl": 1514,
  ", she ": 1515,
  "\"\\u000a\"": 1516,
  "dark": 1517,
  "poor ": 1518,
  "ish ": 1519,
  "nothing": 1520,
  "hum": 1521,
  "arn": 1522,
  "young man": 1523,
  "andl": 1524,
  "ince ": 1525,
  ", as": 1526,
  "yet ": 1527,
  "which": 1528,
  "bri": 1529,
  "d’": 1530,
  "axim": 1531,
  ". This ": 1532,
  "ood ": 1533,
  "eared": 1534,
  "vers": 1535,
  ".”\\u000a\\u000a“And ": 1536,
  "stopp": 1537,
  "gra": 1538,
  "young ": 1539,
  "s that ": 1540,
  " tri": 1541,
  " to\\u000a": 1542,
  "It": 1543,
  "dire": 1544,
  " after ": 1545,
  " answer": 1546,
  "stair": 1547,
  "hap": 1548,
  "could not ": 1549,
  "ed in the ": 1550,
  "ention": 1551,
  "ry ": 1552,
  "when": 1553,
  "ily": 1554,
  "usu": 1555,
  "reach": 1556,
  "bloo": 1557,
  " there": 1558,
  "beh": 1559,
  "nat": 1560,
  " such": 1561,
  "My ": 1562,
  "Van ": 1563,
  "ose ": 1564,
  "ty ": 1565,
  "girl": 1566,
  "cu": 1567,
  "Van Hels": 1568,
  "Ch": 1569,
  "enough": 1570,
  "box": 1571,
  "ic ": 1572,
  "id ": 1573,
  "aximili": 1574,
  "?”\\u000a\\u000a“Yes": 1575,
  "said": 1576,
  "ey ": 1577,
  "Project ": 1578,
  "Project Gutenberg": 1579,
  "ed up": 1580,
  "ways ": 1581,
  "he would ": 1582,
  "until": 1583,
  "empt": 1584,
  "expect": 1585,
  "cried ": 1586,
  "felt": 1587,
  " and\\u000a": 1588,
  "put ": 1589,
  "one of the ": 1590,
  ": ": 1591,
  "St": 1592,
  "half": 1593,
  "ment ": 1594,
  "Yes, ": 1595,
  "believe ": 1596,
  "near": 1597,
  "has": 1598,
  "promis": 1599,
  "sist": 1600,
  "eauc": 1601,
  "éd": 1602,
  "hit": 1603,
  ",’": 1604,
  " adv": 1605,
  "certain": 1606,
  "draw": 1607,
  "mi": 1608,
  "sur": 1609,
  " will ": 1610,
  "gri": 1611,
  "low": 1612,
  "real": 1613,
  "s. ": 1614,
  "doubt": 1615,
  "ready ": 1616,
  "Danglars ": 1617,
  "Paris": 1618,
  "of my ": 1619,
  "letter": 1620,
  "ness ": 1621,
  "doct": 1622,
  "Dr": 1623,
  "Maximili": 1624,
  "Andre": 1625,
  "hy": 1626,
  "ercéd": 1627,
  "ercédè": 1628,
  "Oh": 1629,
  "ffect": 1630,
  "paper": 1631,
  "ing-": 1632,
  "had been ": 1633,
  "understand": 1634,
  "does ": 1635,
  "laugh": 1636,
  "es of ": 1637,
  ".’\\u000a‘": 1638,
  "ty": 1639,
  "me, ": 1640,
  "lov": 1641,
  "cannot ": 1642,
  "side ": 1643,
  "hole ": 1644,
  "find ": 1645,
  "happen": 1646,
  "you will ": 1647,
  " told ": 1648,
  "her\\u000a": 1649,
  "0 ": 1650,
  "breath": 1651,
  "vid": 1652,
  "ning ": 1653,
  "Beauc": 1654,
  "ice": 1655,
  "disapp": 1656,
  "ies": 1657,
  "Valentine": 1658,
  ".”\\u000a\\u000a“A": 1659,
  "differ": 1660,
  "being ": 1661,
  "mother": 1662,
  "ina": 1663,
  "it is": 1664,
  "What ": 1665,
  "e tim": 1666,
  "ed s": 1667,
  ", with ": 1668,
  "once ": 1669,
  "mind": 1670,
  "Cha": 1671,
  "pok": 1672,
  "down ": 1673,
  "bit": 1674,
  "Handl": 1675,
  "imag": 1676,
  "?” said ": 1677,
  "mer": 1678,
  "ed by the ": 1679,
  "round": 1680,
  ", for": 1681,
  ". In": 1682,
  "ily ": 1683,
  " of the ": 1684,
  " that he ": 1685,
  "Mercédè": 1686,
  "gener": 1687,
  "prison": 1688,
  "kill": 1689,
  "great": 1690,
  "deep": 1691,
  ", or ": 1692,
  "found": 1693,
  "I\\u000a": 1694,
  "Pr": 1695,
  ". N": 1696,
  " took": 1697,
  ".\\u000a“": 1698,
  "ict": 1699,
  "ed as ": 1700,
  "body ": 1701,
  "s,": 1702,
  "I should ": 1703,
  "listen": 1704,
  "floor": 1705,
  "observ": 1706,
  "yourself": 1707,
  "lim": 1708,
  "ati": 1709,
  " to his ": 1710,
  "ouch": 1711,
  "esid": 1712,
  "exclai": 1713,
  " took ": 1714,
  "pter ": 1715,
  "Mar": 1716,
  "dro": 1717,
  "visit": 1718,
  "eat": 1719,
  "ers ": 1720,
  "d of ": 1721,
  "Noirtier": 1722,
  "each ": 1723,
  "cept": 1724,
  "comple": 1725,
  "new": 1726,
  "dead": 1727,
  "quick": 1728,
  "knew": 1729,
  " seem": 1730,
  "vol": 1731,
  "five ": 1732,
  "hus": 1733,
  "hen he ": 1734,
  "oft": 1735,
  "use ": 1736,
  "Chapter ": 1737,
  " thought ": 1738,
  "du": 1739,
  ",00": 1740,
  "fall": 1741,
  "ed at the ": 1742,
  "conv": 1743,
  "dur": 1744,
  "will": 1745,
  "for a ": 1746,
  "amp": 1747,
  " another ": 1748,
  "Beaucham": 1749,
  "ck ": 1750,
  " mo": 1751,
  ", if ": 1752,
  "run": 1753,
  "duc": 1754,
  " with the ": 1755,
  "perf": 1756,
  "evid": 1757,
  "And": 1758,
  "question": 1759,
  "e to the ": 1760,
  "bow": 1761,
  "leg": 1762,
  "isell": 1763,
  ", or": 1764,
  "feeling": 1765,
  "Ren": 1766,
  "roach": 1767,
  "moment": 1768,
  "present": 1769,
  "ine ": 1770,
  "oman": 1771,
  "emoisell": 1772,
  "inde": 1773,
  "break": 1774,
  " as the ": 1775,
  " towards ": 1776,
  "’t": 1777,
  "Albert ": 1778,
  "land": 1779,
  "much ": 1780,
  "right ": 1781,
  "put": 1782,
  "find": 1783,
  "eau": 1784,
  " were ": 1785,
  " a man": 1786,
  "have been": 1787,
  "ement ": 1788,
  ".—": 1789,
  " against": 1790,
  "ell, ": 1791,
  "fact": 1792,
  "care": 1793,
  "long ": 1794,
  "hes": 1795,
  ", so": 1796,
  "ution": 1797,
  ",’ ": 1798,
  "in my ": 1799,
  "But": 1800,
  "e were ": 1801,
  "o’": 1802,
  "hold": 1803,
  "had been": 1804,
  "stat": 1805,
  "medi": 1806,
  "pu": 1807,
  "ing and ": 1808,
  "t of the ": 1809,
  "seemed to ": 1810,
  "consci": 1811,
  "fore": 1812,
  "pec": 1813,
  " three ": 1814,
  "side": 1815,
  "over the ": 1816,
  "gent": 1817,
  " the same ": 1818,
  "face ": 1819,
  "abbé": 1820,
  "linked image\\u000a\\u000aback\\u000a\\u000a\\u000a\\u000a\\u000a\\u000alinked image\\u000a\\u000aback\\u000a\\u000a\\u000a\\u000a\\u000a\\u000alinked image\\u000a\\u000aback\\u000a\\u000a\\u000a\\u000a\\u000a\\u000alinked image\\u000a\\u000aback\\u000a\\u000a\\u000a\\u000a\\u000a\\u000a": 1821,
  "outh": 1822,
  "full ": 1823,
  "ade ": 1824,
  "again": 1825,
  "ice ": 1826,
  "ire": 1827,
  ",” replied the ": 1828,
  "poss": 1829,
  "do you ": 1830,
  "ofess": 1831,
  "stud": 1832,
  "nothing ": 1833,
  "should ": 1834,
  "really ": 1835,
  "name ": 1836,
  "myself": 1837,
  "stri": 1838,
  "Maximilian": 1839,
  "ank ": 1840,
  "upon": 1841,
  ", when": 1842,
  " almost ": 1843,
  "of w": 1844,
  "nam": 1845,
  "got ": 1846,
  "shi": 1847,
  "er of the ": 1848,
  "of m": 1849,
  "ing m": 1850,
  "having ": 1851,
  "night ": 1852,
  "ome": 1853,
  "led ": 1854,
  "?” asked ": 1855,
  "leav": 1856,
  "hund": 1857,
  "with a ": 1858,
  " time": 1859,
  "ing w": 1860,
  "es, and ": 1861,
  "window": 1862,
  "from his ": 1863,
  "igh": 1864,
  "love ": 1865,
  "plan": 1866,
  "selv": 1867,
  "never": 1868,
  "val": 1869,
  " tru": 1871,
  "rang": 1872,
  ":\\u000a\\u000a“": 1873,
  "held ": 1874,
  ", was ": 1875,
  "strong": 1876,
  "ash": 1877,
  "e so ": 1878,
  "in s": 1879,
  "don’t ": 1880,
  "o’clo": 1881,
  "che": 1882,
  " some": 1883,
  "aut": 1884,
  ", and she ": 1885,
  "contr": 1886,
  ". They ": 1887,
  "excellenc": 1888,
  "Debr": 1889,
  "rav": 1890,
  " through the ": 1891,
  "far": 1892,
  "This ": 1893,
  "last": 1894,
  "one w": 1895,
  "cent": 1896,
  "sion": 1897,
  "s. H": 1898,
  " to me": 1899,
  "mil": 1900,
  " those ": 1901,
  "power": 1902,
  "action": 1903,
  "ength": 1904,
  "?’ ": 1905,
  "doctor": 1906,
  "ction": 1907,
  "?”\\u000a\\u000a“No": 1908,
  "cho": 1909,
  "e, but ": 1910,
  "I could ": 1911,
  "cend": 1912,
  "fix": 1913,
  ". A ": 1914,
  "ian": 1915,
  "sider": 1916,
  "resp": 1917,
  "became ": 1918,
  "look ": 1919,
  "I’": 1920,
  "oud": 1921,
  " work": 1922,
  "fing": 1923,
  "ror": 1924,
  " as she ": 1925,
  "of\\u000a": 1926,
  "ook ": 1927,
  " and w": 1928,
  "kind": 1929,
  "is not ": 1930,
  ", and s": 1931,
  "son ": 1932,
  "dear": 1933,
  "Count of ": 1934,
  "fully ": 1935,
  ",000 ": 1936,
  "ston": 1937,
  "very": 1938,
  "Mademoisell": 1939,
  "hoo": 1940,
  "ât": 1941,
  "ere": 1942,
  "?”\\u000a\\u000a": 1943,
  "house ": 1944,
  "see": 1945,
  "pain": 1946,
  "ben": 1947,
  "prep": 1948,
  "ared": 1949,
  "receiv": 1950,
  "Beauchamp": 1951,
  "Jon": 1952,
  "his\\u000a": 1953,
  ". E": 1954,
  "consider": 1955,
  "tter ": 1956,
  "moment ": 1957,
  "uddenly ": 1958,
  "baron": 1959,
  "Un": 1960,
  ". L": 1961,
  " act": 1962,
  "er, ": 1963,
  "——”\\u000a\\u000a“": 1964,
  "because ": 1965,
  "Jonath": 1966,
  "icul": 1967,
  "ed for": 1968,
  "din": 1969,
  "avor": 1970,
  " arriv": 1971,
  "bur": 1972,
  "help": 1973,
  "upon ": 1974,
  "in her ": 1975,
  "going to ": 1976,
  ". But": 1977,
  "ready": 1978,
  ". On": 1979,
  "gether": 1980,
  "lip": 1981,
  "feet": 1982,
  "without ": 1983,
  ",” said he": 1984,
  "beaut": 1985,
  "however": 1986,
  "pen": 1987,
  "Kemp": 1988,
  " away ": 1989,
  "âteau": 1990,
  "los": 1991,
  "stand": 1992,
  ".”\\u000a\\u000aThe ": 1993,
  "ire ": 1994,
  "cup": 1995,
  "bank": 1996,
  "te": 1997,
  "y and ": 1998,
  "begin": 1999,
  "reco": 2000,
  "hands": 2001,
  "eith": 2002,
  "seen": 2003,
  "cess": 2004,
  ". Then": 2005,
  "stood ": 2006,
  "anti": 2007,
  "ask": 2008,
  "possess": 2009,
  "ious": 2010,
  "struc": 2011,
  "play": 2012,
  "uff": 2013,
  "atis": 2014,
  "speak": 2015,
  "expression": 2016,
  "Mademoiselle ": 2017,
  "sub": 2018,
  "I was": 2019,
  "stre": 2020,
  "peop": 2021,
  "t the ": 2022,
  "ni": 2023,
  ", and\\u000a": 2024,
  "Château": 2025,
  "hair": 2026,
  "watch": 2027,
  "at the ": 2028,
  "fast": 2029,
  "ed on": 2030,
  ", and then": 2031,
  " against ": 2032,
  "agg": 2033,
  " agre": 2034,
  "any": 2035,
  " towards the ": 2036,
  "capt": 2037,
  ", and that ": 2038,
  "dream": 2039,
  "imagin": 2040,
  "escap": 2041,
  "fully": 2042,
  "Thomas ": 2043,
  "have been ": 2044,
  "iness": 2045,
  "e will ": 2046,
  "most": 2047,
  "Fern": 2048,
  "ly, ": 2049,
  "brok": 2050,
  "she": 2051,
  "ext ": 2052,
  "life": 2053,
  "ugg": 2054,
  "Saint": 2055,
  "lad": 2056,
  " always ": 2057,
  "ing to": 2058,
  " thous": 2059,
  "ins": 2060,
  " when": 2061,
  "nif": 2062,
  "excit": 2063,
  "re ": 2064,
  "ors": 2065,
  "fellow": 2066,
  "A ": 2067,
  "of this ": 2068,
  "stro": 2069,
  "ared ": 2070,
  "who ": 2071,
  "kep": 2072,
  "Saint-": 2073,
  ". We ": 2074,
  "are": 2075,
  " to him": 2076,
  "reason": 2077,
  ", I": 2078,
  "orrow": 2079,
  "like a ": 2080,
  "rible ": 2081,
  "cir": 2082,
  "fur": 2083,
  "af": 2084,
  "between": 2085,
  " a moment": 2086,
  "high": 2087,
  ". I s": 2088,
  "visible ": 2089,
  "Project Gutenberg-t": 2090,
  ". D": 2091,
  "off ": 2092,
  "immedi": 2093,
  "old": 2094,
  "ord ": 2095,
  "es and ": 2096,
  "convers": 2097,
  "dress": 2098,
  "seen ": 2099,
  "e this ": 2100,
  " more ": 2101,
  "vent": 2102,
  "pose ": 2103,
  "began to ": 2104,
  "Morrel ": 2105,
  "better": 2106,
  "two ": 2107,
  "s are ": 2108,
  "alc": 2109,
  "eared ": 2110,
  "ron": 2111,
  "posit": 2112,
  "grand": 2113,
  ",” said Monte Cristo": 2114,
  ".\\u000a\\u000a\\u000c": 2115,
  "rush": 2116,
  "morning": 2117,
  "Eng": 2118,
  "eu": 2119,
  "!”\\u000a\\u000a": 2120,
  "remember": 2121,
  "hur": 2122,
  "being": 2123,
  ". And ": 2124,
  "law": 2125,
  ", and I ": 2126,
  "of her ": 2127,
  "ting ": 2128,
  "Profess": 2129,
  "Cav": 2130,
  "al s": 2131,
  "er’s ": 2132,
  "e, “": 2133,
  ", ‘": 2134,
  "besid": 2135,
  "you know": 2136,
  "e the s": 2137,
  "gentle": 2138,
  "am ": 2139,
  "ceed": 2140,
  "bor": 2141,
  " as a ": 2142,
  "I must ": 2143,
  "sol": 2144,
  ".”\\u000a\\u000a“H": 2145,
  "inut": 2146,
  " mean": 2147,
  "old man": 2148,
  "ine": 2149,
  "It is ": 2150,
  "s in ": 2151,
  " with a ": 2152,
  "king": 2153,
  "hite ": 2154,
  "ome ": 2155,
  "Cavalc": 2156,
  "position": 2157,
  "any ": 2158,
  ".\\u000a\\u000a“T": 2159,
  "exam": 2160,
  "fron": 2161,
  "ed it ": 2162,
  "set ": 2163,
  " what": 2164,
  "ER": 2165,
  "sie": 2166,
  "Cavalcanti": 2167,
  "Edmond": 2168,
  " me, ": 2169,
  "fell ": 2170,
  "; I ": 2171,
  "perhap": 2172,
  "I would ": 2173,
  "\\u000aand ": 2174,
  "\\u000at": 2175,
  "he was": 2176,
  "body": 2177,
  "gard": 2178,
  "ed them": 2179,
  "ribut": 2180,
  "Count": 2181,
  "its": 2182,
  "sieur": 2183,
  "ustom": 2184,
  ", when ": 2185,
  "cum": 2186,
  ". Ther": 2187,
  "aj": 2188,
  "ort ": 2189,
  "friend ": 2190,
  "aken": 2191,
  "exclaim": 2192,
  "may be ": 2193,
  "impossi": 2194,
  " may ": 2195,
  ". As ": 2196,
  "least": 2197,
  "mid": 2198,
  "desp": 2199,
  "next ": 2200,
  "Andrea": 2201,
  "it, ": 2202,
  "ies ": 2203,
  " around ": 2204,
  "spect": 2205,
  "ing of ": 2206,
  "father ": 2207,
  "e than ": 2208,
  "onder": 2209,
  "path": 2210,
  "rid": 2211,
  "direct": 2212,
  " again ": 2213,
  " the sam": 2214,
  "becom": 2215,
  "place ": 2216,
  "notic": 2217,
  " anger ": 2218,
  "01": 2219,
  "not to ": 2220,
  "cep": 2221,
  "tain ": 2222,
  "dog": 2223,
  "retch": 2224,
  "ble to ": 2225,
  "post": 2226,
  "cus": 2227,
  "bear": 2228,
  "chair": 2229,
  "s—": 2230,
  "ground": 2231,
  "num": 2232,
  "way ": 2233,
  "viol": 2234,
  "Franz ": 2235,
  "matter": 2236,
  "world": 2237,
  "exp": 2238,
  "iful": 2239,
  "gro": 2240,
  ", while ": 2241,
  " as he ": 2242,
  " must ": 2243,
  "ing in": 2244,
  "ing her": 2245,
  "ertuc": 2246,
  "ertucci": 2247,
  "el ": 2248,
  "young m": 2249,
  ". You ": 2250,
  " another": 2251,
  "I will": 2252,
  "four": 2253,
  "recogn": 2254,
  "me to ": 2255,
  ".”\\u000a": 2256,
  "uli": 2257,
  "bus": 2258,
  "col": 2259,
  "dy": 2260,
  " thos": 2261,
  "pock": 2262,
  ".\\u000a\\u000a“A": 2263,
  "ing to the ": 2264,
  "it would ": 2265,
  ", in ": 2266,
  "what": 2267,
  "s which ": 2268,
  "yet": 2269,
  "wer": 2270,
  "fill": 2271,
  ", t": 2272,
  "nor": 2273,
  "eld": 2274,
  "knowled": 2275,
  ",\" said ": 2276,
  "calm": 2277,
  "bey": 2278,
  "done ": 2279,
  "dem": 2280,
  "francs": 2281,
  "soon": 2282,
  "few ": 2283,
  ", his ": 2284,
  "ense ": 2285,
  "y of ": 2286,
  "ed on ": 2287,
  " are": 2288,
  "keep ": 2289,
  "ix": 2290,
  "ise ": 2291,
  "roll": 2292,
  "e we ": 2293,
  "few": 2294,
  ".\\u000aThe ": 2295,
  ". P": 2296,
  ",” continu": 2297,
  "s in": 2298,
  "he has ": 2299,
  "e than": 2300,
  "dec": 2301,
  "diff": 2302,
  "Fren": 2303,
  "experi": 2304,
  ". If ": 2305,
  "ably ": 2306,
  "ace": 2307,
  "od": 2308,
  "learn": 2309,
  "elect": 2310,
  "Debray": 2311,
  "Ital": 2312,
  "able to ": 2313,
  ", that": 2314,
  "s in the ": 2315,
  "joy": 2316,
  "piec": 2317,
  "wif": 2318,
  "pin": 2319,
  "collect": 2320,
  "e they ": 2321,
  "e wor": 2322,
  "hors": 2323,
  "Bertucci": 2324,
  "ions": 2325,
  " to you": 2326,
  ", at ": 2327,
  "e thing": 2328,
  "ffair": 2329,
  "prob": 2330,
  "necess": 2331,
  "I can": 2332,
  "cop": 2333,
  "What": 2334,
  ". It was ": 2335,
  "cond ": 2336,
  "need": 2337,
  "new ": 2338,
  " that she ": 2339,
  " try": 2340,
  ",” said the count": 2341,
  "Valentine ": 2342,
  "where ": 2343,
  "upt": 2344,
  " we": 2345,
  "asp": 2346,
  " tell you": 2347,
  "read ": 2348,
  "ed on the ": 2349,
  "both ": 2350,
  "wish": 2351,
  "Lucy": 2352,
  ".\\u000a\\u000aA": 2353,
  "resol": 2354,
  "four ": 2355,
  " sh": 2356,
  " a b": 2357,
  "I do not ": 2358,
  ", al": 2359,
  "rap": 2360,
  "looked at ": 2361,
  "immediat": 2362,
  "voice ": 2363,
  ",” he said": 2364,
  "Car": 2365,
  "hard": 2366,
  " thro": 2367,
  "Ali": 2368,
  "1.": 2369,
  "Engl": 2370,
  "your s": 2371,
  "got": 2372,
  "pret": 2373,
  "foot": 2374,
  "heart ": 2375,
  "curi": 2376,
  ". It was": 2377,
  "pun": 2378,
  "!\"": 2379,
  " approach": 2380,
  "e which ": 2381,
  " air": 2382,
  "he is ": 2383,
  "ed him ": 2384,
  "God ": 2385,
  " am ": 2386,
  "fif": 2387,
  "blood": 2388,
  "view": 2389,
  "dri": 2390,
  "something ": 2391,
  "E ": 2392,
  "mast": 2393,
  "not be ": 2394,
  "carc": 2395,
  "complet": 2396,
  "no long": 2397,
  " who": 2398,
  "do you": 2399,
  "conce": 2400,
  "brought ": 2401,
  "face": 2402,
  "under ": 2403,
  "ing him": 2404,
  "inform": 2405,
  "perfect": 2406,
  "lock": 2407,
  ",\\u000aand ": 2408,
  ".”\\u000a“": 2409,
  "known": 2410,
  "between ": 2411,
  " a man ": 2412,
  "ing at ": 2413,
  "e them": 2414,
  "offer": 2415,
  "descend": 2416,
  "wait": 2417,
  "book": 2418,
  ".\"\\u000a\"": 2419,
  "instant": 2420,
  "tim": 2421,
  "out of the ": 2422,
  "rather": 2423,
  "resh": 2424,
  "ounc": 2425,
  "many ": 2426,
  " myself": 2427,
  "Mina": 2428,
  "hands ": 2429,
  "yes": 2430,
  "es the ": 2431,
  "\\u000a\\u000a“‘": 2432,
  "you must ": 2433,
  "thur": 2434,
  "interest": 2435,
  ", and he ": 2436,
  "Qu": 2437,
  "bott": 2438,
  "each": 2439,
  "both": 2440,
  "star": 2441,
  "natur": 2442,
  "horse": 2443,
  "Madame de Villefort": 2444,
  "m\\u000a\\u000a\\u000a\\u000a\\u000a\\u000a": 2445,
  "Edmond ": 2446,
  "you to ": 2447,
  "glas": 2448,
  "pocket": 2449,
  ".”\\u000a\\u000a“But ": 2450,
  "life ": 2451,
  "discover": 2452,
  "M. de Villefort": 2453,
  "ed my ": 2454,
  "eward": 2455,
  "\\u000athat ": 2456,
  "Hank": 2457,
  "drew ": 2458,
  "instea": 2459,
  " ask ": 2460,
  ".”\\u000a\\u000a“S": 2461,
  "behind ": 2462,
  "lips": 2463,
  "!” said ": 2464,
  ". His ": 2465,
  "e must ": 2466,
  "mouth": 2467,
  "le of ": 2468,
  "'t ": 2469,
  "dang": 2470,
  "wr": 2471,
  ".”\\u000a\\u000a“Well": 2472,
  "e shall ": 2473,
  " anx": 2474,
  "proc": 2475,
  ", they ": 2476,
  "pol": 2477,
  "ince": 2478,
  "work ": 2479,
  "returned ": 2480,
  "sec": 2481,
  "your excellenc": 2482,
  "ym": 2483,
  "sl": 2484,
  "e-": 2485,
  " abo": 2486,
  "confid": 2487,
  "ating ": 2488,
  "become ": 2489,
  "ild": 2490,
  "dep": 2491,
  "room ": 2492,
  " acros": 2493,
  "ortun": 2494,
  "Bar": 2495,
  "Château-": 2496,
  "Château-Ren": 2497,
  "ber ": 2498,
  "quiet": 2499,
  "pull": 2500,
  " see ": 2501,
  "pac": 2502,
  "he t": 2503,
  "given": 2504,
  "emor": 2505,
  " through ": 2506,
  "everything": 2507,
  "kept ": 2508,
  "something": 2509,
  "HA": 2510,
  "on, ": 2511,
  "ner ": 2512,
  " talk": 2513,
  "ery ": 2514,
  "you will": 2515,
  " the sub": 2516,
  "mall ": 2517,
  "urm": 2518,
  "rich": 2519,
  "II": 2520,
  "strength": 2521,
  ".\\u000aT": 2522,
  "?’\\u000a‘": 2523,
  "ven": 2524,
  "aughter": 2525,
  "port": 2526,
  "respect": 2527,
  "o’clock": 2528,
  " an in": 2529,
  ".”\\u000a\\u000a“I": 2530,
  "ures": 2531,
  ", what ": 2532,
  " allow": 2533,
  ". There ": 2534,
  " thousand ": 2535,
  "ical ": 2536,
  "idea ": 2537,
  "had\\u000a": 2538,
  "coming ": 2539,
  "ing with ": 2540,
  " and a ": 2541,
  "?”\\u000a\\u000a“T": 2542,
  "poor": 2543,
  "more": 2544,
  "rather ": 2545,
  " will": 2546,
  "who": 2547,
  "sleep": 2548,
  ". O": 2549,
  "prot": 2550,
  "creas": 2551,
  "neck": 2552,
  "ugé": 2553,
  "ugéni": 2554,
  "honor": 2555,
  "understand ": 2556,
  "believ": 2557,
  "iness ": 2558,
  "ed me ": 2559,
  "into a ": 2560,
  "behind": 2561,
  " around": 2562,
  "beautiful": 2563,
  "ravell": 2564,
  "loom": 2565,
  "ok": 2566,
  "aud": 2567,
  "dé": 2568,
  " along": 2569,
  "young girl": 2570,
  "ot": 2571,
  "ing in the ": 2572,
  "conscious": 2573,
  "oulder": 2574,
  "02": 2575,
  "plain": 2576,
  " already ": 2577,
  "lost ": 2578,
  "a m": 2579,
  "import": 2580,
  "occup": 2581,
  "ed.\\u000a\\u000a“": 2582,
  "husband": 2583,
  "recogniz": 2584,
  "daughter": 2585,
  "Jonathan": 2586,
  "oman ": 2587,
  "aydé": 2588,
  " among": 2589,
  "I know": 2590,
  "come": 2591,
  "place": 2592,
  "fail": 2593,
  "will be ": 2594,
  "gaz": 2595,
  "ured": 2596,
  " appeared": 2597,
  "iss": 2598,
  ". Her ": 2599,
  ". G": 2600,
  "occur": 2601,
  "fanc": 2602,
  "uddenly": 2603,
  "refle": 2604,
  "knew ": 2605,
  "your m": 2606,
  "earth": 2607,
  "fair": 2608,
  "idea": 2609,
  "ree ": 2610,
  "cham": 2611,
  " though": 2612,
  " tran": 2613,
  "sc": 2614,
  "madame": 2615,
  "Mrs. H": 2616,
  ". C": 2617,
  "ele": 2618,
  "Saint-M": 2619,
  "ed, and": 2620,
  "ordin": 2621,
  "him, ": 2622,
  "?”\\u000a\\u000a“W": 2623,
  " touch": 2624,
  "one, ": 2625,
  "pay": 2626,
  "mist": 2627,
  "’d ": 2628,
  "up the ": 2629,
  "er s": 2630,
  "supp": 2631,
  "voice": 2632,
  " advanc": 2633,
  "concer": 2634,
  "cast": 2635,
  ". When ": 2636,
  "Eugéni": 2637,
  "uggl": 2638,
  " twent": 2639,
  "quired": 2640,
  " asked the ": 2641,
  "cros": 2642,
  "ran ": 2643,
  "etim": 2644,
  ". I have ": 2645,
  "marri": 2646,
  "if you ": 2647,
  "say ": 2648,
  "had not ": 2649,
  "his arm": 2650,
  "ee": 2651,
  "examin": 2652,
  "shoulder": 2653,
  "log": 2654,
  "Av": 2655,
  "l ": 2656,
  ".”\\u000a\\u000a“You": 2657,
  "done": 2658,
  "come to ": 2659,
  "urpris": 2660,
  "Do": 2661,
  ", we ": 2662,
  "want": 2663,
  " though ": 2664,
  "ceive ": 2665,
  "Hall": 2666,
  "por": 2667,
  "ation of ": 2668,
  "her Handl": 2669,
  "\\u000a\\u000a\\u000a": 2670,
  "?—": 2671,
  "after": 2672,
  " aston": 2673,
  "looking ": 2674,
  "remained ": 2675,
  "ide ": 2676,
  "on my ": 2677,
  "road": 2678,
  "seemed ": 2679,
  "mag": 2680,
  "Arthur": 2681,
  "set": 2682,
  "dread": 2683,
  "sup": 2684,
  " tear": 2685,
  "e who ": 2686,
  ". My ": 2687,
  "cold": 2688,
  "remark": 2689,
  "exist": 2690,
  ", whose ": 2691,
  "ed,": 2692,
  "fer": 2693,
  "rec": 2694,
  " there was ": 2695,
  " when ": 2696,
  ". It": 2697,
  " ten": 2698,
  "e would ": 2699,
  "ay, ": 2700,
  "es to ": 2701,
  "onth": 2702,
  "thing to ": 2703,
  "ating": 2704,
  " astonish": 2705,
  ".”\\u000a\\u000a“What ": 2706,
  "pped ": 2707,
  "reli": 2708,
  "benea": 2709,
  "nerv": 2710,
  "past": 2711,
  "hisper": 2712,
  "grow": 2713,
  "one of": 2714,
  "Saint-Mé": 2715,
  "s, and": 2716,
  " that I ": 2717,
  "dar": 2718,
  "No, ": 2719,
  "det": 2720,
  "ist ": 2721,
  "gover": 2722,
  "dom": 2723,
  "gar": 2724,
  "add": 2725,
  "passed ": 2726,
  ", my dear ": 2727,
  "least ": 2728,
  "e so": 2729,
  "went": 2730,
  "Fernand": 2731,
  "push": 2732,
  "icult": 2733,
  ". If": 2734,
  "she was ": 2735,
  "Avri": 2736,
  "Avrign": 2737,
  "it\\u000a": 2738,
  "like the ": 2739,
  "s to": 2740,
  "hot": 2741,
  " against the ": 2742,
  "particul": 2743,
  ", “that ": 2744,
  " see": 2745,
  "jud": 2746,
  "sir": 2747,
  "for his ": 2748,
  "ured ": 2749,
  "pan": 2750,
  "nois": 2751,
  "passed": 2752,
  "ity, ": 2753,
  "rock": 2754,
  "reaction": 2756,
  "under the ": 2757,
  "seill": 2758,
  "y-": 2759,
  " they were ": 2760,
  "inv": 2761,
  "call ": 2762,
  "se, ": 2763,
  "clear": 2764,
  "out the ": 2765,
  "ed me": 2766,
  "effort": 2767,
  "ative ": 2768,
  "oh": 2769,
  ".\\u000aW": 2770,
  "repe": 2771,
  ", whil": 2772,
  "pic": 2773,
  "rembl": 2774,
  "occas": 2775,
  "didn’t ": 2776,
  "ort of ": 2777,
  "uch ": 2778,
  "les ": 2779,
  "n’t": 2780,
  " adm": 2781,
  "present ": 2782,
  ". With": 2783,
  "carriag": 2784,
  "intro": 2785,
  ". Then ": 2786,
  "ather": 2787,
  "ys": 2788,
  "ing, and ": 2789,
  "gest": 2790,
  "open ": 2791,
  "rest ": 2792,
  ", with a ": 2793,
  "cloth": 2794,
  " accompan": 2795,
  "down the ": 2796,
  "difficult": 2797,
  "en, ": 2798,
  ", then, ": 2799,
  "upp": 2800,
  "large ": 2801,
  " O": 2802,
  "ired": 2803,
  "e was a ": 2804,
  "eag": 2805,
  "Now": 2806,
  "same ": 2807,
  " minut": 2808,
  "half-": 2809,
  " attention": 2810,
  "e word": 2811,
  "y, and ": 2812,
  "report": 2813,
  "fight": 2814,
  "dev": 2815,
  "ing of the ": 2816,
  "Marseill": 2817,
  "apt": 2818,
  "ed with the ": 2819,
  "glanc": 2820,
  "e she ": 2821,
  "had a ": 2822,
  " thr": 2823,
  "ened": 2824,
  "conceal": 2825,
  "partment": 2826,
  "e two ": 2827,
  "termin": 2828,
  ". At ": 2829,
  "hast": 2830,
  " is ": 2831,
  "lay ": 2832,
  "Gre": 2833,
  "ing on": 2834,
  "regard": 2835,
  "show": 2836,
  "pot": 2837,
  "Lucy ": 2838,
  " that\\u000a": 2839,
  " to-": 2840,
  "spir": 2841,
  "black ": 2842,
  "hy, ": 2843,
  "he said ": 2844,
  "he will ": 2845,
  ".\\u000a\\u000a“Well": 2846,
  "you were ": 2847,
  "stop": 2848,
  "ip": 2849,
  "ent to ": 2850,
  "deed": 2851,
  "well ": 2852,
  "les": 2853,
  "finish": 2854,
  "inct": 2855,
  "minut": 2856,
  "chest": 2857,
  "bil": 2858,
  "feet ": 2859,
  "ing-room": 2860,
  "Haydé": 2861,
  "electron": 2862,
  "\\u000a\\u000aChapter ": 2863,
  "urb": 2864,
  "prof": 2865,
  " also ": 2866,
  "black": 2867,
  "burn": 2868,
  "fore ": 2869,
  "ious ": 2870,
  "istr": 2871,
  "itch": 2872,
  "contro": 2873,
  "electronic": 2874,
  "Van Helsing": 2875,
  "rom": 2876,
  "vess": 2877,
  "herself": 2878,
  "was the ": 2879,
  "Your ": 2880,
  "looked": 2881,
  "use": 2882,
  "hundred ": 2883,
  "Well": 2884,
  "hold ": 2885,
  " of his ": 2886,
  "circum": 2887,
  "by a ": 2888,
  "den ": 2889,
  "forc": 2890,
  " taken ": 2891,
  "cul": 2892,
  "during the ": 2893,
  "opportun": 2894,
  "hey": 2895,
  "Château-Renaud": 2896,
  "whole ": 2897,
  "six": 2898,
  " ten ": 2899,
  "dut": 2900,
  ", after": 2901,
  "until ": 2902,
  "s of his ": 2903,
  "or s": 2904,
  ". What ": 2905,
  "produc": 2906,
  " angr": 2907,
  "enem": 2908,
  "s which": 2909,
  "effect": 2910,
  "out of ": 2911,
  "ed, but ": 2912,
  "blood ": 2913,
  "contain": 2914,
  "e what ": 2915,
  "suc": 2916,
  ", then ": 2917,
  "stranger": 2918,
  "TH": 2919,
  "ump": 2920,
  "sea": 2921,
  "onc": 2922,
  "ov": 2923,
  "sight ": 2924,
  "offic": 2925,
  "mind ": 2926,
  " to have ": 2927,
  "before": 2928,
  "es of the ": 2929,
  "entire": 2930,
  "does not ": 2931,
  " made ": 2932,
  "poin": 2933,
  "udder": 2934,
  ", and then ": 2935,
  "act ": 2936,
  "fresh": 2937,
  "before the ": 2938,
  "ourn": 2939,
  ". Al": 2940,
  " to a ": 2941,
  "name": 2942,
  "pow": 2943,
  " affect": 2944,
  ", and, ": 2945,
  "counten": 2946,
  "quired ": 2947,
  "happy ": 2948,
  "s s": 2949,
  "rose ": 2950,
  "arch": 2951,
  ", where ": 2952,
  " to w": 2953,
  "struck": 2954,
  "ester": 2955,
  "er of": 2956,
  "part ": 2957,
  "round ": 2958,
  "Count ": 2959,
  "angu": 2960,
  "English": 2961,
  "days": 2962,
  "his t": 2963,
  "firm": 2964,
  ".\\u000a\\u000a“Yes": 2965,
  "lead": 2966,
  "feel ": 2967,
  "circumst": 2968,
  "e’s ": 2969,
  " there is ": 2970,
  "cau": 2971,
  "itude ": 2972,
  "fright": 2973,
  "distribut": 2974,
  ".\\u000aH": 2975,
  "ray": 2976,
  ", who was ": 2977,
  "ations": 2978,
  "hile": 2979,
  "carcely ": 2980,
  ", it ": 2981,
  "not the ": 2982,
  "hesit": 2983,
  "cheek": 2984,
  "do not": 2985,
  "possible": 2986,
  ", “I ": 2987,
  "despair": 2988,
  "conduc": 2989,
  "on her ": 2990,
  "pois": 2991,
  "linked image\\u000a\\u000aback\\u000a\\u000a\\u000a\\u000a\\u000a\\u000alinked image\\u000a\\u000aback\\u000a\\u000a\\u000a\\u000a\\u000a\\u000alinked image\\u000a\\u000aback\\u000a\\u000a\\u000a\\u000a\\u000a\\u000alinked image\\u000a\\u000aback\\u000a\\u000a\\u000a\\u000a\\u000a\\u000alinked image\\u000a\\u000aback\\u000a\\u000a\\u000a\\u000a\\u000a\\u000alinked image\\u000a\\u000aback\\u000a\\u000a\\u000a\\u000a\\u000a\\u000alinked image\\u000a\\u000aback\\u000a\\u000a\\u000a\\u000a\\u000a\\u000alinked image\\u000a\\u000aback\\u000a\\u000a\\u000a\\u000a\\u000a\\u000a": 2992,
  "in\\u000a": 2993,
  " S": 2994,
  "ial ": 2995,
  "ator": 2996,
  "I think ": 2997,
  "given ": 2998,
  "best": 2999,
  " as if ": 3000,
  ",” cried ": 3001,
  " anything": 3002,
  "glass": 3003,
  "ird": 3004,
  "pati": 3005,
  "veng": 3006,
  "upon the ": 3007,
  "suff": 3008,
  "he saw": 3009,
  "strange ": 3010,
  "once": 3011,
  " to her ": 3012,
  "for him": 3013,
  "Man": 3014,
  "i ": 3015,
  "conversation": 3016,
  "comfort": 3017,
  ", turn": 3018,
  "pleasant": 3019,
  "lat": 3020,
  "e—": 3021,
  " me to ": 3022,
  ".\\u000a\\u000a“‘": 3023,
  "in your ": 3024,
  "uneas": 3025,
  "better ": 3026,
  " word": 3027,
  "e wer": 3028,
  "for you": 3029,
  "exclaimed ": 3030,
  "ing that ": 3031,
  "ing it": 3032,
  ". He was ": 3033,
  "illion": 3034,
  "ence, ": 3035,
  " throat": 3036,
  "Thomas": 3037,
  "cost": 3038,
  "18": 3039,
  "Ex": 3040,
  "Bertuccio": 3041,
  "event": 3042,
  "ship": 3043,
  "motion": 3044,
  "fut": 3045,
  "As ": 3046,
  ", “th": 3047,
  "wall": 3048,
  ", who had ": 3049,
  "intend": 3050,
  "live ": 3051,
  "quit": 3052,
  "evening": 3053,
  "ed. The ": 3054,
  "realis": 3055,
  "Invisible ": 3056,
  "Ab": 3057,
  "y of the ": 3058,
  "tr": 3059,
  "lean": 3060,
  "ed by a ": 3061,
  "has been": 3062,
  " which the ": 3063,
  "Rue ": 3064,
  "need ": 3065,
  "called ": 3066,
  "but the ": 3067,
  "people ": 3068,
  "sequ": 3069,
  "occasion": 3070,
  "garden": 3071,
  ".\\u000a\\u000aT": 3072,
  "ed himself": 3073,
  "usion": 3074,
  "edg": 3075,
  "had the ": 3076,
  "in this ": 3077,
  "was a ": 3078,
  " to re": 3079,
  "Project Gutenberg-tm": 3080,
  "ister": 3081,
  "quir": 3082,
  "s; ": 3083,
  "determin": 3084,
  "men ": 3085,
  "and the ": 3086,
  "ously ": 3087,
  "knowledg": 3088,
  ", you ": 3089,
  "ignor": 3090,
  "s with": 3091,
  "object": 3092,
  "count’s ": 3093,
  "...": 3094,
  ",” said Albert": 3095,
  "d’Avrign": 3096,
  "epp": 3097,
  "has been ": 3098,
  "erve ": 3099,
  "captain": 3100,
  "half ": 3101,
  "s.”\\u000a\\u000a“": 3102,
  "reat": 3103,
  "I know ": 3104,
  " without ": 3105,
  "I se": 3106,
  "e; ": 3107,
  "coat": 3108,
  "gold": 3109,
  "favor": 3110,
  " tee": 3111,
  "nes": 3112,
  ", had ": 3113,
  "pose": 3114,
  "prec": 3115,
  "ric": 3116,
  "ical": 3117,
  ".\\u000aShe ": 3118,
  "sk": 3119,
  "ed; ": 3120,
  "you ar": 3121,
  " to make ": 3122,
  "If ": 3123,
  "ian ": 3124,
  ", there ": 3125,
  ". When": 3126,
  ", without ": 3127,
  "I can ": 3128,
  "gott": 3129,
  "? W": 3130,
  "let us ": 3131,
  "s;": 3132,
  ". I w": 3133,
  ". And": 3134,
  "flu": 3135,
  "Lou": 3136,
  "maj": 3137,
  "one of ": 3138,
  "ual ": 3139,
  "....": 3140,
  "s had ": 3141,
  "worth": 3142,
  "brain": 3143,
  " to se": 3144,
  "rupt": 3145,
  "left the ": 3146,
  " anything ": 3147,
  "provid": 3148,
  "ount": 3149,
  ", will ": 3150,
  ", and a ": 3151,
  "pas": 3152,
  "ming": 3153,
  "alth": 3154,
  "sever": 3155,
  "suffer": 3156,
  "per ": 3157,
  "previ": 3158,
  "desir": 3159,
  " an hour": 3160,
  ", however": 3161,
  "memor": 3162,
  "carriage ": 3163,
  "Fari": 3164,
  "TER": 3165,
  "Dr. S": 3166,
  "\\u000ato ": 3167,
  "…": 3168,
  "ept": 3169,
  "bad": 3170,
  "host": 3171,
  "bra": 3172,
  "smi": 3173,
  ": “": 3174,
  "cab": 3175,
  "ling": 3176,
  "How ": 3177,
  "s with ": 3178,
  "rapid": 3179,
  "rub": 3180,
  "vict": 3181,
  "gloom": 3182,
  "extend": 3183,
  " alone ": 3184,
  "French": 3185,
  "atter ": 3186,
  "ling ": 3187,
  "polit": 3188,
  "diam": 3189,
  " above ": 3190,
  "must be ": 3191,
  "certain ": 3192,
  "velop": 3193,
  "Professor": 3194,
  ".’\\u000a": 3195,
  "?\"": 3196,
  "omb": 3197,
  "Noirtier ": 3198,
  "custom": 3199,
  "experienc": 3200,
  "ait ": 3201,
  "s a ": 3202,
  "Come, ": 3203,
  ",” continued ": 3204,
  "staircas": 3205,
  "pray": 3206,
  "ir ": 3207,
  "best ": 3208,
  "ed that": 3209,
  "fas": 3210,
  "ously": 3211,
  "ense": 3212,
  "is to ": 3213,
  "past ": 3214,
  "yester": 3215,
  "ituation": 3216,
  "I may ": 3217,
  "increas": 3218,
  "hung": 3219,
  "Lord ": 3220,
  "Madame Danglars": 3221,
  "clud": 3222,
  "ance, ": 3223,
  "entered the ": 3224,
  "while ": 3225,
  " the tim": 3226,
  "hundred": 3227,
  "ually ": 3228,
  " about to ": 3229,
  "ons": 3230,
  "perceiv": 3231,
  "destro": 3232,
  "blow": 3233,
  "disappeared": 3234,
  "equ": 3235,
  " in ": 3236,
  "descri": 3237,
  "gain": 3238,
  "divid": 3239,
  "iter": 3240,
  "Saint-Méran": 3241,
  "a, ": 3242,
  "La ": 3243,
  "disturb": 3244,
  "exec": 3245,
  " as to ": 3246,
  ",” said he, “": 3247,
  "or the ": 3248,
  "each other": 3249,
  "sigh": 3250,
  "on a ": 3251,
  "quis": 3252,
  "s he ": 3253,
  "soci": 3254,
  "littl": 3255,
  "secret": 3256,
  "move ": 3257,
  "key": 3258,
  "collar": 3259,
  " times ": 3260,
  "from a ": 3261,
  "be\\u000a": 3262,
  "org": 3263,
  "ited ": 3264,
  ", though ": 3265,
  "prov": 3266,
  "sha": 3267,
  "ertain": 3268,
  ".\\u000a\\u000a\\u000a\\u000a\\u000a\\u000a": 3269,
  "paus": 3270,
  " as I ": 3271,
  "It was ": 3272,
  ".\\u000a\\u000a“S": 3273,
  "father’s ": 3274,
  "uel": 3275,
  "shall ": 3276,
  "forgott": 3277,
  "lift": 3278,
  "thought ": 3279,
  "recollect": 3280,
  " way": 3281,
  "help ": 3282,
  " of a ": 3283,
  ".”\\u000a\\u000a“Oh, ": 3284,
  "perio": 3285,
  ". It is ": 3286,
  " action": 3287,
  " till": 3288,
  "ina ": 3289,
  "Jack": 3290,
  "CHA": 3291,
  " P": 3292,
  "ureur": 3293,
  "eppin": 3294,
  "young man ": 3295,
  "satis": 3296,
  " a th": 3297,
  "bly ": 3298,
  "cept ": 3299,
  "though ": 3300,
  "?”\\u000a\\u000a“I ": 3301,
  "Are ": 3302,
  " murm": 3303,
  "quickly": 3304,
  "ety": 3305,
  "s. The ": 3306,
  "e should ": 3307,
  ",” he ": 3308,
  " themselv": 3309,
  "render": 3310,
  "if he ": 3311,
  "ing at the ": 3312,
  "strai": 3313,
  "def": 3314,
  "quaint": 3315,
  "ef ": 3316,
  " sp": 3317,
  " whom ": 3318,
  "horses": 3319,
  "study": 3320,
  "Found": 3321,
  "I'": 3322,
  "ende": 3323,
  "?” asked the ": 3324,
  " B": 3325,
  "mile": 3326,
  " taken": 3327,
  "delight": 3328,
  "ke ": 3329,
  ", with the ": 3330,
  ".’\\u000a\\u000a“‘": 3331,
  "choo": 3332,
  "person ": 3333,
  "heaven": 3334,
  "herself ": 3335,
  "hour ": 3336,
  "anim": 3337,
  "or of ": 3338,
  "engag": 3339,
  " also": 3340,
  "family": 3341,
  "frequ": 3342,
  " alone": 3343,
  ",\" said the ": 3344,
  " accord": 3345,
  "?” in": 3346,
  "Danglars, ": 3347,
  " two": 3348,
  "lou": 3349,
  " tal": 3350,
  "sive ": 3351,
  "liber": 3352,
  " to my ": 3353,
  "; that ": 3354,
  "strain": 3355,
  "second ": 3356,
  "ster": 3357,
  "lost": 3358,
  "weet": 3359,
  "course ": 3360,
  "far ": 3361,
  "ent on": 3362,
  "loc": 3363,
  "cag": 3364,
  ",\" ": 3365,
  "usual": 3366,
  "ean": 3367,
  "crow": 3368,
  " afterward": 3369,
  "letter ": 3370,
  "Mercédès": 3371,
  " affair": 3372,
  "for me": 3373,
  "ing on the ": 3374,
  "sett": 3375,
  "ear ": 3376,
  "e with the ": 3377,
  " say": 3378,
  "e to be ": 3379,
  "perhaps ": 3380,
  "haps": 3381,
  "ing in ": 3382,
  "kind ": 3383,
  " together": 3384,
  "aught": 3385,
  "ed—": 3386,
  "hould": 3387,
  "il ": 3388,
  ",” returned ": 3389,
  "zz": 3390,
  "grief": 3391,
  "hock": 3392,
  ",” said Villefort": 3393,
  "you may ": 3394,
  ". In ": 3395,
  "ial": 3396,
  "may": 3397,
  "’re ": 3398,
  "fortune ": 3399,
  ", was": 3400,
  "Let ": 3401,
  " a se": 3402,
  "brow": 3403,
  ", which was ": 3404,
  "them": 3405,
  "pale ": 3406,
  "Do you ": 3407,
  "oney ": 3408,
  "lig": 3409,
  "ervant": 3410,
  "no one ": 3411,
  "sun": 3412,
  ", her ": 3413,
  "entirely ": 3414,
  "would": 3415,
  "enough to ": 3416,
  "be the ": 3417,
  "e may ": 3418,
  " at all": 3419,
  ". Th": 3420,
  "companion": 3421,
  "we have ": 3422,
  "loy": 3423,
  "if the ": 3424,
  "cross": 3425,
  "street": 3426,
  "carriage": 3427,
  "ceas": 3428,
  "Em": 3429,
  "CHAP": 3430,
  "CHAPTER": 3431,
  "is\\u000a": 3432,
  "hear ": 3433,
  "ell ": 3434,
  " appeared ": 3435,
  "bring": 3436,
  " trou": 3437,
  "s it ": 3438,
  "I shall": 3439,
  "Certain": 3440,
  "?” said the ": 3441,
  "opin": 3442,
  "into his ": 3443,
  "turn": 3444,
  "oup": 3445,
  "be t": 3446,
  "ed from ": 3447,
  "poli": 3448,
  "bol": 3449,
  "We ": 3450,
  "pursu": 3451,
  "Count of Monte Cristo": 3452,
  "Re": 3453,
  "hip": 3454,
  "nar": 3455,
  "did not": 3456,
  "mall": 3457,
  "Then": 3458,
  ".\\u000a\\u000a“And ": 3459,
  "manner": 3460,
  "e that the ": 3461,
  "or, ": 3462,
  "emper": 3463,
  "depart": 3464,
  "my dear ": 3465,
  "s for": 3466,
  "ion of the ": 3467,
  "purcha": 3468,
  "did you ": 3469,
  "not a ": 3470,
  "devo": 3471,
  ", this ": 3472,
  "ore ": 3473,
  "procureur": 3474,
  "e of his ": 3475,
  ". J": 3476,
  "phys": 3477,
  "monsieur": 3478,
  "M. Noirtier": 3479,
  "introduc": 3480,
  "ing up": 3481,
  "Doct": 3482,
  "baroness": 3483,
  "CHAPTER ": 3484,
  "saw": 3485,
  "spok": 3486,
  "surpris": 3487,
  "in which ": 3488,
  "morning ": 3489,
  "; w": 3490,
  "s wer": 3491,
  "country": 3492,
  "hadow": 3493,
  " such ": 3494,
  "neith": 3495,
  "eff": 3496,
  "eless": 3497,
  "ion of ": 3498,
  "s and": 3499,
  "here the ": 3500,
  "e through": 3501,
  "second": 3502,
  " sleep": 3503,
  "irrit": 3504,
  "Godal": 3505,
  "ary, ": 3506,
  "board": 3507,
  "belong": 3508,
  "M. Morrel": 3509,
  " attack": 3510,
  " about the ": 3511,
  " she had ": 3512,
  "writ": 3513,
  "ing with": 3514,
  "omorrow": 3515,
  "gone ": 3516,
  "forward": 3517,
  "chief": 3518,
  "const": 3519,
  " we have ": 3520,
  "sure": 3521,
  "ity of ": 3522,
  "with his ": 3523,
  "ed in a ": 3524,
  ".\\u000a\\u000a“What ": 3525,
  "join": 3526,
  "perfectly ": 3527,
  "coach": 3528,
  "human ": 3529,
  "udi": 3530,
  "extra": 3531,
  " A": 3532,
  "ed the count": 3533,
  "into her ": 3534,
  "Dr. ": 3535,
  "y\\u000a": 3536,
  "eter": 3537,
  "direction": 3538,
  "resum": 3539,
  "—and ": 3540,
  "particular": 3541,
  "seiz": 3542,
  "hope ": 3543,
  "I did not ": 3544,
  "e the w": 3545,
  "happy": 3546,
  "grat": 3547,
  " as they ": 3548,
  "hope": 3549,
  ".” The ": 3550,
  "nor ": 3551,
  " they are ": 3552,
  "big": 3553,
  "consequ": 3554,
  "intell": 3555,
  "—th": 3556,
  "famili": 3557,
  "fle": 3558,
  "you wish": 3559,
  "ick ": 3560,
  "phi": 3561,
  "ed out": 3562,
  "presid": 3563,
  "lab": 3564,
  "ini": 3565,
  ". She was ": 3566,
  "?”\\u000a“": 3567,
  "\\u000aher ": 3568,
  "atal": 3569,
  "ailor": 3570,
  "furn": 3571,
  "ed, “": 3572,
  "endeavor": 3573,
  "s who ": 3574,
  "Bec": 3575,
  "her w": 3576,
  "you would ": 3577,
  "ress ": 3578,
  "ed at": 3579,
  " to speak": 3580,
  "hether ": 3581,
  "ing it ": 3582,
  "obtain": 3583,
  "different ": 3584,
  ", since ": 3585,
  " tried to ": 3586,
  "proceed": 3587,
  "creat": 3588,
  "immediately ": 3589,
  " arrang": 3590,
  "fire": 3591,
  "cage": 3592,
  "proper": 3593,
  " in the ": 3594,
  "gall": 3595,
  "heavy ": 3596,
  "Barro": 3597,
  "Co": 3598,
  "row ": 3599,
  "vessel": 3600,
  "lose ": 3601,
  "condition": 3602,
  ".”\\u000a\\u000a“You ": 3603,
  ",” said Morrel": 3604,
  " a little ": 3605,
  "struggl": 3606,
  " a small ": 3607,
  "in that ": 3608,
  "Beca": 3609,
  "faith": 3610,
  "course": 3611,
  "here, ": 3612,
  "yp": 3613,
  "habit": 3614,
  "stup": 3615,
  "ished ": 3616,
  "knif": 3617,
  "live": 3618,
  "; for ": 3619,
  "very s": 3620,
  " address": 3621,
  "heard the ": 3622,
  "Épin": 3623,
  "copy": 3624,
  "Van Helsing ": 3625,
  "Madam ": 3626,
  " to take ": 3627,
  "s, the ": 3628,
  ", in the ": 3629,
  "usual ": 3630,
  "he is": 3631,
  " at his ": 3632,
  "pard": 3633,
  " abs": 3634,
  ", and we ": 3635,
  ".”\\u000a\\u000a“Ah, ": 3636,
  "on the t": 3637,
  "e which": 3638,
  " ann": 3639,
  "steri": 3640,
  "a w": 3641,
  "ingly": 3642,
  "really": 3643,
  "deli": 3644,
  " wer": 3645,
  ", a": 3646,
  "van": 3647,
  "stretch": 3648,
  " a moment ": 3649,
  "cut": 3650,
  "feat": 3651,
  "imil": 3652,
  ". Now": 3653,
  "ed to be ": 3654,
  "necessary": 3655,
  "hid": 3656,
  ". I am ": 3657,
  "guil": 3658,
  ", not ": 3659,
  "ake": 3660,
  "bly": 3661,
  "forehead": 3662,
  "bell": 3663,
  " to do": 3664,
  ") ": 3665,
  "ier": 3666,
  "urch": 3667,
  "d’Épin": 3668,
  "I said": 3669,
  "Madame de Villefort ": 3670,
  "1.E": 3671,
  "Quince": 3672,
  "Invisible Man": 3673,
  "resent": 3674,
  "gg": 3675,
  "why ": 3676,
  "smil": 3677,
  "yes, ": 3678,
  "bal": 3679,
  " the same tim": 3680,
  "langu": 3681,
  "eyes, ": 3682,
  "blind": 3683,
  "stay": 3684,
  "repeat": 3685,
  " assum": 3686,
  "dinner": 3687,
  "protect": 3688,
  "So ": 3689,
  "stif": 3690,
  "opened the ": 3691,
  " the m": 3692,
  "harp": 3693,
  "disappear": 3694,
  "Peppin": 3695,
  "she had ": 3696,
  "Dr. Seward": 3697,
  "—the ": 3698,
  " thus ": 3699,
  "; then": 3700,
  ", the s": 3701,
  "die": 3702,
  "lem": 3703,
  "fine ": 3704,
  "perhaps": 3705,
  "ench": 3706,
  "es that ": 3707,
  "ond ": 3708,
  "ed this ": 3709,
  "beneath": 3710,
  "might be ": 3711,
  "leas": 3712,
  " tre": 3713,
  ".”\\u000a\\u000a“Ah": 3714,
  "finger": 3715,
  "poison": 3716,
  "Andrea ": 3717,
  ".\\u000a\\u000a\\u000a\\u000a": 3718,
  "Foundation": 3719,
  "Hark": 3720,
  "was\\u000a": 3721,
  "have\\u000a": 3722,
  "ired ": 3723,
  "appear": 3724,
  "eight ": 3725,
  "charg": 3726,
  "coming": 3727,
  "you can ": 3728,
  "let me ": 3729,
  " anim": 3730,
  " with his ": 3731,
  "ance of ": 3732,
  "refus": 3733,
  "general": 3734,
  "decid": 3735,
  "es of": 3736,
  ". For": 3737,
  "beautiful ": 3738,
  "answer": 3739,
  "forget": 3740,
  "fortune": 3741,
  "circumstanc": 3742,
  "dam": 3743,
  "either ": 3744,
  "evidently ": 3745,
  "fear ": 3746,
  "ese ": 3747,
  "ific": 3748,
  ", and his ": 3749,
  "he had": 3750,
  "is it": 3751,
  "jail": 3752,
  "lay": 3753,
  "fun": 3754,
  "dead ": 3755,
  "Emman": 3756,
  "Mr. H": 3757,
  "eptember": 3758,
  "azz": 3759,
  "lower": 3760,
  " after the ": 3761,
  ", un": 3762,
  "going": 3763,
  "if it ": 3764,
  "everything ": 3765,
  "doubt ": 3766,
  "manag": 3767,
  " trembl": 3768,
  ".\\u000a\\u000a“H": 3769,
  "doing": 3770,
  "itude": 3771,
  "pat": 3772,
  "; she ": 3773,
  ". At": 3774,
  "respond": 3775,
  "urder": 3776,
  "search": 3777,
  "decl": 3778,
  "raw": 3779,
  "—that ": 3780,
  "ifi": 3781,
  "certainly ": 3782,
  "usually ": 3783,
  "ed. ": 3784,
  "change ": 3785,
  "Ter": 3786,
  "employ": 3787,
  " might ": 3788,
  "years": 3789,
  "kno": 3790,
  "away": 3791,
  "close ": 3792,
  "1.E.": 3793,
  ".\\u000aA": 3794,
  "or Jack": 3795,
  "Cors": 3796,
  "Vam": 3797,
  " sail": 3798,
  "cred": 3799,
  " to a": 3800,
  "hasten": 3801,
  "glad": 3802,
  ", after ": 3803,
  "cry": 3804,
  " something ": 3805,
  "reply": 3806,
  "going ": 3807,
  ".\\u000a\\u000a“You": 3808,
  "miss": 3809,
  "band ": 3810,
  "people": 3811,
  "like to ": 3812,
  "feeling ": 3813,
  " to do ": 3814,
  "pist": 3815,
  "world ": 3816,
  "dim": 3817,
  "forth": 3818,
  "fli": 3819,
  "remov": 3820,
  "concern": 3821,
  "pet": 3822,
  "bed ": 3823,
  "ation of the ": 3824,
  ", but the ": 3825,
  ", were ": 3826,
  "rac": 3827,
  "laid ": 3828,
  "ing my ": 3829,
  "back to ": 3830,
  "caught ": 3831,
  "Morcerf ": 3832,
  "!’ ": 3833,
  "cream": 3834,
  "IN": 3835,
  ".\"\\u000a": 3836,
  ". Mar": 3837,
  "If": 3838,
  "Abbé": 3839,
  "Monsieur": 3840,
  "eager": 3841,
  "command": 3842,
  "one who ": 3843,
  ",” answer": 3844,
  "?”\\u000a\\u000a“Yes, ": 3845,
  "propos": 3846,
  "charac": 3847,
  "character": 3848,
  "known ": 3849,
  "instead of ": 3850,
  "y the ": 3851,
  "abil": 3852,
  "uffer": 3853,
  "woman": 3854,
  "saw ": 3855,
  "eye ": 3856,
  "myself ": 3857,
  "allow": 3858,
  "; for": 3859,
  "omen": 3860,
  "be w": 3861,
  "ities": 3862,
  ". He s": 3863,
  "ed and": 3864,
  "XV": 3865,
  "For": 3866,
  ", there": 3867,
  "about": 3868,
  "chain": 3869,
  ". Then he ": 3870,
  "from her ": 3871,
  "e too ": 3872,
  "of that ": 3873,
  ", so that ": 3874,
  ". That ": 3875,
  "ident": 3876,
  "human": 3877,
  "your excellency": 3878,
  "electronic work": 3879,
  "Di": 3880,
  "uig": 3881,
  "espec": 3882,
  "die ": 3883,
  ", like ": 3884,
  "else": 3885,
  ",000 franc": 3886,
  " to me ": 3887,
  "etimes ": 3888,
  " to see ": 3889,
  ",—“": 3890,
  "neigh": 3891,
  "content": 3892,
  " time, ": 3893,
  "Caderousse ": 3894,
  ", too": 3895,
  "vill": 3896,
  " all that ": 3897,
  "ublic": 3898,
  "said ": 3899,
  "pleasant ": 3900,
  "ink ": 3901,
  "ring": 3902,
  "inci": 3903,
  "yi": 3904,
  "resist": 3905,
  "refer": 3906,
  ",’ said ": 3907,
  "might": 3908,
  "havi": 3909,
  "child ": 3910,
  "jew": 3911,
  "!’": 3912,
  "she\\u000a": 3913,
  "ed.\\u000a‘": 3914,
  "EN": 3915,
  "ately": 3916,
  "?”\\u000a\\u000a“The ": 3917,
  "occupi": 3918,
  "came to ": 3919,
  "ven ": 3920,
  "held": 3921,
  "king ": 3922,
  "ingly ": 3923,
  "corn": 3924,
  "boat": 3925,
  "ed a s": 3926,
  " account": 3927,
  "?”\\u000a\\u000a“Oh, ": 3928,
  "I don’t ": 3929,
  ".”\\u000a\\u000a“The ": 3930,
  "exact": 3931,
  "of which ": 3932,
  "ual": 3933,
  "gat": 3934,
  "itness": 3935,
  "ing this ": 3936,
  "meet": 3937,
  "obs": 3938,
  "met": 3939,
  "little": 3940,
  "ild ": 3941,
  "return ": 3942,
  " in a ": 3943,
  "ive": 3944,
  "volunt": 3945,
  " trying to ": 3946,
  "oni": 3947,
  "Joh": 3948,
  "Project Gutenberg-tm ": 3949,
  "not\\u000a": 3950,
  "between the ": 3951,
  "ence of ": 3952,
  " to the s": 3953,
  "it seem": 3954,
  ".”\\u000a\\u000a“Yes": 3955,
  "?”\\u000a\\u000a“A": 3956,
  " turned ": 3957,
  " anxious": 3958,
  "ed, the ": 3959,
  "His ": 3960,
  "Did ": 3961,
  "rapp": 3962,
  "ed with a ": 3963,
  " terri": 3964,
  "boo": 3965,
  "—a ": 3966,
  "rob": 3967,
  "pistol": 3968,
  "part of the ": 3969,
  "e the": 3970,
  "faint": 3971,
  " almost": 3972,
  "ation of": 3973,
  "larg": 3974,
  "have to ": 3975,
  "s for ": 3976,
  "” ": 3977,
  "prisoner": 3978,
  " assure ": 3979,
  "no longer ": 3980,
  "darkness": 3981,
  ".\\u000a\\u000a“The ": 3982,
  "atch ": 3983,
  "behavi": 3984,
  "often ": 3985,
  "coff": 3986,
  "eap": 3987,
  "Juli": 3988,
  "etto": 3989,
  "bit ": 3990,
  "AR": 3991,
  "ney": 3992,
  "owever": 3993,
  "danger": 3994,
  "yard": 3995,
  "money": 3996,
  "intention": 3997,
  "land ": 3998,
  ".”\\u000a\\u000a“But": 3999,
  "ing you": 4000,
  "e will": 4001,
  "lam": 4002,
  " tell m": 4003,
  "; “and ": 4004,
  "ital": 4005,
  ". I was ": 4006,
  "always ": 4007,
  "That ": 4008,
  "others": 4009,
  "apart": 4010,
  "bour": 4011,
  "e the t": 4012,
  "demand": 4013,
  "interest ": 4014,
  "years ": 4015,
  "punish": 4016,
  "servant": 4017,
  "ably": 4018,
  "hook ": 4019,
  ". At the ": 4020,
  "fashi": 4021,
  "emotion ": 4022,
  ". Marvel": 4023,
  " L": 4024,
  "Na": 4025,
  "quar": 4026,
  "I wish": 4027,
  "e when ": 4028,
  "reflect": 4029,
  "drew": 4030,
  "his eyes ": 4031,
  ", on the ": 4032,
  "ed from the ": 4033,
  "oblig": 4034,
  "explain": 4035,
  "ender ": 4036,
  "eal": 4037,
  "d of": 4038,
  "deed, ": 4039,
  "corner": 4040,
  "ustr": 4041,
  " ton": 4042,
  " acquaint": 4043,
  "tri": 4044,
  "I had": 4045,
  "noble ": 4046,
  "agu": 4047,
  "in-": 4048,
  "to the ": 4049,
  "lder": 4050,
  "without": 4051,
  "figu": 4052,
  "inspect": 4053,
  " accept": 4054,
  "ground ": 4055,
  "oper": 4056,
  "Pa": 4057,
  "I saw": 4058,
  "develop": 4059,
  ",000 francs": 4060,
  "couldn’t ": 4061,
  "**": 4062,
  ". R": 4063,
  "Sign": 4064,
  "Vampa": 4065,
  "prev": 4066,
  "ed of ": 4067,
  "rad": 4068,
  "midst ": 4069,
  "o’clock ": 4070,
  ".\\u000a\\u000a\\u000a\\u000a\\u000a\\u000aChapter ": 4071,
  "dd": 4072,
  ", and who ": 4073,
  "he should ": 4074,
  " a sing": 4075,
  "brother": 4076,
  " that this ": 4077,
  "fall ": 4078,
  " time to ": 4079,
  "e, he ": 4080,
  ". So ": 4081,
  "jour": 4082,
  "indic": 4083,
  "uni": 4084,
  "ux": 4085,
  "approach": 4086,
  ". All": 4087,
  "on the s": 4088,
  " able to ": 4089,
  "struck ": 4090,
  "ward ": 4091,
  "silent": 4092,
  "e turn": 4093,
  "man who ": 4094,
  " attempt": 4095,
  "ed into the ": 4096,
  " terror": 4097,
  "corrid": 4098,
  "guess": 4099,
  "sle": 4100,
  "story": 4101,
  "Mr. Marvel": 4102,
  ", by ": 4103,
  "master": 4104,
  "especi": 4105,
  "struction": 4106,
  "self-": 4107,
  ", “and ": 4108,
  "dieu": 4109,
  ".”\\u000a\\u000a“That ": 4110,
  "paid ": 4111,
  "!” cried ": 4112,
  " that they ": 4113,
  "s, but ": 4114,
  ", is ": 4115,
  "ity of the ": 4116,
  "costum": 4117,
  " was the ": 4118,
  "promise ": 4119,
  " thus": 4120,
  " teeth": 4121,
  "—“": 4122,
  "burst ": 4123,
  " as if": 4124,
  "kill ": 4125,
  "ett": 4126,
  "ed out ": 4127,
  "agger": 4128,
  "though": 4129,
  "guest": 4130,
  "in order": 4131,
  "ract": 4132,
  "conduct": 4133,
  "lli": 4134,
  "ed to his ": 4135,
  "degre": 4136,
  "point ": 4137,
  "over his ": 4138,
  "perm": 4139,
  "ender": 4140,
  "full of ": 4141,
  "sum": 4142,
  "guard": 4143,
  ". They": 4144,
  "ed as": 4145,
  "fal": 4146,
  "e some ": 4147,
  "mother ": 4148,
  "control": 4149,
  "Luig": 4150,
  "ed. ‘": 4151,
  "in the\\u000a": 4152,
  "of the\\u000a": 4153,
  ". I\\u000a": 4154,
  "almost ": 4155,
  "RE": 4156,
  "cen": 4157,
  "entran": 4158,
  "prang": 4159,
  "heel": 4160,
  "sound": 4161,
  "here is ": 4162,
  " a word": 4163,
  " there was": 4164,
  "him to ": 4165,
  "s of s": 4166,
  "he saw ": 4167,
  " appar": 4168,
  "display": 4169,
  "case ": 4170,
  "friends": 4171,
  "public": 4172,
  "daught": 4173,
  "more than ": 4174,
  "ing him ": 4175,
  "flow": 4176,
  "pit": 4177,
  " the wall": 4178,
  "on’t ": 4179,
  "ult ": 4180,
  "reason ": 4181,
  "rust": 4182,
  "fold": 4183,
  ", what": 4184,
  " seemed to ": 4185,
  "udden ": 4186,
  "yield": 4187,
  "ost ": 4188,
  "gone": 4189,
  "elf": 4190,
  ", of ": 4191,
  "nearly ": 4192,
  "ruth": 4193,
  "nect": 4194,
  "getting ": 4195,
  "except": 4196,
  "cell": 4197,
  " the door": 4198,
  "ordinary ": 4199,
  "rose": 4200,
  "met ": 4201,
  "when the ": 4202,
  "ion of": 4203,
  ", though": 4204,
  "relat": 4205,
  "for her": 4206,
  ".\\u000aS": 4207,
  "graph": 4208,
  "Pha": 4209,
  "arriv": 4210,
  " accustom": 4211,
  "Alas": 4212,
  "you se": 4213,
  "off the ": 4214,
  "Then ": 4215,
  " true": 4216,
  "ed. “": 4217,
  "; “but ": 4218,
  " are you ": 4219,
  ".”\\u000a\\u000a“No": 4220,
  "grav": 4221,
  " should ": 4222,
  "having": 4223,
  "; it ": 4224,
  ", and to ": 4225,
  "No ": 4226,
  "Mercédès ": 4227,
  "bad ": 4228,
  "Good": 4229,
  "low ": 4230,
  "fool": 4231,
  "court": 4232,
  "walk": 4233,
  "lett": 4234,
  "ton": 4235,
  "either": 4236,
  "simp": 4237,
  "back to the ": 4238,
  "yesterday": 4239,
  "where": 4240,
  ".”\\u000a\\u000a“B": 4241,
  " an un": 4242,
  "energ": 4243,
  "wear": 4244,
  " at this ": 4245,
  ". Alber": 4246,
  "Professor ": 4247,
  "ly\\u000a": 4248,
  "ww": 4249,
  "Corsic": 4250,
  "thre": 4251,
  "Phara": 4252,
  "peculi": 4253,
  "buri": 4254,
  "since ": 4255,
  "ly, and ": 4256,
  "me that ": 4257,
  "would be ": 4258,
  " tra": 4259,
  " took the ": 4260,
  "ength ": 4261,
  "of all": 4262,
  "remain ": 4263,
  " accompani": 4264,
  "pict": 4265,
  "orig": 4266,
  "’s s": 4267,
  "groan": 4268,
  "beside ": 4269,
  "curios": 4270,
  " terrible ": 4271,
  " mak": 4272,
  "deep ": 4273,
  "end of the ": 4274,
  "committ": 4275,
  "dest": 4276,
  "contrary": 4277,
  "length": 4278,
  "es are ": 4279,
  "compl": 4280,
  "it to ": 4281,
  ".\\u000a\\u000a“Oh, ": 4282,
  "door open": 4283,
  " the sound ": 4284,
  "adv": 4285,
  "lamp": 4286,
  "visible": 4287,
  "cloud": 4288,
  "stairs": 4289,
  "ly and ": 4290,
  "footstep": 4291,
  "yell": 4292,
  "parag": 4293,
  "Madam Mina": 4294,
  "15": 4295,
  "so much": 4296,
  ".\\u000a\\u000a“I": 4297,
  "limb": 4298,
  ",” said Danglars": 4299,
  "Marseilles": 4300,
  "I saw ": 4301,
  " the subject": 4302,
  "no longer": 4303,
  "exclaimed": 4304,
  "boy": 4305,
  "They ": 4306,
  ".\\u000a\\u000a“Yes, ": 4307,
  ".”\\u000a\\u000a“In": 4308,
  "easily ": 4309,
  "ular": 4310,
  "her arm": 4311,
  "e there ": 4312,
  " whom": 4313,
  "remem": 4314,
  "him, and ": 4315,
  "embl": 4316,
  ", and which ": 4317,
  ", tak": 4318,
  "impress": 4319,
  "drop": 4320,
  "general ": 4321,
  "valu": 4322,
  " tor": 4323,
  "recall": 4324,
  "gen": 4325,
  "M. de Villefort ": 4326,
  "cut ": 4327,
  "ing for": 4328,
  "real ": 4329,
  ", it is ": 4330,
  "ed that the ": 4331,
  "vari": 4332,
  " till ": 4333,
  "ming ": 4334,
  "further": 4335,
  "inn": 4336,
  "Lon": 4337,
  "olv": 4338,
  "ournal": 4339,
  "John": 4340,
  "iss ": 4341,
  "\\u000aof ": 4342,
  "?\"\\u000a\"": 4343,
  "slow": 4344,
  "At": 4345,
  "ed, and the ": 4346,
  "you are": 4347,
  "not have ": 4348,
  "wis": 4349,
  ".”\\u000a\\u000a“Then": 4350,
  "ed away": 4351,
  ", smil": 4352,
  "reached the ": 4353,
  "!—": 4354,
  " ago": 4355,
  "bright": 4356,
  "her, ": 4357,
  "ruin": 4358,
  "eper": 4359,
  "up and ": 4360,
  "deceiv": 4361,
  " where ": 4362,
  "aken ": 4363,
  "rever": 4364,
  "princi": 4365,
  "France": 4366,
  " attend": 4367,
  "oppos": 4368,
  "near ": 4369,
  "ery": 4370,
  "cat": 4371,
  "broken ": 4372,
  "ed their ": 4373,
  "bound": 4374,
  "destroy": 4375,
  "cel": 4376,
  "connect": 4377,
  "viv": 4378,
  "ace ": 4379,
  "chamber": 4380,
  " announc": 4381,
  "suddenly ": 4382,
  "enjoy": 4383,
  "Emmanuel": 4384,
  "Pastr": 4385,
  "her eyes ": 4386,
  "Jonathan ": 4387,
  "and of ": 4388,
  "aint ": 4389,
  ". In the ": 4390,
  "grate": 4391,
  "ing out ": 4392,
  "looking": 4393,
  "ely, ": 4394,
  ". No": 4395,
  "I thought ": 4396,
  "When ": 4397,
  "uri": 4398,
  "unch": 4399,
  " she was ": 4400,
  "blue ": 4401,
  ".”\\u000a\\u000a“Well, ": 4402,
  "love": 4403,
  "swer ": 4404,
  "My dear ": 4405,
  "for my ": 4406,
  "st the ": 4407,
  " twenty ": 4408,
  "spec": 4409,
  ", as he ": 4410,
  "influ": 4411,
  "next": 4412,
  "our s": 4413,
  ". I am": 4414,
  "Per": 4415,
  "wo": 4416,
  "request": 4417,
  "mus": 4418,
  "such ": 4419,
  "fig": 4420,
  "weet ": 4421,
  " wait": 4422,
  "iron": 4423,
  " asleep": 4424,
  "ensi": 4425,
  "of what ": 4426,
  "polic": 4427,
  "mill": 4428,
  "le of the ": 4429,
  " or ": 4430,
  "raph": 4431,
  "Project": 4432,
  "repeated ": 4433,
  " and his ": 4434,
  "respon": 4435,
  "of it": 4436,
  "Hea": 4437,
  " thank": 4438,
  "lid": 4439,
  "he could ": 4440,
  "now, ": 4441,
  ",” said Caderousse": 4442,
  "must have ": 4443,
  "pot ": 4444,
  "brought": 4445,
  "ed you": 4446,
  ".”\\u000a\\u000a“I ": 4447,
  "husband ": 4448,
  "it would be ": 4449,
  "mot": 4450,
  "assin": 4451,
  "following ": 4452,
  "itten ": 4453,
  " things ": 4454,
  " sil": 4455,
  "cold ": 4456,
  "s would ": 4457,
  "ct ": 4458,
  "you do not ": 4459,
  "ing the s": 4460,
  "by his ": 4461,
  "high ": 4462,
  "etr": 4463,
  "cape": 4464,
  "ses ": 4465,
  "um ": 4466,
  "detail": 4467,
  "understood": 4468,
  "uppose ": 4469,
  "acul": 4470,
  "breakfast": 4471,
  "bag": 4472,
  " angry": 4473,
  "London": 4474,
  "Bened": 4475,
  "paragraph": 4476,
  "a\\u000a": 4477,
  "Doctor Jack": 4478,
  "eight": 4479,
  "cried the ": 4480,
  "obey": 4481,
  "word ": 4482,
  "business": 4483,
  "color": 4484,
  " those who ": 4485,
  "there ": 4486,
  "I see ": 4487,
  "does": 4488,
  "man, ": 4489,
  "Fernand ": 4490,
  " afr": 4491,
  "hether": 4492,
  "already ": 4493,
  "whel": 4494,
  "affair": 4495,
  "give me ": 4496,
  "completely ": 4497,
  ", sir, ": 4498,
  " make ": 4499,
  " twel": 4500,
  "alked ": 4501,
  " with a s": 4502,
  "grad": 4503,
  "confess": 4504,
  "solut": 4505,
  "of this": 4506,
  "in its ": 4507,
  "days ": 4508,
  "for a moment": 4509,
  "; his ": 4510,
  "Faria": 4511,
  "midd": 4512,
  "wind": 4513,
  "diamond": 4514,
  "compli": 4515,
  ".’ H": 4516,
  "Signor ": 4517,
  ". Thom": 4518,
  "Valentine, ": 4519,
  "\\u000athem": 4520,
  "he’d ": 4521,
  ". She\\u000a": 4522,
  " anyone ": 4523,
  "11": 4524,
  "Cham": 4525,
  "bas": 4526,
  "interrupt": 4527,
  "itation": 4528,
  "ure of ": 4529,
  "follow ": 4530,
  "ory ": 4531,
  "sent": 4532,
  " mad": 4533,
  "I am not ": 4534,
  "Certainly": 4535,
  "money ": 4536,
  "your w": 4537,
  "? H": 4538,
  " things": 4539,
  "made a ": 4540,
  "mission": 4541,
  "drink": 4542,
  "bran": 4543,
  "age, ": 4544,
  "isten": 4545,
  "clench": 4546,
  "forgotten": 4547,
  "of a s": 4548,
  "probably ": 4549,
  "suffici": 4550,
  "effect ": 4551,
  "free ": 4552,
  "agon": 4553,
  "rif": 4554,
  "ception": 4555,
  "unic": 4556,
  "ed towards the ": 4557,
  "e shall": 4558,
  "home": 4559,
  "govern": 4560,
  "ice, ": 4561,
  "ingu": 4562,
  "family ": 4563,
  "priv": 4564,
  ". He had ": 4565,
  "portion": 4566,
  "ter ": 4567,
  "dun": 4568,
  "for s": 4569,
  " at once ": 4570,
  "about ": 4571,
  "key ": 4572,
  "told ": 4573,
  " across the ": 4574,
  "Madame Danglars ": 4575,
  "emotional ": 4576,
  "Mina ": 4577,
  "in’": 4578,
  "THE ": 4579,
  "smile": 4580,
  ". He was": 4581,
  "ates": 4582,
  ".”\\u000a\\u000a“Then ": 4583,
  "Very ": 4584,
  "ed for ": 4585,
  "unable to ": 4586,
  ", for the ": 4587,
  "dark ": 4588,
  "door, ": 4589,
  "of your ": 4590,
  "mysteri": 4591,
  "s will ": 4592,
  "; it is ": 4593,
  "e ter": 4594,
  ",” he said, “": 4595,
  "hot ": 4596,
  "cast ": 4597,
  " mis": 4598,
  " these word": 4599,
  "ool": 4600,
  "seat": 4601,
  "pity": 4602,
  " whose ": 4603,
  "overwhel": 4604,
  " already": 4605,
  "know what ": 4606,
  " as well": 4607,
  "Th": 4608,
  "clin": 4609,
  "itself": 4610,
  "; then ": 4611,
  "caution": 4612,
  "umbl": 4613,
  ". St": 4614,
  "went ": 4615,
  "nest": 4616,
  "ible ": 4617,
  "bon": 4618,
  "ball": 4619,
  "I am s": 4620,
  "In the ": 4621,
  "happened": 4622,
  "water": 4623,
  "receive ": 4624,
  "Jac": 4625,
  "sy": 4626,
  "ed towards ": 4627,
  " the sun": 4628,
  "church": 4629,
  "ano": 4630,
  "nific": 4631,
  "ing them": 4632,
  "& ": 4633,
  "’ve ": 4634,
  "Archi": 4635,
  "e the\\u000a": 4636,
  "you\\u000a": 4637,
  " at\\u000a": 4638,
  "Mrs. Hark": 4639,
  ", which he ": 4640,
  "hen the ": 4641,
  "I think": 4642,
  "I told ": 4643,
  "agre": 4644,
  "rubb": 4645,
  "happiness": 4646,
  "I cannot ": 4647,
  " travell": 4648,
  " such a ": 4649,
  "raised his ": 4650,
  "mile ": 4651,
  " an ex": 4652,
  "Do not ": 4653,
  "I want": 4654,
  " arrest": 4655,
  "instinct": 4656,
  "straight": 4657,
  "intellig": 4658,
  ", at the ": 4659,
  "brilli": 4660,
  "gather": 4661,
  "s to the ": 4662,
  "further ": 4663,
  "persons ": 4664,
  "project": 4665,
  "sus": 4666,
  "inj": 4667,
  "atic": 4668,
  "ates ": 4669,
  "bitter": 4670,
  "Louis ": 4671,
  ", would ": 4672,
  "have you ": 4673,
  "e sh": 4674,
  "kiss": 4675,
  "studi": 4676,
  "ird ": 4677,
  "bent ": 4678,
  "pear": 4679,
  "room, ": 4680,
  "knock": 4681,
  "could be ": 4682,
  "carry": 4683,
  "dunge": 4684,
  "; it was ": 4685,
  "in the s": 4686,
  "have a ": 4687,
  "ively": 4688,
  "ety ": 4689,
  "prepar": 4690,
  "different": 4691,
  "ber of ": 4692,
  " than the ": 4693,
  "fashion": 4694,
  "Rom": 4695,
  "care ": 4696,
  "ular ": 4697,
  "Count of Monte Cristo ": 4698,
  "notary": 4699,
  "d’Avrigny": 4700,
  "cage ": 4701,
  "bes": 4702,
  " of s": 4703,
  " mov": 4704,
  "Dantès, ": 4705,
  "impati": 4706,
  "requ": 4707,
  "ing for ": 4708,
  "e my": 4709,
  "pray ": 4710,
  "clam": 4711,
  "s on": 4712,
  "ed m": 4713,
  "e this": 4714,
  "chanc": 4715,
  " times": 4716,
  " at the same tim": 4717,
  "him the ": 4718,
  "gon": 4719,
  " as we ": 4720,
  "chec": 4721,
  "restor": 4722,
  "prove ": 4723,
  "loud": 4724,
  "pract": 4725,
  "dign": 4726,
  "ally, ": 4727,
  "s his ": 4728,
  "previous ": 4729,
  "station": 4730,
  ". No ": 4731,
  "indeed": 4732,
  "meet ": 4733,
  " to her": 4734,
  "alone": 4735,
  "ism": 4736,
  " trans": 4737,
  " a sh": 4738,
  "iction": 4739,
  " admir": 4740,
  "stood": 4741,
  "soon ": 4742,
  "bolt": 4743,
  "escape": 4744,
  "”\\u000a\\u000a": 4745,
  " most ": 4746,
  "beyond": 4747,
  "; s": 4748,
  " apartment": 4749,
  "prepared ": 4750,
  "Franz, “": 4751,
  "drawing-room": 4752,
  ".’ He ": 4753,
  "aptist": 4754,
  "-perio": 4755,
  " as\\u000a": 4756,
  ". The\\u000a": 4757,
  "’s\\u000a": 4758,
  "Cassie’s ": 4759,
  "thor": 4760,
  "ON": 4761,
  "* ": 4762,
  "Con": 4763,
  "hir": 4764,
  "Isl": 4765,
  "th of ": 4766,
  "From": 4767,
  "urg": 4768,
  "03": 4769,
  " await": 4770,
  "quired the ": 4771,
  " all s": 4772,
  "compos": 4773,
  "expected ": 4774,
  "dropp": 4775,
  "inquir": 4776,
  "my father": 4777,
  "visit ": 4778,
  "rong": 4779,
  "lemn": 4780,
  " tomorrow": 4781,
  " murmured ": 4782,
  "wher": 4783,
  " they had ": 4784,
  "deal": 4785,
  "; so ": 4786,
  "gentleman": 4787,
  "sens": 4788,
  ", whom ": 4789,
  "plen": 4790,
  "You are ": 4791,
  "French ": 4792,
  "sty": 4793,
  "ung ": 4794,
  "la": 4795,
  "mir": 4796,
  " all his ": 4797,
  "mel": 4798,
  "opl": 4799,
  "story ": 4800,
  "uppos": 4801,
  "Ther": 4802,
  "-in-": 4803,
  " much ": 4804,
  ". Oh, ": 4805,
  "gend": 4806,
  "he had been ": 4807,
  ", and was ": 4808,
  "edi": 4809,
  "arm ": 4810,
  "president": 4811,
  "corp": 4812,
  "horror": 4813,
  "horri": 4814,
  " well": 4815,
  "ror ": 4816,
  ". There was ": 4817,
  "indeed ": 4818,
  " something": 4819,
  "study ": 4820,
  "count, ": 4821,
  ",” said Andrea": 4822,
  "S ": 4823,
  "Ro": 4824,
  "Island of ": 4825,
  "another": 4826,
  "side the ": 4827,
  "is it ": 4828,
  "latter": 4829,
  ". After": 4830,
  "perform": 4831,
  "s of a ": 4832,
  "whom ": 4833,
  "you say": 4834,
  "ane": 4835,
  " the two ": 4836,
  "future ": 4837,
  "oney": 4838,
  " added ": 4839,
  " astonishment": 4840,
  " along the ": 4841,
  "stead": 4842,
  "his hand": 4843,
  "It is": 4844,
  "Bon": 4845,
  "compre": 4846,
  "ed.\\u000a\\u000a": 4847,
  "perfect ": 4848,
  "ities ": 4849,
  "ech": 4850,
  "hours": 4851,
  "antly ": 4852,
  "see the ": 4853,
  "pron": 4854,
  "ame, ": 4855,
  "counter": 4856,
  "ituation ": 4857,
  " would be ": 4858,
  "late": 4859,
  "houlder": 4860,
  "; but the ": 4861,
  " tast": 4862,
  "began ": 4863,
  " at least": 4864,
  "weak": 4865,
  "ly to ": 4866,
  "devil": 4867,
  "educ": 4868,
  "e then": 4869,
  "’ll ": 4870,
  "d’Épinay": 4871,
  "Teres": 4872,
  ", \"": 4873,
  "'s": 4874,
  " was\\u000a": 4875,
  "T ": 4876,
  "Italian": 4877,
  "Rome": 4878,
  " alway": 4879,
  "peculiar": 4880,
  "would have ": 4881,
  ", while the ": 4882,
  "gle": 4883,
  "ence of the ": 4884,
  ".”\\u000a\\u000a“Yes, ": 4885,
  "grasp": 4886,
  "nothing to ": 4887,
  "empty ": 4888,
  "bless": 4889,
  "brac": 4890,
  ", that the ": 4891,
  "origin": 4892,
  "yourself ": 4893,
  "disappeared ": 4894,
  "pity ": 4895,
  "restrain": 4896,
  "iment": 4897,
  "ively ": 4898,
  "paper ": 4899,
  "entertain": 4900,
  "e who": 4901,
  "selves": 4902,
  "excellent ": 4903,
  "feeling of ": 4904,
  " a sort of ": 4905,
  " attent": 4906,
  "cheer": 4907,
  " art": 4908,
  "asked ": 4909,
  "peopl": 4910,
  "period": 4911,
  "perhaps, ": 4912,
  "other s": 4913,
  "frequently ": 4914,
  "attend": 4915,
  "chos": 4916,
  ". Thes": 4917,
  ", sh": 4918,
  "he spok": 4919,
  "impossible": 4920,
  "inf": 4921,
  "ings": 4922,
  "fight ": 4923,
  "Luci": 4924,
  "major": 4925,
  "copyright ": 4926,
  "!\\u000a": 4927,
  "I’m ": 4928,
  "Lord Godal": 4929,
  "!\" ": 4930,
  "Mrs. Hall": 4931,
  "re-": 4932,
  "OU": 4933,
  "Catal": 4934,
  "25": 4935,
  ". To": 4936,
  "immediately": 4937,
  "occurred": 4938,
  " that was ": 4939,
  "has not ": 4940,
  "give you": 4941,
  "pad": 4942,
  "lly ": 4943,
  " two or": 4944,
  " alon": 4945,
  "pleasure ": 4946,
  "opinion": 4947,
  "he went ": 4948,
  "ue": 4949,
  "edd": 4950,
  "ption": 4951,
  "keeper": 4952,
  "pale": 4953,
  "exha": 4954,
  "his head": 4955,
  ", as the ": 4956,
  "pretty ": 4957,
  "whil": 4958,
  "communic": 4959,
  "magistr": 4960,
  "ympath": 4961,
  "state ": 4962,
  " awar": 4963,
  "Pal": 4964,
  "rig": 4965,
  "success": 4966,
  "fat": 4967,
  "doctor ": 4968,
  "ations ": 4969,
  "ed your ": 4970,
  "proof": 4971,
  ", without": 4972,
  "ting": 4973,
  "es in the ": 4974,
  "onor": 4975,
  "month": 4976,
  " try to ": 4977,
  "itud": 4978,
  "erg": 4979,
  "e a ": 4980,
  "hill": 4981,
  ". Mor": 4982,
  "M. de Morcerf": 4983,
  ",” said Beauchamp": 4984,
  "Barrois": 4985,
  ";\\u000a": 4986,
  "Vo": 4987,
  "Quincey ": 4988,
  "Yan": 4989,
  "jump": 4990,
  ", to": 4991,
  "top": 4992,
  "for it": 4993,
  "El": 4994,
  ". Dantès ": 4995,
  "e such": 4996,
  "bt": 4997,
  "nodd": 4998,
  "many": 4999
}