{
  "\\u0000": 0,
  "\\u0001": 1,
  "\\u0002": 2,
  "\\u0003": 3,
  "\\u0004": 4,
  "\\u0005": 5,
  "\\u0006": 6,
  "\\u0007": 7,
  "\\u0008": 8,
  "\\u0009": 9,
  "\\u000a": 10,
  "\\u000b": 11,
  "\\u000c": 12,
  "\\u000d": 13,
  "\\u000e": 14,
  "\\u000f": 15,
  "\\u0010": 16,
  "\\u0011": 17,
  "\\u0012": 18,
  "\\u0013": 19,
  "\\u0014": 20,
  "\\u0015": 21,
  "\\u0016": 22,
  "\\u0017": 23,
  "\\u0018": 24,
  "\\u0019": 25,
  "\\u001a": 26,
  "\\u001b": 27,
  "\\u001c": 28,
  "\\u001d": 29,
  "\\u001e": 30,
  "\\u001f": 31,
  " ": 32,
  "!": 33,
  "\"": 34,
  "#": 35,
  "$": 36,
  "%": 37,
  "&": 38,
  "'": 39,
  "(": 40,
  ")": 41,
  "*": 42,
  "+": 43,
  ",": 44,
  "-": 45,
  ".": 46,
  "/": 47,
  "0": 48,
  "1": 49,
  "2": 50,
  "3": 51,
  "4": 52,
  "5": 53,
  "6": 54,
  "7": 55,
  "8": 56,
  "9": 57,
  ":": 58,
  ";": 59,
  "<": 60,
  "=": 61,
  ">": 62,
  "?": 63,
  "@": 64,
  "A": 65,
  "B": 66,
  "C": 67,
  "D": 68,
  "E": 69,
  "F": 70,
  "G": 71,
  "H": 72,
  "I": 73,
  "J": 74,
  "K": 75,
  "L": 76,
  "M": 77,
  "N": 78,
  "O": 79,
  "P": 80,
  "Q": 81,
  "R": 82,
  "S": 83,
  "T": 84,
  "U": 85,
  "V": 86,
  "W": 87,
  "X": 88,
  "Y": 89,
  "Z": 90,
  "[": 91,
  "\\": 92,
  "]": 93,
  "^": 94,
  "_": 95,
  "`": 96,
  "a": 97,
  "b": 98,
  "c": 99,
  "d": 100,
  "e": 101,
  "f": 102,
  "g": 103,
  "h": 104,
  "i": 105,
  "j": 106,
  "k": 107,
  "l": 108,
  "m": 109,
  "n": 110,
  "o": 111,
  "p": 112,
  "q": 113,
  "r": 114,
  "s": 115,
  "t": 116,
  "u": 117,
  "v": 118,
  "w": 119,
  "x": 120,
  "y": 121,
  "z": 122,
  "{": 123,
  "|": 124,
  "}": 125,
  "~": 126,
  "\\u007f": 127,
  "\\x80": 128,
  "\\x81": 129,
  "\\x82": 130,
  "\\x83": 131,
  "\\x84": 132,
  "\\x85": 133,
  "\\x86": 134,
  "\\x87": 135,
  "\\x88": 136,
  "\\x89": 137,
  "\\x8a": 138,
  "\\x8b": 139,
  "\\x8c": 140,
  "\\x8d": 141,
  "\\x8e": 142,
  "\\x8f": 143,
  "\\x90": 144,
  "\\x91": 145,
  "\\x92": 146,
  "\\x93": 147,
  "\\x94": 148,
  "\\x95": 149,
  "\\x96": 150,
  "\\x97": 151,
  "\\x98": 152,
  "\\x99": 153,
  "\\x9a": 154,
  "\\x9b": 155,
  "\\x9c": 156,
  "\\x9d": 157,
  "\\x9e": 158,
  "\\x9f": 159,
  " ": 160,
  "¡": 161,
  "¢": 162,
  "£": 163,
  "¤": 164,
  "¥": 165,
  "¦": 166,
  "§": 167,
  "¨": 168,
  "©": 169,
  "ª": 170,
  "«": 171,
  "¬": 172,
  "\\xad": 173,
  "®": 174,
  "¯": 175,
  "°": 176,
  "±": 177,
  "²": 178,
  "³": 179,
  "´": 180,
  "µ": 181,
  "¶": 182,
  "·": 183,
  "¸": 184,
  "¹": 185,
  "º": 186,
  "»": 187,
  "¼": 188,
  "½": 189,
  "¾": 190,
  "¿": 191,
  "À": 192,
  "Á": 193,
  "Â": 194,
  "Ã": 195,
  "Ä": 196,
  "Å": 197,
  "Æ": 198,
  "Ç": 199,
  "È": 200,
  "É": 3160,
  "Ê": 202,
  "Ë": 203,
  "Ì": 204,
  "Í": 205,
  "Î": 206,
  "Ï": 207,
  "Ð": 208,
  "Ñ": 209,
  "Ò": 210,
  "Ó": 211,
  "Ô": 212,
  "Õ": 213,
  "Ö": 214,
  "×": 215,
  "Ø": 216,
  "Ù": 217,
  "Ú": 218,
  "Û": 219,
  "Ü": 220,
  "Ý": 221,
  "Þ": 222,
  "ß": 223,
  "à": 224,
  "á": 225,
  "â": 2119,
  "ã": 227,
  "ä": 228,
  "å": 229,
  "æ": 6317,
  "ç": 231,
  "è": 754,
  "é": 659,
  "ê": 234,
  "ë": 235,
  "ì": 236,
  "í": 237,
  "î": 238,
  "ï": 239,
  "ð": 240,
  "ñ": 241,
  "ò": 242,
  "ó": 243,
  "ô": 7541,
  "õ": 245,
  "ö": 246,
  "÷": 247,
  "ø": 248,
  "ù": 249,
  "ú": 250,
  "û": 251,
  "ü": 252,
  "ý": 253,
  "þ": 254,
  "ÿ": 255,
  "e ": 256,
  " t": 257,
  " a": 258,
  " th": 259,
  "in": 260,
  "d ": 261,
  "er": 262,
  "s ": 263,
  "t ": 264,
  "�": 265,
  "ou": 266,
  " the ": 267,
  ", ": 268,
  "on": 269,
  "en": 270,
  "an": 271,
  "or": 272,
  "th": 273,
  "re": 274,
  "o ": 275,
  "y ": 276,
  " an": 277,
  "ing": 278,
  "of": 279,
  ". ": 280,
  "ha": 281,
  "ll": 282,
  "st": 283,
  "\\u000a\\u000a": 284,
  "hi": 285,
  "ar": 286,
  "ed": 287,
  "ed ": 288,
  " s": 289,
  "he ": 290,
  "at": 291,
  " w": 292,
  "es": 293,
  "“": 294,
  "om": 295,
  "”": 296,
  "  ": 297,
  " and ": 298,
  "it": 299,
  " to ": 300,
  "is": 301,
  "you": 302,
  "ow": 303,
  "er ": 304,
  "ch": 305,
  "of ": 306,
  "as": 307,
  "el": 308,
  "for": 309,
  " a ": 310,
  "ing ": 311,
  "\\u000a\\u000a“": 312,
  "al": 313,
  "ri": 314,
  "le": 315,
  "gh": 316,
  "I ": 317,
  "ve ": 318,
  "ith": 319,
  "at ": 320,
  "li": 321,
  "ion": 322,
  "be": 323,
  "no": 324,
  "his ": 325,
  "ent": 326,
  "ai": 327,
  "ur": 328,
  " m": 329,
  "is ": 330,
  "se": 331,
  "’": 332,
  ", and ": 333,
  "wa": 334,
  "ac": 335,
  "    ": 336,
  "em": 337,
  "ro": 338,
  "ad": 339,
  "us": 340,
  " to": 341,
  "”\\u000a\\u000a“": 342,
  "un": 343,
  "ir": 344,
  "ll ": 345,
  "ic": 346,
  "in ": 347,
  "en ": 348,
  "ver": 349,
  " that ": 350,
  "le ": 351,
  "with": 352,
  "de": 353,
  "ere ": 354,
  "lo": 355,
  "am": 356,
  "he": 357,
  "ld ": 358,
  " and": 359,
  "ut": 360,
  "it ": 361,
  "oun": 362,
  "wh": 363,
  "im": 364,
  "of the ": 365,
  "him": 366,
  "and": 367,
  "e th": 368,
  "ly ": 369,
  "ec": 370,
  "e, ": 371,
  "po": 372,
  "di": 373,
  "had ": 374,
  "si": 375,
  "; ": 376,
  "have ": 377,
  ".\\u000a": 378,
  "con": 379,
  "was ": 380,
  "ly": 381,
  "fr": 382,
  "—": 383,
  "ain": 384,
  "ter": 385,
  "ex": 386,
  "es ": 387,
  "ut ": 388,
  ". T": 389,
  "e t": 390,
  ".”\\u000a\\u000a“": 391,
  "ould ": 392,
  "not ": 393,
  " the": 394,
  "ra": 395,
  "pp": 396,
  "her ": 397,
  ",”": 398,
  "ill": 399,
  "ak": 400,
  "hich": 401,
  "res": 402,
  "com": 403,
  "you ": 404,
  "her": 405,
  "an ": 406,
  "and ": 407,
  "be ": 408,
  "et": 409,
  ".\\u000a\\u000a": 410,
  "k ": 411,
  "if": 412,
  "ca": 413,
  " sai": 414,
  "up": 415,
  "our": 416,
  " as ": 417,
  "qu": 418,
  "ce": 419,
  "ay": 420,
  "        ": 421,
  "ght": 422,
  "il": 423,
  "s, ": 424,
  "from": 425,
  "now": 426,
  " ar": 427,
  ", and": 428,
  "or ": 429,
  "oo": 430,
  "per": 431,
  "ul": 432,
  "in the ": 433,
  "fe": 434,
  "der": 435,
  " as": 436,
  "my ": 437,
  "ag": 438,
  "ne": 439,
  "on ": 440,
  "op": 441,
  "as ": 442,
  "int": 443,
  "one ": 444,
  " at": 445,
  "ess": 446,
  "ant": 447,
  "ther": 448,
  ".\\u000a\\u000a“": 449,
  "se ": 450,
  "ab": 451,
  "ent ": 452,
  "ed the ": 453,
  "do": 454,
  ",\\u000a": 455,
  "su": 456,
  "all": 457,
  " this ": 458,
  "but ": 459,
  "ation": 460,
  "your": 461,
  "ght ": 462,
  ". I": 463,
  "a ": 464,
  "sel": 465,
  "ang": 466,
  "ce ": 467,
  "mo": 468,
  "pl": 469,
  "ell": 470,
  "ol": 471,
  "for ": 472,
  "ard": 473,
  "id": 474,
  "hat ": 475,
  "which": 476,
  "ill ": 477,
  "ed to ": 478,
  "was": 479,
  "ish": 480,
  "she ": 481,
  "ect": 482,
  "me": 483,
  "ev": 484,
  "ea": 485,
  "ep": 486,
  ". H": 487,
  " said ": 488,
  " with": 489,
  "not": 490,
  "ay ": 491,
  " at ": 492,
  "man": 493,
  "own": 494,
  "self": 495,
  "ong": 496,
  " to the ": 497,
  "‘": 498,
  "’s ": 499,
  "al ": 500,
  "bo": 501,
  "st ": 502,
  "ear": 503,
  "end": 504,
  "out": 505,
  " that": 506,
  "the ": 507,
  "?”\\u000a\\u000a“": 508,
  "um": 509,
  "str": 510,
  "pt": 511,
  "with ": 512,
  ". The ": 513,
  "know": 514,
  "out ": 515,
  "ame ": 516,
  ", the ": 517,
  "rep": 518,
  "uc": 519,
  "co": 520,
  "ough": 521,
  "on the ": 522,
  ", s": 523,
  ".”": 524,
  "by": 525,
  " was ": 526,
  "e to ": 527,
  "urn": 528,
  "were ": 529,
  ", “": 530,
  "An": 531,
  "ind": 532,
  "coun": 533,
  " al": 534,
  "ous": 535,
  " all": 536,
  "go": 537,
  "by ": 538,
  "sp": 539,
  "pro": 540,
  "The ": 541,
  " a s": 542,
  "sh": 543,
  "wor": 544,
  "ey": 545,
  "mor": 546,
  "est": 547,
  "loo": 548,
  "e the ": 549,
  "ber": 550,
  "your ": 551,
  "ast": 552,
  "art": 553,
  "ff": 554,
  "red": 555,
  "de ": 556,
  "pr": 557,
  "ust ": 558,
  "ret": 559,
  "we ": 560,
  " of ": 561,
  "ever": 562,
  "ome ": 563,
  ". S": 564,
  " he ": 565,
  "me ": 566,
  " an ": 567,
  "lik": 568,
  "ed, ": 569,
  "do ": 570,
  "ct": 571,
  " ag": 572,
  "had": 573,
  " are ": 574,
  "ld": 575,
  "e\\u000a": 576,
  "s of ": 577,
  "no ": 578,
  "y, ": 579,
  "ran": 580,
  "cl": 581,
  "av": 582,
  " the s": 583,
  "iv": 584,
  " am": 585,
  "but": 586,
  "gr": 587,
  " them": 588,
  "es, ": 589,
  "ch ": 590,
  "et ": 591,
  "pos": 592,
  "                ": 593,
  ",” said ": 594,
  "te ": 595,
  " wh": 596,
  "ack": 597,
  "ound": 598,
  "so ": 599,
  "ig": 600,
  ", th": 601,
  "I w": 602,
  "ive ": 603,
  "fort": 604,
  "bl": 605,
  "who ": 606,
  "so": 607,
  ". A": 608,
  "ther ": 609,
  "could ": 610,
  "ust": 611,
  "dis": 612,
  "ck": 613,
  "pres": 614,
  "w ": 615,
  "hand": 616,
  " ab": 617,
  "from ": 618,
  "cont": 619,
  "count": 620,
  "I s": 621,
  "our ": 622,
  "ing the ": 623,
  "You": 624,
  "itt": 625,
  "its ": 626,
  "fac": 627,
  "ow ": 628,
  "\"\\u000a\\u000a": 629,
  "ain ": 630,
  "?”": 631,
  "off": 632,
  " they ": 633,
  "to ": 634,
  "would ": 635,
  " my ": 636,
  "anc": 637,
  "sai": 638,
  "red ": 639,
  "we": 640,
  " which": 641,
  "ass": 642,
  "hat": 643,
  "tion": 644,
  "gre": 645,
  ". W": 646,
  "rem": 647,
  "has ": 648,
  "look": 649,
  "his": 650,
  " ac": 651,
  "ake ": 652,
  ",” ": 653,
  "ight": 654,
  " tim": 655,
  "mad": 656,
  " their": 657,
  "Th": 658,
  "clo": 660,
  "? ": 661,
  "har": 662,
  "No": 663,
  "ble ": 664,
  "Mor": 665,
  "br": 666,
  ". I ": 667,
  "under": 668,
  "ar ": 669,
  "which ": 670,
  "'s ": 671,
  "ath": 672,
  "ist": 673,
  "over": 674,
  "ud": 675,
  ". He ": 676,
  "Mon": 677,
  "way": 678,
  " said": 679,
  "read": 680,
  " at the ": 681,
  "long": 682,
  "! ": 683,
  "rist": 684,
  "lar": 685,
  "ful": 686,
  "ing to ": 687,
  "ess ": 688,
  "able ": 689,
  "us ": 690,
  "00": 691,
  "car": 692,
  "ese ": 693,
  "other": 694,
  "into": 695,
  "ous ": 696,
  "e of ": 697,
  ".”\\u000a\\u000a": 698,
  "ight ": 699,
  "ob": 700,
  "fir": 701,
  "comp": 702,
  "if ": 703,
  "befor": 704,
  "ome": 705,
  "gl": 706,
  "ound ": 707,
  ". B": 708,
  "day": 709,
  "ort": 710,
  " tw": 711,
  "rel": 712,
  "erv": 713,
  "down": 714,
  "’ ": 715,
  "fri": 716,
  "can": 717,
  "ci": 718,
  "mon": 719,
  " the\\u000a": 720,
  "Monte ": 721,
  "who": 722,
  "Monte C": 723,
  "Monte Crist": 724,
  "very ": 725,
  "\\u000a\\u000a\\u000a\\u000a": 726,
  "des": 727,
  ",\"": 728,
  "ille": 729,
  "fa": 730,
  "cer": 731,
  " app": 732,
  " tr": 733,
  "ft": 734,
  "what ": 735,
  "ad ": 736,
  "did ": 737,
  "been ": 738,
  "like ": 739,
  " she ": 740,
  "Ville": 741,
  "And ": 742,
  "s\\u000a": 743,
  "air": 744,
  "repli": 745,
  "fin": 746,
  "ould": 747,
  "ast ": 748,
  "plac": 749,
  "ver ": 750,
  " again": 751,
  "ion ": 752,
  "from the ": 753,
  "whi": 755,
  ". Th": 756,
  "room": 757,
  " ad": 758,
  "him ": 759,
  " all ": 760,
  ", but ": 761,
  "ed\\u000a": 762,
  "\"\\u000a\\u000a\"": 763,
  " se": 764,
  "ure ": 765,
  "aw": 766,
  "pe": 767,
  "ave ": 768,
  "M. ": 769,
  "will ": 770,
  "mu": 771,
  "!”": 772,
  " there ": 773,
  "by the ": 774,
  "ark": 775,
  "rough": 776,
  "thing": 777,
  "open": 778,
  "I have ": 779,
  "ach": 780,
  "ate ": 781,
  "form": 782,
  "tt": 783,
  "n ": 784,
  "thing ": 785,
  "been": 786,
  " a m": 787,
  "I am": 788,
  "; “": 789,
  "enc": 790,
  "emo": 791,
  " me": 792,
  " their ": 793,
  "ull": 794,
  "fl": 795,
  "e to": 796,
  "ater": 797,
  "cr": 798,
  "ink": 799,
  ", as ": 800,
  "said": 801,
  "himself": 802,
  "ally ": 803,
  "of s": 804,
  "t of ": 805,
  "only ": 806,
  "you w": 807,
  "vo": 808,
  "one": 809,
  "Dang": 810,
  "my": 811,
  "th ": 812,
  "Danglar": 813,
  "Mad": 814,
  "ge ": 815,
  "cor": 816,
  "ence ": 817,
  "ng": 818,
  "vis": 819,
  "most ": 820,
  " with ": 821,
  "ely ": 822,
  "pass": 823,
  "vi": 824,
  "hor": 825,
  "young": 826,
  "llow": 827,
  "fo": 828,
  "\\u000athe ": 829,
  "return": 830,
  "back": 831,
  "aut": 832,
  "ho": 833,
  " we ": 834,
  "seem": 835,
  "ood ": 836,
  "are ": 837,
  "h, ": 838,
  "Al": 839,
  " said the ": 840,
  "door": 841,
  "for the ": 842,
  "cri": 843,
  " these ": 844,
  "fter": 845,
  "ed his ": 846,
  "ity": 847,
  "ite ": 848,
  "s and ": 849,
  "in a ": 850,
  "cre": 851,
  "old": 852,
  "ant ": 853,
  "to": 854,
  "bel": 855,
  "fi": 856,
  "est ": 857,
  "more ": 858,
  "ood": 859,
  "ure": 860,
  "ment": 861,
  "some ": 862,
  ". It ": 863,
  "litt": 864,
  " this": 865,
  " att": 866,
  "ple": 867,
  " ask": 868,
  "pre": 869,
  ". She ": 870,
  "'t ": 871,
  "en, ": 872,
  ". “": 873,
  " any ": 874,
  "part": 875,
  "f ": 876,
  "au": 877,
  "assi": 878,
  "when ": 879,
  "app": 880,
  "gn": 881,
  ", he ": 882,
  "\\u000ath": 883,
  "hear": 884,
  "may ": 885,
  "hou": 886,
  "ge": 887,
  "chi": 888,
  "min": 889,
  "must ": 890,
  "hall ": 891,
  "ated ": 892,
  "of a ": 893,
  "how": 894,
  " too": 895,
  "e that ": 896,
  "can ": 897,
  ", that ": 898,
  "dre": 899,
  "use ": 900,
  "came ": 901,
  "other ": 902,
  "sw": 903,
  "en the ": 904,
  "ank": 905,
  "bre": 906,
  "tain": 907,
  "ect ": 908,
  "ing, ": 909,
  "ail": 910,
  "’t ": 911,
  ", and the ": 912,
  "bet": 913,
  "beg": 914,
  "Morrel": 915,
  " wor": 916,
  "\\u000a“": 917,
  "made ": 918,
  "ance ": 919,
  "head": 920,
  "let": 921,
  "ke": 922,
  "hel": 923,
  "ity ": 924,
  "Fran": 925,
  "s to ": 926,
  "before ": 927,
  "feel": 928,
  "ick": 929,
  "Dant": 930,
  "He ": 931,
  "It ": 932,
  "into ": 933,
  "Dantè": 934,
  "son": 935,
  "ose ": 936,
  "s the ": 937,
  "little ": 938,
  "cha": 939,
  "happ": 940,
  "gu": 941,
  "light": 942,
  "m ": 943,
  "qui": 944,
  "end ": 945,
  "par": 946,
  "Villefort": 947,
  "press": 948,
  "with the ": 949,
  " through": 950,
  "friend": 951,
  "Alber": 952,
  "ble": 953,
  "Cassi": 954,
  "ine ": 955,
  " was": 956,
  "s, and ": 957,
  "Monte Cristo": 958,
  "inter": 959,
  "ree ": 960,
  "s of the ": 961,
  "ap": 962,
  " turn": 963,
  "where ": 964,
  "fel": 965,
  "come ": 966,
  "unt": 967,
  "ug": 968,
  "ought ": 969,
  "ere": 970,
  "even": 971,
  "ve": 972,
  "Wh": 973,
  "ought": 974,
  "alent": 975,
  "ing s": 976,
  "ation ": 977,
  "den": 978,
  "s of": 979,
  "cas": 980,
  "ely": 981,
  "into the ": 982,
  "ack ": 983,
  "serv": 984,
  " two ": 985,
  "ide": 986,
  "don": 987,
  "In": 988,
  "ice ": 989,
  "imp": 990,
  "ef": 991,
  "ptain ": 992,
  "                                ": 993,
  "ew": 994,
  "autil": 995,
  "Valent": 996,
  "oward": 997,
  "dist": 998,
  ".’": 999,
  "Nautil": 1000,
  ", I ": 1001,
  "eng": 1002,
  "iz": 1003,
  "ti": 1004,
  ".” ": 1005,
  ", who ": 1006,
  "med": 1007,
  "Yes": 1008,
  " man": 1009,
  " which ": 1010,
  "und": 1011,
  "p ": 1012,
  "inst": 1013,
  "father": 1014,
  "; but ": 1015,
  "it is ": 1016,
  "ed and ": 1017,
  "ed a ": 1018,
  "cur": 1019,
  "it was ": 1020,
  "in his ": 1021,
  "ing\\u000a": 1022,
  "Ca": 1023,
  "say": 1024,
  "hal": 1025,
  "in s": 1026,
  "Con": 1027,
  "Well": 1028,
  "old ": 1029,
  "riv": 1030,
  "But ": 1031,
  ",” repli": 1032,
  "pleas": 1033,
  "well": 1034,
  ". \"": 1035,
  "atch": 1036,
  "ed by ": 1037,
  "act": 1038,
  "; and ": 1039,
  "att": 1040,
  "enter": 1041,
  "ref": 1042,
  "hav": 1043,
  "ed her ": 1044,
  "pris": 1045,
  " tak": 1046,
  " any": 1047,
  "did": 1048,
  "ed to": 1049,
  "ger": 1050,
  " te": 1051,
  "Go": 1052,
  ", a ": 1053,
  "see ": 1054,
  "way ": 1055,
  ".\"\\u000a\\u000a\"": 1056,
  "e, and ": 1057,
  "sur": 1058,
  "Mr": 1059,
  "pi": 1060,
  " to be ": 1061,
  "ush": 1062,
  "call": 1063,
  ",” said the ": 1064,
  "he had ": 1065,
  "re ": 1066,
  " that the ": 1067,
  "while ": 1068,
  "You ": 1069,
  "itu": 1070,
  "Franz": 1071,
  "age ": 1072,
  " what ": 1073,
  "oc": 1074,
  "ness": 1075,
  "ence": 1076,
  ".\\u000a\\u000a\"": 1077,
  "follow": 1078,
  "all ": 1079,
  " after": 1080,
  "right": 1081,
  "kne": 1082,
  "ition": 1083,
  "ph": 1084,
  "some": 1085,
  "underst": 1086,
  "just ": 1087,
  "night": 1088,
  ".\\u000a‘": 1089,
  "ed with": 1090,
  "ing his ": 1091,
  " about": 1092,
  "ext": 1093,
  "ax": 1094,
  "pect": 1095,
  "Madame ": 1096,
  "vel": 1097,
  "own ": 1098,
  "ili": 1099,
  "Captain ": 1100,
  " then": 1101,
  "mer": 1102,
  "give ": 1103,
  "ower": 1104,
  "dra": 1105,
  "ffer": 1106,
  "that ": 1107,
  " toward": 1108,
  "sm": 1109,
  "ru": 1110,
  " a w": 1111,
  "make ": 1112,
  "let ": 1113,
  ". O": 1114,
  "get": 1115,
  "What ": 1116,
  "first ": 1117,
  "I am ": 1118,
  "bod": 1119,
  " then ": 1120,
  ", sir": 1121,
  "eyes ": 1122,
  "s were ": 1123,
  "contin": 1124,
  " and the ": 1125,
  "he\\u000a": 1126,
  "mar": 1127,
  ",—": 1128,
  " so ": 1129,
  "dou": 1130,
  "bar": 1131,
  "beli": 1132,
  "opp": 1133,
  "jo": 1134,
  "ed with ": 1135,
  "ry": 1136,
  "just": 1137,
  "day ": 1138,
  "ener": 1139,
  "leep": 1140,
  "you have ": 1141,
  "only": 1142,
  "ign": 1143,
  "eas": 1144,
  "ult": 1145,
  "spe": 1146,
  "inc": 1147,
  "oment": 1148,
  ". ‘": 1149,
  "up ": 1150,
  "Cassie ": 1151,
  "when": 1152,
  "alk": 1153,
  "exce": 1154,
  "face ": 1155,
  "of his ": 1156,
  "ink ": 1157,
  "know ": 1158,
  "comm": 1159,
  "carri": 1160,
  "emotion": 1161,
  "sub": 1162,
  "Coun": 1163,
  "clos": 1164,
  "hap": 1165,
  "strang": 1166,
  "ary ": 1167,
  "possi": 1168,
  "hour": 1169,
  "I was ": 1170,
  "ren": 1171,
  "ook": 1172,
  "Conse": 1173,
  "year": 1174,
  "do not ": 1175,
  "stor": 1176,
  "wo ": 1177,
  "able": 1178,
  "ine": 1179,
  "ish ": 1180,
  "giv": 1181,
  "could": 1182,
  "fortun": 1183,
  "person": 1184,
  " think": 1185,
  "ros": 1186,
  "ful ": 1187,
  "ary": 1188,
  "n't ": 1189,
  "every": 1190,
  "did not ": 1191,
  " take ": 1192,
  "hop": 1193,
  "My ": 1194,
  "ject": 1195,
  "ed, and ": 1196,
  "ed him": 1197,
  "sl": 1198,
  "now ": 1199,
  "ise ": 1200,
  "\\u000a\\u000a\\u000c": 1201,
  "much": 1202,
  "ster": 1203,
  "aint": 1204,
  "word": 1205,
  "ic ": 1206,
  ",\" ": 1207,
  ". But ": 1208,
  " time ": 1209,
  "still ": 1210,
  "here ": 1211,
  " who ": 1212,
  " su": 1213,
  "del": 1214,
  "Conseil": 1215,
  "continu": 1216,
  "Albert": 1217,
  "cover": 1218,
  "Captain N": 1219,
  " me ": 1220,
  "fter ": 1221,
  "ari": 1222,
  "will": 1223,
  "wind": 1224,
  "erous": 1225,
  "..": 1226,
  "men": 1227,
  "good ": 1228,
  "might ": 1229,
  ", my ": 1230,
  "never ": 1231,
  "Pro": 1232,
  "how ": 1233,
  "flo": 1234,
  "ement": 1235,
  "ward": 1236,
  "s,": 1237,
  " arm": 1238,
  "every ": 1239,
  "ed in": 1240,
  "even ": 1241,
  "pur": 1242,
  "coll": 1243,
  "pa": 1244,
  "ft ": 1245,
  "you are ": 1246,
  "he was ": 1247,
  "eyes": 1248,
  " the t": 1249,
  "beca": 1250,
  "ed in ": 1251,
  "swer": 1252,
  "\"\\u000a": 1253,
  "shi": 1254,
  "great ": 1255,
  "mov": 1256,
  "here": 1257,
  "ond": 1258,
  "me, ": 1259,
  " those ": 1260,
  "work": 1261,
  "cal": 1262,
  "cle": 1263,
  "ed at ": 1264,
  "ray": 1265,
  "ice": 1266,
  "nat": 1267,
  "betwe": 1268,
  "ue ": 1269,
  "order": 1270,
  "cap": 1271,
  "ance": 1272,
  "m\\u000a\\u000a\\u000a\\u000a": 1273,
  "mis": 1274,
  "go ": 1275,
  "row": 1276,
  ":—": 1277,
  "’s": 1278,
  "ject ": 1279,
  "ens": 1280,
  "ate": 1281,
  "man ": 1282,
  "count ": 1283,
  "ally": 1284,
  "quite ": 1285,
  "\\u000a‘": 1286,
  "ard ": 1287,
  "Oh, ": 1288,
  ".\\u000a\\u000aThe ": 1289,
  "ed to the ": 1290,
  "ing a ": 1291,
  "ever ": 1292,
  "ofess": 1293,
  ", with": 1294,
  "fre": 1295,
  "fort ": 1296,
  "ste": 1297,
  "keep": 1298,
  "water": 1299,
  "ress": 1300,
  "myself": 1301,
  "remain": 1302,
  " a\\u000a": 1303,
  "ame": 1304,
  " about ": 1305,
  "om ": 1306,
  ", to ": 1307,
  " a t": 1308,
  ".\\u000a\"": 1309,
  "less": 1310,
  "last ": 1311,
  "cour": 1312,
  "Ar": 1313,
  "reas": 1314,
  "reg": 1315,
  "hould ": 1316,
  "Cad": 1317,
  "Monte Cristo ": 1318,
  "az": 1319,
  "full": 1320,
  "house": 1321,
  " them ": 1322,
  ":—\\u000a“": 1323,
  ". F": 1324,
  "Ed": 1325,
  "you s": 1326,
  ".’ ": 1327,
  ", but": 1328,
  "augh": 1329,
  "aw ": 1330,
  "still": 1331,
  "ke ": 1332,
  "ey ": 1333,
  "death": 1334,
  "ian": 1335,
  "over ": 1336,
  "Caderous": 1337,
  "ham": 1338,
  "cond": 1339,
  "step": 1340,
  "dear ": 1341,
  " than": 1342,
  "compan": 1343,
  "M. de ": 1344,
  "ek": 1345,
  "ner": 1346,
  "erc": 1347,
  "light ": 1348,
  "ed by": 1349,
  "atter": 1350,
  "ince ": 1351,
  "char": 1352,
  ", for ": 1353,
  "ris": 1354,
  "clai": 1355,
  "hey ": 1356,
  "-t": 1357,
  "bro": 1358,
  "emp": 1359,
  "a s": 1360,
  "000": 1361,
  "went ": 1362,
  "I'": 1363,
  "quest": 1364,
  "doub": 1365,
  "is a ": 1366,
  "ently ": 1367,
  "lic": 1368,
  "ind ": 1369,
  "fear": 1370,
  "ed up": 1371,
  "should ": 1372,
  "ed her": 1373,
  "?” ": 1374,
  "you m": 1375,
  "such": 1376,
  "oul": 1377,
  ",000": 1378,
  "mak": 1379,
  "ough ": 1380,
  " tell ": 1381,
  "pal": 1382,
  "mean": 1383,
  "ceiv": 1384,
  "heart": 1385,
  " all the ": 1386,
  "n’t ": 1387,
  "s,\\u000a": 1388,
  "left ": 1389,
  "first": 1390,
  "\" ": 1391,
  "lif": 1392,
  "ide ": 1393,
  "It": 1394,
  "s that ": 1395,
  "y\\u000a": 1396,
  ", which": 1397,
  " think ": 1398,
  "ies ": 1399,
  "spo": 1400,
  "fam": 1401,
  "uten": 1402,
  "you, ": 1403,
  "back ": 1404,
  "heav": 1405,
  "found ": 1406,
  "less ": 1407,
  "ated": 1408,
  "prom": 1409,
  "it was": 1410,
  "chang": 1411,
  "on his ": 1412,
  "; he ": 1413,
  " would ": 1414,
  " were ": 1415,
  "ly, ": 1416,
  " mor": 1417,
  "Morcer": 1418,
  "!” ": 1419,
  "I had ": 1420,
  "whose ": 1421,
  "berg": 1422,
  "is the ": 1423,
  ", then": 1424,
  "uck": 1425,
  "liv": 1426,
  "els": 1427,
  "gra": 1428,
  "uri": 1429,
  "ord": 1430,
  "arm": 1431,
  "; the ": 1432,
  "wr": 1433,
  "point": 1434,
  " add": 1435,
  "ies": 1436,
  "Luc": 1437,
  "er of ": 1438,
  "sil": 1439,
  "peri": 1440,
  "gave ": 1441,
  " three ": 1442,
  ",” replied ": 1443,
  "morn": 1444,
  "of this ": 1445,
  "Villefort ": 1446,
  "And": 1447,
  "left": 1448,
  " so": 1449,
  "dep": 1450,
  "heard": 1451,
  "St": 1452,
  "speak": 1453,
  "get ": 1454,
  "start": 1455,
  "utenberg": 1456,
  "rect": 1457,
  "utter": 1458,
  "cent": 1459,
  "foo": 1460,
  "land": 1461,
  "at the ": 1462,
  "head ": 1463,
  "s. ": 1464,
  " asked ": 1465,
  " than ": 1466,
  "good": 1467,
  " and\\u000a": 1468,
  "!”\\u000a\\u000a“": 1469,
  "eve ": 1470,
  "s.\\u000a": 1471,
  "sea": 1472,
  "wait": 1473,
  "Par": 1474,
  "Mar": 1475,
  "side ": 1476,
  " that he ": 1477,
  "ed it": 1478,
  "run": 1479,
  "rest": 1480,
  "what": 1481,
  "lim": 1482,
  "cons": 1483,
  "himself ": 1484,
  " answer": 1485,
  " tell": 1486,
  "exc": 1487,
  "lip": 1488,
  "y to ": 1489,
  "went": 1490,
  "pri": 1491,
  " some ": 1492,
  "door ": 1493,
  "hall": 1494,
  "She ": 1495,
  "ess, ": 1496,
  "put ": 1497,
  " act": 1498,
  "ici": 1499,
  "without ": 1500,
  "hand ": 1501,
  "capt": 1502,
  "franc": 1503,
  "near": 1504,
  "with a ": 1505,
  "leave ": 1506,
  "ty ": 1507,
  "window": 1508,
  " thing": 1509,
  " tri": 1510,
  "ry ": 1511,
  "consi": 1512,
  "mi": 1513,
  "sten": 1514,
  "felt ": 1515,
  ": ": 1516,
  "dark": 1517,
  "I could ": 1518,
  "usu": 1519,
  " too ": 1520,
  " as the ": 1521,
  "her s": 1522,
  "This ": 1523,
  ". We ": 1524,
  "conf": 1525,
  "ed in the ": 1526,
  ". This ": 1527,
  "began": 1528,
  "Do ": 1529,
  "express": 1530,
  "eared": 1531,
  " ter": 1532,
  "bri": 1533,
  "Nautilus": 1534,
  "of\\u000a": 1535,
  "Ned ": 1536,
  "ert": 1537,
  "irti": 1538,
  "God": 1539,
  "led": 1540,
  "ed by the ": 1541,
  "had been ": 1542,
  "Noirti": 1543,
  "beh": 1544,
  "because ": 1545,
  ". Wh": 1546,
  "Gutenberg": 1547,
  "I\\u000a": 1548,
  "Pr": 1549,
  "sign": 1550,
  "ves": 1551,
  "house ": 1552,
  ",’": 1553,
  "I will ": 1554,
  "Thom": 1555,
  "heard ": 1556,
  "Yes, ": 1557,
  "?’": 1558,
  "nec": 1559,
  "ready ": 1560,
  "band": 1561,
  "age": 1562,
  "Danglars": 1563,
  "Dantès ": 1564,
  "inde": 1565,
  "ers": 1566,
  "bé": 1567,
  "observ": 1568,
  "\\u000a\\u000c": 1569,
  "id ": 1570,
  "on, ": 1571,
  "yet ": 1572,
  "fish": 1573,
  "ible ": 1574,
  "vers": 1575,
  " he said": 1576,
  " thought": 1577,
  "bed": 1578,
  "hon": 1579,
  "; but": 1580,
  "ub": 1581,
  "excell": 1582,
  ",\\u000aand ": 1583,
  "Madame de ": 1584,
  ". There ": 1585,
  "ember": 1586,
  " to\\u000a": 1587,
  "arn": 1588,
  "er, ": 1589,
  " appear": 1590,
  "rais": 1591,
  "she": 1592,
  "child": 1593,
  " after ": 1594,
  "until": 1595,
  "ers ": 1596,
  "gener": 1597,
  " they": 1598,
  "stopp": 1599,
  "                                                ": 1600,
  "reach": 1601,
  "ull ": 1602,
  "was a ": 1603,
  "What": 1604,
  "cam": 1605,
  " there": 1606,
  " told ": 1607,
  "enough": 1608,
  "We ": 1609,
  "deep": 1610,
  "Edmon": 1611,
  "ways ": 1612,
  "ious": 1613,
  "ed that ": 1614,
  "Hels": 1615,
  "poor ": 1616,
  "being ": 1617,
  "e and ": 1618,
  "half": 1619,
  "exclai": 1620,
  "ness ": 1621,
  "gri": 1622,
  "empt": 1623,
  "certain": 1624,
  "ict": 1625,
  "once ": 1626,
  "ater ": 1627,
  "oment ": 1628,
  "Andre": 1629,
  ".\\u000a\\u000aA": 1630,
  "sid": 1631,
  "mind": 1632,
  "bra": 1633,
  "ung": 1634,
  "te": 1635,
  "bloo": 1636,
  "led ": 1637,
  "real": 1638,
  "Ch": 1639,
  "one of the ": 1640,
  ", which ": 1641,
  "nothing ": 1642,
  "believe ": 1643,
  "Morcerf": 1644,
  ". N": 1645,
  "ily ": 1646,
  "ment ": 1647,
  "differ": 1648,
  "yourself": 1649,
  "t the ": 1650,
  "vol": 1651,
  "each ": 1652,
  "for a ": 1653,
  " anger": 1654,
  "ook ": 1655,
  "ven": 1656,
  "ir ": 1657,
  "saw": 1658,
  "outh": 1659,
  "ention": 1660,
  "os": 1661,
  "Nautilus ": 1662,
  "a, ": 1663,
  "m\\u000a\\u000a\\u000a\\u000a\\u000a\\u000a“": 1664,
  "side": 1665,
  "round": 1666,
  "or, ": 1667,
  "long ": 1668,
  " my": 1669,
  "of w": 1670,
  "?\"\\u000a\\u000a\"": 1671,
  "axim": 1672,
  "But": 1673,
  "d of ": 1674,
  "I shall ": 1675,
  "in my ": 1676,
  " will ": 1677,
  ".\\u000aThe ": 1678,
  "pec": 1679,
  "five ": 1680,
  "disapp": 1681,
  "Caderousse": 1682,
  " adv": 1683,
  "ing her ": 1684,
  "En": 1685,
  "irl": 1686,
  ". You": 1687,
  "draw": 1688,
  "name ": 1689,
  "perhap": 1690,
  "rang": 1691,
  "peop": 1692,
  "——": 1693,
  "much ": 1694,
  "find ": 1695,
  "direct": 1696,
  "expect": 1697,
  ", so ": 1698,
  "som": 1699,
  "Profess": 1700,
  "ck ": 1701,
  "inn": 1702,
  "power": 1703,
  "doubt": 1704,
  "\"\\u000a\"": 1705,
  "it, ": 1706,
  "captain": 1707,
  "sud": 1708,
  " away": 1709,
  "es of ": 1710,
  "young man": 1711,
  "eat": 1712,
  ". In": 1713,
  " with the ": 1714,
  "breath": 1715,
  "ing and ": 1716,
  "found": 1717,
  "d’": 1718,
  "ily": 1719,
  "down ": 1720,
  " took": 1721,
  "prison": 1722,
  "young ": 1723,
  "; and": 1724,
  "shall ": 1725,
  "stair": 1726,
  "box": 1727,
  "bit": 1728,
  "ared": 1729,
  "\\u000aand ": 1730,
  ".”\\u000a\\u000a“And ": 1731,
  "ently": 1732,
  "amp": 1733,
  "high": 1734,
  "body ": 1735,
  "far": 1736,
  "Can": 1737,
  "understand": 1738,
  "ire ": 1739,
  "dro": 1740,
  "dur": 1741,
  "ty": 1742,
  "over the ": 1743,
  "ben": 1744,
  "happen": 1745,
  "Danglars ": 1746,
  "ime ": 1747,
  " as he ": 1748,
  "new": 1749,
  "will be ": 1750,
  "ffect": 1751,
  "imag": 1752,
  "s are ": 1753,
  "place ": 1754,
  "perf": 1755,
  "ric": 1756,
  "kep": 1757,
  "ask": 1758,
  "Van ": 1759,
  "Un": 1760,
  "question": 1761,
  "has": 1762,
  "ves ": 1763,
  "les ": 1764,
  " took ": 1765,
  "said ": 1766,
  "girl": 1767,
  "Van Hels": 1768,
  "roach": 1769,
  "want": 1770,
  "Paris": 1771,
  ".”\\u000a\\u000a“A": 1772,
  "oft": 1773,
  "break": 1774,
  "Project ": 1775,
  "Project Gutenberg": 1776,
  "Maxim": 1777,
  "Maximili": 1778,
  "st the ": 1779,
  "right ": 1780,
  "cir": 1781,
  "ing-": 1782,
  "val": 1783,
  ",000 ": 1784,
  "nothing": 1785,
  "quick": 1786,
  "mother": 1787,
  ". L": 1788,
  "whole ": 1789,
  "would have ": 1790,
  "ed at the ": 1791,
  "ash": 1792,
  "emo ": 1793,
  "cried ": 1794,
  "vid": 1795,
  "had been": 1796,
  "would be ": 1797,
  "if he ": 1798,
  "sc": 1799,
  "elect": 1800,
  "her\\u000a": 1801,
  "?”\\u000a\\u000a“Yes": 1802,
  "bow": 1803,
  "Merc": 1804,
  "eauc": 1805,
  "sk": 1806,
  "letter": 1807,
  "éd": 1808,
  "knew": 1809,
  "I can": 1810,
  " seem": 1811,
  "Ned L": 1812,
  " whi": 1813,
  "igh": 1814,
  "does ": 1815,
  "onder": 1816,
  "ot": 1817,
  "laugh": 1818,
  "ion of ": 1819,
  "De": 1820,
  "Captain Nemo ": 1821,
  "it is": 1822,
  " through the ": 1823,
  "t of the ": 1824,
  "hum": 1825,
  "doct": 1826,
  "lin": 1827,
  "moment": 1828,
  "fact": 1829,
  "same ": 1830,
  "paper": 1831,
  "plan": 1832,
  "s.\\u000a\\u000a": 1833,
  "fall": 1834,
  "Mercéd": 1835,
  "Mercédè": 1836,
  " thought ": 1837,
  "visit": 1838,
  "ouch": 1839,
  "mid": 1840,
  "Dr": 1841,
  "nor": 1842,
  "ength": 1843,
  "watch": 1844,
  " to his ": 1845,
  "leav": 1846,
  "felt": 1847,
  "would": 1848,
  ".’\\u000a‘": 1849,
  "bes": 1850,
  "sum": 1851,
  " word": 1852,
  "aster": 1853,
  "you will ": 1854,
  "y of ": 1855,
  "Com": 1856,
  "dead": 1857,
  "find": 1858,
  "listen": 1859,
  "seemed to ": 1860,
  "en he ": 1861,
  "feet": 1862,
  "es, and ": 1863,
  "few": 1864,
  "ed on": 1865,
  "put": 1866,
  "two ": 1867,
  "es and ": 1868,
  "sudden": 1869,
  "leg": 1870,
  "imal": 1871,
  "--": 1872,
  "medi": 1873,
  "e to the ": 1874,
  "ious ": 1875,
  "andl": 1876,
  "'s": 1877,
  "hamp": 1878,
  "stand": 1879,
  "full ": 1880,
  "ass ": 1881,
  "gent": 1882,
  "\\u000a\\u000a\\u000a": 1883,
  "Cha": 1884,
  ", as": 1885,
  "ston": 1886,
  "wom": 1887,
  "stat": 1888,
  "night ": 1889,
  "his\\u000a": 1890,
  "du": 1891,
  "sor": 1892,
  "ement ": 1893,
  "sleep": 1894,
  ". They ": 1895,
  "Handl": 1896,
  "aid ": 1897,
  "?” said ": 1898,
  "stri": 1899,
  "wish": 1900,
  "There ": 1901,
  "exp": 1902,
  "kill": 1903,
  "On": 1904,
  "ship": 1905,
  "ed for": 1906,
  "I should ": 1907,
  "ank ": 1908,
  "stro": 1909,
  "vent": 1910,
  "became ": 1911,
  "struc": 1912,
  ". But": 1913,
  "ating ": 1914,
  " the same ": 1915,
  "Min": 1916,
  "again": 1917,
  "never": 1918,
  "num": 1919,
  "stood ": 1920,
  "world": 1921,
  "having ": 1922,
  ". A ": 1923,
  "got ": 1924,
  "cept": 1925,
  "I was": 1926,
  "stre": 1927,
  "floor": 1928,
  "escap": 1929,
  "Beauc": 1930,
  "eau": 1931,
  "herself": 1932,
  " as she ": 1933,
  "ser": 1934,
  "Well, ": 1935,
  "present": 1936,
  " another ": 1937,
  "fur": 1938,
  "stud": 1939,
  "voice ": 1940,
  " time": 1941,
  "rible ": 1942,
  "wall": 1943,
  "pter ": 1944,
  "Valentine": 1945,
  "bu": 1946,
  " tru": 1947,
  "last": 1948,
  "ern": 1949,
  "cum": 1950,
  "cess": 1951,
  "Canad": 1952,
  "consider": 1953,
  "do you ": 1954,
  "That ": 1955,
  ". On": 1956,
  "ger ": 1957,
  "are": 1958,
  "icul": 1959,
  "s.”\\u000a\\u000a“": 1960,
  "ade ": 1961,
  " work": 1962,
  "strong": 1963,
  "ur ": 1964,
  "oud": 1965,
  "fore": 1966,
  "Chapter ": 1967,
  "los": 1968,
  " abo": 1969,
  "done ": 1970,
  "hund": 1971,
  "nam": 1972,
  ".\\u000a“": 1973,
  "Ren": 1974,
  "gg": 1975,
  "great": 1976,
  "was the ": 1977,
  " to me": 1978,
  ", she ": 1979,
  "ared ": 1980,
  "contr": 1981,
  "held ": 1982,
  "Engl": 1983,
  "evid": 1984,
  "really ": 1985,
  " away ": 1986,
  " mo": 1987,
  "resp": 1988,
  "have been": 1989,
  "ing of ": 1990,
  "life ": 1991,
  "ings ": 1992,
  "ins": 1993,
  "use": 1994,
  " arriv": 1995,
  "nif": 1996,
  "y and ": 1997,
  " towards ": 1998,
  "Oh": 1999,
  "isell": 2000,
  "consci": 2001,
  "er of the ": 2002,
  "A ": 2003,
  " almost ": 2004,
  " me, ": 2005,
  "bur": 2006,
  "emoisell": 2007,
  "action": 2008,
  "Valentine ": 2009,
  ".\"\\u000a\\u000a": 2010,
  "duc": 2011,
  "son ": 2012,
  "Albert ": 2013,
  "ER": 2014,
  "Maximilian": 2015,
  "ean": 2016,
  "poss": 2017,
  "o’": 2018,
  "see": 2019,
  "glo": 2020,
  "hu": 2021,
  "bor": 2022,
  "ing to the ": 2023,
  "Danglars, ": 2024,
  "col": 2025,
  "fix": 2026,
  "eith": 2027,
  ".—": 2028,
  "its": 2029,
  "el ": 2030,
  "lad": 2031,
  "hold": 2032,
  ", and I ": 2033,
  "ution": 2034,
  "ting ": 2035,
  "t\\u000a": 2036,
  "cho": 2037,
  "e that": 2038,
  "conv": 2039,
  "tain ": 2040,
  "from his ": 2041,
  "sist": 2042,
  "ext ": 2043,
  "degre": 2044,
  "cop": 2045,
  "ati": 2046,
  "e this ": 2047,
  " we": 2048,
  "ian ": 2049,
  "avor": 2050,
  "play": 2051,
  "s in ": 2052,
  "like a ": 2053,
  "fing": 2054,
  ", or ": 2055,
  "reco": 2056,
  "am ": 2057,
  "off ": 2058,
  "Dantès": 2059,
  "tter ": 2060,
  "most": 2061,
  "lock": 2062,
  "ense ": 2063,
  "l ": 2064,
  "kind": 2065,
  "pain": 2066,
  "ire": 2067,
  "gether": 2068,
  " more ": 2069,
  "could not ": 2070,
  "ed on the ": 2071,
  "ugg": 2072,
  "abbé": 2073,
  "position": 2074,
  "ed it ": 2075,
  "natur": 2076,
  ",” replied the ": 2077,
  "going to ": 2078,
  "look ": 2079,
  "looked ": 2080,
  "18": 2081,
  "che": 2082,
  ", or": 2083,
  "clock": 2084,
  ", and he ": 2085,
  "saw ": 2086,
  "aid": 2087,
  "help": 2088,
  "od": 2089,
  "prep": 2090,
  "receiv": 2091,
  "life": 2092,
  ", and\\u000a": 2093,
  "\\u000aof ": 2094,
  "no long": 2095,
  "began to ": 2096,
  "eared ": 2097,
  "cend": 2098,
  ", and she ": 2099,
  " thre": 2100,
  "may be ": 2101,
  "ni": 2102,
  "\\u000ato ": 2103,
  "fast": 2104,
  ". E": 2105,
  "complet": 2106,
  "?” asked ": 2107,
  "mist": 2108,
  "bank": 2109,
  "uch": 2110,
  "pose ": 2111,
  "beaut": 2112,
  "moment ": 2113,
  "ical ": 2114,
  "Captain Nemo": 2115,
  " along": 2116,
  "need": 2117,
  "me to ": 2118,
  "cup": 2120,
  "ures": 2121,
  "low": 2122,
  ":\\u000a\\u000a“": 2123,
  "ror": 2124,
  "visible ": 2125,
  "'re ": 2126,
  ", t": 2127,
  "able to ": 2128,
  "few ": 2129,
  "itude ": 2130,
  "under the ": 2131,
  " always ": 2132,
  "peak": 2133,
  "lov": 2134,
  "don’t ": 2135,
  "love ": 2136,
  "ing to": 2137,
  "set ": 2138,
  "excellenc": 2139,
  "\\u000at": 2140,
  "sup": 2141,
  "bear": 2142,
  "dear": 2143,
  "Fren": 2144,
  "atis": 2145,
  " against ": 2146,
  "rush": 2147,
  "star": 2148,
  "eu": 2149,
  "ed on ": 2150,
  "possible ": 2151,
  "hur": 2152,
  "hus": 2153,
  "dec": 2154,
  ", so": 2155,
  "cus": 2156,
  "?”\\u000a\\u000a“No": 2157,
  "four ": 2158,
  "reason": 2159,
  "fill": 2160,
  "exam": 2161,
  "posit": 2162,
  "companion": 2163,
  "Noirtier": 2164,
  "immedi": 2165,
  "af": 2166,
  " as a ": 2167,
  "cros": 2168,
  "I’": 2169,
  "ed me ": 2170,
  "of my ": 2171,
  " thous": 2172,
  "excit": 2173,
  "in this ": 2174,
  "al s": 2175,
  "e, but ": 2176,
  "is not ": 2177,
  "retch": 2178,
  "desp": 2179,
  "next ": 2180,
  "when the ": 2181,
  "view": 2182,
  "Count of ": 2183,
  "seen ": 2184,
  "not be ": 2185,
  "better": 2186,
  "with his ": 2187,
  "however": 2188,
  "Mademoisell": 2189,
  "rit": 2190,
  "many ": 2191,
  ". I s": 2192,
  "kept ": 2193,
  "Jon": 2194,
  "ât": 2195,
  " ass": 2196,
  "dress": 2197,
  "?”\\u000a\\u000a": 2198,
  "least": 2199,
  "etim": 2200,
  "fif": 2201,
  "between ": 2202,
  "fellow": 2203,
  "him, ": 2204,
  "if you ": 2205,
  "more th": 2206,
  "promis": 2207,
  "wif": 2208,
  "replied": 2209,
  "new ": 2210,
  "——”\\u000a\\u000a“": 2211,
  "bus": 2212,
  "ready": 2213,
  "supp": 2214,
  "Jonath": 2215,
  "sun": 2216,
  "pen": 2217,
  "to the ": 2218,
  "alc": 2219,
  "s he ": 2220,
  "or s": 2221,
  "bb": 2222,
  "have been ": 2223,
  "!\\u000a": 2224,
  ",” said he": 2225,
  "soon": 2226,
  "I would ": 2227,
  "benea": 2228,
  "ses ": 2229,
  "Kemp": 2230,
  "âteau": 2231,
  "known": 2232,
  ".”\\u000a\\u000aThe ": 2233,
  "possess": 2234,
  "Then ": 2235,
  "sol": 2236,
  "mil": 2237,
  "say ": 2238,
  "rup": 2239,
  "ed as ": 2240,
  "ix": 2241,
  "four": 2242,
  " what": 2243,
  "rock": 2244,
  "any": 2245,
  ". D": 2246,
  "cord": 2247,
  "bey": 2248,
  " around ": 2249,
  "keep ": 2250,
  "inut": 2251,
  "dream": 2252,
  "exist": 2253,
  "Mademoiselle ": 2254,
  "oce": 2255,
  "ors": 2256,
  " twent": 2257,
  "upon": 2258,
  "one, ": 2259,
  " tra": 2260,
  "path": 2261,
  "baron": 2262,
  "s. H": 2263,
  "convers": 2264,
  ", in": 2265,
  "; I ": 2266,
  "very": 2267,
  "clear": 2268,
  "viol": 2269,
  "Château": 2270,
  "anti": 2271,
  "Saint": 2272,
  " towards the ": 2273,
  "coming ": 2274,
  "any ": 2275,
  "fell ": 2276,
  " aw": 2277,
  ". And ": 2278,
  " with a ": 2279,
  "walk": 2280,
  "fron": 2281,
  "imagin": 2282,
  "eld": 2283,
  "sec": 2284,
  ".\\u000aA": 2285,
  "Thomas ": 2286,
  "aj": 2287,
  "spect": 2288,
  "dang": 2289,
  "hands ": 2290,
  "friend ": 2291,
  "piec": 2292,
  "ron": 2293,
  "yet": 2294,
  "pan": 2295,
  "roll": 2296,
  "law": 2297,
  "people ": 2298,
  "sure": 2299,
  "upon ": 2300,
  "rid": 2301,
  "dev": 2302,
  "matter": 2303,
  "inqui": 2304,
  " sh": 2305,
  "es the ": 2306,
  "iter": 2307,
  "large ": 2308,
  "doctor": 2309,
  "HA": 2310,
  "ele": 2311,
  "Saint-": 2312,
  " air": 2313,
  ". It was ": 2314,
  ", and that ": 2315,
  ", they ": 2316,
  "Fern": 2317,
  "ed them": 2318,
  "under ": 2319,
  "ground": 2320,
  "recogn": 2321,
  "diff": 2322,
  "din": 2323,
  "Beauchamp": 2324,
  ". P": 2325,
  ". M": 2326,
  "cust": 2327,
  " another": 2328,
  "king": 2329,
  " agre": 2330,
  "both ": 2331,
  "dri": 2332,
  "?’ ": 2333,
  "E ": 2334,
  "Morrel ": 2335,
  " a moment": 2336,
  ", at ": 2337,
  "ine, ": 2338,
  "collect": 2339,
  "ed my ": 2340,
  "face": 2341,
  "log": 2342,
  "board": 2343,
  "since ": 2344,
  "instant": 2345,
  "being": 2346,
  "So ": 2347,
  "morning": 2348,
  "in her ": 2349,
  "it\\u000a": 2350,
  "not to ": 2351,
  " see ": 2352,
  "exclaim": 2353,
  "possible": 2354,
  "become ": 2355,
  "resh": 2356,
  "discover": 2357,
  "Project Gutenberg-t": 2358,
  "plain": 2359,
  ", for": 2360,
  "ence, ": 2361,
  "lect": 2362,
  ",’ ": 2363,
  "ounc": 2364,
  "post": 2365,
  " already ": 2366,
  "calm": 2367,
  "ably ": 2368,
  " are": 2369,
  "vell": 2370,
  "gentle": 2371,
  "mag": 2372,
  "grand": 2373,
  "interest": 2374,
  "remember": 2375,
  " again ": 2376,
  "s in the ": 2377,
  " who": 2378,
  ", then, ": 2379,
  "bott": 2380,
  "brought ": 2381,
  "cou": 2382,
  "something ": 2383,
  "es\\u000a": 2384,
  "!\" ": 2385,
  "ber ": 2386,
  " to him": 2387,
  "you know": 2388,
  ", we ": 2389,
  "sion": 2390,
  " around": 2391,
  "inform": 2392,
  "por": 2393,
  "perfect": 2394,
  "hard": 2395,
  "she was ": 2396,
  ",” said Monte Cristo": 2397,
  "30": 2398,
  " of the ": 2399,
  ".\\u000a\\u000a“A": 2400,
  "Then": 2401,
  "ately ": 2402,
  "well ": 2403,
  "ling ": 2404,
  "was\\u000a": 2405,
  "Cav": 2406,
  "experi": 2407,
  "!”\\u000a\\u000a": 2408,
  "It is ": 2409,
  "blood": 2410,
  "gro": 2411,
  "work ": 2412,
  "book": 2413,
  "ribut": 2414,
  " against the ": 2415,
  "dem": 2416,
  "ating": 2417,
  "e them": 2418,
  "s—": 2419,
  "iful": 2420,
  "foot": 2421,
  "ken": 2422,
  "’t": 2423,
  "and the ": 2424,
  " tran": 2425,
  "feeling": 2426,
  "y-": 2427,
  "inv": 2428,
  "asp": 2429,
  "old man": 2430,
  "udden": 2431,
  "creas": 2432,
  "feet ": 2433,
  "I said": 2434,
  "\\u000athat ": 2435,
  "Cavalc": 2436,
  "ceed": 2437,
  " approach": 2438,
  "you to ": 2439,
  ", that": 2440,
  "offer": 2441,
  "y, and ": 2442,
  "ously ": 2443,
  "sie": 2444,
  "Cavalcanti": 2445,
  "dread": 2446,
  "s, the ": 2447,
  "Edmond": 2448,
  "dy": 2449,
  "iness": 2450,
  "ity, ": 2451,
  "notic": 2452,
  "learn": 2453,
  "lor": 2454,
  "pret": 2455,
  "prob": 2456,
  "dog": 2457,
  "whe": 2458,
  "!\"": 2459,
  "custom": 2460,
  ", al": 2461,
  "men ": 2462,
  "suc": 2463,
  "ace ": 2464,
  " myself": 2465,
  " anger ": 2466,
  "vess": 2467,
  "pull": 2468,
  " they were ": 2469,
  "pt ": 2470,
  ". You ": 2471,
  "e.”\\u000a\\u000a“": 2472,
  "dr": 2473,
  "rag": 2474,
  ", it ": 2475,
  ", \"": 2476,
  "in\\u000a": 2477,
  "ing with ": 2478,
  " and a ": 2479,
  "father ": 2480,
  "proc": 2481,
  ". His ": 2482,
  "read ": 2483,
  "had\\u000a": 2484,
  ". As ": 2485,
  "ing at ": 2486,
  "seen": 2487,
  "heart ": 2488,
  "le of ": 2489,
  "fer": 2490,
  "ortun": 2491,
  "gen": 2492,
  "fig": 2493,
  "Franz ": 2494,
  "e-": 2495,
  " talk": 2496,
  ", ‘": 2497,
  "gard": 2498,
  "det": 2499,
  "prot": 2500,
  "illion": 2501,
  "of these ": 2502,
  "oulder": 2503,
  " try": 2504,
  "ly\\u000a": 2505,
  "Ital": 2506,
  "like the ": 2507,
  "uli": 2508,
  "s, and": 2509,
  ", there ": 2510,
  ", in ": 2511,
  " that I ": 2512,
  "sha": 2513,
  "pock": 2514,
  " appeared": 2515,
  " through ": 2516,
  ".\\u000a\\u000a\\u000c": 2517,
  ",000 franc": 2518,
  "ond ": 2519,
  " ask ": 2520,
  "after": 2521,
  "behind": 2522,
  "I will": 2523,
  "earth": 2524,
  "may": 2525,
  "curi": 2526,
  "pol": 2527,
  "s;": 2528,
  "Car": 2529,
  "must be ": 2530,
  " may ": 2531,
  "nar": 2532,
  " to you": 2533,
  "body": 2534,
  "rather": 2535,
  "mouth": 2536,
  "big": 2537,
  "ed me": 2538,
  "knowled": 2539,
  "ation of ": 2540,
  "air ": 2541,
  " thro": 2542,
  "Count": 2543,
  "Professor ": 2544,
  "ertuc": 2545,
  "ertucci": 2546,
  "50": 2547,
  "young m": 2548,
  "black": 2549,
  "into a ": 2550,
  "sy": 2551,
  "circum": 2552,
  "ing in the ": 2553,
  "emor": 2554,
  ".”\\u000a": 2555,
  ",\" said ": 2556,
  "ately": 2557,
  "a m": 2558,
  " then, ": 2559,
  "Qu": 2560,
  "ird": 2561,
  "necess": 2562,
  "pun": 2563,
  "shoulder": 2564,
  "1.": 2565,
  ". It": 2566,
  "Now": 2567,
  "when he ": 2568,
  "clock ": 2569,
  "They ": 2570,
  " where ": 2571,
  " allow": 2572,
  "carriage ": 2573,
  "cul": 2574,
  "Isl": 2575,
  "offic": 2576,
  "ed him ": 2577,
  " which he ": 2578,
  "rap": 2579,
  "spec": 2580,
  "phy": 2581,
  "                                                  ": 2582,
  "20": 2583,
  "s to": 2584,
  " ten": 2585,
  "up the ": 2586,
  "must": 2587,
  "more": 2588,
  "voic": 2589,
  "drew ": 2590,
  " among": 2591,
  "had not ": 2592,
  ",” continu": 2593,
  "s in": 2594,
  ", I": 2595,
  "Gre": 2596,
  "seemed ": 2597,
  "Conseil ": 2598,
  "Ned Land ": 2599,
  "fully ": 2600,
  "hair": 2601,
  "ordin": 2602,
  "ere, ": 2603,
  "got": 2604,
  "least ": 2605,
  "out of the ": 2606,
  " some": 2607,
  "conce": 2608,
  "recogniz": 2609,
  ", this ": 2610,
  "strength": 2611,
  "eward": 2612,
  "resol": 2613,
  " a man ": 2614,
  "you were ": 2615,
  "behind ": 2616,
  "iness ": 2617,
  "ed.\\u000a\\u000a“": 2618,
  " thes": 2619,
  "se, ": 2620,
  "lay ": 2621,
  "strange ": 2622,
  "simp": 2623,
  "looked at ": 2624,
  "ed.\\u000a": 2625,
  "worth": 2626,
  "six": 2627,
  "believ": 2628,
  "e tim": 2629,
  "joy": 2630,
  "le, ": 2631,
  "God ": 2632,
  "orrow": 2633,
  "descend": 2634,
  "fell": 2635,
  "ace": 2636,
  "of her ": 2637,
  "fore ": 2638,
  "everything": 2639,
  "ait": 2640,
  "without": 2641,
  "plat": 2642,
  "Andrea": 2643,
  "hip": 2644,
  "occur": 2645,
  "why ": 2646,
  "respect": 2647,
  "sir": 2648,
  "How ": 2649,
  "depth": 2650,
  "ile ": 2651,
  "examin": 2652,
  "equ": 2653,
  "grow": 2654,
  "wonder": 2655,
  ",” said the count": 2656,
  "ER ": 2657,
  "lost ": 2658,
  "dar": 2659,
  "occup": 2660,
  "do you": 2661,
  " though": 2662,
  "ist ": 2663,
  " will": 2664,
  " above ": 2665,
  "ing, and ": 2666,
  "import": 2667,
  "passed ": 2668,
  " also ": 2669,
  "this ": 2670,
  "shar": 2671,
  "returned ": 2672,
  " acros": 2673,
  "ef ": 2674,
  "cast": 2675,
  "show": 2676,
  "ing in": 2677,
  " in": 2678,
  "water ": 2679,
  "didn't ": 2680,
  "TH": 2681,
  "ed, and": 2682,
  "er’s ": 2683,
  "carc": 2684,
  "caus": 2685,
  "instea": 2686,
  "I do not ": 2687,
  "whom ": 2688,
  "es to ": 2689,
  " am ": 2690,
  ",” he said": 2691,
  "going ": 2692,
  "on my ": 2693,
  "each": 2694,
  " thousand ": 2695,
  " awa": 2696,
  "Ali": 2697,
  "Mr. ": 2698,
  " that\\u000a": 2699,
  " when": 2700,
  "remark": 2701,
  "pped ": 2702,
  "ken ": 2703,
  "inct": 2704,
  "of an ": 2705,
  "minut": 2706,
  ". If": 2707,
  "How": 2708,
  ", his ": 2709,
  "ather": 2710,
  "understand ": 2711,
  "month": 2712,
  " tell you": 2713,
  "rich": 2714,
  "boat": 2715,
  "yp": 2716,
  "circumst": 2717,
  "we have ": 2718,
  "suff": 2719,
  "ing him": 2720,
  "on a ": 2721,
  "concer": 2722,
  "uff": 2723,
  "ical": 2724,
  " meter": 2725,
  "ed by a ": 2726,
  "ear ": 2727,
  "moun": 2728,
  "you must ": 2729,
  "both": 2730,
  "iss": 2731,
  "stay": 2732,
  "contain": 2733,
  " when ": 2734,
  "object": 2735,
  ".”\\u000a“": 2736,
  ";\\u000a": 2737,
  "motion": 2738,
  ". My ": 2739,
  "case ": 2740,
  ".\"\\u000a\"": 2741,
  "ial ": 2742,
  "port": 2743,
  "ump": 2744,
  "your s": 2745,
  ", while ": 2746,
  "yes": 2747,
  "confid": 2748,
  "add": 2749,
  "care": 2750,
  "lead": 2751,
  "ild": 2752,
  "ished ": 2753,
  "fresh": 2754,
  "ince": 2755,
  "idea ": 2756,
  "ocean": 2757,
  "neck": 2758,
  "she had ": 2759,
  "s; ": 2760,
  " such": 2761,
  "rupt": 2762,
  ". If ": 2763,
  "half ": 2764,
  "ery ": 2765,
  "subject": 2766,
  " anx": 2767,
  "marri": 2768,
  "pocket": 2769,
  "\\u000a\\u000a“‘": 2770,
  "looking ": 2771,
  "poin": 2772,
  "beneath": 2773,
  "profess": 2774,
  "vari": 2775,
  "PT": 2776,
  "?\\u000a": 2777,
  "'t": 2778,
  "                                                    ": 2779,
  "eter": 2780,
  "aughter": 2781,
  "come": 2782,
  "cannot ": 2783,
  "mall ": 2784,
  "fail": 2785,
  "beautiful": 2786,
  "gaz": 2787,
  "les": 2788,
  "pit": 2789,
  "sever": 2790,
  "icult": 2791,
  "act ": 2792,
  "rose ": 2793,
  "ative ": 2794,
  " to a ": 2795,
  "of them": 2796,
  "Madame de Villefort": 2797,
  "m\\u000a\\u000a\\u000a\\u000a\\u000a\\u000a": 2798,
  "master": 2799,
  "prof": 2800,
  "Edmond ": 2801,
  "To ": 2802,
  "surpris": 2803,
  "With": 2804,
  " minut": 2805,
  "rest ": 2806,
  "rather ": 2807,
  "hands": 2808,
  "M. de Villefort": 2809,
  "white ": 2810,
  "cross": 2811,
  "-Ren": 2812,
  "CHA": 2813,
  "Hank": 2814,
  "Canadian": 2815,
  "ing of the ": 2816,
  "ion of the ": 2817,
  "ator": 2818,
  "sent": 2819,
  "stop": 2820,
  "thing to ": 2821,
  "eth": 2822,
  "!” said ": 2823,
  "pin": 2824,
  "down the ": 2825,
  "termin": 2826,
  "remained ": 2827,
  "fas": 2828,
  "idea": 2829,
  "before the ": 2830,
  "turn": 2831,
  "rec": 2832,
  "past": 2833,
  "increas": 2834,
  "Bar": 2835,
  "certain ": 2836,
  "English": 2837,
  "honor": 2838,
  "out of ": 2839,
  "gover": 2840,
  "II": 2841,
  "met": 2842,
  "sho": 2843,
  "hors": 2844,
  "your excellenc": 2845,
  "black ": 2846,
  " see": 2847,
  "fanc": 2848,
  "emper": 2849,
  "bal": 2850,
  "tak": 2851,
  "cold": 2852,
  " aston": 2853,
  "difficult": 2854,
  "ing that ": 2855,
  "mir": 2856,
  "Château-Ren": 2857,
  "set": 2858,
  "quiet": 2859,
  "satis": 2860,
  "command": 2861,
  "ance, ": 2862,
  "s a ": 2863,
  "had a ": 2864,
  "ffair": 2865,
  "open ": 2866,
  "No, ": 2867,
  "place": 2868,
  "voice": 2869,
  " there was ": 2870,
  "divid": 2871,
  "atch ": 2872,
  "dé": 2873,
  "repe": 2874,
  "manner": 2875,
  "you will": 2876,
  "mind ": 2877,
  "land ": 2878,
  " mean": 2879,
  " thr": 2880,
  "cloth": 2881,
  "your m": 2882,
  "effort": 2883,
  "cau": 2884,
  "something": 2885,
  "CHAPT": 2886,
  "CHAPTER ": 2887,
  "?’\\u000a‘": 2888,
  "Av": 2889,
  "urb": 2890,
  "ran ": 2891,
  "s for": 2892,
  "o’clock": 2893,
  "his arm": 2894,
  " alone ": 2895,
  " about to ": 2896,
  "prov": 2897,
  "push": 2898,
  "uch ": 2899,
  "given": 2900,
  "live ": 2901,
  "ing it": 2902,
  "aud": 2903,
  "ual ": 2904,
  "gall": 2905,
  "angu": 2906,
  "event": 2907,
  "eag": 2908,
  "jud": 2909,
  "reflect": 2910,
  "pay": 2911,
  "call ": 2912,
  ". C": 2913,
  "It was ": 2914,
  "room ": 2915,
  "of that ": 2916,
  "ach ": 2917,
  "fright": 2918,
  ". With": 2919,
  "ugé": 2920,
  "ugéni": 2921,
  "belong": 2922,
  " asked the ": 2923,
  "ed of ": 2924,
  "sound": 2925,
  ", if ": 2926,
  " touch": 2927,
  " the sam": 2928,
  "come to ": 2929,
  "Do": 2930,
  "between": 2931,
  "suffer": 2932,
  " must ": 2933,
  "road": 2934,
  "cut": 2935,
  "opportun": 2936,
  "dom": 2937,
  "had to ": 2938,
  "ere\\u000a": 2939,
  "I know": 2940,
  "knew ": 2941,
  "chair": 2942,
  "ip": 2943,
  "called ": 2944,
  "young girl": 2945,
  "husband": 2946,
  "or the ": 2947,
  "suddenly ": 2948,
  ". At ": 2949,
  " advanc": 2950,
  "report": 2951,
  "cham": 2952,
  "shor": 2953,
  "mark": 2954,
  "pow": 2955,
  "ed, \"": 2956,
  "!\"\\u000a\\u000a\"": 2957,
  "red the ": 2958,
  "such ": 2959,
  "You are ": 2960,
  "ceive ": 2961,
  "by a ": 2962,
  "nerv": 2963,
  ". Her ": 2964,
  "during the ": 2965,
  "ific": 2966,
  "daughter": 2967,
  ", then ": 2968,
  "hey": 2969,
  "Jonathan": 2970,
  "spir": 2971,
  "aydé": 2972,
  "Saint-M": 2973,
  "tr": 2974,
  "fortune ": 2975,
  " ten ": 2976,
  "ourn": 2977,
  "brow": 2978,
  ". I have ": 2979,
  "er s": 2980,
  ".”\\u000a\\u000a“But ": 2981,
  "s. The ": 2982,
  "hold ": 2983,
  "reli": 2984,
  "In ": 2985,
  "ing w": 2986,
  "den ": 2987,
  "she\\u000a": 2988,
  "slow": 2989,
  "lean": 2990,
  "hes": 2991,
  "ing on the ": 2992,
  "gone ": 2993,
  "ess of ": 2994,
  " tre": 2995,
  "ingle ": 2996,
  "Mrs. H": 2997,
  "If": 2998,
  "At": 2999,
  "vessel": 3000,
  "Dantès, ": 3001,
  "If ": 3002,
  "I se": 3003,
  " astonish": 3004,
  " to my ": 3005,
  "il ": 3006,
  "forc": 3007,
  "memor": 3008,
  "mur": 3009,
  "French": 3010,
  ". When ": 3011,
  "Eugéni": 3012,
  " degre": 3013,
  "Bertucci": 3014,
  "has been ": 3015,
  "sight ": 3016,
  "smil": 3017,
  "’d ": 3018,
  " trem": 3019,
  "fine ": 3020,
  "When ": 3021,
  "whom": 3022,
  "ing in ": 3023,
  "eye ": 3024,
  "strai": 3025,
  "atter ": 3026,
  ". Then": 3027,
  "oman": 3028,
  "chest": 3029,
  "regard": 3030,
  "creat": 3031,
  "fight": 3032,
  "ed. The ": 3033,
  "contro": 3034,
  "!\"\\u000a\\u000a": 3035,
  "org": 3036,
  ", and, ": 3037,
  "particul": 3038,
  "s for ": 3039,
  "etimes ": 3040,
  "midst ": 3041,
  "mistak": 3042,
  "hast": 3043,
  "Hall": 3044,
  "enough to ": 3045,
  "which he ": 3046,
  "fle": 3047,
  "bil": 3048,
  "Sir": 3049,
  ". In ": 3050,
  "cra": 3051,
  "Lucy": 3052,
  "Arth": 3053,
  "her Handl": 3054,
  ". G": 3055,
  "?—": 3056,
  "done": 3057,
  "That": 3058,
  " attention": 3059,
  "famili": 3060,
  "they ": 3061,
  "concern": 3062,
  "madame": 3063,
  "phi": 3064,
  "oh": 3065,
  "reaction": 3066,
  "don't ": 3067,
  "ed with the ": 3068,
  "course ": 3069,
  "half-": 3070,
  "exclaimed": 3071,
  "fut": 3072,
  "occas": 3073,
  "but the ": 3074,
  "I can ": 3075,
  "determin": 3076,
  "ick ": 3077,
  "struck": 3078,
  "human ": 3079,
  "bell": 3080,
  "lay": 3081,
  "le\\u000a": 3082,
  "\\u000a\\u000aChapter ": 3083,
  "Marse": 3084,
  "Marseill": 3085,
  "le to ": 3086,
  "furn": 3087,
  "Your ": 3088,
  "given ": 3089,
  "hesit": 3090,
  "usp": 3091,
  "of a s": 3092,
  "y the ": 3093,
  "es of the ": 3094,
  "enem": 3095,
  "effect": 3096,
  "ed.\\u000a\\u000a": 3097,
  "hisper": 3098,
  ". He was ": 3099,
  "Man": 3100,
  "fat": 3101,
  "ing her": 3102,
  "animal": 3103,
  "y of the ": 3104,
  "Saint-Mé": 3105,
  ", who": 3106,
  "conversation": 3107,
  " made ": 3108,
  "So": 3109,
  ". What ": 3110,
  "words ": 3111,
  "ed,": 3112,
  "lat": 3113,
  "ed out": 3114,
  ", a": 3115,
  "prec": 3116,
  "ensi": 3117,
  "swe": 3118,
  "Count ": 3119,
  "Valentine, ": 3120,
  "'ll ": 3121,
  "15": 3122,
  "s.\\u000a\\u000a“": 3123,
  "has been": 3124,
  " an in": 3125,
  "perhaps ": 3126,
  " accompan": 3127,
  "glass": 3128,
  "no one ": 3129,
  "burn": 3130,
  "Fernand": 3131,
  "favor": 3132,
  "each other": 3133,
  "udder": 3134,
  "wo": 3135,
  "secret": 3136,
  "conscious": 3137,
  "ident": 3138,
  "ini": 3139,
  " animal": 3140,
  "Avri": 3141,
  "Avrign": 3142,
  "Marvel": 3143,
  "clud": 3144,
  "ling": 3145,
  "them": 3146,
  "sett": 3147,
  " which the ": 3148,
  "gold": 3149,
  "vill": 3150,
  "sea ": 3151,
  "e they ": 3152,
  "eir ": 3153,
  "conduc": 3154,
  "about": 3155,
  "one of ": 3156,
  "present ": 3157,
  " in ": 3158,
  "intro": 3159,
  ",\\u000athe ": 3161,
  " S": 3162,
  " thir": 3163,
  "hope ": 3164,
  "depart": 3165,
  "ed for ": 3166,
  ", after": 3167,
  ", and then": 3168,
  " without ": 3169,
  " me to ": 3170,
  "hundred ": 3171,
  "happy ": 3172,
  "gott": 3173,
  "sem": 3174,
  "be the ": 3175,
  "arch": 3176,
  "round ": 3177,
  "far ": 3178,
  "sieur": 3179,
  "no longer ": 3180,
  " to re": 3181,
  "es that ": 3182,
  "ened": 3183,
  "ions ": 3184,
  " O": 3185,
  "Ex": 3186,
  " two": 3187,
  "that": 3188,
  "better ": 3189,
  "before": 3190,
  "e two ": 3191,
  "didn’t ": 3192,
  ". I w": 3193,
  "Just": 3194,
  "of this": 3195,
  "loun": 3196,
  "al\\u000a": 3197,
  "Mina": 3198,
  "?\" ": 3199,
  "condition": 3200,
  "if it ": 3201,
  ", and a ": 3202,
  "His ": 3203,
  "becom": 3204,
  "runn": 3205,
  "upon the ": 3206,
  "if the ": 3207,
  "where": 3208,
  "ed, but ": 3209,
  "uni": 3210,
  "flu": 3211,
  "passed": 3212,
  "zz": 3213,
  "part ": 3214,
  "of those ": 3215,
  "rom": 3216,
  "had the ": 3217,
  "sn": 3218,
  "stranger": 3219,
  "Haydé": 3220,
  "is\\u000a": 3221,
  "ept": 3222,
  "s had ": 3223,
  "ired": 3224,
  "limb": 3225,
  "dut": 3226,
  "looked": 3227,
  " tear": 3228,
  ", my dear ": 3229,
  "conceal": 3230,
  "apart": 3231,
  "eyes, ": 3232,
  "selves": 3233,
  "ity of ": 3234,
  "stretch": 3235,
  " taken ": 3236,
  ". Al": 3237,
  "descri": 3238,
  "pois": 3239,
  "ronic": 3240,
  "Nautilus's ": 3241,
  ". . ": 3242,
  "cost": 3243,
  "ary, ": 3244,
  "ed.”\\u000a\\u000a“": 3245,
  "I must ": 3246,
  "left the ": 3247,
  "best": 3248,
  " mon": 3249,
  "corn": 3250,
  "gon": 3251,
  "entire": 3252,
  "feel ": 3253,
  "beginn": 3254,
  " way": 3255,
  "fully": 3256,
  "man who ": 3257,
  "produc": 3258,
  "ing my ": 3259,
  ". An": 3260,
  "for s": 3261,
  "evening": 3262,
  "from a ": 3263,
  "Lucy ": 3264,
  " to-": 3265,
  "I think ": 3266,
  "comfort": 3267,
  "firm": 3268,
  "delight": 3269,
  "not the ": 3270,
  ", with ": 3271,
  "pati": 3272,
  "blow": 3273,
  "finish": 3274,
  "intend": 3275,
  "blood ": 3276,
  "pet": 3277,
  "pear": 3278,
  "once": 3279,
  "er\\u000a": 3280,
  ",\" the ": 3281,
  "ited ": 3282,
  "crew": 3283,
  "ait ": 3284,
  "entered the ": 3285,
  "Po": 3286,
  " anything ": 3287,
  "we were ": 3288,
  "fair": 3289,
  "extend": 3290,
  "ez": 3291,
  ", where ": 3292,
  "ester": 3293,
  "itself": 3294,
  "istr": 3295,
  "ing this ": 3296,
  "soci": 3297,
  "maj": 3298,
  "mus": 3299,
  " times ": 3300,
  "electric": 3301,
  "ing-room": 3302,
  "bray": 3303,
  "electronic": 3304,
  "?\"": 3305,
  "ort ": 3306,
  "cab": 3307,
  " a sec": 3308,
  ",” said he, “": 3309,
  "you.”\\u000a\\u000a“": 3310,
  " to have ": 3311,
  "choo": 3312,
  "vict": 3313,
  " though ": 3314,
  "ured": 3315,
  ", and then ": 3316,
  "sequ": 3317,
  "ing it ": 3318,
  "indic": 3319,
  "our s": 3320,
  "different ": 3321,
  "refull": 3322,
  "expression": 3323,
  ". Then ": 3324,
  "distribut": 3325,
  "Château-Renaud": 3326,
  "17": 3327,
  "between the ": 3328,
  "La ": 3329,
  "disturb": 3330,
  ", turn": 3331,
  "?”\\u000a\\u000a“I ": 3332,
  " to see ": 3333,
  "requi": 3334,
  "pale ": 3335,
  " tom": 3336,
  "uneas": 3337,
  " angr": 3338,
  "hadow": 3339,
  "e, he ": 3340,
  "disappeared": 3341,
  "s and": 3342,
  "counter": 3343,
  "move ": 3344,
  "s with": 3345,
  "ed s": 3346,
  "yell": 3347,
  "I saw": 3348,
  "Debray": 3349,
  "have\\u000a": 3350,
  "be\\u000a": 3351,
  "bad": 3352,
  "host": 3353,
  "peci": 3354,
  "carcely ": 3355,
  " to make ": 3356,
  "hundred": 3357,
  "Caderousse ": 3358,
  "gest": 3359,
  "might": 3360,
  "Why ": 3361,
  "does not ": 3362,
  "myself ": 3363,
  "alth": 3364,
  "miss": 3365,
  "ed this ": 3366,
  "exclaimed ": 3367,
  "join": 3368,
  "Lou": 3369,
  "name": 3370,
  "ible": 3371,
  "hit": 3372,
  "Professor": 3373,
  "brain": 3374,
  "resum": 3375,
  " attack": 3376,
  "counten": 3377,
  "s with ": 3378,
  "there ": 3379,
  "pac": 3380,
  "gloom": 3381,
  "best ": 3382,
  " there is ": 3383,
  "neith": 3384,
  "previ": 3385,
  "or of ": 3386,
  "change ": 3387,
  ", since ": 3388,
  "impossible ": 3389,
  "frequ": 3390,
  "on her ": 3391,
  "horiz": 3392,
  " throat": 3393,
  "Cassie": 3394,
  " affect": 3395,
  "ed into ": 3396,
  "bas": 3397,
  "exec": 3398,
  "not a ": 3399,
  "until ": 3400,
  "cheek": 3401,
  "ed, the ": 3402,
  " anything": 3403,
  "do not": 3404,
  "reply": 3405,
  "ually ": 3406,
  "ed that": 3407,
  ",” he ": 3408,
  "circumstanc": 3409,
  "ides, ": 3410,
  "pose": 3411,
  "ing at the ": 3412,
  "selves ": 3413,
  "world ": 3414,
  "nois": 3415,
  "ituation": 3416,
  "ord ": 3417,
  "carefull": 3418,
  "ed from ": 3419,
  "ignor": 3420,
  "heavy ": 3421,
  "velop": 3422,
  "Andrea ": 3423,
  "island": 3424,
  "usual ": 3425,
  "pleasant": 3426,
  "outh ": 3427,
  "poor": 3428,
  ".”\\u000a\\u000a“What ": 3429,
  "woman": 3430,
  "lift": 3431,
  "let us ": 3432,
  "def": 3433,
  " to her ": 3434,
  "years ": 3435,
  "agu": 3436,
  "udi": 3437,
  "of the\\u000a": 3438,
  "platform": 3439,
  "\\u000a\\u000a\"": 3440,
  "ers, ": 3441,
  "usual": 3442,
  " and s": 3443,
  "bly ": 3444,
  "Have ": 3445,
  ",” cried ": 3446,
  " mur": 3447,
  " as I ": 3448,
  "quickly": 3449,
  "chief": 3450,
  ", whose ": 3451,
  "herself ": 3452,
  "feat": 3453,
  "fli": 3454,
  "s to the ": 3455,
  "For": 3456,
  "emotion ": 3457,
  "Ned Land": 3458,
  " appeared ": 3459,
  "writ": 3460,
  " a little ": 3461,
  "ven ": 3462,
  "does": 3463,
  "coat": 3464,
  "No ": 3465,
  "; she ": 3466,
  "days ": 3467,
  "destro": 3468,
  "thought ": 3469,
  "ed at": 3470,
  "glass ": 3471,
  "tim": 3472,
  "hour ": 3473,
  "except": 3474,
  "diam": 3475,
  "for his ": 3476,
  "hun": 3477,
  "gain": 3478,
  "Thomas": 3479,
  "Ab": 3480,
  "color": 3481,
  " about the ": 3482,
  ".\\u000a\\u000a“Yes": 3483,
  "money": 3484,
  "ray ": 3485,
  "known ": 3486,
  "in that ": 3487,
  "itude": 3488,
  "Bec": 3489,
  "bran": 3490,
  "myster": 3491,
  "langu": 3492,
  "const": 3493,
  "forgott": 3494,
  "van": 3495,
  "eff": 3496,
  "secon": 3497,
  "though": 3498,
  "either ": 3499,
  "past ": 3500,
  " water": 3501,
  "ward ": 3502,
  "ness, ": 3503,
  "ured ": 3504,
  "key": 3505,
  "cell": 3506,
  "es,\\u000a": 3507,
  "Invisible ": 3508,
  "ina": 3509,
  "requ": 3510,
  "he is ": 3511,
  ",” continued ": 3512,
  "I know ": 3513,
  "captain ": 3514,
  "Rue ": 3515,
  "ing with": 3516,
  "obli": 3517,
  " whom": 3518,
  "hell": 3519,
  "despair": 3520,
  "help ": 3521,
  "wit": 3522,
  "he was": 3523,
  "second ": 3524,
  "ia": 3525,
  "waves": 3526,
  "told ": 3527,
  "ing up": 3528,
  "extra": 3529,
  "onn": 3530,
  "Project Gutenberg-tm": 3531,
  "realis": 3532,
  "11": 3533,
  "resent": 3534,
  "orm": 3535,
  " accord": 3536,
  "row ": 3537,
  "we are ": 3538,
  "word ": 3539,
  "his t": 3540,
  ".”\\u000a\\u000a“Well": 3541,
  ". No": 3542,
  "in your ": 3543,
  "of their ": 3544,
  "e, “": 3545,
  "’re ": 3546,
  "perio": 3547,
  "fire": 3548,
  "count’s ": 3549,
  "...": 3550,
  "gy": 3551,
  ",” said Albert": 3552,
  "d’Avrign": 3553,
  ".\\u000a\\u000a\\u000a\\u000a": 3554,
  "cage ": 3555,
  "                                                   ": 3556,
  "it's ": 3557,
  "epp": 3558,
  "reat": 3559,
  ", when ": 3560,
  "grat": 3561,
  ", you ": 3562,
  "kind ": 3563,
  "more than ": 3564,
  "becaus": 3565,
  "ress ": 3566,
  "ed out ": 3567,
  "be t": 3568,
  "ort of ": 3569,
  "ed himself": 3570,
  " tried to ": 3571,
  "polit": 3572,
  " also": 3573,
  "ing for": 3574,
  "bol": 3575,
  "soon ": 3576,
  "histor": 3577,
  "fun": 3578,
  "ativ": 3579,
  "face of the ": 3580,
  ".\\u000aShe ": 3581,
  "eight ": 3582,
  "glanc": 3583,
  "Come, ": 3584,
  "though ": 3585,
  "ed; ": 3586,
  "ertain": 3587,
  "lem": 3588,
  "habit": 3589,
  "country": 3590,
  "us, ": 3591,
  "such a ": 3592,
  " acqu": 3593,
  "desir": 3594,
  "dim": 3595,
  "length": 3596,
  "for him": 3597,
  "close ": 3598,
  " accept": 3599,
  "of anger": 3600,
  "....": 3601,
  "experienc": 3602,
  " to take ": 3603,
  "lower": 3604,
  ", “that ": 3605,
  " as to ": 3606,
  "e—": 3607,
  "wis": 3608,
  "blue ": 3609,
  " whom ": 3610,
  "nor ": 3611,
  "render": 3612,
  "is to ": 3613,
  "ed in a ": 3614,
  "ring": 3615,
  "occasion": 3616,
  ". One ": 3617,
  "might be ": 3618,
  "yester": 3619,
  "resist": 3620,
  "es are ": 3621,
  "phys": 3622,
  ". It was": 3623,
  "iron": 3624,
  "below": 3625,
  "pursu": 3626,
  "Fari": 3627,
  "Dr. S": 3628,
  "…": 3629,
  "ister": 3630,
  "iff": 3631,
  "onc": 3632,
  "mast": 3633,
  "die ": 3634,
  ": “": 3635,
  "ay, ": 3636,
  " B": 3637,
  "foll": 3638,
  "rapid": 3639,
  "shall": 3640,
  "uel": 3641,
  " sur": 3642,
  "strain": 3643,
  "reh": 3644,
  "lost": 3645,
  "ed to be ": 3646,
  "e.\\u000a\\u000a“": 3647,
  "wear": 3648,
  "hy": 3649,
  "perm": 3650,
  "proceed": 3651,
  " arrang": 3652,
  "ball": 3653,
  "second": 3654,
  "proper": 3655,
  ". Then he ": 3656,
  "ial": 3657,
  "oper": 3658,
  "human": 3659,
  "Lord ": 3660,
  "fish ": 3661,
  ". Van Hels": 3662,
  ".’\\u000a": 3663,
  "o'": 3664,
  "Co": 3665,
  "Noirtier ": 3666,
  "hear ": 3667,
  "crow": 3668,
  "e that the ": 3669,
  "let me ": 3670,
  " tell me ": 3671,
  "of all": 3672,
  "ming": 3673,
  "answer": 3674,
  "ously": 3675,
  "here, ": 3676,
  ". So ": 3677,
  "repeat": 3678,
  "collar": 3679,
  "ed,\\u000a": 3680,
  "couldn't ": 3681,
  "seiz": 3682,
  "off the ": 3683,
  "oud ": 3684,
  "with a s": 3685,
  "doubt ": 3686,
  "ate, ": 3687,
  "movement": 3688,
  "s of his ": 3689,
  "comple": 3690,
  "ety": 3691,
  "ed with a ": 3692,
  "perceiv": 3693,
  "sigh": 3694,
  "ense": 3695,
  "pap": 3696,
  ". And": 3697,
  ", however": 3698,
  "ities": 3699,
  "pray": 3700,
  "perfectly ": 3701,
  "getting ": 3702,
  "usion": 3703,
  "ier": 3704,
  "ing them": 3705,
  "not\\u000a": 3706,
  "harpo": 3707,
  "Saint-Méran": 3708,
  "i ": 3709,
  "days": 3710,
  "going": 3711,
  "presence ": 3712,
  "gar": 3713,
  "my dear ": 3714,
  "letter ": 3715,
  "s it ": 3716,
  "s which ": 3717,
  "e; ": 3718,
  "need ": 3719,
  "for you": 3720,
  "content": 3721,
  "opin": 3722,
  "course": 3723,
  "devo": 3724,
  "person ": 3725,
  "recollect": 3726,
  "deep ": 3727,
  ", was ": 3728,
  "ual": 3729,
  "loy": 3730,
  " that she ": 3731,
  "caught ": 3732,
  "Jack": 3733,
  ".\\u000aI ": 3734,
  "I'm ": 3735,
  "oman ": 3736,
  "ende": 3737,
  "mall": 3738,
  "Let ": 3739,
  " trou": 3740,
  "manag": 3741,
  "unable to ": 3742,
  "me that ": 3743,
  "see the ": 3744,
  "Do you ": 3745,
  "s on the ": 3746,
  " ann": 3747,
  "Did ": 3748,
  "decid": 3749,
  "wea": 3750,
  "liber": 3751,
  "father’s ": 3752,
  "aught": 3753,
  "hot": 3754,
  " whose ": 3755,
  "like to ": 3756,
  "obtain": 3757,
  "servant": 3758,
  ". It is ": 3759,
  "ceas": 3760,
  "lab": 3761,
  "Ro": 3762,
  "10": 3763,
  "eppin": 3764,
  "young man ": 3765,
  "Certain": 3766,
  "sat ": 3767,
  "sive ": 3768,
  "must have ": 3769,
  "entirely ": 3770,
  "promise ": 3771,
  "ingly": 3772,
  "consequ": 3773,
  " address": 3774,
  "have to ": 3775,
  "protect": 3776,
  " sp": 3777,
  ", “I ": 3778,
  "of some ": 3779,
  "it to ": 3780,
  "In the ": 3781,
  "itch": 3782,
  " till": 3783,
  ") ": 3784,
  "Debra": 3785,
  "Hark": 3786,
  "Found": 3787,
  "IN": 3788,
  ",\" said the ": 3789,
  "Re": 3790,
  "on board": 3791,
  "?” asked the ": 3792,
  "—the ": 3793,
  "ed from the ": 3794,
  ".’\\u000a\\u000a“‘": 3795,
  ". I was ": 3796,
  "Inde": 3797,
  ". For": 3798,
  " they are ": 3799,
  "dam": 3800,
  "part of the ": 3801,
  "fru": 3802,
  "cat": 3803,
  "grief": 3804,
  "subject ": 3805,
  "nearly ": 3806,
  "Per": 3807,
  "engag": 3808,
  "grad": 3809,
  "rac": 3810,
  "immediately ": 3811,
  "ed into the ": 3812,
  "disappear": 3813,
  "irrit": 3814,
  "later": 3815,
  "you\\u000a": 3816,
  "especi": 3817,
  "rop": 3818,
  "time ": 3819,
  "I saw ": 3820,
  "everything ": 3821,
  "for me": 3822,
  ", and we ": 3823,
  "ance of ": 3824,
  "bright": 3825,
  "knif": 3826,
  "live": 3827,
  ", as he ": 3828,
  "sal": 3829,
  "imil": 3830,
  ",” returned ": 3831,
  " an hour": 3832,
  "dinner": 3833,
  "e,": 3834,
  "heard the ": 3835,
  "e time ": 3836,
  "meet": 3837,
  "indeed": 3838,
  "should be ": 3839,
  "ations ": 3840,
  "sav": 3841,
  "wol": 3842,
  "um ": 3843,
  "ew ": 3844,
  "dead ": 3845,
  ". That ": 3846,
  "bit ": 3847,
  "Em": 3848,
  " A": 3849,
  "25": 3850,
  "azz": 3851,
  "Di": 3852,
  " afterward": 3853,
  "war": 3854,
  "quar": 3855,
  "purcha": 3856,
  " say": 3857,
  "easily ": 3858,
  "age, ": 3859,
  "flower": 3860,
  ", had ": 3861,
  "ied ": 3862,
  "procure": 3863,
  "intell": 3864,
  " at all": 3865,
  "exact": 3866,
  "ract": 3867,
  " tor": 3868,
  ",” said Villefort": 3869,
  "laid ": 3870,
  "you may ": 3871,
  "ild ": 3872,
  "sle": 3873,
  "in its ": 3874,
  " degrees ": 3875,
  "'s\\u000a": 3876,
  "'ve ": 3877,
  "appear": 3878,
  "danger": 3879,
  "Why, ": 3880,
  " after the ": 3881,
  ".\\u000a\\u000a“Well": 3882,
  "if I ": 3883,
  "alk ": 3884,
  ".\\u000a\\u000a“‘": 3885,
  "faith": 3886,
  "pick": 3887,
  "ublic": 3888,
  " together": 3889,
  "of which ": 3890,
  " of his ": 3891,
  "blind": 3892,
  "; that ": 3893,
  "heaven": 3894,
  "free ": 3895,
  "remov": 3896,
  ". Now": 3897,
  "hid": 3898,
  "sent ": 3899,
  "back to ": 3900,
  "street": 3901,
  " alone": 3902,
  "pon": 3903,
  "I ask": 3904,
  "ground ": 3905,
  "coast": 3906,
  ".\\u000aS": 3907,
  "Canadian ": 3908,
  "40": 3909,
  "ired ": 3910,
  "?” inqui": 3911,
  "particular": 3912,
  "you can ": 3913,
  "I shall": 3914,
  "\\u000a\\u000a\\u000a\\u000aChapter ": 3915,
  " time, ": 3916,
  "did you ": 3917,
  "?” said the ": 3918,
  " assu": 3919,
  "like a": 3920,
  "deli": 3921,
  ", but the ": 3922,
  "completely ": 3923,
  "search": 3924,
  "ung ": 3925,
  "agger": 3926,
  "ies of ": 3927,
  "garden": 3928,
  "certainly ": 3929,
  " while ": 3930,
  " able to ": 3931,
  "valu": 3932,
  "point ": 3933,
  "family": 3934,
  "cloud": 3935,
  "way, ": 3936,
  "ctor ": 3937,
  "nific": 3938,
  "Count of Monte Cristo": 3939,
  "side the ": 3940,
  ", sir, ": 3941,
  "else": 3942,
  "in m": 3943,
  "lose ": 3944,
  "instead of ": 3945,
  "I think": 3946,
  "e thing": 3947,
  "rad": 3948,
  " with his ": 3949,
  "charac": 3950,
  "character": 3951,
  "met ": 3952,
  "hile ": 3953,
  "ation, ": 3954,
  "exha": 3955,
  "next": 3956,
  "persons ": 3957,
  "tri": 3958,
  "took ": 3959,
  "!\\u000a\\u000a": 3960,
  "!’": 3961,
  "THE ": 3962,
  "—and ": 3963,
  " to a": 3964,
  "inqu": 3965,
  "lid": 3966,
  " thus ": 3967,
  " murmu": 3968,
  "it.”\\u000a\\u000a“": 3969,
  "ingly ": 3970,
  "explain": 3971,
  " that, ": 3972,
  "man, ": 3973,
  "my friend": 3974,
  "ed up ": 3975,
  "e than ": 3976,
  "e of his ": 3977,
  "soul": 3978,
  "div": 3979,
  "prop": 3980,
  "es were ": 3981,
  "often ": 3982,
  "stone ": 3983,
  "fashi": 3984,
  "study": 3985,
  "urch": 3986,
  "00 ": 3987,
  "meric": 3988,
  ".\\u000aH": 3989,
  ". I\\u000a": 3990,
  "Arthur": 3991,
  "Godal": 3992,
  "nav": 3993,
  "M. Morrel": 3994,
  "struction": 3995,
  "yes, ": 3996,
  "in the midst ": 3997,
  ", after ": 3998,
  "cry": 3999,
  "more than": 4000,
  "forward": 4001,
  "; we ": 4002,
  "you would ": 4003,
  " time to ": 4004,
  "really": 4005,
  "I want": 4006,
  "lli": 4007,
  "rif": 4008,
  "non": 4009,
  "usually ": 4010,
  "leas": 4011,
  "million": 4012,
  "Ter": 4013,
  "cut ": 4014,
  "monsieur": 4015,
  ", there": 4016,
  " went ": 4017,
  "ordinary ": 4018,
  "seas": 4019,
  "iron ": 4020,
  "ly and ": 4021,
  "ming ": 4022,
  "ing on": 4023,
  "horse": 4024,
  "ed the count": 4025,
  "Island": 4026,
  "from\\u000a": 4027,
  " acc": 4028,
  "arriv": 4029,
  "eager": 4030,
  "mile": 4031,
  "I told ": 4032,
  "endeavor": 4033,
  "ely, ": 4034,
  "abil": 4035,
  "ular": 4036,
  "orig": 4037,
  "ed its ": 4038,
  "stup": 4039,
  "ton": 4040,
  ".” The ": 4041,
  " teeth": 4042,
  "o, ": 4043,
  "sens": 4044,
  "feeling ": 4045,
  "corner": 4046,
  "gather": 4047,
  "cause ": 4048,
  "ge, ": 4049,
  ", not ": 4050,
  "is it": 4051,
  "kno": 4052,
  "lamp": 4053,
  " sleep": 4054,
  "presid": 4055,
  "poison": 4056,
  "jew": 4057,
  ". She was ": 4058,
  "ok": 4059,
  "Americ": 4060,
  "in the\\u000a": 4061,
  "?”\\u000a“": 4062,
  "Aronn": 4063,
  "Aronnax": 4064,
  "so much": 4065,
  "ly, and ": 4066,
  "pard": 4067,
  "of what ": 4068,
  "coming": 4069,
  "he has ": 4070,
  " affair": 4071,
  "s of s": 4072,
  "happy": 4073,
  "glas": 4074,
  "neigh": 4075,
  "wound": 4076,
  "table": 4077,
  "held": 4078,
  "Mercédès ": 4079,
  " as they ": 4080,
  "pict": 4081,
  ". At": 4082,
  " such ": 4083,
  " terrible ": 4084,
  "; for ": 4085,
  "?”\\u000a\\u000a“Yes.”\\u000a\\u000a“": 4086,
  "rust": 4087,
  "ett": 4088,
  " a moment ": 4089,
  "mann": 4090,
  "der ": 4091,
  "n’t": 4092,
  "ed. ": 4093,
  "govern": 4094,
  "bound": 4095,
  "ice, ": 4096,
  "copy": 4097,
  "leagu": 4098,
  "you wish": 4099,
  "opened the ": 4100,
  " a few": 4101,
  "in some ": 4102,
  "begin": 4103,
  "nel": 4104,
  "immen": 4105,
  "volunt": 4106,
  "escape ": 4107,
  " trying to ": 4108,
  "three ": 4109,
  "apt": 4110,
  "Juli": 4111,
  "Joh": 4112,
  "Barro": 4113,
  "I've ": 4114,
  "ember ": 4115,
  " at his ": 4116,
  "ile": 4117,
  "cred": 4118,
  " taken": 4119,
  " to me ": 4120,
  ", though ": 4121,
  ".”\\u000a\\u000a“Ah, ": 4122,
  "paus": 4123,
  "now, ": 4124,
  "money ": 4125,
  "into his ": 4126,
  " was the ": 4127,
  "uddenly ": 4128,
  "respond": 4129,
  "suffici": 4130,
  "in a s": 4131,
  " things ": 4132,
  "back to the ": 4133,
  "near ": 4134,
  "yi": 4135,
  " a th": 4136,
  "nect": 4137,
  "ender": 4138,
  "e than": 4139,
  "e through": 4140,
  " at this ": 4141,
  "corp": 4142,
  " to do": 4143,
  " action": 4144,
  "reck": 4145,
  "horizon": 4146,
  "curr": 4147,
  ", though": 4148,
  "mas": 4149,
  "Épin": 4150,
  "\\u000aof the ": 4151,
  "Madam ": 4152,
  ".\"\\u000a": 4153,
  "harpoon": 4154,
  ":\\u000a\\u000a\"": 4155,
  "27": 4156,
  "16": 4157,
  ", who was ": 4158,
  "it seem": 4159,
  "self-": 4160,
  "?”\\u000a\\u000a“A": 4161,
  "intention": 4162,
  "clock in the ": 4163,
  "morning ": 4164,
  "came to ": 4165,
  "replied ": 4166,
  "bare": 4167,
  "bad ": 4168,
  "ench": 4169,
  "ed a s": 4170,
  "ed—": 4171,
  "already ": 4172,
  "indeed, ": 4173,
  "decl": 4174,
  "writt": 4175,
  "struck ": 4176,
  "which the ": 4177,
  "in, ": 4178,
  ". I am ": 4179,
  "eye": 4180,
  "day, ": 4181,
  "door open": 4182,
  "return ": 4183,
  "away": 4184,
  "knows ": 4185,
  "home": 4186,
  "ument": 4187,
  "care ": 4188,
  "emer": 4189,
  "d’Épin": 4190,
  "Peppin": 4191,
  "Madame de Villefort ": 4192,
  "1.E": 4193,
  ":\\u000a": 4194,
  "Quince": 4195,
  "Invisible Man": 4196,
  " anyone ": 4197,
  "and of ": 4198,
  "did not": 4199,
  " an a": 4200,
  "wrong": 4201,
  " answered ": 4202,
  "?”\\u000a\\u000a“Yes, ": 4203,
  ",” said Morrel": 4204,
  "glad": 4205,
  "dark ": 4206,
  "boy": 4207,
  "al, ": 4208,
  " along the ": 4209,
  " well": 4210,
  "exhaust": 4211,
  "curios": 4212,
  "burst ": 4213,
  "ally, ": 4214,
  "pleasant ": 4215,
  "mot": 4216,
  "squ": 4217,
  "in order": 4218,
  "grou": 4219,
  "demand": 4220,
  "necessary": 4221,
  "ed and": 4222,
  "guil": 4223,
  "interest ": 4224,
  ".”\\u000a\\u000a“Oh, ": 4225,
  "fear ": 4226,
  " attempt": 4227,
  "jail": 4228,
  "cage": 4229,
  "weak": 4230,
  "detail": 4231,
  "I went ": 4232,
  "shout": 4233,
  "about ": 4234,
  "devil": 4235,
  "midd": 4236,
  "plant": 4237,
  "develop": 4238,
  ".’ He ": 4239,
  "Dr. Seward": 4240,
  "one\\u000a": 4241,
  " this\\u000a": 4242,
  "Professor Aronnax": 4243,
  "AR": 4244,
  "S ": 4245,
  "ourne": 4246,
  "top": 4247,
  ", with a ": 4248,
  "display": 4249,
  "king ": 4250,
  "sure ": 4251,
  "pat": 4252,
  "bird": 4253,
  "forget": 4254,
  "isher": 4255,
  "ides": 4256,
  "fall ": 4257,
  "leap": 4258,
  "s, he ": 4259,
  "One ": 4260,
  "restor": 4261,
  ", who had ": 4262,
  "fold": 4263,
  " twenty ": 4264,
  "ux": 4265,
  "faint": 4266,
  "mel": 4267,
  " adm": 4268,
  "ation of the ": 4269,
  " an un": 4270,
  "ism": 4271,
  "level": 4272,
  "employ": 4273,
  "bly": 4274,
  " might ": 4275,
  "compl": 4276,
  "forehead": 4277,
  "real ": 4278,
  "hunt": 4279,
  "used to ": 4280,
  "Morcerf ": 4281,
  ",\\u000aand": 4282,
  "professor": 4283,
  "on't ": 4284,
  "thor": 4285,
  "EN": 4286,
  "13": 4287,
  "ox": 4288,
  "uper": 4289,
  "who had ": 4290,
  "drew": 4291,
  "propos": 4292,
  "no longer": 4293,
  " thank": 4294,
  "ing out ": 4295,
  "s, but ": 4296,
  "made a ": 4297,
  "mention": 4298,
  ", and to ": 4299,
  "e to be ": 4300,
  "Beca": 4301,
  ", a s": 4302,
  "beautiful ": 4303,
  "public": 4304,
  "e there ": 4305,
  "eal": 4306,
  " is ": 4307,
  "?”\\u000a\\u000a“Oh, ": 4308,
  "lant": 4309,
  "inci": 4310,
  "evidently ": 4311,
  "influ": 4312,
  "eless": 4313,
  "coach": 4314,
  " art": 4315,
  "silent": 4316,
  "connect": 4317,
  ", and his ": 4318,
  "pron": 4319,
  ",’ said ": 4320,
  "full of ": 4321,
  ". When": 4322,
  ".”\\u000a\\u000a“Ah": 4323,
  "guess": 4324,
  "save ": 4325,
  "ber of ": 4326,
  "strugg": 4327,
  " the sur": 4328,
  "Emman": 4329,
  "of\\u000athe ": 4330,
  "Mr. H": 4331,
  "19": 4332,
  "eptember": 4333,
  "Bo": 4334,
  ".\\u000a\\u000a“And ": 4335,
  "super": 4336,
  " trembl": 4337,
  "; it ": 4338,
  "mile ": 4339,
  "sing": 4340,
  ", her ": 4341,
  "always ": 4342,
  "eper": 4343,
  " account": 4344,
  "ute ": 4345,
  ", too": 4346,
  "To": 4347,
  "for my ": 4348,
  "conduct": 4349,
  "oppos": 4350,
  "—that ": 4351,
  " against": 4352,
  "nation": 4353,
  "cold ": 4354,
  "out the ": 4355,
  "viv": 4356,
  "XV": 4357,
  "noble ": 4358,
  "poli": 4359,
  "went on": 4360,
  " sec": 4361,
  "darkness": 4362,
  "adv": 4363,
  "guard": 4364,
  "understood": 4365,
  " in the ": 4366,
  "inspect": 4367,
  "shap": 4368,
  " the sun": 4369,
  "1.E.": 4370,
  "ctor Jack": 4371,
  "n't": 4372,
  ",\" I ": 4373,
  "Cors": 4374,
  "Vam": 4375,
  "prev": 4376,
  "buri": 4377,
  "ing for ": 4378,
  "ing me ": 4379,
  "hasten": 4380,
  "him to ": 4381,
  " that they ": 4382,
  " took the ": 4383,
  "when I ": 4384,
  "een": 4385,
  " that this ": 4386,
  "beside ": 4387,
  "low ": 4388,
  "boo": 4389,
  " as if": 4390,
  ".\\u000a\\u000a“What ": 4391,
  "straight": 4392,
  "general ": 4393,
  "refer": 4394,
  "family ": 4395,
  "edg": 4396,
  "ably": 4397,
  "encounter": 4398,
  "knock": 4399,
  "stared": 4400,
  " thousand franc": 4401,
  "finger": 4402,
  "home ": 4403,
  "ed that the ": 4404,
  "pot": 4405,
  "chain": 4406,
  "control": 4407,
  "We": 4408,
  "bag": 4409,
  "cream": 4410,
  ",\" he ": 4411,
  "almost ": 4412,
  "Abbé": 4413,
  ". In the ": 4414,
  "respon": 4415,
  "yard": 4416,
  "should": 4417,
  "I did not ": 4418,
  "provid": 4419,
  "boat ": 4420,
  " appar": 4421,
  "ength ": 4422,
  ". Well": 4423,
  ", without ": 4424,
  "ruin": 4425,
  " as we ": 4426,
  "up and ": 4427,
  "swer ": 4428,
  "French ": 4429,
  " make ": 4430,
  "unic": 4431,
  "is, ": 4432,
  "I had": 4433,
  "ingu": 4434,
  "bon": 4435,
  "These ": 4436,
  "high ": 4437,
  "as he ": 4438,
  "from her ": 4439,
  "havi": 4440,
  "noon": 4441,
  " than the ": 4442,
  "child ": 4443,
  "lord": 4444,
  "rab": 4445,
  "electronic work": 4446,
  " at\\u000a": 4447,
  "replied, \"": 4448,
  "graph": 4449,
  ". How": 4450,
  "alt": 4451,
  "uig": 4452,
  "entran": 4453,
  "serve ": 4454,
  " and his ": 4455,
  " assure ": 4456,
  ",—“": 4457,
  "ital": 4458,
  "I thought ": 4459,
  "brought": 4460,
  "face, ": 4461,
  "sembl": 4462,
  "pist": 4463,
  "rever": 4464,
  " twel": 4465,
  "beneath the ": 4466,
  "ed to his ": 4467,
  "drop": 4468,
  "yield": 4469,
  "Where ": 4470,
  "over his ": 4471,
  "Here ": 4472,
  "” ": 4473,
  "where the ": 4474,
  "could be ": 4475,
  "noise ": 4476,
  ". At the ": 4477,
  "into her ": 4478,
  "m L": 4479,
  "for\\u000a": 4480,
  ". She\\u000a": 4481,
  ".\\u000aHe ": 4482,
  ",\" he said": 4483,
  "Bertuccio": 4484,
  "saf": 4485,
  "ure of ": 4486,
  "?”\\u000a\\u000a“The ": 4487,
  " apart": 4488,
  " a word": 4489,
  " should ": 4490,
  "uggl": 4491,
  "door, ": 4492,
  "ing you": 4493,
  "ity of the ": 4494,
  "rapp": 4495,
  "s, which": 4496,
  "common": 4497,
  "me the ": 4498,
  "—a ": 4499,
  "journe": 4500,
  "hang": 4501,
  "took": 4502,
  "upp": 4503,
  "following ": 4504,
  "familiar": 4505,
  "either": 4506,
  ". All": 4507,
  " almost": 4508,
  "nature ": 4509,
  "impress": 4510,
  "excellent ": 4511,
  "atic": 4512,
  "punish": 4513,
  "whisper": 4514,
  "stood": 4515,
  "s. He ": 4516,
  "he would ": 4517,
  "visible": 4518,
  "lower ": 4519,
  "abl": 4520,
  "behavi": 4521,
  "orn": 4522,
  "ift": 4523,
  "footstep": 4524,
  "jaw": 4525,
  "ular ": 4526,
  "Pa": 4527,
  " a single ": 4528,
  "Eur": 4529,
  "your excellency": 4530,
  "Foundation": 4531,
  "my\\u000a": 4532,
  "we\\u000a": 4533,
  " was\\u000a": 4534,
  " L": 4535,
  "**": 4536,
  "14": 4537,
  "eight": 4538,
  "interrupt": 4539,
  "ior": 4540,
  "charg": 4541,
  "I wish": 4542,
  "Why": 4543,
  "paid ": 4544,
  "struggl": 4545,
  "clam": 4546,
  "dd": 4547,
  "oblig": 4548,
  "ervant": 4549,
  "As ": 4550,
  "ing him ": 4551,
  "chec": 4552,
  "give me ": 4553,
  "people": 4554,
  "die": 4555,
  "I don’t ": 4556,
  "separ": 4557,
  " to do ": 4558,
  "pistol": 4559,
  "dest": 4560,
  "France": 4561,
  "la": 4562,
  "success": 4563,
  "ifi": 4564,
  " sil": 4565,
  "mother ": 4566,
  "ed their ": 4567,
  "in-": 4568,
  "M. Noirtier": 4569,
  "carry": 4570,
  " asleep": 4571,
  "enjoy": 4572,
  "loc": 4573,
  " then the ": 4574,
  "Europ": 4575,
  "said:—\\u000a“": 4576,
  "Pha": 4577,
  "Na": 4578,
  "latter": 4579,
  "invit": 4580,
  "ed, “": 4581,
  "suddenly": 4582,
  " anxious": 4583,
  "es.”\\u000a\\u000a“": 4584,
  "his eyes ": 4585,
  "reached the ": 4586,
  "; “and ": 4587,
  "ender ": 4588,
  "sto": 4589,
  "fisher": 4590,
  "saw the ": 4591,
  "destroy": 4592,
  "big ": 4593,
  "ult ": 4594,
  "pract": 4595,
  "effect ": 4596,
  "ee": 4597,
  "bour": 4598,
  "brilli": 4599,
  "pretty ": 4600,
  " acquaint": 4601,
  "pole": 4602,
  "Med": 4603,
  "prisoner": 4604,
  "ple ": 4605,
  "studi": 4606,
  "years": 4607,
  "room, ": 4608,
  "introduc": 4609,
  "s have ": 4610,
  " at once ": 4611,
  "beyond": 4612,
  "grew ": 4613,
  "enorm": 4614,
  "enough ": 4615,
  "further": 4616,
  "etto": 4617,
  "could\\u000a": 4618,
  "were\\u000a": 4619,
  "ed.\\u000a‘": 4620,
  ", by ": 4621,
  "12": 4622,
  "omb": 4623,
  "RE": 4624,
  " accustom": 4625,
  " all s": 4626,
  "ations": 4627,
  " twenty-": 4628,
  " ago": 4629,
  "future ": 4630,
  " tomorrow": 4631,
  "fifte": 4632,
  "brother": 4633,
  "terrible ": 4634,
  "expression ": 4635,
  "cast ": 4636,
  "Good": 4637,
  " at a ": 4638,
  "court": 4639,
  "kill ": 4640,
  "end of the ": 4641,
  "reason ": 4642,
  " supp": 4643,
  "guest": 4644,
  "on the contr": 4645,
  " seemed to ": 4646,
  "quis": 4647,
  "desert": 4648,
  "claim": 4649,
  "when we ": 4650,
  ". Oh, ": 4651,
  "portion": 4652,
  "ter ": 4653,
  " announc": 4654,
  "which was ": 4655,
  "horses": 4656,
  "different": 4657,
  "sight": 4658,
  "spot": 4659,
  "sli": 4660,
  "moon": 4661,
  ".\\u000aIt ": 4662,
  "couldn’t ": 4663,
  "Vampa": 4664,
  ", which was ": 4665,
  " are you ": 4666,
  "ometimes ": 4667,
  "occupi": 4668,
  "wel": 4669,
  "stead": 4670,
  " month": 4671,
  " to speak": 4672,
  "iment": 4673,
  "entire ": 4674,
  "lips": 4675,
  "bed ": 4676,
  "chief ": 4677,
  ". No ": 4678,
  " whole ": 4679,
  "ruth": 4680,
  "ates ": 4681,
  "nature": 4682,
  "calcul": 4683,
  "iction": 4684,
  "abo": 4685,
  "short": 4686,
  "corrid": 4687,
  " sub": 4688,
  "cape": 4689,
  " ton": 4690,
  "ing on ": 4691,
  "ravell": 4692,
  "rose": 4693,
  "fal": 4694,
  "natural": 4695,
  "huge ": 4696,
  "le of the ": 4697,
  " white ": 4698,
  "Van": 4699,
  "or\\u000a": 4700,
  "on\\u000a": 4701,
  "’s\\u000a": 4702,
  "Mr. Marvel": 4703,
  "buil": 4704,
  "sail": 4705,
  "considerable ": 4706,
  " a man": 4707,
  "ed, and the ": 4708,
  "Danglars, “": 4709,
  ", un": 4710,
  "dropp": 4711,
  "dieu": 4712,
  " turned ": 4713,
  "!” cried ": 4714,
  "sinc": 4715,
  "s from the ": 4716,
  "!—": 4717,
  "chanc": 4718,
  "general": 4719,
  "whil": 4720,
  "origin": 4721,
  "unch": 4722,
  " all that ": 4723,
  "deal": 4724,
  "—“": 4725,
  "him, and ": 4726,
  "steam": 4727,
  " afr": 4728,
  "fool": 4729,
  "procureur": 4730,
  "case": 4731,
  "perfect ": 4732,
  "forth": 4733,
  "had just ": 4734,
  "sound ": 4735,
  "ed some ": 4736,
  "rou": 4737,
  "recall": 4738,
  ", tak": 4739,
  " wish": 4740,
  "result": 4741,
  "foot ": 4742,
  "ras": 4743,
  "g ": 4744,
  "fles": 4745,
  "ia ": 4746,
  "north": 4747,
  "imal ": 4748,
  "Luig": 4749,
  " as\\u000a": 4750,
  "aint ": 4751,
  "Sign": 4752,
  "Phara": 4753,
  "peculi": 4754,
  "impati": 4755,
  "Very ": 4756,
  " true": 4757,
  "follow ": 4758,
  "You have ": 4759,
  "I see ": 4760,
  "all the ": 4761,
  "doing": 4762,
  "it, and ": 4763,
  "vision": 4764,
  "in which ": 4765,
  ".”\\u000a\\u000a“Well, ": 4766,
  "daught": 4767,
  "when she ": 4768,
  "I cannot ": 4769,
  "s, “": 4770,
  "groan": 4771,
  "band ": 4772,
  "plen": 4773,
  "; for": 4774,
  "disappeared ": 4775,
  "on’t ": 4776,
  "glim": 4777,
  "committ": 4778,
  "instinct": 4779,
  "When": 4780,
  "depend": 4781,
  "scarcely ": 4782,
  ", at the ": 4783,
  "monster": 4784,
  "scen": 4785,
  "gone": 4786,
  "broken ": 4787,
  ".\\u000a\\u000a“Oh, ": 4788,
  " the sound ": 4789,
  "of t": 4790,
  "ed a": 4791,
  "ready to ": 4792,
  "knowledge ": 4793,
  " across the ": 4794,
  "finally ": 4795,
  "amm": 4796,
  "Franz, “": 4797,
  "John": 4798,
  "s\\u000aof ": 4799,
  "' ": 4800,
  "underwater ": 4801,
  "meter": 4802,
  ",\" I said": 4803,
  "Corsic": 4804,
  "28": 4805,
  "ence of ": 4806,
  "satisfi": 4807,
  "obey": 4808,
  "Alas": 4809,
  ", like ": 4810,
  "if she ": 4811,
  "ed. “": 4812,
  "; “but ": 4813,
  "with me": 4814,
  "Hea": 4815,
  "grav": 4816,
  "island ": 4817,
  "stern": 4818,
  "neg": 4819,
  "remain ": 4820,
  "unknown": 4821,
  "ool": 4822,
  "was not ": 4823,
  "probably ": 4824,
  "driv": 4825,
  "it would be ": 4826,
  " as well": 4827,
  "umin": 4828,
  "lett": 4829,
  "if we ": 4830,
  "princi": 4831,
  " attend": 4832,
  "e the t": 4833,
  "susp": 4834,
  "umbl": 4835,
  "ures ": 4836,
  "little": 4837,
  " terror": 4838,
  "freed": 4839,
  "carriage": 4840,
  "catch": 4841,
  "acul": 4842,
  "ed an ": 4843,
  "fashion": 4844,
  "pu": 4845,
  "Indi": 4846,
  " till ": 4847,
  "ision": 4848,
  " told": 4849,
  "count, ": 4850,
  "Lon": 4851,
  ". Alber": 4852,
  "equi": 4853,
  "ed. ‘": 4854,
  "parag": 4855,
  "Mina ": 4856,
  ". The\\u000a": 4857,
  "ed\\u000athe ": 4858,
  "It's ": 4859,
  "term": 4860,
  "ww": 4861,
  "bru": 4862,
  "is it ": 4863,
  "voy": 4864,
  "you are": 4865,
  "one who ": 4866,
  "nothing to ": 4867,
  " a small ": 4868,
  "glance ": 4869,
  "ent to ": 4870,
  "her arm": 4871,
  ",” he said, “": 4872,
  "Who ": 4873,
  "An ": 4874,
  "meant": 4875,
  "crush": 4876,
  "neither ": 4877,
  "per ": 4878,
  "just as ": 4879,
  "enth": 4880,
  "ech": 4881,
  "position ": 4882,
  "order ": 4883,
  "station": 4884,
  "s or ": 4885,
  "rig": 4886,
  "knowledg": 4887,
  " many ": 4888,
  "ing the s": 4889,
  "crown": 4890,
  "ically ": 4891,
  "pressure ": 4892,
  "ly to ": 4893,
  "mountain": 4894,
  "story": 4895,
  "number of ": 4896,
  "prepar": 4897,
  "breakfast": 4898,
  "wood": 4899,
  "floor ": 4900,
  " work ": 4901,
  "diamond": 4902,
  "ed herself": 4903,
  "rail": 4904,
  "Ali ": 4905,
  "field": 4906,
  "mand": 4907,
  ".\\u000aBut ": 4908,
  ",\\u000ath": 4909,
  "I'll ": 4910,
  "ed.\\u000a\\u000a\"": 4911,
  "ON": 4912,
  "navig": 4913,
  "occurred": 4914,
  "repeated ": 4915,
  " sail": 4916,
  "you se": 4917,
  "not have ": 4918,
  "ory ": 4919,
  "Are ": 4920,
  "consist": 4921,
  "others ": 4922,
  "rubb": 4923,
  " are the ": 4924,
  "it would ": 4925,
  " thus": 4926,
  "rage": 4927,
  "swa": 4928,
  "shudder": 4929,
  "whel": 4930,
  "explan": 4931,
  "discus": 4932,
  "ved ": 4933,
  "sty": 4934,
  "compreh": 4935,
  "of which": 4936,
  "ities ": 4937,
  "fresh ": 4938,
  "yesterday": 4939,
  "further ": 4940,
  "witness": 4941,
  "hould": 4942,
  "uppose ": 4943,
  "regret": 4944,
  "ent of ": 4945,
  "Pal": 4946,
  "request": 4947,
  "nest": 4948,
  "chamber": 4949,
  " trans": 4950,
  "M. de Villefort ": 4951,
  "by his ": 4952,
  ". These ": 4953,
  "priv": 4954,
  "ituation ": 4955,
  "me, and ": 4956,
  "edi": 4957,
  "etr": 4958,
  "bolt": 4959,
  "carriag": 4960,
  ".\\u000a\\u000a“The ": 4961,
  "soft": 4962,
  "direction": 4963,
  "es in the ": 4964,
  "hort": 4965,
  "individ": 4966,
  " a few ": 4967,
  "inf": 4968,
  "hosp": 4969,
  "ness of ": 4970,
  "various ": 4971,
  "& ": 4972,
  "ed them ": 4973,
  "Madame Danglars": 4974,
  ". Cassie ": 4975,
  "?\"\\u000a\"": 4976,
  "line ": 4977,
  "T ": 4978,
  "* ": 4979,
  ". R": 4980,
  "jump": 4981,
  ", which he ": 4982,
  ", at least": 4983,
  " there were ": 4984,
  "Not ": 4985,
  "warm": 4986,
  " times": 4987,
  " there are ": 4988,
  "with him": 4989,
  ".\\u000a\\u000a\\u000a\\u000a\\u000a\\u000aChapter ": 4990,
  "ue": 4991,
  "s, which ": 4992,
  "deceiv": 4993,
  "his hand": 4994,
  "s which": 4995,
  " that we ": 4996,
  ".”\\u000a\\u000a“I": 4997,
  "My dear ": 4998,
  "approach": 4999,
  "ension": 5000,
  "antly ": 5001,
  "inj": 5002,
  "perhaps, ": 5003,
  "pronounc": 5004,
  " much ": 5005,
  " wait": 5006,
  "force ": 5007,
  "less, ": 5008,
  "distinct": 5009,
  "escape": 5010,
  "; but the ": 5011,
  "e too ": 5012,
  "receive ": 5013,
  "Jac": 5014,
  "They": 5015,
  "hours ": 5016,
  "chan": 5017,
  "horse ": 5018,
  "!’ ": 5019,
  "Pastr": 5020,
  "Pastrini": 5021,
  "Madame Danglars ": 5022,
  "London": 5023,
  ",’ she ": 5024,
  "a\\u000a": 5025,
  "Jonathan ": 5026,
  "and\\u000a": 5027,
  "Fe": 5028,
  "Cap": 5029,
  "especially ": 5030,
  "vig": 5031,
  "wait ": 5032,
  "climb": 5033,
  "my father": 5034,
  "visit ": 5035,
  " as if ": 5036,
  ".\\u000a\\u000a“Yes, ": 5037,
  "while the ": 5038,
  "fast ": 5039,
  "drink": 5040,
  "build": 5041,
  "her, ": 5042,
  ", because ": 5043,
  "clench": 5044,
  ", in the ": 5045,
  "s? ": 5046,
  "know what ": 5047,
  "means of ": 5048,
  "e their ": 5049,
  " with a s": 5050,
  "raw": 5051,
  "sed ": 5052,
  "hom": 5053,
  ". I am": 5054,
  "e turn": 5055,
  "ate the ": 5056,
  "Louis ": 5057,
  " ang": 5058,
  "fire ": 5059,
  "ous, ": 5060,
  ". They": 5061,
  " would be ": 5062,
  "ed as": 5063,
  "; his ": 5064,
  "ety ": 5065,
  "summ": 5066,
  "forest": 5067,
  "gun": 5068,
  "indeed ": 5069,
  "pearl": 5070,
  "raph": 5071,
  "\\u000aa ": 5072,
  "obvi": 5073,
  "I'm": 5074,
  "includ": 5075,
  "Rome": 5076,
  "Project": 5077,
  ". After": 5078,
  "s of a ": 5079,
  "bring": 5080,
  "ed away": 5081,
  "having": 5082,
  "or three ": 5083,
  "doz": 5084,
  "agre": 5085,
  ",” said Caderousse": 5086,
  " accompani": 5087,
  "else ": 5088,
  " travell": 5089,
  "ure, ": 5090,
  "in such": 5091,
  "seat": 5092,
  "chance ": 5093,
  "overwhel": 5094,
  "s, and the ": 5095,
  "efore ": 5096,
  ", my friend": 5097,
  "prove ": 5098,
  "in their ": 5099,
  "intellig": 5100,
  "important ": 5101,
  "ies, ": 5102,
  "void": 5103,
  "double ": 5104,
  "project": 5105,
  "victim": 5106,
  "ery": 5107,
  "alone": 5108,
  "impossible to ": 5109,
  "ame, ": 5110,
  "death ": 5111,
  "polic": 5112,
  "impossible": 5113,
  "rise ": 5114,
  "dragg": 5115,
  "surround": 5116,
  "dun": 5117,
  " tast": 5118,
  "ting": 5119,
  "fly": 5120,
  "preca": 5121,
  "ker": 5122,
  "ooth": 5123,
  "key ": 5124,
  "limit": 5125,
  "Emmanuel": 5126,
  " typ": 5127,
  "her eyes ": 5128,
  "iss ": 5129,
  "paragraph": 5130,
  "her to ": 5131,
  "no\\u000a": 5132,
  "in’": 5133,
  " an\\u000a": 5134,
  "electric ": 5135,
  "Doctor Jack": 5136,
  "\\u000a\\u000a\\u000a\\u000a                                                    ": 5137,
  "ed from": 5138,
  "cried the ": 5139,
  " as it ": 5140,
  " that was ": 5141,
  "Tru": 5142,
  "grasp": 5143,
  " attach": 5144,
  "Certainly": 5145,
  " at the sam": 5146,
  ".”\\u000a\\u000a“W": 5147,
  ", that the ": 5148,
  "pass ": 5149,
  " they had ": 5150,
  "stay ": 5151,
  ",” she ": 5152,
  "Fernand ": 5153,
  "sitt": 5154,
  "venge": 5155,
  "esides, ": 5156,
  " watch": 5157,
  "waves ": 5158,
  ", an ": 5159,
  "urpris": 5160,
  " wind": 5161,
  "ing from the ": 5162,
  "period": 5163,
  " a whi": 5164,
  "meet ": 5165,
  "no, ": 5166,
  "bent ": 5167,
  "might have ": 5168,
  "food": 5169,
  "for a moment": 5170,
  "I could not ": 5171,
  "On ": 5172,
  "oom": 5173,
  "risk": 5174,
  " try to ": 5175,
  "horror": 5176,
  " amaz": 5177,
  "compli": 5178,
  "batt": 5179,
  "nificent ": 5180,
  "hard ": 5181,
  "00,000 franc": 5182,
  "Signor ": 5183,
  "blo": 5184,
  "frig": 5185,
  " angry": 5186,
  ". Thom": 5187,
  "of anger ": 5188,
  "wha": 5189,
  "ram": 5190,
  "cen": 5191,
  "immediately": 5192,
  "ship ": 5193,
  "dreadful": 5194,
  "expected ": 5195,
  "smile": 5196,
  "not, ": 5197,
  "I am not ": 5198,
  "seek": 5199,
  "wip": 5200,
  "many": 5201,
  " astonishment": 5202,
  "Because ": 5203,
  "quarter": 5204,
  "que ": 5205,
  "e of the ": 5206,
  "instead ": 5207,
  "intense ": 5208,
  " we have ": 5209,
  "fortune": 5210,
  "makes ": 5211,
  "s that": 5212,
  " their s": 5213,
  "usk": 5214,
  "placed ": 5215,
  " alarm": 5216,
  "clin": 5217,
  "quart": 5218,
  "ed towards the ": 5219,
  "lightly ": 5220,
  " term": 5221,
  "I may ": 5222,
  ", all ": 5223,
  "; then ": 5224,
  "aff": 5225,
  "cent ": 5226,
  " was a ": 5227,
  "fifty ": 5228,
  ". St": 5229,
  "you do not ": 5230,
  "penetr": 5231,
  "List": 5232,
  "shock": 5233,
  "suppos": 5234,
  "pir": 5235,
  "ror ": 5236,
  "wide ": 5237,
  "lion": 5238,
  "immense ": 5239,
  "Archi": 5240,
  "Bened": 5241,
  "AN": 5242,
  "Project Gutenberg-tm ": 5243,
  "emotional ": 5244,
  "\\u000awas ": 5245,
  "Ned": 5246,
  "'t\\u000a": 5247,
  ",\" Conseil": 5248,
  "uthor": 5249,
  "could have ": 5250,
  "perform": 5251,
  "he is": 5252,
  "ates": 5253,
  "Ah, ": 5254,
  "delay": 5255,
  "of it": 5256,
  "greatest ": 5257,
  "uddenly": 5258,
  "lemn": 5259,
  "it was a ": 5260,
  " something ": 5261,
  "mission": 5262,
  "Mean": 5263,
  "brac": 5264,
  "Span": 5265,
  "ed you": 5266,
  "; it is ": 5267,
  "mistaken": 5268,
  "defin": 5269,
  "cin": 5270,
  "wretch": 5271,
  "raised his ": 5272,
  "country ": 5273,
  "hope": 5274,
  " arrest": 5275,
  "loud": 5276,
  "There": 5277,
  "assin": 5278,
  "dign": 5279,
  "entertain": 5280,
  "lips ": 5281,
  " agit": 5282,
  " around the ": 5283,
  "sweet": 5284,
  "instant ": 5285,
  "previous ": 5286,
  "cheer": 5287,
  "silence ": 5288,
  "chem": 5289,
  "away ": 5290,
  ", of ": 5291,
  " awar": 5292,
  "period ": 5293,
  "allow": 5294,
  " turn ": 5295,
  "bitter": 5296,
  "prevent": 5297,
  "have you ": 5298,
  "chos": 5299,
  ". He had ": 5300,
  "thought": 5301,
  "By": 5302,
  "power ": 5303,
  "dunge": 5304,
  "began ": 5305,
  "ed, he ": 5306,
  "issu": 5307,
  "pas": 5308,
  "reve": 5309,
  "Mediter": 5310,
  "Mediterran": 5311,
  "arily ": 5312,
  "ed towards ": 5313,
  "prepared ": 5314,
  "church": 5315,
  "rub": 5316,
  "green": 5317,
  "horses ": 5318,
  "study ": 5319,
  "’ve ": 5320,
  "Teres": 5321,
  "cli": 5322,
  "Sea": 5323,
  "cient": 5324,
  "ed\\u000ato ": 5325,
  "Van Helsing": 5326,
  "Mrs. Hark": 5327,
  "__": 5328,
  "ym": 5329,
  "Cat": 5330,
  "th of ": 5331,
  "standing ": 5332,
  ", to": 5333,
  "six ": 5334,
  "in which": 5335,
  "looking": 5336,
  "small": 5337,
  "of your ": 5338,
  "age of ": 5339,
  "behind the ": 5340,
  ", “and ": 5341,
  "Mo": 5342,
  "on this ": 5343,
  "during": 5344,
  "storm": 5345,
  "forgotten": 5346,
  "extrem": 5347,
  "ted ": 5348,
  "s! ": 5349,
  " answer ": 5350,
  "pity": 5351,
  "husband ": 5352,
  "Do not ": 5353,
  "first time ": 5354,
  " there, ": 5355,
  "Bon": 5356,
  "rot": 5357,
  " seemed ": 5358,
  "hours": 5359,
  "in our ": 5360,
  "convul": 5361,
  " across ": 5362,
  "ually": 5363,
  "violent ": 5364,
  "shr": 5365,
  ". What": 5366,
  "charge ": 5367,
  "everyone ": 5368,
  "carry ": 5369,
  "; it was ": 5370,
  "simply ": 5371,
  "Morrel, ": 5372,
  "stain": 5373,
  "grew": 5374,
  "dig": 5375,
  "educ": 5376,
  "part of ": 5377,
  "natural ": 5378,
  " therefore ": 5379,
  "fight ": 5380,
  "Count of Monte Cristo ": 5381,
  ",\\u000abut ": 5382,
  " September": 5383,
  ".’ She ": 5384,
  "acean": 5385,
  "replied. \"": 5386,
  "OU": 5387,
  "23": 5388,
  "aly": 5389,
  "urg": 5390,
  "Not": 5391,
  "thre": 5392,
  ".”\\u000a\\u000a“Yes": 5393,
  ".”\\u000a\\u000a“S": 5394,
  "go to ": 5395,
  "you say": 5396,
  ".”\\u000a\\u000a“But": 5397,
  "have the ": 5398,
  "in the world": 5399,
  "ix ": 5400,
  " added ": 5401,
  "refus": 5402,
  "bless": 5403,
  "I would": 5404,
  "gentleman": 5405,
  "unfortun": 5406,
  "Look": 5407,
  "sac": 5408,
  "paper ": 5409,
  " twelve ": 5410,
  "group": 5411,
  "flash": 5412,
  " thick": 5413,
  "quid ": 5414,
  "opposite ": 5415,
  " all his ": 5416,
  "feeling of ": 5417,
  "meas": 5418,
  "even the ": 5419,
  "magistr": 5420,
  "or a ": 5421,
  "sym": 5422,
  "you can": 5423,
  "of a": 5424,
  "fro": 5425,
  "distingu": 5426,
  "frequently ": 5427,
  "will not ": 5428,
  " admir": 5429,
  "solut": 5430,
  "carefully ": 5431,
  "complete ": 5432,
  "ened ": 5433,
  ". So": 5434,
  "as the ": 5435,
  "happened": 5436,
  "”\\u000a\\u000a": 5437,
  "siv": 5438,
  "whether ": 5439,
  "lan": 5440,
  "Faria": 5441,
  "stom": 5442,
  "omething": 5443,
  "breast": 5444,
  "kept": 5445,
  "plor": 5446,
  "e then": 5447,
  "coff": 5448,
  "gram": 5449,
  "drawing-room": 5450,
  "aptist": 5451,
  "\\u000aher ": 5452,
  "Cassie’s ": 5453,
  "Atlant": 5454,
  "\\u000a\\u000c\"": 5455,
  "Italian": 5456,
  "Island of ": 5457,
  "29": 5458,
  "another": 5459,
  "ed over": 5460,
  "?”\\u000a\\u000a“He ": 5461,
  "us to ": 5462,
  "spok": 5463,
  "has not ": 5464,
  " there was": 5465,
  "secre": 5466,
  "I were ": 5467,
  "comes ": 5468,
  " murmured ": 5469,
  "no doubt": 5470,
  "small ": 5471,
  "hous": 5472,
  "love": 5473,
  "his head": 5474,
  "like th": 5475,
  " already": 5476,
  "pity ": 5477,
  " whe": 5478,
  "He": 5479,
  "ign ": 5480,
  "ively ": 5481,
  "purpose ": 5482,
  "ed for the ": 5483,
  "ed him to ": 5484,
  "communic": 5485,
  "longer": 5486,
  "gether ": 5487,
  "after ": 5488,
  "ell ": 5489,
  "distance ": 5490,
  "-in-": 5491,
  "words": 5492,
  "confess": 5493,
  "kiss": 5494,
  "in his hand": 5495,
  "ount": 5496,
  "gend": 5497,
  "daw": 5498,
  "one of those ": 5499,
  "watch ": 5500,
  "cause": 5501,
  "president": 5502,
  "shook ": 5503,
  "s from ": 5504,
  "flesh": 5505,
  ". They were ": 5506,
  "umb": 5507,
  "from my ": 5508,
  "business ": 5509,
  "with an ": 5510,
  "oni": 5511,
  "ournal": 5512,
  "baroness": 5513,
  "would\\u000a": 5514,
  ",\" Conseil ": 5515,
  ". However": 5516,
  "peculiar": 5517,
  "brave ": 5518,
  "sailor": 5519,
  ".”\\u000a\\u000a“That ": 5520,
  "Do you": 5521,
  ", smil": 5522,
  "Paris ": 5523,
  "All": 5524,
  "Come": 5525,
  "bt": 5526,
  "pay ": 5527,
  "s on": 5528,
  "appeared": 5529,
  "pleasure ": 5530,
  "stand ": 5531,
  "him the ": 5532,
  "edd": 5533,
  "; so ": 5534,
  "check": 5535,
  "scr": 5536,
  "wav": 5537,
  "only to ": 5538,
  "offer ": 5539,
  "him a ": 5540,
  "name of ": 5541,
  " ant": 5542,
  "utch": 5543,
  " attent": 5544,
  "faction": 5545,
  "ce, ": 5546,
  "opportunity": 5547,
  "rive ": 5548,
  "forth ": 5549,
  "furnish": 5550,
  "freedom": 5551,
  "late": 5552,
  " moment": 5553,
  "By ": 5554,
  " most ": 5555,
  "nail": 5556,
  "main": 5557,
  "for this ": 5558,
  "murder": 5559,
  "recover": 5560,
  "sometimes ": 5561,
  "horrible ": 5562,
  "sharp": 5563,
  "lid ": 5564,
  " apartment": 5565,
  ". There was ": 5566,
  "hurri": 5567,
  "Arab": 5568,
  "’ll ": 5569,
  "major": 5570,
  ".\\u000a\\u000a\\u000a\\u000a\\u000a": 5571,
  "our\\u000a": 5572,
  "Lucy’s ": 5573,
  "Abra": 5574,
  "hadn't ": 5575,
  "re-": 5576,
  "26": 5577,
  " top": 5578,
  "board ": 5579,
  ".\\u000a\\u000a“Ah, ": 5580,
  "compos": 5581,
  " mov": 5582,
  "imper": 5583,
  "El": 5584,
  ".”\\u000a\\u000a“You": 5585,
  " at least ": 5586,
  "luck": 5587,
  "ing.\\u000a\\u000a“": 5588,
  "empty ": 5589,
  "ill-": 5590,
  " talk ": 5591,
  "wife": 5592,
  "opinion": 5593,
  " to this ": 5594,
  "spoke ": 5595,
  "costum": 5596,
  "cru": 5597,
  " suffer": 5598,
  " will be ": 5599,
  "s?”\\u000a\\u000a“": 5600,
  " terri": 5601,
  "merely ": 5602,
  "pierc": 5603,
  "bright ": 5604,
  " mak": 5605,
  "run ": 5606,
  "restrain": 5607,
  "hit ": 5608,
  "latter ": 5609,
  "cu": 5610,
  "fore, ": 5611,
  "know that ": 5612,
  "looked up": 5613,
  " to her": 5614,
  "revol": 5615,
  "nal ": 5616,
  "other s": 5617,
  "for an ": 5618,
  "beat": 5619,
  "attend": 5620,
  "figure ": 5621,
  "police ": 5622,
  "rough the ": 5623,
  "near the ": 5624,
  "proof": 5625,
  "preci": 5626,
  " at least": 5627,
  "ively": 5628,
  "desper": 5629,
  " men": 5630,
  ", it is ": 5631,
  "legs ": 5632,
  "powerful": 5633,
  "erve ": 5634,
  ", so that ": 5635,
  "it was the ": 5636,
  "life, ": 5637,
  "omething ": 5638,
  ".\\u000a\\u000aS": 5639,
  "continued to ": 5640,
  "enormous ": 5641,
  "of any ": 5642,
  "resid": 5643,
  "strat": 5644,
  "rans": 5645,
  "weight ": 5646,
  "horri": 5647,
  "hill": 5648,
  ". To": 5649,
  "her head": 5650,
  "aist": 5651,
  "bull": 5652,
  "copyright ": 5653,
  "\\u000athem": 5654,
  "Vo": 5655,
  "I’m ": 5656,
  "Lord Godal": 5657,
  "Abraha": 5658,
  "Dr. Van Hels": 5659,
  "Mrs. Hall": 5660,
  "Catal": 5661,
  "24": 5662,
  "ways": 5663,
  "ed up the ": 5664,
  "who was ": 5665,
  "cept ": 5666,
  "nine ": 5667,
  "if they ": 5668,
  "neighbor": 5669,
  "was about to ": 5670,
  "whit": 5671,
  "which had ": 5672,
  "ane": 5673,
  "kin": 5674,
  "design": 5675,
  "struct": 5676,
  "pul": 5677,
  "keeper": 5678,
  "es a ": 5679,
  " threat": 5680,
  "yourself ": 5681,
  "ing up ": 5682,
  "al of ": 5683,
  "Dur": 5684,
  "men, ": 5685,
  "business": 5686,
  "saying": 5687,
  " anxi": 5688,
  ".”\\u000a\\u000a“The ": 5689,
  "in Paris": 5690,
  "lit ": 5691,
  "icip": 5692,
  "ek ": 5693,
  "s. I ": 5694,
  "eat ": 5695,
  "reme ": 5696,
  "state ": 5697,
  " som": 5698,
  "y is ": 5699,
  " all my ": 5700,
  "ing a s": 5701,
  " speak": 5702,
  " trust": 5703,
  "purpose": 5704,
  "er had ": 5705,
  "doctor ": 5706,
  "grim": 5707,
  "ed your ": 5708,
  "fav": 5709,
  ", and was ": 5710,
  "ated the ": 5711,
  "It was": 5712,
  "number": 5713,
  "inside ": 5714,
  " shall ": 5715,
  "dust": 5716,
  "south": 5717,
  "reveal": 5718,
  "replac": 5719,
  "wenty ": 5720,
  "succeed": 5721,
  "have a ": 5722,
  " when he ": 5723,
  "oft ": 5724,
  "strong ": 5725,
  "bir": 5726,
  "early ": 5727,
  "cy": 5728,
  "genus ": 5729,
  "wind ": 5730,
  "surface of the ": 5731,
  "ing so ": 5732,
  "Luci": 5733,
  "ing its ": 5734,
  "M. de Morcerf": 5735,
  "intens": 5736,
  ",” said Beauchamp": 5737,
  "notary": 5738,
  "'ll": 5739,
  "se\\u000a": 5740,
  "incol": 5741,
  "propell": 5742,
  ", the Nautilus ": 5743,
  "Yan": 5744,
  "ution ": 5745,
  "Is": 5746,
  "seems to ": 5747,
  "gle": 5748,
  "chain ": 5749,
  ". Dantès ": 5750,
  "that the ": 5751,
  "pray ": 5752,
  "has a ": 5753,
  " minutes": 5754,
  "want ": 5755,
  "nodd": 5756,
  "in any ": 5757,
  "corner of the ": 5758,
  "Indeed": 5759,
  "e. The ": 5760,
  "e tri": 5761,
  "a w": 5762,
  "meth": 5763,
  "clasp": 5764,
  "frown": 5765,
  "umph": 5766,
  "health": 5767,
  ", is ": 5768,
  "affair": 5769,
  "front ": 5770,
  " threw ": 5771,
  "imilar": 5772,
  "expres": 5773,
  "Every": 5774,
  "can be ": 5775,
  "qual": 5776,
  "until the ": 5777,
  "cand": 5778,
  ". Some ": 5779,
  "vain": 5780,
  "rage ": 5781,
  "losop": 5782,
  "convinc": 5783,
  ". Then, ": 5784,
  ", as the ": 5785,
  "?\\u000a\\u000a": 5786,
  "road ": 5787,
  "seven ": 5788,
  "minist": 5789,
  "mess": 5790,
  "onor": 5791,
  "renew": 5792,
  "everal ": 5793,
  " travel": 5794,
  "matter ": 5795,
  ". But the ": 5796,
  "distr": 5797,
  " tend": 5798,
  "state of ": 5799,
  "instr": 5800,
  "broke ": 5801,
  "bed, ": 5802,
  ", some ": 5803,
  "itud": 5804,
  " tight": 5805,
  "patient": 5806,
  "edge ": 5807,
  "From": 5808,
  "rob": 5809,
  "dish": 5810,
  "with her ": 5811,
  "not only ": 5812,
  "Her ": 5813,
  "peas": 5814,
  "eward ": 5815,
  " tail": 5816,
  "d’Épinay": 5817,
  "want to ": 5818,
  "500": 5819,
  "OR": 5820,
  "!”\\u000a": 5821,
  "\\u000athis ": 5822,
  "wasn’t ": 5823,
  "Van Helsing ": 5824,
  "Jess": 5825,
  ".’ Cassie ": 5826,
  "Hank ": 5827,
  "lounge": 5828,
  "Marseilles": 5829,
  "grate": 5830,
  "sugg": 5831,
  " the sk": 5832,
  "difference ": 5833,
  "house, ": 5834,
  "lou": 5835,
  "! I ": 5836,
  "quit": 5837,
  "? What ": 5838,
  ", you": 5839,
  " trac": 5840,
  "do you mean": 5841,
  " she was ": 5842,
  "but a ": 5843,
  ".”\\u000a\\u000a“I ": 5844,
  "broken": 5845,
  "fascin": 5846,
  "ing out": 5847,
  "It is": 5848,
  "empty": 5849,
  "usi": 5850,
  ", although": 5851,
  "late ": 5852,
  "prepared": 5853,
  " that is ": 5854,
  " assum": 5855,
  "quarter ": 5856,
  " treas": 5857,
  "shall be ": 5858,
  "bou": 5859,
  "bid": 5860,
  "equal": 5861,
  "have": 5862,
  "daughter ": 5863,
  "enra": 5864,
  "grac": 5865,
  "ing me": 5866,
  "often": 5867,
  "height": 5868,
  "against ": 5869,
  " to me, ": 5870,
  " would have ": 5871,
  "lac": 5872,
  "was to ": 5873,
  "humili": 5874,
  "dispos": 5875,
  "ed;": 5876,
  "evident": 5877,
  "stem": 5878,
  ", but he ": 5879,
  "stepp": 5880,
  "Greek": 5881,
  "generally ": 5882,
  " mad": 5883,
  "Just ": 5884,
  "Am": 5885,
  "on its ": 5886,
  "kitch": 5887,
  "irt": 5888,
  "bodi": 5889,
  "lav": 5890,
  "she could ": 5891,
  "equip": 5892,
  ",” replied Monte Cristo": 5893,
  "Eugénie ": 5894,
  "organ": 5895,
  " and she ": 5896,
  "Quincey ": 5897,
  "e,\\u000a": 5898,
  "Madam Mina": 5899,
  "cet": 5900,
  "Abraham L": 5901,
  "Abraham Lincol": 5902,
  "Command": 5903,
  "!\" said ": 5904,
  "eB": 5905,
  "east": 5906,
  ". Un": 5907,
  "This": 5908,
  "gi": 5909,
  " sho": 5910,
  "bill": 5911,
  "crowd": 5912,
  "ed to him": 5913,
  "owner": 5914,
  "fever": 5915,
  "for it": 5916,
  ",” answered ": 5917,
  "ature ": 5918,
  "cle ": 5919,
  "pardon": 5920,
  "give you": 5921,
  "pad": 5922,
  "mouth ": 5923,
  "come, ": 5924,
  " and he ": 5925,
  "gold ": 5926,
  "piece of ": 5927,
  "wife ": 5928,
  "from the s": 5929,
  "rank": 5930,
  "inhabit": 5931,
  "preserv": 5932,
  "fingers": 5933,
  "ction": 5934,
  ", say": 5935,
  ", and they ": 5936,
  "from this ": 5937,
  "prevent ": 5938,
  "resembl": 5939,
  "—he ": 5940,
  "whether": 5941,
  "omen": 5942,
  "personal ": 5943,
  "Bonapart": 5944,
  "fact ": 5945,
  "ider": 5946,
  "support": 5947,
  " and un": 5948,
  "smile ": 5949,
  "betray": 5950,
  "pleasure": 5951,
  " wr": 5952,
  "roy": 5953,
  "Perhap": 5954,
  "hear the ": 5955,
  ", were ": 5956,
  "crimin": 5957,
  "execution": 5958,
  "e, the ": 5959,
  "impul": 5960,
  "ing an ": 5961,
  ", sh": 5962,
  " a wor": 5963,
  "s of this ": 5964,
  " that it ": 5965,
  " at once": 5966,
  "libr": 5967,
  "returned to the ": 5968,
  " away, ": 5969,
  "edly": 5970,
  "Ger": 5971,
  "barely ": 5972,
  "ition ": 5973,
  "will you ": 5974,
  "no more ": 5975,
  "gig": 5976,
  "imagination": 5977,
  "do so": 5978,
  "passage": 5979,
  ". To ": 5980,
  "ss": 5981,
  "ed down": 5982,
  "Stre": 5983,
  "plex": 5984,
  " walk": 5985,
  "reci": 5986,
  "Li": 5987,
  "ano": 5988,
  "boot": 5989,
  "wheel": 5990,
  "around ": 5991,
  "adem": 5992,
  "her throat": 5993,
  "Edward": 5994,
  "Barrois": 5995,
  "d’Avrigny": 5996,
  " agreement": 5997,
  " they\\u000a": 5998,
  "e.\\u000a": 5999,
  "in\\u000athe ": 6000,
  "ed to\\u000a": 6001,
  "--\\u000a": 6002,
  ".\\u000a\\u000aI ": 6003,
  "Commander ": 6004,
  " d’": 6005,
  "Aut": 6006,
  "Auteu": 6007,
  "olog": 6008,
  "siz": 6009,
  "On the ": 6010,
  " among the ": 6011,
  "ing, “": 6012,
  "excuse ": 6013,
  " allow ": 6014,
  " thousand": 6015,
  "moder": 6016,
  "round the ": 6017,
  "old man ": 6018,
  "lam": 6019,
  " two or three ": 6020,
  "I say": 6021,
  " about it": 6022,
  "along": 6023,
  " minutes ": 6024,
  "quitt": 6025,
  "mix": 6026,
  " say ": 6027,
  "such as ": 6028,
  "uous ": 6029,
  "preced": 6030,
  "appoint": 6031,
  "ustr": 6032,
  "outside ": 6033,
  "yster": 6034,
  "observation": 6035,
  "manner ": 6036,
  "3m\\u000a\\u000a\\u000a\\u000a\\u000a\\u000a“": 6037,
  "prefer": 6038,
  "Le": 6039,
  "table ": 6040,
  "Villefort, ": 6041,
  "of an": 6042,
  ", for the ": 6043,
  "philosop": 6044,
  "No. ": 6045,
  "arm ": 6046,
  "play ": 6047,
  "ed his hand": 6048,
  "found the ": 6049,
  ", as if": 6050,
  "condem": 6051,
  "used ": 6052,
  "itable ": 6053,
  "vert": 6054,
  "concl": 6055,
  " to say": 6056,
  "would not ": 6057,
  "existence ": 6058,
  "had already ": 6059,
  "beneath ": 6060,
  "closel": 6061,
  "man’s ": 6062,
  "with you": 6063,
  "ically": 6064,
  "Let": 6065,
  ".” He ": 6066,
  "owl": 6067,
  "idi": 6068,
  "represent": 6069,
  " tow": 6070,
  "excitement": 6071,
  "Valentin": 6072,
  "–": 6073,
  ". He\\u000a": 6074,
  "okay": 6075,
  "en't ": 6076,
  " meters ": 6077,
  "\\u000a\\u000a\\u000a\\u000a                                                   ": 6078,
  "stater": 6079,
  "F ": 6080,
  "ggl": 6081,
  "sieur ": 6082,
  "ault": 6083,
  "Febru": 6084,
  "slowly": 6085,
  "lot": 6086,
  "misfortun": 6087,
  "And the ": 6088,
  "ancho": 6089,
  "English ": 6090,
  "why": 6091,
  "sible ": 6092,
  "I’m": 6093,
  "fil": 6094,
  "me a ": 6095,
  "free": 6096,
  "honor ": 6097,
  "inquir": 6098,
  "load": 6099,
  "suggest": 6100,
  "famous ": 6101,
  "greater ": 6102,
  ".\\u000a\\u000a“You": 6103,
  "At ": 6104,
  "net": 6105,
  "is an ": 6106,
  "Mercédès, ": 6107,
  "ears ": 6108,
  "Ah": 6109,
  "shadow": 6110,
  "return to ": 6111,
  "common ": 6112,
  "named ": 6113,
  "mutter": 6114,
  ". Y": 6115,
  "destin": 6116,
  "later ": 6117,
  "enthusi": 6118,
  "sorrow": 6119,
  ". I shall ": 6120,
  "eness": 6121,
  "situation": 6122,
  "releas": 6123,
  "as a ": 6124,
  "III": 6125,
  " true ": 6126,
  " av": 6127,
  " af": 6128,
  "Provid": 6129,
  "grave ": 6130,
  ", and as ": 6131,
  "hardly ": 6132,
  "confin": 6133,
  "more, ": 6134,
  ".\\u000a\\u000aHe ": 6135,
  "fet": 6136,
  " on the ": 6137,
  "er was ": 6138,
  "ing some ": 6139,
  " this, ": 6140,
  "pred": 6141,
  "closer": 6142,
  "phras": 6143,
  "with s": 6144,
  "curtain": 6145,
  "s on ": 6146,
  "leave the ": 6147,
  "precaution": 6148,
  "what he ": 6149,
  "break ": 6150,
  "silence": 6151,
  "subst": 6152,
  "darkness ": 6153,
  "rough ": 6154,
  "morning, ": 6155,
  "intim": 6156,
  "shut": 6157,
  "anything ": 6158,
  "precis": 6159,
  "spar": 6160,
  ", are ": 6161,
  "flick": 6162,
  "Abbé B": 6163,
  "Abbé Bus": 6164,
  "’s room": 6165,
  "anger ": 6166,
  "Archive ": 6167,
  "ing\\u000athe ": 6168,
  "e the\\u000a": 6169,
  "shell": 6170,
  ". . . ": 6171,
  "roth": 6172,
  " await": 6173,
  "worthy ": 6174,
  "duty": 6175,
  ".”\\u000a\\u000a“Then ": 6176,
  "did he ": 6177,
  "your father": 6178,
  " those who ": 6179,
  "thr": 6180,
  "ing with the ": 6181,
  ", with the ": 6182,
  "lest ": 6183,
  "ury": 6184,
  "you shall ": 6185,
  "mysterious ": 6186,
  "delic": 6187,
  "happiness": 6188,
  "none ": 6189,
  "running ": 6190,
  ";”": 6191,
  " mar": 6192,
  " today": 6193,
  "; then": 6194,
  " act ": 6195,
  "who, ": 6196,
  "lie ": 6197,
  "hes ": 6198,
  " he had ": 6199,
  " she had ": 6200,
  "drove ": 6201,
  "dazz": 6202,
  "me to": 6203,
  "ause": 6204,
  "s at ": 6205,
  "I knew": 6206,
  "deck": 6207,
  "prud": 6208,
  "ing was ": 6209,
  "ing as ": 6210,
  ", these ": 6211,
  ",” replied the count": 6212,
  "question ": 6213,
  ", that he ": 6214,
  "earnest": 6215,
  "sim": 6216,
  "justice ": 6217,
  "means ": 6218,
  "empl": 6219,
  "thir": 6220,
  "energ": 6221,
  "eth ": 6222,
  "I am s": 6223,
  " writ": 6224,
  "e there": 6225,
  "establ": 6226,
  "Gul": 6227,
  "Ju": 6228,
  "burst": 6229,
  "centr": 6230,
  "harp": 6231,
  " themselves ": 6232,
  "control ": 6233,
  "alone ": 6234,
  " that he was ": 6235,
  "had taken ": 6236,
  "oxy": 6237,
  "in these ": 6238,
  "e these ": 6239,
  " aband": 6240,
  "aper": 6241,
  "dug": 6242,
  "possibil": 6243,
  "ed to a ": 6244,
  "of them ": 6245,
  "mal": 6246,
  "card": 6247,
  "it may ": 6248,
  "crack": 6249,
  "emerg": 6250,
  "mosp": 6251,
  "eleg": 6252,
  "manif": 6253,
  "Tur": 6254,
  " associ": 6255,
  "ing any ": 6256,
  "; ‘": 6257,
  "only a ": 6258,
  "jewell": 6259,
  "river": 6260,
  "eld ": 6261,
  "exper": 6262,
  "process": 6263,
  "horn": 6264,
  ". Albert ": 6265,
  ". Its ": 6266,
  "Benedetto": 6267,
  "Baptist": 6268,
  "ed her eyes": 6269,
  "her and ": 6270,
  "classi": 6271,
  "TI": 6272,
  "s,\\u000aand ": 6273,
  ".\\u000aThis ": 6274,
  "Jessic": 6275,
  "Handler ": 6276,
  "Monsieur ": 6277,
  "unn": 6278,
  "pack": 6279,
  "you see ": 6280,
  ".’”\\u000a\\u000a“": 6281,
  "except ": 6282,
  "nearly": 6283,
  "before he ": 6284,
  "spark": 6285,
  "case, ": 6286,
  "whilst ": 6287,
  "Our ": 6288,
  ".”\\u000a\\u000a“You ": 6289,
  "button": 6290,
  " mis": 6291,
  "exerc": 6292,
  " the tim": 6293,
  "lover": 6294,
  "gul": 6295,
  "plendid ": 6296,
  "explanation": 6297,
  "e three ": 6298,
  "marry ": 6299,
  "written ": 6300,
  "expression of ": 6301,
  "stream": 6302,
  "stick": 6303,
  "desire to ": 6304,
  "while": 6305,
  "among": 6306,
  " a sort of ": 6307,
  "you know ": 6308,
  "likely": 6309,
  "oured ": 6310,
  "rembl": 6311,
  "Louis XV": 6312,
  "ock ": 6313,
  "I do": 6314,
  "certainly": 6315,
  "dreadful ": 6316,
  "itor": 6318,
  "imprison": 6319,
  "drawn ": 6320,
  "ed himself ": 6321,
  "undertak": 6322,
  "closed the ": 6323,
  "close to ": 6324,
  "—I ": 6325,
  ", and so ": 6326,
  "mort": 6327,
  "s as ": 6328,
  "crib": 6329,
  "ces": 6330,
  "cart": 6331,
  "ideas": 6332,
  "mant": 6333,
  "powerful ": 6334,
  "gigant": 6335,
  "lead ": 6336,
  "struggle ": 6337,
  ". and ": 6338,
  "visitor": 6339,
  "priest": 6340,
  "ing from ": 6341,
  "paraly": 6342,
  "stiff": 6343,
  "straight ": 6344,
  "pant": 6345,
  "fasten": 6346,
  "Englishman": 6347,
  "rich ": 6348,
  "women": 6349,
  "buck": 6350,
  "pall": 6351,
  "fingers ": 6352,
  "waist": 6353,
  "I thought": 6354,
  " we were ": 6355,
  "Debray ": 6356,
  "gasp": 6357,
  "its\\u000a": 6358,
  "Morris": 6359,
  "in’ ": 6360,
  "fuck": 6361,
  ". Thomas ": 6362,
  "o'clock in the ": 6363,
  "submer": 6364,
  "stateroom": 6365,
  "Ady": 6366,
  "IS": 6367,
  "Château d’": 6368,
  "ailor": 6369,
  "orne": 6370,
  "Madame de Saint-Méran": 6371,
  "cto": 6372,
  "side of the ": 6373,
  "Pharaon": 6374,
  " the ship": 6375,
  " agon": 6376,
  "said, “": 6377,
  "e toward": 6378,
  "fallen ": 6379,
  ", although ": 6380,
  "Then, ": 6381,
  "Mercédès": 6382,
  " thank ": 6383,
  "Or": 6384,
  ". Here ": 6385,
  "happiness ": 6386,
  "living ": 6387,
  " advant": 6388,
  " much": 6389,
  "own s": 6390,
  "Come ": 6391,
  "sprang": 6392,
  " mother": 6393,
  "kind of ": 6394,
  "seated ": 6395,
  "able, ": 6396,
  "with my ": 6397,
  " suddenly ": 6398,
  ". The": 6399,
  "remember ": 6400,
  "? W": 6401,
  "number ": 6402,
  " thos": 6403,
  "sort of ": 6404,
  "judg": 6405,
  "only the ": 6406,
  "in an ": 6407,
  "stagger": 6408,
  "possibly ": 6409,
  "liquid ": 6410,
  "clutch": 6411,
  "harm": 6412,
  "e then ": 6413,
  "went to ": 6414,
  "Napole": 6415,
  "feared": 6416,
  "ages": 6417,
  "her hand": 6418,
  "offender": 6419,
  "it is a ": 6420,
  " a second": 6421,
  "marin": 6422,
  "rog": 6423,
  "made the ": 6424,
  "like a s": 6425,
  "gentlemen": 6426,
  "bread": 6427,
  ", but she ": 6428,
  ", for he ": 6429,
  "hung": 6430,
  "chance": 6431,
  "hotel": 6432,
  "breakfast ": 6433,
  "ing for the ": 6434,
  "etimes": 6435,
  "another ": 6436,
  "opening": 6437,
  "gran": 6438,
  "ing them ": 6439,
  "iterary ": 6440,
  "comb": 6441,
  ". On the ": 6442,
  ".’\\u000a\\u000a“": 6443,
  "steward": 6444,
  "yellow": 6445,
  "west": 6446,
  "tern": 6447,
  "from s": 6448,
  "Maximilian ": 6449,
  "compar": 6450,
  "Signor Pastrini": 6451,
  "houl": 6452,
  "houlder": 6453,
  "Far": 6454,
  ",” said Monte Cristo, “": 6455,
  "lady": 6456,
  " attitude ": 6457,
  "grandfather": 6458,
  "emp ": 6459,
  ",” said Andrea": 6460,
  "swift": 6461,
  "D ": 6462,
  "e\\u000athe ": 6463,
  " with\\u000a": 6464,
  "cetacean": 6465,
  "I'll": 6466,
  "Se": 6467,
  "Auteuil": 6468,
  "rom ": 6469,
  "ctober": 6470,
  "es. The ": 6471,
  "see that ": 6472,
  "important": 6473,
  "s, I ": 6474,
  "judge ": 6475,
  ", and had ": 6476,
  "door of the ": 6477,
  "betroth": 6478,
  "you want": 6479,
  "remind": 6480,
  "right to ": 6481,
  " without": 6482,
  "civ": 6483,
  "paid": 6484,
  ", and who ": 6485,
  "downstair": 6486,
  " assist": 6487,
  "Of ": 6488,
  "branch": 6489,
  "grant": 6490,
  "oldi": 6491,
  "pain ": 6492,
  "rt": 6493,
  "rain ": 6494,
  "des ": 6495,
  "arrang": 6496,
  "e.\\u000a\\u000a": 6497,
  "e took": 6498,
  "?” inquired ": 6499,
  "quickly ": 6500,
  "rely ": 6501,
  "evening ": 6502,
  "sit ": 6503,
  "led the ": 6504,
  "opposit": 6505,
  "heat": 6506,
  "France ": 6507,
  "sed": 6508,
  "mater": 6509,
  " all these ": 6510,
  "recomm": 6511,
  "ed. He ": 6512,
  "mass": 6513,
  "ing his hand": 6514,
  "seal": 6515,
  ",” said she": 6516,
  "ient": 6517,
  "up to the ": 6518,
  "res ": 6519,
  "go on": 6520,
  "of such": 6521,
  "rout": 6522,
  "imple ": 6523,
  " would": 6524,
  " that he had ": 6525,
  "lod": 6526,
  "e was ": 6527,
  "lon": 6528,
  "heard a ": 6529,
  "giving ": 6530,
  " to get ": 6531,
  "ceil": 6532,
  "sen": 6533,
  "uccess": 6534,
  ". From": 6535,
  "guid": 6536,
  ", when": 6537,
  ".\\u000a\\u000aAt ": 6538,
  "brig": 6539,
  "ocean ": 6540,
  "ing into the ": 6541,
  "La Car": 6542,
  "children": 6543,
  "unpleasant ": 6544,
  "punct": 6545,
  "mill": 6546,
  "extraordinary ": 6547,
  "your excellency ": 6548,
  "M. B": 6549,
  ",” said Monte Cristo ": 6550,
  "stepped ": 6551,
  "other word": 6552,
  "stim": 6553,
  "estenra": 6554,
  "Diary": 6555,
  " to-night": 6556,
  "came\\u000a": 6557,
  "face\\u000a": 6558,
  "ed her\\u000a": 6559,
  ".\\u000aIn": 6560,
  "grunt": 6561,
  "her Handler": 6562,
  "Kemp ": 6563,
  "200": 6564,
  "inner ": 6565,
  "All ": 6566,
  "ed again": 6567,
  "for me, ": 6568,
  "f-": 6569,
  "right, ": 6570,
  "Port": 6571,
  "; I have ": 6572,
  "—‘": 6573,
  "fiv": 6574,
  "!” said the ": 6575,
  "permission": 6576,
  "you, and ": 6577,
  "ry, ": 6578,
  "lightest ": 6579,
  "just now": 6580,
  " these t": 6581,
  ".\\u000a\\u000a“I ": 6582,
  " this time ": 6583,
  "obst": 6584,
  "For ": 6585,
  "resolution": 6586,
  "made me ": 6587,
  "!” exclaimed ": 6588,
  "exactly ": 6589,
  " aff": 6590,
  "May": 6591,
  "I shall be ": 6592,
  "to be ": 6593,
  "loud ": 6594,
  "officer": 6595,
  "capable ": 6596,
  "ed to see ": 6597,
  "had no ": 6598,
  "fair ": 6599,
  "they": 6600,
  "eir": 6601,
  " truth": 6602,
  ", what ": 6603,
  "efull": 6604,
  "make a ": 6605,
  "then ": 6606,
  "ed away ": 6607,
  "private ": 6608,
  "reat ": 6609,
  "point of ": 6610,
  "gain ": 6611,
  "know the ": 6612,
  "ler": 6613,
  "growing ": 6614,
  "closed ": 6615,
  "Christ": 6616,
  "governor": 6617,
  "dungeon": 6618,
  "in the same ": 6619,
  "place, ": 6620,
  " throw": 6621,
  "forget ": 6622,
  " afraid": 6623,
  "together": 6624,
  " acqui": 6625,
  "profound ": 6626,
  "contrary": 6627,
  "correspond": 6628,
  "; a ": 6629,
  "entered ": 6630,
  "whatever ": 6631,
  "ander": 6632,
  "in his": 6633,
  "es,": 6634,
  "mental ": 6635,
  "miles ": 6636,
  "in one ": 6637,
  "strik": 6638,
  "bath": 6639,
  "oh, ": 6640,
  "element": 6641,
  "stuff": 6642,
  "Cor": 6643,
  "pill": 6644,
  ",” said the count, “": 6645,
  "United ": 6646,
  "United St": 6647,
  "fore-": 6648,
  " all\\u000a": 6649,
  " to the\\u000a": 6650,
  "your\\u000a": 6651,
  "on the\\u000a": 6652,
  "… ": 6653,
  "Pac": 6654,
  "latitude ": 6655,
  "\\u000a\\u000cCHAPTER ": 6656,
  "s.\"\\u000a\\u000a\"": 6657,
  "May ": 6658,
  "Château d’If": 6659,
  "Two ": 6660,
  "muggl": 6661,
  "ise": 6662,
  "shot": 6663,
  "s for the ": 6664,
  ", he was ": 6665,
  "pite ": 6666,
  ".”\\u000a\\u000a“Yes, ": 6667,
  ".”\\u000a\\u000a“No": 6668,
  "go and ": 6669,
  "lly ": 6670,
  "et of ": 6671,
  " soon ": 6672,
  "understood ": 6673,
  "apartment": 6674,
  "I came ": 6675,
  " wall": 6676,
  "pot ": 6677,
  " tong": 6678,
  "barr": 6679,
  "ing their ": 6680,
  "flow": 6681,
  "his head ": 6682,
  "unhappy ": 6683,
  "circumstances ": 6684,
  "es, “": 6685,
  "is so ": 6686,
  ". Besides, ": 6687,
  "Thank ": 6688,
  " attorne": 6689,
  "crime ": 6690,
  "ence of the ": 6691,
  " attract": 6692,
  "on him": 6693,
  " time to": 6694,
  "refr": 6695,
  "oci": 6696,
  "door was ": 6697,
  "said, ": 6698,
  "ought to ": 6699,
  "on me": 6700,
  "sorb": 6701,
  "cry ": 6702,
  "I could see ": 6703,
  "feelings ": 6704,
  "sak": 6705,
  " trust ": 6706,
  "bear ": 6707,
  "idea of ": 6708,
  "ed so ": 6709,
  "interview": 6710,
  "Then he ": 6711,
  "stif": 6712,
  "information": 6713,
  "could see ": 6714,
  "made a s": 6715,
  "felt the ": 6716,
  "condemn": 6717,
  "., ": 6718,
  ". On ": 6719,
  "courag": 6720,
  "ated, ": 6721,
  " thing ": 6722,
  "vast ": 6723,
  "mut": 6724,
  "es and": 6725,
  "realiz": 6726,
  "let him ": 6727,
  "view ": 6728,
  "ings": 6729,
  "bound ": 6730,
  "hair ": 6731,
  "ending ": 6732,
  "weigh": 6733,
  "have no ": 6734,
  "atur": 6735,
  "paint": 6736,
  "matt": 6737,
  "cig": 6738,
  "fad": 6739,
  "conci": 6740,
  "peer": 6741,
  "house of ": 6742,
  "weapon": 6743,
  "! The ": 6744,
  " wha": 6745,
  "enci": 6746,
  " woman": 6747,
  ",’ he ": 6748,
  "Debray, ": 6749,
  "sé": 6750,
  ".”\\u000a\\u000aMonte Cristo ": 6751,
  "Bertuccio ": 6752,
  "gap": 6753,
  "period of ": 6754,
  "hatch": 6755,
  "with\\u000a": 6756,
  "he’d ": 6757,
  "her body ": 6758,
  "imeter": 6759,
  "'d ": 6760,
  "lounge ": 6761,
  "enfre": 6762,
  "Catalan": 6763,
  "ouse ": 6764,
  "volcan": 6765,
  "evil": 6766,
  "hand, ": 6767,
  "?” inquired the ": 6768,
  "prompt": 6769,
  "heel": 6770,
  "execut": 6771,
  " a second ": 6772,
  "Elb": 6773,
  ", and this ": 6774,
  "instantly ": 6775,
  "you had ": 6776,
  " went": 6777,
  "I have not ": 6778,
  "s so ": 6779,
  " the time ": 6780,
  "sense ": 6781,
  ".\\u000a\\u000aThis ": 6782,
  "miser": 6783,
  "is no ": 6784,
  ",” added ": 6785,
  "unless ": 6786,
  "friends": 6787,
  "is not": 6788,
  "es.\\u000a\\u000a": 6789,
  ", and it ": 6790,
  "Tell": 6791,
  " affection": 6792,
  "duce ": 6793,
  "desire ": 6794,
  "cler": 6795,
  "sister": 6796,
  "back, ": 6797,
  "look at ": 6798,
  " had ": 6799,
  "stopped ": 6800,
  "hurry": 6801,
  "somewhat ": 6802,
  "brut": 6803,
  ".\\u000a\\u000a“No": 6804,
  " when the ": 6805,
  "woman ": 6806,
  "what I ": 6807,
  ", as I ": 6808,
  "length ": 6809,
  "veil": 6810,
  "Nor": 6811,
  "curiosity": 6812,
  ". There are ": 6813,
  "besides, ": 6814,
  "where he ": 6815,
  "-by": 6816,
  "fault": 6817,
  "of that": 6818,
  "up to ": 6819,
  "edly ": 6820,
  "on the contrary, ": 6821,
  "who are ": 6822,
  " trouble ": 6823,
  "drive ": 6824,
  "Villefort’s ": 6825,
  "complish": 6826,
  "for her": 6827,
  "estim": 6828,
  "atic ": 6829,
  "Go ": 6830,
  ". Every": 6831,
  "obedi": 6832,
  "Listen": 6833,
  ", therefore, ": 6834,
  "laughter": 6835,
  " that had ": 6836,
  "es in ": 6837,
  "for the s": 6838,
  "ast of ": 6839,
  "Mediterranean": 6840,
  "stranger ": 6841,
  "in all ": 6842,
  "anu": 6843,
  "ga": 6844,
  "come to": 6845,
  "sad": 6846,
  "returned the ": 6847,
  "open the ": 6848,
  "proble": 6849,
  "week": 6850,
  " the same": 6851,
  "window ": 6852,
  ", I s": 6853,
  "k of ": 6854,
  "master ": 6855,
  "udden ": 6856,
  "relat": 6857,
  "greater": 6858,
  "vein": 6859,
  "invest": 6860,
  "ustri": 6861,
  "panel": 6862,
  "repeated": 6863,
  "outher": 6864,
  "ordinary": 6865,
  ". Our ": 6866,
  "Ga": 6867,
  "e they": 6868,
  "ann": 6869,
  "scream": 6870,
  "stomach": 6871,
  "stroll": 6872,
  "........": 6873,
  "1.F": 6874,
  "CHAPTER X": 6875,
  "Dr. Seward’s ": 6876,
  "ed the\\u000a": 6877,
  "\\u000athey ": 6878,
  "ing.\\u000a": 6879,
  "\\u000aas ": 6880,
  "by\\u000a": 6881,
  "Whit": 6882,
  "collar ": 6883,
  " tank": 6884,
  "it's": 6885,
  "n't\\u000a": 6886,
  "replied.\\u000a\\u000a\"": 6887,
  "?\"\\u000a\\u000a": 6888,
  "with this ": 6889,
  ".org": 6890,
  "elegraph": 6891,
  "Yanina": 6892,
  "inct ": 6893,
  "ague ": 6894,
  ". He was": 6895,
  "require ": 6896,
  "know how": 6897,
  "you ar": 6898,
  "stop ": 6899,
  "content ": 6900,
  "fare": 6901,
  "thous": 6902,
  "gives ": 6903,
  "icion": 6904,
  "mount": 6905,
  "old man’s ": 6906,
  " alter": 6907,
  "send ": 6908,
  "came": 6909,
  "mine": 6910,
  "9m\\u000a\\u000a\\u000a\\u000a\\u000a\\u000a“": 6911,
  ", as though": 6912,
  "banker": 6913,
  "s, who ": 6914,
  "public ": 6915,
  "knife ": 6916,
  "movement ": 6917,
  "leaving the ": 6918,
  ", as if ": 6919,
  "ing at": 6920,
  " triumph": 6921,
  "ah": 6922,
  "countenance ": 6923,
  "; but he ": 6924,
  "dash": 6925,
  " to them": 6926,
  "ed to her ": 6927,
  "vanish": 6928,
  "cable ": 6929,
  "s they ": 6930,
  "features": 6931,
  "creak": 6932,
  "exclam": 6933,
  " a great ": 6934,
  "doubtless ": 6935,
  "form ": 6936,
  "directly ": 6937,
  "clear ": 6938,
  " take the ": 6939,
  "don’t": 6940,
  ".\\u000a\\u000a“S": 6941,
  "hither": 6942,
  ", an": 6943,
  "several ": 6944,
  "Italy": 6945,
  "of all ": 6946,
  "y, but ": 6947,
  "conviction": 6948,
  "t of his ": 6949,
  " to give ": 6950,
  "of our ": 6951,
  "madame, ": 6952,
  "a, and ": 6953,
  "others": 6954,
  "it had ": 6955,
  "I found ": 6956,
  "s of this": 6957,
  "door, and ": 6958,
  " to t": 6959,
  "remor": 6960,
  "es—": 6961,
  "ages ": 6962,
  ", but I ": 6963,
  "!” he ": 6964,
  " above the ": 6965,
  "hort ": 6966,
  " again, ": 6967,
  "was so ": 6968,
  "consciousness": 6969,
  "resolv": 6970,
  "sport": 6971,
  "agg": 6972,
  "wide": 6973,
  " sign": 6974,
  " account ": 6975,
  "s who ": 6976,
  "which were ": 6977,
  "son & ": 6978,
  "ik": 6979,
  "know what": 6980,
  "tried to ": 6981,
  "Luigi ": 6982,
  "Peppino": 6983,
  "dry": 6984,
  "s-": 6985,
  "policem": 6986,
  "ing or ": 6987,
  "palm": 6988,
  "iterary Archive ": 6989,
  "IT": 6990,
  "\\u000athere ": 6991,
  "\\u000awith ": 6992,
  "more\\u000a": 6993,
  "\\u000ain the ": 6994,
  "es.\\u000a": 6995,
  "Doctor Jackson": 6996,
  ".\" ": 6997,
  "o'clock": 6998,
  ",\" said Kemp": 6999,
  " the S": 7000,
  "Cape ": 7001,
  "with that ": 7002,
  ", one ": 7003,
  "; and the ": 7004,
  "it is not ": 7005,
  "s of my ": 7006,
  "Dantès’ ": 7007,
  "ing himself ": 7008,
  "armed": 7009,
  "looking at ": 7010,
  " as you ": 7011,
  "chest ": 7012,
  "omorrow": 7013,
  "one th": 7014,
  "ep ": 7015,
  "ed his": 7016,
  "noy": 7017,
  "cript": 7018,
  " accept ": 7019,
  "strip": 7020,
  "when they ": 7021,
  "ing himself": 7022,
  "cannot be ": 7023,
  "difficulty ": 7024,
  "dear s": 7025,
  "ing your ": 7026,
  "of the t": 7027,
  "ence to ": 7028,
  "find the ": 7029,
  "putting ": 7030,
  "rum": 7031,
  " as though": 7032,
  "or of the ": 7033,
  "of water": 7034,
  " wonder": 7035,
  "presum": 7036,
  " there was no ": 7037,
  " window": 7038,
  "caught": 7039,
  "required": 7040,
  "wil": 7041,
  "obliged to ": 7042,
  "Good ": 7043,
  "serious": 7044,
  "passion": 7045,
  "Louis XVIII": 7046,
  "ed by his ": 7047,
  "proof ": 7048,
  "Mademoiselle de ": 7049,
  "is very ": 7050,
  ". An ": 7051,
  "from his pocket": 7052,
  "easily": 7053,
  " teeth ": 7054,
  "ing so": 7055,
  "confidence ": 7056,
  "frag": 7057,
  "gloomy ": 7058,
  ", on the ": 7059,
  "wake ": 7060,
  "bottom ": 7061,
  "illumin": 7062,
  "ing t": 7063,
  "motionless": 7064,
  "but one ": 7065,
  "tip": 7066,
  "pher": 7067,
  "es, the ": 7068,
  "Pi": 7069,
  " to us": 7070,
  "did so": 7071,
  "courage": 7072,
  "early": 7073,
  "it’s ": 7074,
  "plan ": 7075,
  " tell you ": 7076,
  "instrument": 7077,
  "faint ": 7078,
  "ly the ": 7079,
  "bitt": 7080,
  "ean ": 7081,
  "Rom": 7082,
  " want": 7083,
  "inside": 7084,
  "ament": 7085,
  "making ": 7086,
  "beyond the ": 7087,
  " seen ": 7088,
  "aston": 7089,
  "upstair": 7090,
  "300": 7091,
  "gallant ": 7092,
  "Carlin": 7093,
  "mechan": 7094,
  "stir": 7095,
  "beginning to ": 7096,
  "1,": 7097,
  ". Monte Cristo ": 7098,
  "Abbé Busoni": 7099,
  "habit ": 7100,
  "\\u000athat": 7101,
  "some\\u000a": 7102,
  "’t\\u000a": 7103,
  "seas ": 7104,
  "s\\u000aand ": 7105,
  "her Handler ": 7106,
  "llusk": 7107,
  "—\"\\u000a\"": 7108,
  "ory": 7109,
  "seum": 7110,
  "ident ": 7111,
  "chor": 7112,
  "you will be ": 7113,
  "resign": 7114,
  "wid": 7115,
  "ail ": 7116,
  " that of ": 7117,
  "iness, ": 7118,
  "consult": 7119,
  "convey": 7120,
  "for your ": 7121,
  "secret ": 7122,
  "you the ": 7123,
  "reality": 7124,
  " ascend": 7125,
  " train": 7126,
  "uttered a ": 7127,
  "solemn": 7128,
  ".”\\u000a\\u000a“What": 7129,
  "perspir": 7130,
  "e this": 7131,
  ". I had ": 7132,
  "it will be ": 7133,
  "vic": 7134,
  "Let us ": 7135,
  "pictures": 7136,
  "which is ": 7137,
  "existence": 7138,
  " to you, ": 7139,
  "my mother": 7140,
  "you?”\\u000a\\u000a“": 7141,
  "please ": 7142,
  "down, ": 7143,
  "bottom": 7144,
  "beyond ": 7145,
  "for that ": 7146,
  "need to ": 7147,
  "for he ": 7148,
  "dull": 7149,
  "king’s": 7150,
  ", and I": 7151,
  "pair": 7152,
  "inclin": 7153,
  "offici": 7154,
  "ful s": 7155,
  "Now ": 7156,
  ",” exclaimed ": 7157,
  ". This": 7158,
  "dry ": 7159,
  " affor": 7160,
  "leagues ": 7161,
  ", however, ": 7162,
  "s to be ": 7163,
  "; “I ": 7164,
  "observe ": 7165,
  " may be ": 7166,
  ".”\\u000a\\u000a“You are ": 7167,
  "shot ": 7168,
  "indis": 7169,
  "flam": 7170,
  "corridor": 7171,
  "rolled ": 7172,
  "vigor": 7173,
  "came to": 7174,
  "barri": 7175,
  "dawn": 7176,
  "plung": 7177,
  "quiet ": 7178,
  "ed these ": 7179,
  "descript": 7180,
  "you should ": 7181,
  "easy": 7182,
  "valet ": 7183,
  " master": 7184,
  "ideas ": 7185,
  "spoken": 7186,
  "ince the ": 7187,
  "again ": 7188,
  "minutes": 7189,
  "expos": 7190,
  "it and ": 7191,
  "you will not ": 7192,
  "contact ": 7193,
  "relief": 7194,
  "void ": 7195,
  "helm": 7196,
  "figure": 7197,
  "kitchen": 7198,
  "cad": 7199,
  "eer": 7200,
  "incident": 7201,
  "his face ": 7202,
  "reef": 7203,
  "; they ": 7204,
  "ly. ‘": 7205,
  "experience ": 7206,
  " with my ": 7207,
  "baroness ": 7208,
  "veget": 7209,
  "Bank": 7210,
  "stood up": 7211,
  "Gutenberg-t": 7212,
  "\\u000aand": 7213,
  "Arthur ": 7214,
  "Van\\u000a": 7215,
  "Van\\u000aHels": 7216,
  " the Nautilus ": 7217,
  "Project Gutenberg L": 7218,
  "22": 7219,
  "Sin": 7220,
  "ed with s": 7221,
  "ed off": 7222,
  "ing to his ": 7223,
  "Who": 7224,
  "of him": 7225,
  "s, but": 7226,
  "5m\\u000a\\u000a\\u000a\\u000a\\u000a\\u000a“": 7227,
  "ately, ": 7228,
  "ital ": 7229,
  "1m\\u000a\\u000a\\u000a\\u000a\\u000a\\u000a“": 7230,
  "friend, ": 7231,
  "utin": 7232,
  "in such a ": 7233,
  "cool": 7234,
  " he ask": 7235,
  "seemed to be ": 7236,
  "Have you ": 7237,
  "deliver": 7238,
  "ong ": 7239,
  "corner ": 7240,
  "king’s attorne": 7241,
  "compell": 7242,
  "ended ": 7243,
  "err": 7244,
  "exchang": 7245,
  "disappoint": 7246,
  "coral ": 7247,
  "everal": 7248,
  "brilliant ": 7249,
  ". We have ": 7250,
  "it be ": 7251,
  "lying ": 7252,
  " author": 7253,
  ", I will ": 7254,
  "may have ": 7255,
  "disgu": 7256,
  "ead ": 7257,
  " accustomed to ": 7258,
  ", their ": 7259,
  "I have been ": 7260,
  "s me ": 7261,
  "Hel": 7262,
  "physic": 7263,
  ".”\\u000a\\u000a“He ": 7264,
  "s his ": 7265,
  "proportion": 7266,
  "have, ": 7267,
  "in a t": 7268,
  "; this ": 7269,
  " toward the ": 7270,
  "distant ": 7271,
  "ilence": 7272,
  "enter ": 7273,
  "fee ": 7274,
  " of": 7275,
  ". It is": 7276,
  "sire": 7277,
  "fatig": 7278,
  "youth": 7279,
  " track": 7280,
  "chin": 7281,
  "beast": 7282,
  "in fron": 7283,
  "recognize ": 7284,
  "show ": 7285,
  " a we": 7286,
  "draw ": 7287,
  "eless ": 7288,
  " why ": 7289,
  "wrapp": 7290,
  "es, and": 7291,
  "melancho": 7292,
  ".\\u000a\\u000aF": 7293,
  "block": 7294,
  "signal": 7295,
  "uppos": 7296,
  "aire": 7297,
  " to that ": 7298,
  "pav": 7299,
  "observed ": 7300,
  "lux": 7301,
  "I did": 7302,
  "glimp": 7303,
  "operation": 7304,
  "ily, ": 7305,
  "le-": 7306,
  "hol": 7307,
  "object ": 7308,
  "lun": 7309,
  " the surface of the ": 7310,
  "story ": 7311,
  "last night": 7312,
  "sink": 7313,
  "cigar": 7314,
  "these ": 7315,
  "belief": 7316,
  "as it ": 7317,
  "floor, ": 7318,
  "unpleasant": 7319,
  "smo": 7320,
  "ucum": 7321,
  "viscount": 7322,
  "stage ": 7323,
  "ed myself": 7324,
  "ometer": 7325,
  "I felt ": 7326,
  "1.F.": 7327,
  "started to ": 7328,
  "from\\u000athe ": 7329,
  " my\\u000a": 7330,
  "little\\u000a": 7331,
  ".\\u000aThere ": 7332,
  "friend John": 7333,
  ".\\u000aAnd ": 7334,
  "ing,\\u000a": 7335,
  "hark": 7336,
  "I don't ": 7337,
  "I'd ": 7338,
  "Up": 7339,
  "acy": 7340,
  "du ": 7341,
  "hamber": 7342,
  "vern": 7343,
  "narrow ": 7344,
  "entrance ": 7345,
  "ly.\\u000a\\u000a“": 7346,
  "b ": 7347,
  "ty-": 7348,
  "cabin": 7349,
  ", while the ": 7350,
  " addition": 7351,
  ".”\\u000a\\u000a“And": 7352,
  "instruction": 7353,
  "ratt": 7354,
  " there was a ": 7355,
  "bring ": 7356,
  " mer": 7357,
  "inquiri": 7358,
  "passing ": 7359,
  " abs": 7360,
  "proud": 7361,
  ",” continued the ": 7362,
  "an, ": 7363,
  "imagine ": 7364,
  "backward": 7365,
  "stam": 7366,
  "soon as ": 7367,
  "eh": 7368,
  "ont": 7369,
  "fifteen": 7370,
  "s and the ": 7371,
  "stock": 7372,
  "glow": 7373,
  "pale": 7374,
  "lightn": 7375,
  "he could ": 7376,
  "swallow": 7377,
  " themselves": 7378,
  " them, ": 7379,
  "runk": 7380,
  "upon his ": 7381,
  "dying ": 7382,
  "looked at the ": 7383,
  "list": 7384,
  "like": 7385,
  "sleep ": 7386,
  "oop": 7387,
  "filled with ": 7388,
  ", at": 7389,
  "dragon": 7390,
  "minutes ": 7391,
  "start ": 7392,
  "nearer": 7393,
  "useless": 7394,
  "it the ": 7395,
  "de of ": 7396,
  ".”\\u000a\\u000a“And what ": 7397,
  "in an": 7398,
  ".”\\u000a\\u000a“B": 7399,
  "ourselves": 7400,
  "King ": 7401,
  "peac": 7402,
  "René": 7403,
  "reach ": 7404,
  "princ": 7405,
  "law ": 7406,
  "frighten": 7407,
  "lady ": 7408,
  "solutely ": 7409,
  " appro": 7410,
  " that his ": 7411,
  " serv": 7412,
  "in spit": 7413,
  "I have been": 7414,
  "also ": 7415,
  "weet ": 7416,
  "pref": 7417,
  " shor": 7418,
  " with an ": 7419,
  "carb": 7420,
  "re you ": 7421,
  "ed forward": 7422,
  "er is ": 7423,
  " to se": 7424,
  "dare ": 7425,
  ". With ": 7426,
  "carel": 7427,
  "ajest": 7428,
  "earth ": 7429,
  "someone ": 7430,
  "depriv": 7431,
  "However": 7432,
  "returned to ": 7433,
  "dangerous": 7434,
  "inspector": 7435,
  "former": 7436,
  ". As the ": 7437,
  "advant": 7438,
  " since ": 7439,
  "order to ": 7440,
  "upper ": 7441,
  "ource ": 7442,
  "narr": 7443,
  "name, ": 7444,
  "completely": 7445,
  "stopped": 7446,
  "Roman ": 7447,
  "box ": 7448,
  "valuable ": 7449,
  "line": 7450,
  "distance": 7451,
  ", all": 7452,
  "conclud": 7453,
  "manifest": 7454,
  "blaz": 7455,
  "Wil": 7456,
  "I heard ": 7457,
  "parl": 7458,
  ",” said Morcerf": 7459,
  " toward ": 7460,
  " met": 7461,
  "coral": 7462,
  "M. Danglars ": 7463,
  "hamp ": 7464,
  "init": 7465,
  "?” said Monte Cristo": 7466,
  "Lord": 7467,
  "Haydée": 7468,
  "clean": 7469,
  "M. Cavalcanti": 7470,
  "clothes": 7471,
  "behavior": 7472,
  "so\\u000a": 7473,
  " there\\u000a": 7474,
  " are\\u000a": 7475,
  "has\\u000a": 7476,
  "\\u000ahe ": 7477,
  "Miss ": 7478,
  " she\\u000a": 7479,
  "s.\\u000aThe ": 7480,
  " October": 7481,
  "underwater": 7482,
  "doesn't ": 7483,
  "Commander Far": 7484,
  "Commander Farrag": 7485,
  "That's ": 7486,
  "Mr. L": 7487,
  "can't ": 7488,
  ",\" I said, \"": 7489,
  " OF ": 7490,
  "Carn": 7491,
  "Carniv": 7492,
  "emon": 7493,
  " mind": 7494,
  "ov": 7495,
  "long and ": 7496,
  "orough": 7497,
  "in spite ": 7498,
  "ed me, ": 7499,
  " saw": 7500,
  "ly, “": 7501,
  "if it were ": 7502,
  " to think": 7503,
  " this moment": 7504,
  "we shall ": 7505,
  "lovely ": 7506,
  "for some ": 7507,
  "in which he ": 7508,
  "That’s ": 7509,
  "your w": 7510,
  "I want ": 7511,
  ". Let ": 7512,
  "one’s ": 7513,
  "on which": 7514,
  "merely": 7515,
  "empt ": 7516,
  "rest of the ": 7517,
  "enemy": 7518,
  "read the ": 7519,
  "we must ": 7520,
  "ing towards ": 7521,
  "epar": 7522,
  "fit ": 7523,
  "radi": 7524,
  "sudden ": 7525,
  "with its ": 7526,
  "o’clock ": 7527,
  " we are ": 7528,
  "echo": 7529,
  "before him": 7530,
  " answered the ": 7531,
  "inno": 7532,
  "uspect": 7533,
  "easy ": 7534,
  "cele": 7535,
  "celebr": 7536,
  "reserv": 7537,
  "in this": 7538,
  " a woman": 7539,
  "marquis": 7540,
  "Ho": 7542,
  "opportunity ": 7543,
  "more and ": 7544,
  "; my ": 7545,
  " to your ": 7546,
  "error": 7547,
  " accomplish": 7548,
  "by my ": 7549,
  ",’ said the ": 7550,
  " a minut": 7551,
  "anything": 7552,
  "hundred thousand franc": 7553,
  "her, and ": 7554,
  "agon": 7555,
  "ify": 7556,
  "ugust": 7557,
  "ance of the ": 7558,
  "staircase ": 7559,
  "eneral ": 7560,
  " well ": 7561,
  "his own ": 7562,
  "begun": 7563,
  "ency": 7564,
  "comes": 7565,
  "; but I ": 7566,
  "managed to ": 7567,
  "attention": 7568,
  "into my ": 7569,
  " abandon": 7570,
  "e things ": 7571,
  "ing these ": 7572,
  ". For ": 7573,
  "inch": 7574,
  " ti": 7575,
  "puzz": 7576,
  "While ": 7577,
  "one to ": 7578,
  "clearly ": 7579,
  "several": 7580,
  ". Per": 7581,
  "middle of the ": 7582,
  "purchase ": 7583,
  "pe ": 7584,
  "former ": 7585,
  "caut": 7586,
  "s was ": 7587,
  "pound": 7588,
  "you’re ": 7589,
  "grott": 7590,
  "blu": 7591,
  "drawn": 7592,
  "animal ": 7593,
  "coup": 7594,
  "I should": 7595,
  "white": 7596,
  "in all": 7597,
  "bedroom": 7598,
  "pressure": 7599,
  "pel": 7600,
  "Albert, ": 7601,
  "notice ": 7602,
  "Champ": 7603,
  "cholog": 7604,
  "eel": 7605,
  "X. ": 7606,
  "paragraph ": 7607,
  "gym": 7608,
  " the\\u000a\\u000a": 7609,
  "Harker’s ": 7610,
  "\\u000ato the ": 7611,
  " their\\u000a": 7612,
  "\\u000ain ": 7613,
  "eter ": 7614,
  "s of\\u000a": 7615,
  "\\u000ashe ": 7616,
  "New ": 7617,
  "\\u000ato": 7618,
  " September.—": 7619,
  "*\\u000a": 7620,
  ".\\u000aCassie ": 7621,
  "zoo": 7622,
  "Abraham Lincoln": 7623,
  "Andrea Cavalcanti": 7624,
  "vessel ": 7625,
  " activ": 7626,
  "pok": 7627,
  "young man, “": 7628,
  "would have been ": 7629,
  "cloud ": 7630,
  "step ": 7631,
  "he, ": 7632,
  " that a ": 7633,
  "Heaven": 7634,
  ". You have ": 7635,
  "followed him": 7636,
  "joy ": 7637,
  "?”\\u000a\\u000a“No, ": 7638,
  "And he ": 7639,
  "so long": 7640,
  "?’\\u000a\\u000a“‘": 7641,
  ", that I ": 7642,
  "wick": 7643,
  "s.”\\u000a\\u000a": 7644,
  "ated by ": 7645,
  ".\\u000a\\u000a“Oh": 7646,
  "slowly ": 7647,
  "born": 7648,
  "sense": 7649,
  "spoke": 7650,
  "nin": 7651,
  "overwhelm": 7652,
  "followed ": 7653,
  " a good ": 7654,
  " as if he ": 7655,
  "prog": 7656,
  "mine ": 7657,
  " assassin": 7658,
  "s like ": 7659,
  ", and that": 7660,
  "gentleman ": 7661,
  " temper": 7662,
  "ed about": 7663,
  " towards": 7664,
  "opened ": 7665,
  "brain ": 7666,
  "owe ": 7667,
  "disposition": 7668,
  "utterly ": 7669,
  "mere ": 7670,
  "detect": 7671,
  "fee": 7672,
  "acc": 7673,
  "docum": 7674,
  "liberty": 7675,
  "should have ": 7676,
  "carefully": 7677,
  "perish": 7678,
  "recommend": 7679,
  "s with the ": 7680,
  " more than ": 7681,
  "over her ": 7682,
  "-in-law": 7683,
  "he had": 7684,
  "a and ": 7685,
  "be, ": 7686,
  "spot ": 7687,
  "arn ": 7688,
  "reliev": 7689,
  " to you ": 7690,
  "ed that he ": 7691,
  "immediate ": 7692,
  "itting ": 7693,
  "oubt": 7694,
  " abrupt": 7695,
  "close": 7696,
  "made her ": 7697,
  "wish to ": 7698,
  "aps": 7699,
  "funer": 7700,
  "chim": 7701,
  ".\\u000a\\u000a“I": 7702,
  " million": 7703,
  "for myself": 7704,
  "relax": 7705,
  "cel": 7706,
  "seen the ": 7707,
  "us the ": 7708,
  "s by ": 7709,
  "labor": 7710,
  "gradually ": 7711,
  "fruit": 7712,
  "provide ": 7713,
  "piece ": 7714,
  "exhi": 7715,
  "rece": 7716,
  ", and my ": 7717,
  "ed, s": 7718,
  "t of": 7719,
  " seen": 7720,
  "og": 7721,
  " think of ": 7722,
  "e took ": 7723,
  ", without": 7724,
  "covered with ": 7725,
  " seas": 7726,
  "breez": 7727,
  "beat ": 7728,
  " advent": 7729,
  "magnificent ": 7730,
  "yach": 7731,
  "concier": 7732,
  "main ": 7733,
  "me and ": 7734,
  "because the ": 7735,
  "went to the ": 7736,
  "Thomson & ": 7737,
  "dear, ": 7738,
  "stared ": 7739,
  "particular ": 7740,
  "Gaet": 7741,
  "infin": 7742,
  "lum": 7743,
  "so many ": 7744,
  "current": 7745,
  "medic": 7746,
  "stimul": 7747,
  "quiver": 7748,
  "ific ": 7749,
  "Dracul": 7750,
  "Dr. Seward’s Diary": 7751,
  "very\\u000a": 7752,
  "\\u000awith": 7753,
  "hyp": 7754,
  "e to\\u000a": 7755,
  ".\\u000aThey ": 7756,
  "Red ": 7757,
  "Un-": 7758,
  "continent": 7759,
  "'s a ": 7760,
  "!\" I ": 7761,
  "you're ": 7762,
  "'s the ": 7763,
  ". Bunt": 7764,
  "\\u000a\\u000a\\u000a\\u000a\\u000a\\u000a": 7765,
  "rait": 7766,
  " approached the ": 7767,
  "ness and ": 7768,
  " at onc": 7769,
  "rate ": 7770,
  "dart": 7771,
  "gleam": 7772,
  "you a ": 7773,
  "sole ": 7774,
  "narrow": 7775,
  "o’clock in the ": 7776,
  "strength ": 7777,
  ", that is": 7778,
  ".\\u000a\\u000a“What": 7779,
  "ility": 7780,
  " thrown ": 7781,
  ", as it ": 7782,
  "complex": 7783,
  "on which ": 7784,
  "still more ": 7785,
  "jack": 7786,
  "hate ": 7787,
  "embarr": 7788,
  "furi": 7789,
  "refresh": 7790,
  " turned to ": 7791,
  "grace": 7792,
  "next day": 7793,
  "ect of ": 7794,
  "out, ": 7795,
  " such a ": 7796,
  "write ": 7797,
  "rote ": 7798,
  "usur": 7799,
  "venge ": 7800,
  "I should have ": 7801,
  "erous ": 7802,
  " appearance": 7803,
  " spe": 7804,
  "countenance": 7805,
  "conscious ": 7806,
  "steps ": 7807,
  "contract": 7808,
  "ing the t": 7809,
  "would have been": 7810,
  "while, ": 7811,
  "information ": 7812,
  "rent": 7813,
  "memory": 7814,
  "you and ": 7815,
  " whisper": 7816,
  "collect ": 7817,
  "government": 7818,
  "ite": 7819,
  "difficul": 7820,
  "on that ": 7821,
  "permitt": 7822,
  "royal": 7823,
  ".\\u000a\\u000a“Ah": 7824,
  "devotion": 7825,
  " tender": 7826,
  "fallen": 7827,
  "crim": 7828,
  ", “the ": 7829,
  "genu": 7830,
  "morrow": 7831,
  "unfortunate ": 7832,
  "correct": 7833,
  "print": 7834,
  "ality": 7835,
  "charm": 7836,
  "naturally ": 7837,
  "contempl": 7838,
  ", thank": 7839,
  "reput": 7840,
  ".”\\u000a\\u000a“It is ": 7841,
  "going to": 7842,
  "bark": 7843,
  " so much": 7844,
  "utter ": 7845,
  "weep": 7846,
  " tone": 7847,
  "s of her ": 7848,
  "she was": 7849,
  "shut ": 7850,
  "volum": 7851,
  "erious": 7852,
  "raise ": 7853,
  " at the same time ": 7854,
  "ed. I ": 7855,
  ".”\\u000a\\u000a“Then": 7856,
  "hole ": 7857,
  "tin": 7858,
  "antly": 7859,
  "simple ": 7860,
  "catch ": 7861,
  "coat ": 7862,
  "remarkable ": 7863,
  "influence ": 7864,
  "kn": 7865,
  "sustain": 7866,
  " show": 7867,
  "problem": 7868,
  "Flor": 7869,
  "Rome ": 7870,
  ",” said the abbé": 7871,
  " that my ": 7872,
  "elf-": 7873,
  "it a ": 7874,
  ". It was a ": 7875,
  "wreck": 7876,
  "harp ": 7877,
  " at that ": 7878,
  "weight": 7879,
  " acknowledg": 7880,
  "childr": 7881,
  "ask ": 7882,
  "shop": 7883,
  "uniform": 7884,
  " there is": 7885,
  "hand and ": 7886,
  "eyel": 7887,
  "eleven ": 7888,
  "spl": 7889,
  "rain": 7890,
  "opo": 7891,
  " trous": 7892,
  "rect ": 7893,
  "diamond ": 7894,
  "gam": 7895,
  "green ": 7896,
  "hab": 7897,
  "of all the ": 7898,
  "up his ": 7899,
  "countess": 7900,
  "chool": 7901,
  "haz": 7902,
  "de Morcerf": 7903,
  "extremely ": 7904,
  "ina ": 7905,
  "pha": 7906,
  "send": 7907,
  "hostile ": 7908,
  " aris": 7909,
  ",” said Albert, “": 7910,
  "que": 7911,
  "400": 7912,
  "yellow ": 7913,
  "quick ": 7914,
  " (": 7915,
  "lack": 7916,
  ",” said Château-Renaud": 7917,
  "door and ": 7918,
  "oppon": 7919,
  "bat": 7920,
  "link": 7921,
  "withstand": 7922,
  "ed. She ": 7923,
  "ki": 7924,
  "AL": 7925,
  "a,\\u000a": 7926,
  "poly": 7927,
  "grey ": 7928,
  "blink": 7929,
  "she’d ": 7930,
  "!\" the ": 7931,
  "ed. \"": 7932,
  "21": 7933,
  "bul": 7934,
  " to their ": 7935,
  " taking ": 7936,
  "besid": 7937,
  "come and ": 7938,
  " three month": 7939,
  "e, sir": 7940,
  "use of ": 7941,
  "ed into": 7942,
  "warn": 7943,
  "rejo": 7944,
  "Never ": 7945,
  "take ": 7946,
  "five or s": 7947,
  " things": 7948,
  ",” murmured ": 7949,
  "beard": 7950,
  "e them ": 7951,
  " too much": 7952,
  "a fo": 7953,
  "head and ": 7954,
  "bottle ": 7955,
  "worn": 7956,
  "friends ": 7957,
  "bare ": 7958,
  "centuri": 7959,
  "elbow": 7960,
  "san": 7961,
  "inher": 7962,
  "eli": 7963,
  "embarrass": 7964,
  "hands, ": 7965,
  ", but it ": 7966,
  "Do you know": 7967,
  "well-": 7968,
  "fist": 7969,
  "one that ": 7970,
  ", if you ": 7971,
  "s. A": 7972,
  "stone": 7973,
  "killed": 7974,
  " anticip": 7975,
  ". Just": 7976,
  ".”\\u000a\\u000a“Oh": 7977,
  "quarter of an ": 7978,
  "asm": 7979,
  "extreme ": 7980,
  "whom he ": 7981,
  "eless, ": 7982,
  " absorb": 7983,
  ", to the ": 7984,
  "ed the t": 7985,
  ". How ": 7986,
  "Jo": 7987,
  "distinguish": 7988,
  "hero": 7989,
  "year ": 7990,
  "laid": 7991,
  "unk": 7992,
  "assu": 7993,
  "accus": 7994,
  "in order to ": 7995,
  "necessary ": 7996,
  "merc": 7997,
  "interrog": 7998,
  ".\\u000a\\u000a“My ": 7999,
  "?” cried ": 8000,
  " second": 8001,
  "already": 8002,
  "edition": 8003,
  "your majest": 8004,
  " tell m": 8005,
  "honor of ": 8006,
  " was to ": 8007,
  ". You must ": 8008,
  "false ": 8009,
  ", as we ": 8010,
  "devot": 8011,
  "wore ": 8012,
  "individual": 8013,
  "putt": 8014,
  "which I ": 8015,
  "book ": 8016,
  "ed against ": 8017,
  "be that ": 8018,
  "a man": 8019,
  "wished to ": 8020,
  " smil": 8021,
  ". Two ": 8022,
  "feared ": 8023,
  "on the floor": 8024,
  "active ": 8025,
  "cav": 8026,
  "England": 8027,
  "focus": 8028,
  "like that ": 8029,
  "norther": 8030,
  "earch": 8031,
  "teen ": 8032,
  ". By ": 8033,
  "presence": 8034,
  "appeared ": 8035,
  "fowl": 8036,
  "ing and": 8037,
  " set ": 8038,
  "mask": 8039,
  "-tre": 8040,
  "brief": 8041,
  "Baron ": 8042,
  "exact ": 8043,
  ",” said Franz": 8044,
  "ster ": 8045,
  "Albert’s ": 8046,
  "Under": 8047,
  "solic": 8048,
  "coffin": 8049,
  "invisible ": 8050,
  "Champs-": 8051,
  "Champs-É": 8052,
  "Champs-Ély": 8053,
  "Champs-Élysé": 8054,
  "energy": 8055,
  "phen": 8056,
  "pig": 8057,
  "field ": 8058,
  "SE": 8059,
  "eBook": 8060,
  "iterary Archive Foundation": 8061,
  ", the\\u000a": 8062,
  "him\\u000a": 8063,
  "ing the\\u000a": 8064,
  "own\\u000a": 8065,
  ",\\u000aand the ": 8066,
  "spear": 8067,
  "Thomas’s ": 8068,
  "longitude ": 8069,
  "hull": 8070,
  "fearsome ": 8071,
  "we'll ": 8072,
  ",\" I replied, \"": 8073,
  ",\" Conseil said": 8074,
  "!\"\\u000a": 8075,
  "d'": 8076,
  "Ice ": 8077,
  "ed as she ": 8078,
  "!”\\u000a\\u000aThe ": 8079,
  " anyone": 8080,
  "emperor": 8081,
  "from him": 8082,
  "et, ": 8083,
  " mist": 8084,
  ", with a s": 8085,
  " spr": 8086,
  "street ": 8087,
  "Rue de ": 8088,
  ". Do you ": 8089,
  "s of w": 8090,
  "?”\\u000a\\u000aThe ": 8091,
  "uttered ": 8092,
  "match": 8093,
  "7m\\u000a\\u000a\\u000a\\u000a\\u000a\\u000a“": 8094,
  "in it": 8095,
  "directly": 8096,
  "a foi": 8097,
  "plain ": 8098,
  "language ": 8099,
  " with me": 8100,
  ", I have ": 8101,
  "s. W": 8102,
  "besides": 8103,
  " threaten": 8104,
  "carcely": 8105,
  "can’t ": 8106,
  " throw ": 8107,
  "hoar": 8108,
  "Caderousse, ": 8109,
  ". Se": 8110,
  "nose ": 8111,
  " are you": 8112,
  " worth": 8113,
  "journey": 8114,
  ", “but ": 8115,
  "awa": 8116,
  "invent": 8117,
  ".\\u000a\\u000a“W": 8118,
  "has just ": 8119,
  "well, ": 8120,
  "confirm": 8121,
  "ed in his ": 8122,
  " agree": 8123,
  "oyster": 8124,
  "cannot": 8125,
  "hood": 8126,
  " to find ": 8127,
  " avoid": 8128,
  "outside the ": 8129,
  " a mag": 8130,
  " surpris": 8131,
  "e, I ": 8132,
  "icious ": 8133,
  "noble": 8134,
  "persu": 8135,
  "fifteen ": 8136,
  "women ": 8137,
  "France, ": 8138,
  "accur": 8139,
  "sca": 8140,
  "es; ": 8141,
  "was an ": 8142,
  ", madame": 8143,
  " at your ": 8144,
  "se to ": 8145,
  " as though ": 8146,
  "I assure ": 8147,
  ". Then the ": 8148,
  " men ": 8149,
  " toler": 8150,
  "sank ": 8151,
  "person who ": 8152,
  "sheet": 8153,
  "were": 8154,
  ".\\u000a\\u000a0": 8155,
  "ates, ": 8156,
  "leaving ": 8157,
  "he.\\u000a\\u000a“": 8158,
  "hunger": 8159,
  "ecret": 8160,
  "which, ": 8161,
  "ed as he ": 8162,
  "power of ": 8163,
  "hung ": 8164,
  "eyebrow": 8165,
  "driver": 8166,
  "evening, ": 8167,
  "etc": 8168,
  "ed all": 8169,
  "Never": 8170,
  "it in the ": 8171,
  "establish": 8172,
  "arch ": 8173,
  "constant ": 8174,
  "curious ": 8175,
  "curious": 8176,
  "gigantic ": 8177,
  "hospital": 8178,
  "against the ": 8179,
  " weak": 8180,
  "furnit": 8181,
  ", accord": 8182,
  "make the ": 8183,
  " aim": 8184,
  "nother ": 8185,
  "umn": 8186,
  "South ": 8187,
  "larg": 8188,
  "blank": 8189,
  "Oh ": 8190,
  " to keep ": 8191,
  "believe that ": 8192,
  "sci": 8193,
  "heap": 8194,
  "nak": 8195,
  "some t": 8196,
  " awaken": 8197,
  "wolf": 8198,
  "or two ": 8199,
  "maid": 8200,
  "and a ": 8201,
  " or ": 8202,
  " accompany ": 8203,
  " of her ": 8204,
  " associated ": 8205,
  "credit ": 8206,
  "due ": 8207,
  "region": 8208,
  "excellency": 8209,
  "conven": 8210,
  "Teresa": 8211,
  "froz": 8212,
  "sat": 8213,
  "Peppino ": 8214,
  "not?”\\u000a\\u000a“": 8215,
  "ali": 8216,
  "imen": 8217,
  "ed through": 8218,
  "on their ": 8219,
  "Beauchamp ": 8220,
  "lung": 8221,
  "iles ": 8222,
  "surely ": 8223,
  ",” said Madame de Villefort": 8224,
  "Count’s ": 8225,
  "grandpap": 8226,
  "around": 8227,
  "sycholog": 8228,
  "phenomen": 8229,
  "elim": 8230,
  "ept ": 8231,
  "marine ": 8232,
  "Oce": 8233,
  ")\\u000a\\u000a": 8234,
  "WAR": 8235,
  "irritation": 8236,
  "kick": 8237,
  ".\\u000aWe ": 8238,
  " the\\u000a\\u000a\\u000c": 8239,
  "drift": 8240,
  "s\\u000awere ": 8241,
  "hadn’t ": 8242,
  "Handler": 8243,
  "186": 8244,
  "Pacific": 8245,
  ",\\u000a\"": 8246,
  ",\" the Canadian ": 8247,
  "on, \"": 8248,
  "Mr. Land": 8249,
  "zoophy": 8250,
  "icense ": 8251,
  "www": 8252,
  "www.": 8253,
  "gutenberg": 8254,
  "er, and ": 8255,
  "earn": 8256,
  "Sinbad": 8257,
  "IV": 8258,
  "la ": 8259,
  "skiff": 8260,
  ".\\u000a\\u000a“Well, ": 8261,
  "a man ": 8262,
  "Island of Elb": 8263,
  "Dantès, “": 8264,
  "ready, ": 8265,
  "iment ": 8266,
  "is all ": 8267,
  "exclaimed the ": 8268,
  "in the midst of the ": 8269,
  "behind him": 8270,
  "? S": 8271,
  " all over": 8272,
  "dozen ": 8273,
  "ently, ": 8274,
  " arrival": 8275,
  "on your ": 8276,
  "cloak": 8277,
  "e to you": 8278,
  "on the table": 8279,
  "lack ": 8280,
  "sprang ": 8281,
  "marry": 8282,
  "and-t": 8283,
  ". You are ": 8284,
  "friendship": 8285,
  "I say ": 8286,
  "her eyes": 8287,
  "forgotten ": 8288,
  " arm ": 8289,
  "seems ": 8290,
  "double": 8291,
  "M. Danglars": 8292,
  "ceremon": 8293,
  " the two ": 8294,
  "does not": 8295,
  "marriage ": 8296,
  ", indeed, ": 8297,
  "fellow ": 8298,
  "overcome ": 8299,
  ", and in": 8300,
  "return to the ": 8301,
  "back and ": 8302,
  " time the ": 8303,
  " and was ": 8304,
  "ing that the ": 8305,
  "nervous ": 8306,
  "enn": 8307,
  " tranqu": 8308,
  ", or the ": 8309,
  "urely": 8310,
  "he, “": 8311,
  " told me ": 8312,
  ".\\u000a\\u000aA ": 8313,
  "document": 8314,
  "pid ": 8315,
  "ty, ": 8316,
  "ing into ": 8317,
  " threw": 8318,
  " the whole ": 8319,
  "Still": 8320,
  "steps": 8321,
  "built ": 8322,
  "s,—": 8323,
  "s from": 8324,
  "brown ": 8325,
  " these two ": 8326,
  ", as well": 8327,
  "ing about ": 8328,
  "ed in my ": 8329,
  "excitement ": 8330,
  "at least": 8331,
  "perfectly": 8332,
  "few word": 8333,
  "mourn": 8334,
  "reflection": 8335,
  "body, ": 8336,
  "young man’s ": 8337,
  ", all the ": 8338,
  "Noirtier, ": 8339,
  ". After ": 8340,
  "third": 8341,
  "retired": 8342,
  " air ": 8343,
  "ensible ": 8344,
  "only one ": 8345,
  "food ": 8346,
  "ed no ": 8347,
  "ing his": 8348,
  "abbé ": 8349,
  "bition": 8350,
  "nut": 8351,
  "careless": 8352,
  "arg": 8353,
  "deeply ": 8354,
  "enger": 8355,
  ", even ": 8356,
  "ed itself": 8357,
  "anger": 8358,
  "conversation ": 8359,
  "government ": 8360,
  "found a ": 8361,
  "Janu": 8362,
  "obstac": 8363,
  " took a ": 8364,
  "effort ": 8365,
  "way of ": 8366,
  " as much": 8367,
  "ead": 8368,
  "I felt": 8369,
  "attendant": 8370,
  "is that ": 8371,
  "ed me to ": 8372,
  "spr": 8373,
  "ues": 8374,
  "ent, ": 8375,
  "over, ": 8376,
  "eness ": 8377,
  "attack": 8378,
  "helpl": 8379,
  "consciousness ": 8380,
  "move": 8381,
  "wise ": 8382,
  " sha": 8383,
  "charming ": 8384,
  "spott": 8385,
  "cover ": 8386,
  "s it": 8387,
  "ic s": 8388,
  "une ": 8389,
  "nervous": 8390,
  " spec": 8391,
  "ed to take ": 8392,
  ". Your ": 8393,
  "carpet": 8394,
  "hidden ": 8395,
  "cook": 8396,
  "acros": 8397,
  "fab": 8398,
  "boy ": 8399,
  "I went": 8400,
  "M. de Bo": 8401,
  "newsp": 8402,
  "er than ": 8403,
  "del ": 8404,
  "flat": 8405,
  "shin": 8406,
  "Parisian": 8407,
  "-night": 8408,
  "February ": 8409,
  ",” said Debray": 8410,
  "front": 8411,
  "baroness, ": 8412,
  "Valentine’s ": 8413,
  "illustr": 8414,
  "It’s ": 8415,
  "Dead": 8416,
  "gripp": 8417,
  "craw": 8418,
  "Dr. ": 8419,
  "ademark": 8420,
  "ING": 8421,
  "located ": 8422,
  ".\\u000aB": 8423,
  "local": 8424,
  " we\\u000a": 8425,
  ".\\u000aW": 8426,
  " at the\\u000a": 8427,
  "but\\u000a": 8428,
  "cage, ": 8429,
  "Project\\u000a": 8430,
  ".\\u000a\\u000a\\u000c‘": 8431,
  ",’ Thomas ": 8432,
  "we're ": 8433,
  ",\" Ned Land ": 8434,
  "Nautilus\\u000a": 8435,
  "Ice Bank": 8436,
  "Henfre": 8437,
  "Cus": 8438,
  "Nov": 8439,
  "Me": 8440,
  "dict": 8441,
  ". Ex": 8442,
  "being s": 8443,
  "for me ": 8444,
  " thorough": 8445,
  "command ": 8446,
  "much the ": 8447,
  ".”\\u000a\\u000a“How ": 8448,
  "a good ": 8449,
  "you; ": 8450,
  "respect ": 8451,
  "rapidly": 8452,
  "on of ": 8453,
  "; then, ": 8454,
  "expect ": 8455,
  "of see": 8456,
  "garden ": 8457,
  "”—": 8458,
  "stammer": 8459,
  ".\\u000a\\u000a“You ": 8460,
  "; but, ": 8461,
  " although ": 8462,
  "begg": 8463,
  "aster ": 8464,
  "would you ": 8465,
  "useful": 8466,
  "her husband": 8467,
  "bestow": 8468,
  "I will not ": 8469,
  "made no ": 8470,
  "final ": 8471,
  "chair ": 8472,
  "floo": 8473,
  " these word": 8474,
  ", said": 8475,
  "able to": 8476,
  "say that ": 8477,
  "better than": 8478,
  "nur": 8479,
  "less than": 8480,
  "? I ": 8481,
  "ke, ": 8482,
  " whether ": 8483,
  "declar": 8484,
  "ation, and ": 8485,
  "s, or ": 8486,
  "what a ": 8487,
  "crew ": 8488,
  "had gone ": 8489,
  "parad": 8490,
  "simply": 8491,
  "in fact": 8492,
  "beach": 8493,
  "Man ": 8494,
  "ed his eyes": 8495,
  " amid": 8496,
  "yesterday ": 8497,
  "on her": 8498,
  "plann": 8499,
  ".\\u000a\\u000aAt": 8500,
  "his own": 8501,
  "sympath": 8502,
  "fied ": 8503,
  "capable of ": 8504,
  "servic": 8505,
  "suppli": 8506,
  "rict ": 8507,
  "perhaps": 8508,
  "ide of the ": 8509,
  "commander": 8510,
  "ion is ": 8511,
  "I have no ": 8512,
  ", took ": 8513,
  "goes ": 8514,
  " at my ": 8515,
  "service ": 8516,
  " adop": 8517,
  "indul": 8518,
  "compass": 8519,
  "Your": 8520,
  "c ": 8521,
  "knowing": 8522,
  " accent": 8523,
  "enemies": 8524,
  "ances ": 8525,
  "made a sign": 8526,
  "from its ": 8527,
  "obs": 8528,
  "advanc": 8529,
  "coachman": 8530,
  ", and yet ": 8531,
  "crime": 8532,
  "ress, ": 8533,
  "jailer": 8534,
  "slept": 8535,
  "rugg": 8536,
  "go to the ": 8537,
  "tell": 8538,
  "too ": 8539,
  "replied the ": 8540,
  "peace": 8541,
  "minister": 8542,
  "claw": 8543,
  "maintain": 8544,
  "escrib": 8545,
  " of my ": 8546,
  ", thre": 8547,
  "ed our ": 8548,
  "ed over the ": 8549,
  " ago ": 8550,
  ". When the ": 8551,
  "corpse": 8552,
  "oath": 8553,
  "wanted to ": 8554,
  "insp": 8555,
  "him. He ": 8556,
  "æs": 8557,
  "s of their ": 8558,
  "handker": 8559,
  "satisfaction": 8560,
  "guess ": 8561,
  " accident": 8562,
  "fitt": 8563,
  "have I ": 8564,
  "cost ": 8565,
  "startl": 8566,
  "with which ": 8567,
  "library": 8568,
  ", S": 8569,
  "doubtless": 8570,
  "brush": 8571,
  "relativ": 8572,
  ". Perhap": 8573,
  "heavily": 8574,
  "Did you ": 8575,
  "imilar ": 8576,
  ". There were ": 8577,
  " this morning": 8578,
  " and w": 8579,
  "fate ": 8580,
  "root": 8581,
  "wonderful ": 8582,
  "ught": 8583,
  "grateful": 8584,
  "riek": 8585,
  "stayed ": 8586,
  "grave": 8587,
  "of its ": 8588,
  "frightful ": 8589,
  "direct ": 8590,
  "beac": 8591,
  "investig": 8592,
  "slipp": 8593,
  "tre": 8594,
  "not to be ": 8595,
  "seeing ": 8596,
  "ability": 8597,
  "class ": 8598,
  "God’s ": 8599,
  "cruc": 8600,
  "her own ": 8601,
  "hide": 8602,
  "put in": 8603,
  "as she ": 8604,
  " appreci": 8605,
  "cuse ": 8606,
  "rat": 8607,
  "utt": 8608,
  "sa": 8609,
  "Pen": 8610,
  "Let me ": 8611,
  "strike ": 8612,
  "pool": 8613,
  " appearance ": 8614,
  "sam": 8615,
  "etto ": 8616,
  "peasant": 8617,
  " mus": 8618,
  "muff": 8619,
  "countess ": 8620,
  "olet": 8621,
  "journal": 8622,
  ",” said Monte Cristo; “": 8623,
  "Great ": 8624,
  "happened ": 8625,
  "mother’s ": 8626,
  "! But ": 8627,
  "angry": 8628,
  "do it": 8629,
  "comfort ": 8630,
  "Haydée ": 8631,
  "Baptistin": 8632,
  "Eugénie": 8633,
  "Mademoiselle Danglars": 8634,
  "Noirtier’s ": 8635,
  " throat ": 8636,
  "Gri": 8637,
  "TR": 8638,
  "donation": 8639,
  "Y ": 8640,
  "introspect": 8641,
  "after-": 8642,
  "from the\\u000a": 8643,
  ".\\u000aIt was ": 8644,
  "me\\u000a": 8645,
  "Mina, ": 8646,
  ".\\u000aBut": 8647,
  ",\\u000awhich ": 8648,
  ".\\u000aSo ": 8649,
  "realised ": 8650,
  "crab": 8651,
  "mollusk": 8652,
  "won't ": 8653,
  "Don't ": 8654,
  "captain's ": 8655,
  ",\" Captain Nemo ": 8656,
  ". '": 8657,
  "Voice": 8658,
  "100": 8659,
  ", those ": 8660,
  ", it was ": 8661,
  " sk": 8662,
  "into the sea": 8663,
  " accur": 8664,
  " advis": 8665,
  "here is ": 8666,
  "s, to ": 8667,
  "I do not know": 8668,
  "what was ": 8669,
  " tears ": 8670,
  " trouble": 8671,
  "factor": 8672,
  "et and ": 8673,
  "este": 8674,
  "Italian ": 8675,
  " way ": 8676,
  " amus": 8677,
  "arest ": 8678,
  "hurt": 8679,
  "opened": 8680,
  "falling ": 8681,
  "purchas": 8682,
  "cof": 8683,
  "e to his ": 8684,
  "e of it": 8685,
  "ed?”\\u000a\\u000a“": 8686,
  "udd": 8687,
  "reproach": 8688,
  " so much ": 8689,
  "were, ": 8690,
  ". I could ": 8691,
  "cruel": 8692,
  "died ": 8693,
  "fairly ": 8694,
  "deadly ": 8695,
  "are you ": 8696,
  ".”\\u000a\\u000a“My ": 8697,
  "example": 8698,
  "is to say": 8699,
  "clever": 8700,
  "True": 8701,
  "relig": 8702,
  "You’re ": 8703,
  "spread ": 8704,
  ".\\u000a\\u000aDantès ": 8705,
  "gay": 8706,
  "gentle ": 8707,
  " thirty ": 8708,
  "ure to ": 8709,
  "sufficiently ": 8710,
  "each other ": 8711,
  "firm ": 8712,
  "officer ": 8713,
  "I tell you": 8714,
  "painful ": 8715,
  "blow ": 8716,
  "rapid ": 8717,
  ".”\\u000a\\u000aA": 8718,
  "together ": 8719,
  "dwell": 8720,
  "separated ": 8721,
  "rose and ": 8722,
  "forever": 8723,
  "; I": 8724,
  "punishment": 8725,
  "life and ": 8726,
  "ves, ": 8727,
  " angel": 8728,
  "permit ": 8729,
  "Can ": 8730,
  "fifty": 8731,
  "third ": 8732,
  "s, a ": 8733,
  "Monsieur": 8734,
  "ing over": 8735,
  "in spite of ": 8736,
  "kindness": 8737,
  ".\\u000a\\u000a“Now": 8738,
  " access": 8739,
  "ing over the ": 8740,
  "ant of the ": 8741,
  "esc": 8742,
  "sig": 8743,
  "resolut": 8744,
  "taken ": 8745,
  " to tell ": 8746,
  "whir": 8747,
  "reality ": 8748,
  "I do ": 8749,
  "ed man": 8750,
  "head, ": 8751,
  "ing through": 8752,
  "?”\\u000a\\u000a“S": 8753,
  "be to ": 8754,
  "seem to ": 8755,
  " murmured the ": 8756,
  "speed": 8757,
  "e time": 8758,
  "indescrib": 8759,
  "such an ": 8760,
  "unknown ": 8761,
  "speak ": 8762,
  "you—": 8763,
  "ed about ": 8764,
  "characterist": 8765,
  "insult": 8766,
  "before, ": 8767,
  "you might ": 8768,
  "his eyes": 8769,
  "ited": 8770,
  "tor": 8771,
  "Spad": 8772,
  "oke ": 8773,
  "s and a ": 8774,
  " against the wall": 8775,
  "refu": 8776,
  "dimin": 8777,
  " all was ": 8778,
  " an hour ": 8779,
  " was not ": 8780,
  "bitter ": 8781,
  "I suppose ": 8782,
  "outside": 8783,
  "gaze ": 8784,
  "ed one ": 8785,
  "marvel": 8786,
  " world": 8787,
  "is in ": 8788,
  "insist": 8789,
  "prodig": 8790,
  "ing our ": 8791,
  "forehead ": 8792,
  " attack ": 8793,
  "delay ": 8794,
  "written": 8795,
  "reduc": 8796,
  "s; and ": 8797,
  ".\\u000a\\u000aBut ": 8798,
  "crowd ": 8799,
  " sea": 8800,
  "domin": 8801,
  ". I must ": 8802,
  " amazement": 8803,
  "goat": 8804,
  " animal ": 8805,
  "Lord Wil": 8806,
  "La Carcont": 8807,
  " whit": 8808,
  "extraordinary": 8809,
  "of her": 8810,
  "itive ": 8811,
  "newspaper": 8812,
  "young men": 8813,
  "we had ": 8814,
  " arg": 8815,
  "quietly": 8816,
  "creature": 8817,
  "cheerful": 8818,
  "Hall ": 8819,
  "Later": 8820,
  "itely ": 8821,
  "aud ": 8822,
  "gho": 8823,
  "Valentine, “": 8824,
  "experiment": 8825,
  " ment": 8826,
  "Andrea, ": 8827,
  "Barrois ": 8828,
  ".]": 8829,
  " tired": 8830,
  "hurt ": 8831,
  "diary ": 8832,
  " (return": 8833,
  " (return)\\u000a\\u000a": 8834,
  " (return)\\u000a\\u000a[": 8835,
  "Project\\u000a\\u000a": 8836,
  "Harker’s J": 8837,
  " August": 8838,
  "here\\u000a": 8839,
  "\\u000ahis ": 8840,
  ".\\u000aT": 8841,
  "d\\u000a": 8842,
  "fucking ": 8843,
  ".’\\u000aCassie ": 8844,
  ",’ Cassie ": 8845,
  "Its ": 8846,
  " whal": 8847,
  "\\u000a\\u000a\\u000a\\u000a                                                  ": 8848,
  "?\" I ask": 8849,
  " they're ": 8850,
  "Red Sea": 8851,
  "____": 8852,
  "ont ": 8853,
  "Colos": 8854,
  "ature": 8855,
  "for a s": 8856,
  "desired": 8857,
  " aboard": 8858,
  "pure ": 8859,
  "hole": 8860,
  "far as ": 8861,
  "soldi": 8862,
  " as to the ": 8863,
  "blush": 8864,
  ".”\\u000a\\u000a“Very ": 8865,
  ". There": 8866,
  " tell me, ": 8867,
  "s.\\u000a\\u000aThe ": 8868,
  "followed the ": 8869,
  ", who, ": 8870,
  "pretend": 8871,
  ", “it is ": 8872,
  "rev": 8873,
  "a little ": 8874,
  "so, ": 8875,
  "no doubt ": 8876,
  " at the door": 8877,
  "agree": 8878,
  ", to be ": 8879,
  "patron": 8880,
  "hak": 8881,
  ", there is ": 8882,
  "embrac": 8883,
  "we can ": 8884,
  "young girl ": 8885,
  "me as ": 8886,
  "ised ": 8887,
  "expected": 8888,
  "continued ": 8889,
  "friends, ": 8890,
  "becomes ": 8891,
  " tit": 8892,
  "you are not ": 8893,
  "dear sir": 8894,
  " the man": 8895,
  " than ever": 8896,
  ";\\u000a\\u000a": 8897,
  "can s": 8898,
  "one day ": 8899,
  "wish ": 8900,
  " tot": 8901,
  "reach the ": 8902,
  "stoop": 8903,
  "foam": 8904,
  "y was ": 8905,
  "anim": 8906,
  "rare ": 8907,
  "astic ": 8908,
  "notice": 8909,
  "fores": 8910,
  "centre ": 8911,
  "wash": 8912,
  "s me": 8913,
  " myself ": 8914,
  " attain": 8915,
  "is that": 8916,
  "consider ": 8917,
  "about the ": 8918,
  "affect": 8919,
  "aken ": 8920,
  "me t": 8921,
  "buzz": 8922,
  "theless, ": 8923,
  "wilder": 8924,
  "Meanwhile ": 8925,
  "hock": 8926,
  "job": 8927,
  "I would have ": 8928,
  "energet": 8929,
  "y that ": 8930,
  "Apri": 8931,
  "embran": 8932,
  " aside ": 8933,
  "chosen": 8934,
  "had he ": 8935,
  "is there ": 8936,
  "ides ": 8937,
  "papers ": 8938,
  "entreat ": 8939,
  "gendarm": 8940,
  "gendar": 8941,
  "Br": 8942,
  "remove ": 8943,
  "is the matter": 8944,
  "rising ": 8945,
  "athe ": 8946,
  "eyes were ": 8947,
  "s, whose ": 8948,
  "neither": 8949,
  " through his ": 8950,
  "him that ": 8951,
  "? H": 8952,
  " more than": 8953,
  "ark ": 8954,
  "out a ": 8955,
  "travell": 8956,
  "rid ": 8957,
  "of a man": 8958,
  "easy to ": 8959,
  ", two ": 8960,
  ".” A": 8961,
  ", as they ": 8962,
  ", “what ": 8963,
  "off his ": 8964,
  "left the room": 8965,
  "demand ": 8966,
  " a week": 8967,
  " active ": 8968,
  "pire": 8969,
  "iously ": 8970,
  " amount": 8971,
  "reckon": 8972,
  " at the end ": 8973,
  "endous ": 8974,
  " annoy": 8975,
  "held the ": 8976,
  "meat": 8977,
  "broad": 8978,
  "it that ": 8979,
  "for what ": 8980,
  "quare ": 8981,
  "daylight": 8982,
  "ed as the ": 8983,
  "ing of": 8984,
  ". Now ": 8985,
  "! And ": 8986,
  " a ter": 8987,
  "sick": 8988,
  "painful": 8989,
  "scatter": 8990,
  ". I was": 8991,
  "als ": 8992,
  "carried ": 8993,
  "stit": 8994,
  "cumul": 8995,
  "floating ": 8996,
  "cavern": 8997,
  "cannon": 8998,
  "over and ": 8999,
  "lantern": 9000,
  "heat ": 9001,
  "ed by a s": 9002,
  "physical": 9003,
  ", and the s": 9004,
  "moan": 9005,
  " awk": 9006,
  " atmosp": 9007,
  "cleared": 9008,
  "ior ": 9009,
  "honest": 9010,
  "hot ": 9011,
  "worth ": 9012,
  "idly": 9013,
  "music": 9014,
  "astonish": 9015,
  " a white ": 9016,
  "Thomson & French": 9017,
  "pitch": 9018,
  "Maximilian, ": 9019,
  "comfortable ": 9020,
  "phosp": 9021,
  "bloom": 9022,
  "comply ": 9023,
  "Luigi": 9024,
  "Cucum": 9025,
  "a-": 9026,
  "Her": 9027,
  "centric": 9028,
  "ograph": 9029,
  ".”\\u000a\\u000aThe count ": 9030,
  "down to the ": 9031,
  "freely": 9032,
  " wea": 9033,
  ". Not": 9034,
  "ed her s": 9035,
  "lugg": 9036,
  "pott": 9037,
  "gate": 9038,
  "in other word": 9039,
  ".”\\u000a\\u000a30": 9040,
  "of us": 9041,
  ", trying to ": 9042,
  "gau": 9043,
  "face and ": 9044,
  "I answer": 9045,
  "odd ": 9046,
  "padd": 9047,
  "und ": 9048,
  "DA": 9049,
  "IL": 9050,
  "ble\\u000a": 9051,
  ",” I said": 9052,
  "\\u000aagain": 9053,
  "s and\\u000a": 9054,
  ",\\u000aI ": 9055,
  "Morri": 9056,
  "able\\u000a": 9057,
  "s.\\u000a‘": 9058,
  "?’\\u000a": 9059,
  ",\\u000aa ": 9060,
  ", and Cassie ": 9061,
  "frigate ": 9062,
  "Captain Nemo's ": 9063,
  "Ip": 9064,
  "!\"\\u000a\"": 9065,
  "UT": 9066,
  "emeter": 9067,
  "ret ": 9068,
  "Gu": 9069,
  "ajor ": 9070,
  "s’ ": 9071,
  "t, ": 9072,
  "passed the ": 9073,
  " an air": 9074,
  " shout": 9075,
  "go, ": 9076,
  " then he ": 9077,
  "retreat": 9078,
  "e to him": 9079,
  "you must": 9080,
  "more to ": 9081,
  "she is ": 9082,
  "with us": 9083,
  " week": 9084,
  "is he ": 9085,
  "comrad": 9086,
  "confidence": 9087,
  "glid": 9088,
  "Are you ": 9089,
  "No, no": 9090,
  "probable ": 9091,
  ". I will ": 9092,
  "M. Morrel ": 9093,
  "e of my ": 9094,
  "why, ": 9095,
  "refuse ": 9096,
  "; and, ": 9097,
  "accept": 9098,
  "ed; but ": 9099,
  "believe": 9100,
  "all, ": 9101,
  "weather": 9102,
  "strew": 9103,
  "brown": 9104,
  "Ven": 9105,
  " times, ": 9106,
  "dress ": 9107,
  " angry ": 9108,
  "jeal": 9109,
  " accus": 9110,
  "victor": 9111,
  "pent": 9112,
  "’s arm": 9113,
  "into the room": 9114,
  ", w": 9115,
  "al and ": 9116,
  "coward": 9117,
  "do, ": 9118,
  " tone, ": 9119,
  " ador": 9120,
  "lines ": 9121,
  " as well as ": 9122,
  "dread ": 9123,
  "flung ": 9124,
  "\\u000a\\u000a\\u000aThe ": 9125,
  "univers": 9126,
  "Hav": 9127,
  "retain": 9128,
  "Greek ": 9129,
  "on the contrary": 9130,
  " around her": 9131,
  "repeated the ": 9132,
  " tort": 9133,
  "ghast": 9134,
  "ang ": 9135,
  ". Ar": 9136,
  "was no ": 9137,
  "sacrif": 9138,
  "made": 9139,
  "is your ": 9140,
  "gat": 9141,
  "calm ": 9142,
  "going on": 9143,
  "is to be ": 9144,
  " think so": 9145,
  "however, ": 9146,
  "? The ": 9147,
  " aware ": 9148,
  "elev": 9149,
  "god": 9150,
  "connection": 9151,
  "poet": 9152,
  "er and ": 9153,
  " suff": 9154,
  "ences ": 9155,
  " avail": 9156,
  ". All ": 9157,
  "flex": 9158,
  "ses of ": 9159,
  "talk": 9160,
  "elo": 9161,
  "his hand ": 9162,
  " a sh": 9163,
  "Madame": 9164,
  "said to ": 9165,
  "beam": 9166,
  "ant of ": 9167,
  "deput": 9168,
  "speaking": 9169,
  "replied, ": 9170,
  "ed to me ": 9171,
  "Go on": 9172,
  ". I will": 9173,
  " a word ": 9174,
  "render ": 9175,
  "ed in this ": 9176,
  "itter": 9177,
  "fetch": 9178,
  " all this ": 9179,
  "wild ": 9180,
  "hungr": 9181,
  "hide ": 9182,
  "fund": 9183,
  "ban": 9184,
  " appeared to ": 9185,
  "wound ": 9186,
  "departure": 9187,
  "gray ": 9188,
  "——”\\u000a\\u000a": 9189,
  "itz": 9190,
  "come in": 9191,
  "signific": 9192,
  "on our ": 9193,
  "violently": 9194,
  "hatter": 9195,
  "General ": 9196,
  "oust": 9197,
  "Honor": 9198,
  "complain": 9199,
  "in every ": 9200,
  "those ": 9201,
  ".”\\u000a\\u000a“How": 9202,
  "consequently ": 9203,
  "colored ": 9204,
  "heir": 9205,
  "danger ": 9206,
  ".\\u000a\\u000a“But ": 9207,
  " twice ": 9208,
  "constantly ": 9209,
  "wander": 9210,
  "evol": 9211,
  "audi": 9212,
  "afternoon": 9213,
  "circle ": 9214,
  "Cæs": 9215,
  "for us": 9216,
  "it by ": 9217,
  "birth": 9218,
  "examined the ": 9219,
  " alway": 9220,
  "hand of ": 9221,
  "than": 9222,
  " manner": 9223,
  "method": 9224,
  "ing.\\u000a\\u000a": 9225,
  "he had been ": 9226,
  "oured": 9227,
  "rapidly ": 9228,
  "received the ": 9229,
  "chill": 9230,
  "blad": 9231,
  ", for I ": 9232,
  "courty": 9233,
  "day and ": 9234,
  "up, ": 9235,
  "conduct ": 9236,
  "necessary to ": 9237,
  "sort": 9238,
  "gift": 9239,
  "had been s": 9240,
  "wonderful": 9241,
  "vest": 9242,
  ", and which": 9243,
  "powder": 9244,
  "recei": 9245,
  "ed without ": 9246,
  "involunt": 9247,
  "purple ": 9248,
  "fit": 9249,
  "strok": 9250,
  "determined to ": 9251,
  "bility": 9252,
  " appet": 9253,
  "urely ": 9254,
  "for som": 9255,
  " arous": 9256,
  "ed together": 9257,
  "for them": 9258,
  " we had ": 9259,
  "for a moment ": 9260,
  "upon me": 9261,
  "regular": 9262,
  "corpse ": 9263,
  "indicated": 9264,
  ". When he ": 9265,
  "shel": 9266,
  ". We were ": 9267,
  "lie": 9268,
  "cash": 9269,
  "grotto": 9270,
  "marvell": 9271,
  "rib": 9272,
  " was so ": 9273,
  "excur": 9274,
  "shaped ": 9275,
  "highly ": 9276,
  "meant ": 9277,
  "ed us": 9278,
  "current ": 9279,
  "did the ": 9280,
  "came in": 9281,
  "launch": 9282,
  "scene ": 9283,
  "work, ": 9284,
  "clu": 9285,
  "humanity": 9286,
  "propri": 9287,
  "invisible": 9288,
  "phosphor": 9289,
  "companions ": 9290,
  "introduction": 9291,
  "boil": 9292,
  "ter, ": 9293,
  "Vamp": 9294,
  "in the air": 9295,
  "steward ": 9296,
  "individual ": 9297,
  "ing. The ": 9298,
  "envelop": 9299,
  "something to ": 9300,
  ". We": 9301,
  "Indeed, ": 9302,
  "oul ": 9303,
  ",’ the ": 9304,
  "visi": 9305,
  "uck ": 9306,
  "s whose ": 9307,
  "shift": 9308,
  "fog": 9309,
  ".\\u000a\\u000aJust": 9310,
  "finally": 9311,
  "contact": 9312,
  " mil": 9313,
  "ection ": 9314,
  "collection": 9315,
  "ccord": 9316,
  "AC": 9317,
  "endenc": 9318,
  "ype": 9319,
  " type ": 9320,
  "ed\\u000aand ": 9321,
  "Harker": 9322,
  "ed:—\\u000a“": 9323,
  "\\u000athese ": 9324,
  ".\\u000aF": 9325,
  "Whitby": 9326,
  ".\\u000aMy ": 9327,
  "Renfield": 9328,
  "depth of ": 9329,
  "?’ she ": 9330,
  "Ok": 9331,
  "Hey": 9332,
  "engine": 9333,
  "Cassie\\u000a": 9334,
  "narwha": 9335,
  "baleen": 9336,
  "January ": 9337,
  "exclaimed.\\u000a\\u000a\"": 9338,
  "Mr. Bunt": 9339,
  "as, ": 9340,
  "copy ": 9341,
  "limited ": 9342,
  "M. Noirtier ": 9343,
  "one another": 9344,
  "unexpected ": 9345,
  ", take ": 9346,
  "-of": 9347,
  "hip ": 9348,
  "me that": 9349,
  ",” said Danglars, ": 9350,
  "experience": 9351,
  "drawing ": 9352,
  "?”\\u000a\\u000a“Why, ": 9353,
  "it will ": 9354,
  ". Come, ": 9355,
  ". As he ": 9356,
  ".”\\u000a\\u000aAt": 9357,
  "hesitation": 9358,
  "I should be ": 9359,
  "le the ": 9360,
  "bi": 9361,
  ". The two ": 9362,
  "thousand ": 9363,
  " sailor": 9364,
  " again, and ": 9365,
  "it has ": 9366,
  "s I ": 9367,
  "!” he said": 9368,
  "Take ": 9369,
  "gently": 9370,
  "please": 9371,
  "he’s ": 9372,
  "Thank": 9373,
  "who have ": 9374,
  "ing that": 9375,
  "suit": 9376,
  "exceed": 9377,
  "ounce ": 9378,
  "Ma foi": 9379,
  "fier": 9380,
  "give them": 9381,
  "cott": 9382,
  "controll": 9383,
  " the slightest ": 9384,
  "ray of ": 9385,
  "excus": 9386,
  "ax ": 9387,
  "! What ": 9388,
  ". Well, ": 9389,
  "shirt": 9390,
  "hastily ": 9391,
  ",” said Danglars": 9392,
  "Poor ": 9393,
  "? I": 9394,
  "remed": 9395,
  ", your ": 9396,
  "les of ": 9397,
  "ed from his ": 9398,
  "ed all the ": 9399,
  "ent and ": 9400,
  "of such ": 9401,
  "ed in s": 9402,
  "look of ": 9403,
  "flush": 9404,
  ".\\u000a\\u000aDur": 9405,
  "quant": 9406,
  ", and when ": 9407,
  " appreh": 9408,
  "ed.\\u000a\\u000aThe ": 9409,
  "seek ": 9410,
  "neglect": 9411,
  "evil ": 9412,
  "prisoner ": 9413,
  "poured ": 9414,
  ".\\u000a\\u000a“H": 9415,
  "guilty": 9416,
  "suspicion": 9417,
  "conceal ": 9418,
  "also": 9419,
  "taken": 9420,
  "; you ": 9421,
  "truth": 9422,
  "ing us": 9423,
  "hands of ": 9424,
  "ocr": 9425,
  "belonging to the ": 9426,
  "one-": 9427,
  "your own ": 9428,
  " afford": 9429,
  "dai": 9430,
  "becoming ": 9431,
  "record": 9432,
  "lap": 9433,
  "dangerous ": 9434,
  "in 18": 9435,
  ":\\u000a\\u000a“‘": 9436,
  "sweet ": 9437,
  "Saint-Méran ": 9438,
  "desk": 9439,
  "dain": 9440,
  "summon": 9441,
  ".\\u000a\\u000a“Sir": 9442,
  "how much ": 9443,
  " any other ": 9444,
  "bold": 9445,
  ".\\u000a\\u000a“It is ": 9446,
  ". Good": 9447,
  "jailer ": 9448,
  "put the ": 9449,
  "then": 9450,
  "brok": 9451,
  "has the ": 9452,
  "e of her ": 9453,
  " an end": 9454,
  " a moment’s ": 9455,
  "irresist": 9456,
  ", or rather": 9457,
  "servant ": 9458,
  " a man of ": 9459,
  "note ": 9460,
  "desperate ": 9461,
  "ré": 9462,
  "Afri": 9463,
  "bearing": 9464,
  "ing,": 9465,
  "speed ": 9466,
  "way to the ": 9467,
  "relation": 9468,
  "difficult to ": 9469,
  "result ": 9470,
  ". “You": 9471,
  "ilence ": 9472,
  "orry": 9473,
  "obtain ": 9474,
  "see, ": 9475,
  "conclusion": 9476,
  "ussi": 9477,
  "ive": 9478,
  ",” said he ": 9479,
  "March ": 9480,
  "? And ": 9481,
  ": ‘": 9482,
  ", and there ": 9483,
  "ill you ": 9484,
  "sign ": 9485,
  ", through": 9486,
  ",” returned the ": 9487,
  "captiv": 9488,
  "se t": 9489,
  "a’s ": 9490,
  " man ": 9491,
  "voice, ": 9492,
  "clung": 9493,
  "consol": 9494,
  " ascertain": 9495,
  "scrap": 9496,
  "knees": 9497,
  "before us": 9498,
  "the t": 9499,
  "itself ": 9500,
  "vey": 9501,
  "credi": 9502,
  "hesitat": 9503,
  "inel": 9504,
  "intend ": 9505,
  "confus": 9506,
  "must have been": 9507,
  "ork": 9508,
  "closely": 9509,
  "needed to ": 9510,
  "iliz": 9511,
  "supper": 9512,
  "privi": 9513,
  "luxuri": 9514,
  "me. I ": 9515,
  "flag": 9516,
  " apparently ": 9517,
  "ouch ": 9518,
  "jewel": 9519,
  "s together": 9520,
  "search ": 9521,
  "decision": 9522,
  "farther": 9523,
  "le and ": 9524,
  " thunder": 9525,
  "loose ": 9526,
  "over my ": 9527,
  ". This was ": 9528,
  "priz": 9529,
  "piast": 9530,
  "explor": 9531,
  "damp": 9532,
  "hadow ": 9533,
  "permiss": 9534,
  "post-": 9535,
  "nose": 9536,
  "moving ": 9537,
  "dog ": 9538,
  "is a s": 9539,
  "with her": 9540,
  "If you ": 9541,
  " alive": 9542,
  "her son": 9543,
  "waistcoat": 9544,
  "whatever": 9545,
  "numerous ": 9546,
  "yours": 9547,
  "Penel": 9548,
  "I took ": 9549,
  "quid": 9550,
  "eor": 9551,
  "rest of ": 9552,
  "polog": 9553,
  "East ": 9554,
  "lies ": 9555,
  "hil": 9556,
  "years old": 9557,
  "Carlini": 9558,
  "Tran": 9559,
  "either s": 9560,
  "up my ": 9561,
  " mark": 9562,
  "Lucien": 9563,
  "pace ": 9564,
  "mong": 9565,
  ". She had ": 9566,
  "Ja": 9567,
  "Count of Morcerf": 9568,
  " at her": 9569,
  "Ver": 9570,
  "prolong": 9571,
  ". Do": 9572,
  "frant": 9573,
  "Madame Danglars, ": 9574,
  "room and ": 9575,
  "novel": 9576,
  "haven": 9577,
  "access": 9578,
  "end sir": 9579,
  "like that": 9580,
  "I’ll ": 9581,
  "fish, ": 9582,
  ".]\\u000a\\u000a\\u000a\\u000a": 9583,
  "had to be ": 9584,
  "scient": 9585,
  "Westenra": 9586,
  "e\\u000aof ": 9587,
  "colour": 9588,
  "like\\u000a": 9589,
  " any\\u000a": 9590,
  "s\\u000athe ": 9591,
  "hypnot": 9592,
  "—\\u000a": 9593,
  " to\\u000athe ": 9594,
  "make\\u000a": 9595,
  "!”\\u000a“": 9596,
  "I’ve ": 9597,
  "harpooner": 9598,
  ".\"\\u000a\\u000a\"But ": 9599,
  "--\"\\u000a\\u000a\"": 9600,
  "wouldn't ": 9601,
  "!\" Ned Land ": 9602,
  "Ned my friend": 9603,
  "ballast": 9604,
  "s. \"": 9605,
  "?\" said ": 9606,
  ".\\u000a\\u000a\\u000c\"": 9607,
  ". You may ": 9608,
  "www.gutenberg": 9609,
  "45": 9610,
  "egg": 9611,
  " always": 9612,
  "misfortune ": 9613,
  "steer": 9614,
  "When the ": 9615,
  "een ": 9616,
  "appearance ": 9617,
  "out of his ": 9618,
  "honest ": 9619,
  "service": 9620,
  ".\\u000a\\u000a“But": 9621,
  "breath ": 9622,
  "this": 9623,
  "stopped at the ": 9624,
  " around him": 9625,
  "it appear": 9626,
  "you speak": 9627,
  "on the subject": 9628,
  "inquired ": 9629,
  "’s a ": 9630,
  "good fellow": 9631,
  "it. The ": 9632,
  "is dead": 9633,
  ".”\\u000a\\u000a“Well, then, ": 9634,
  "mean ": 9635,
  " that I have ": 9636,
  "forty ": 9637,
  "his father": 9638,
  "purse ": 9639,
  "gesture": 9640,
  "silver": 9641,
  "uneasiness": 9642,
  "you think": 9643,
  "ie": 9644,
  " tell me": 9645,
  "Mal": 9646,
  "foli": 9647,
  " three or ": 9648,
  "within ": 9649,
  "Spanish ": 9650,
  "young and ": 9651,
  "it was not ": 9652,
  "quer": 9653,
  "seem ": 9654,
  "touch": 9655,
  "circumstances": 9656,
  "prick": 9657,
  "very well": 9658,
  "be th": 9659,
  "register": 9660,
  "pop": 9661,
  "sufficient": 9662,
  "ed. H": 9663,
  "We were ": 9664,
  " after a ": 9665,
  "intellect": 9666,
  "golden ": 9667,
  "princip": 9668,
  " although": 9669,
  "salut": 9670,
  "walked ": 9671,
  "ribb": 9672,
  "induc": 9673,
  "in which the ": 9674,
  "space ": 9675,
  "andy ": 9676,
  "ness of the ": 9677,
  "ette": 9678,
  "name of the ": 9679,
  "ed with his ": 9680,
  "yourself, ": 9681,
  "with it": 9682,
  "deed": 9683,
  "lights ": 9684,
  "contra": 9685,
  "beg ": 9686,
  "With ": 9687,
  "will s": 9688,
  "ences": 9689,
  "fancied ": 9690,
  "office ": 9691,
  "rank ": 9692,
  "political ": 9693,
  "Marqu": 9694,
  "possession": 9695,
  "ing in a ": 9696,
  "remained": 9697,
  "majest": 9698,
  "profession": 9699,
  "M. de Saint-Méran": 9700,
  "ale ": 9701,
  "favorable ": 9702,
  "more and more ": 9703,
  " would not ": 9704,
  ", as though ": 9705,
  "pride ": 9706,
  "ed us ": 9707,
  "gave me ": 9708,
  "serious ": 9709,
  "ed to you": 9710,
  "weet": 9711,
  ", he had ": 9712,
  "personal": 9713,
  ".\\u000a\\u000aAt the ": 9714,
  " trad": 9715,
  "had arriv": 9716,
  "creature ": 9717,
  "duty ": 9718,
  "gett": 9719,
  ", captain": 9720,
  "justice": 9721,
  "promise": 9722,
  "oll": 9723,
  "ed all ": 9724,
  "ion of": 9725,
  "light of the ": 9726,
  "forbid": 9727,
  "within": 9728,
  ".\\u000a\\u000aIn": 9729,
  "cord ": 9730,
  "feature": 9731,
  " abbé": 9732,
  " an instant": 9733,
  "intensi": 9734,
  "appro": 9735,
  "her side": 9736,
  "ential ": 9737,
  "report ": 9738,
  "made his ": 9739,
  "received ": 9740,
  "lipp": 9741,
  "inal ": 9742,
  "Blac": 9743,
  "do you think ": 9744,
  "proce": 9745,
  "future": 9746,
  "it must be ": 9747,
  " appear ": 9748,
  "Gulf": 9749,
  "indescribable ": 9750,
  "resour": 9751,
  ", perhaps, ": 9752,
  "resc": 9753,
  " ap": 9754,
  "bush": 9755,
  "), ": 9756,
  "recollection": 9757,
  "pocket-": 9758,
  "knowing ": 9759,
  "how to ": 9760,
  ".”\\u000a\\u000aAnd ": 9761,
  "may be": 9762,
  "if this ": 9763,
  "of S": 9764,
  "partly ": 9765,
  "preparation": 9766,
  "poke ": 9767,
  "Char": 9768,
  "but to ": 9769,
  "Faria ": 9770,
  "It is not ": 9771,
  "went out": 9772,
  "God, ": 9773,
  " alone, ": 9774,
  "; and he ": 9775,
  " time, and ": 9776,
  "hollow": 9777,
  ".\\u000a\\u000aIt was ": 9778,
  ". A s": 9779,
  "e, for ": 9780,
  "depth ": 9781,
  ", then the ": 9782,
  "ed through the ": 9783,
  "staircase": 9784,
  "ed an": 9785,
  ".\\u000a\\u000aAfter ": 9786,
  " support": 9787,
  "variet": 9788,
  "earli": 9789,
  "skin": 9790,
  "on it": 9791,
  "livres": 9792,
  "This is ": 9793,
  " third ": 9794,
  "falter": 9795,
  "drag": 9796,
  "for a": 9797,
  " seat": 9798,
  " are t": 9799,
  "in the t": 9800,
  "e, who ": 9801,
  "remaining ": 9802,
  "lunatic": 9803,
  "eyelid": 9804,
  "above ": 9805,
  "which we ": 9806,
  "unnel": 9807,
  "back the ": 9808,
  " wound": 9809,
  "aire ": 9810,
  "cann": 9811,
  "alarm": 9812,
  "left to ": 9813,
  "of a m": 9814,
  "Jacopo": 9815,
  "face was ": 9816,
  "esses ": 9817,
  "know, ": 9818,
  "pink": 9819,
  "clum": 9820,
  "bandit": 9821,
  "habitu": 9822,
  "willing to ": 9823,
  "children ": 9824,
  "fy": 9825,
  "slightly ": 9826,
  "equal ": 9827,
  "host ": 9828,
  "er or ": 9829,
  "spread": 9830,
  "ing su": 9831,
  "her mind": 9832,
  "copp": 9833,
  "amoun": 9834,
  "bank-": 9835,
  "Prec": 9836,
  "Excuse ": 9837,
  "notes": 9838,
  "pearl ": 9839,
  "her head ": 9840,
  "ano ": 9841,
  "surface ": 9842,
  "perfum": 9843,
  "dining-room": 9844,
  ".\\u000a\\u000aThere ": 9845,
  ". Mor": 9846,
  "ridicul": 9847,
  " the count ": 9848,
  "nament": 9849,
  "get the ": 9850,
  "indiffer": 9851,
  "some of the ": 9852,
  "spectac": 9853,
  "ubject ": 9854,
  ", the count ": 9855,
  "uk": 9856,
  ".S": 9857,
  "bourg ": 9858,
  "Fau": 9859,
  " am I": 9860,
  "ed onto the ": 9861,
  "s. She ": 9862,
  "American": 9863,
  "shock ": 9864,
  "initial ": 9865,
  "elegram": 9866,
  " sun": 9867,
  "d’Avrigny ": 9868,
  "starting to ": 9869,
  "president ": 9870,
  " along ": 9871,
  "of the emotion": 9872,
  "Ocean": 9873,
  "spur": 9874,
  "terms of this": 9875,
  "Project Gutenberg-tm electronic work": 9876,
  "of anger, ": 9877,
  "fore-period of ": 9878,
  "as\\u000a": 9879,
  "?”\\u000a": 9880,
  "still\\u000a": 9881,
  "must\\u000a": 9882,
  "ent\\u000a": 9883,
  "n’t\\u000a": 9884,
  "woke ": 9885,
  "cag": 9886,
  "ous\\u000a": 9887,
  "Mrs. Harker": 9888,
  "Complex": 9889,
  "s.\\u000a\\u000a\"": 9890,
  "per hour": 9891,
  "kilo": 9892,
  "longboat": 9893,
  "Jaffer": 9894,
  "Griff": 9895,
  "Dum": 9896,
  "Pard": 9897,
  "doubl": 9898,
  "kil": 9899,
  "vague ": 9900,
  " a small": 9901,
  "on board ": 9902,
  "young man, ": 9903,
  " twenty-five ": 9904,
  "honorable ": 9905,
  "-F": 9906,
  "?”\\u000a\\u000a“To ": 9907,
  "Right": 9908,
  "I have a ": 9909,
  "deserv": 9910,
  "sat down ": 9911,
  "hundred franc": 9912,
  "esteem": 9913,
  "cit": 9914,
  " they have ": 9915,
  "language": 9916,
  "velv": 9917,
  "ation and ": 9918,
  " see, ": 9919,
  "stupid": 9920,
  " at last ": 9921,
  "encou": 9922,
  "; “you ": 9923,
  "frank": 9924,
  "fortune, ": 9925,
  "shak": 9926,
  "opened it": 9927,
  "burning ": 9928,
  " to himself": 9929,
  "Marseilles, ": 9930,
  "sin": 9931,
  ".\\u000a\\u000a“He ": 9932,
  "laughing": 9933,
  ".”\\u000a\\u000a“H": 9934,
  "do you not ": 9935,
  "Thank you": 9936,
  "discuss": 9937,
  " there is no ": 9938,
  "ly to the ": 9939,
  "robb": 9940,
  "of a w": 9941,
  "hastily": 9942,
  ", and which ": 9943,
  "Mur": 9944,
  "To the ": 9945,
  "address": 9946,
  "jest": 9947,
  "fixed on the ": 9948,
  "ension ": 9949,
  ",—the ": 9950,
  "pair of ": 9951,
  "ingly, ": 9952,
  "placed the ": 9953,
  "ed on his ": 9954,
  "in a": 9955,
  "comment": 9956,
  "rement": 9957,
  "bewilder": 9958,
  "fearful ": 9959,
  "ical s": 9960,
  "murmu": 9961,
  "invol": 9962,
  "ving ": 9963,
  "circul": 9964,
  "ed under the ": 9965,
  "previously ": 9966,
  "prison ": 9967,
  "ize ": 9968,
  "up, and ": 9969,
  "empor": 9970,
  "similar": 9971,
  "member": 9972,
  "conver": 9973,
  "of the world": 9974,
  "itary ": 9975,
  "decor": 9976,
  "bouqu": 9977,
  "wealth": 9978,
  "I not ": 9979,
  "Pl": 9980,
  "live, ": 9981,
  "dest ": 9982,
  "d’Ar": 9983,
  ",” said Villefort, “": 9984,
  "friend of ": 9985,
  "can you ": 9986,
  "creatures": 9987,
  "icient ": 9988,
  "eloqu": 9989,
  "Lat": 9990,
  "speech": 9991,
  "s, or": 9992,
  "club": 9993,
  "possession of ": 9994,
  ", after all": 9995,
  " absolutely ": 9996,
  "bility ": 9997,
  " twenty": 9998,
  "criminal": 9999
}